{
  "version": "1.0",
  "truncation": null,
  "padding": null,
  "added_tokens": [
    {
      "id": 0,
      "content": "<|pad|>",
      "single_word": false,
      "lstrip": false,
      "rstrip": false,
      "normalized": false,
      "special": true
    },
    {
      "id": 1,
      "content": "<|eos|>",
      "single_word": false,
      "lstrip": false,
      "rstrip": false,
      "normalized": false,
      "special": true
    },
    {
      "id": 2,
      "content": "<|context|>",
      "single_word": false,
      "lstrip": false,
      "rstrip": false,
      "normalized": false,
      "special": true
    },
    {
      "id": 3,
      "content": "<|user|>",
      "single_word": false,
      "lstrip": false,
      "rstrip": false,
      "normalized": false,
      "special": true
    },
    {
      "id": 4,
      "content": "<|assistant|>",
      "single_word": false,
      "lstrip": false,
      "rstrip": false,
      "normalized": false,
      "special": true
    },
    {
      "id": 5,
      "content": "<|refuse|>",
      "single_word": false,
      "lstrip": false,
      "rstrip": false,
      "normalized": false,
      "special": true
    }
  ],
  "normalizer": null,
  "pre_tokenizer": {
    "type": "ByteLevel",
    "add_prefix_space": false,
    "trim_offsets": true,
    "use_regex": true
  },
  "post_processor": null,
  "decoder": {
    "type": "ByteLevel",
    "add_prefix_space": true,
    "trim_offsets": true,
    "use_regex": true
  },
  "model": {
    "type": "BPE",
    "dropout": null,
    "unk_token": null,
    "continuing_subword_prefix": null,
    "end_of_word_suffix": null,
    "fuse_unk": false,
    "byte_fallback": false,
    "ignore_merges": false,
    "vocab": {
      "<|pad|>": 0,
      "<|eos|>": 1,
      "<|context|>": 2,
      "<|user|>": 3,
      "<|assistant|>": 4,
      "<|refuse|>": 5,
      "!": 6,
      "\"": 7,
      "#": 8,
      "$": 9,
      "%": 10,
      "&": 11,
      "'": 12,
      "(": 13,
      ")": 14,
      "*": 15,
      "+": 16,
      ",": 17,
      "-": 18,
      ".": 19,
      "/": 20,
      "0": 21,
      "1": 22,
      "2": 23,
      "3": 24,
      "4": 25,
      "5": 26,
      "6": 27,
      "7": 28,
      "8": 29,
      "9": 30,
      ":": 31,
      ";": 32,
      "<": 33,
      "=": 34,
      ">": 35,
      "?": 36,
      "@": 37,
      "A": 38,
      "B": 39,
      "C": 40,
      "D": 41,
      "E": 42,
      "F": 43,
      "G": 44,
      "H": 45,
      "I": 46,
      "J": 47,
      "K": 48,
      "L": 49,
      "M": 50,
      "N": 51,
      "O": 52,
      "P": 53,
      "Q": 54,
      "R": 55,
      "S": 56,
      "T": 57,
      "U": 58,
      "V": 59,
      "W": 60,
      "X": 61,
      "Y": 62,
      "Z": 63,
      "[": 64,
      "\\": 65,
      "]": 66,
      "^": 67,
      "_": 68,
      "`": 69,
      "a": 70,
      "b": 71,
      "c": 72,
      "d": 73,
      "e": 74,
      "f": 75,
      "g": 76,
      "h": 77,
      "i": 78,
      "j": 79,
      "k": 80,
      "l": 81,
      "m": 82,
      "n": 83,
      "o": 84,
      "p": 85,
      "q": 86,
      "r": 87,
      "s": 88,
      "t": 89,
      "u": 90,
      "v": 91,
      "w": 92,
      "x": 93,
      "y": 94,
      "z": 95,
      "{": 96,
      "|": 97,
      "}": 98,
      "~": 99,
      "¡": 100,
      "¢": 101,
      "£": 102,
      "¤": 103,
      "¥": 104,
      "¦": 105,
      "§": 106,
      "¨": 107,
      "©": 108,
      "ª": 109,
      "«": 110,
      "¬": 111,
      "®": 112,
      "¯": 113,
      "°": 114,
      "±": 115,
      "²": 116,
      "³": 117,
      "´": 118,
      "µ": 119,
      "¶": 120,
      "·": 121,
      "¸": 122,
      "¹": 123,
      "º": 124,
      "»": 125,
      "¼": 126,
      "½": 127,
      "¾": 128,
      "¿": 129,
      "Â": 130,
      "Ã": 131,
      "Ä": 132,
      "Å": 133,
      "Æ": 134,
      "Ç": 135,
      "È": 136,
      "É": 137,
      "Ê": 138,
      "Ë": 139,
      "Ì": 140,
      "Í": 141,
      "Î": 142,
      "Ï": 143,
      "Ð": 144,
      "Ñ": 145,
      "Ò": 146,
      "Ó": 147,
      "Ô": 148,
      "Õ": 149,
      "Ö": 150,
      "×": 151,
      "Ø": 152,
      "Ù": 153,
      "Ú": 154,
      "Û": 155,
      "Ü": 156,
      "Ý": 157,
      "Þ": 158,
      "ß": 159,
      "à": 160,
      "á": 161,
      "â": 162,
      "ã": 163,
      "ä": 164,
      "å": 165,
      "æ": 166,
      "ç": 167,
      "è": 168,
      "é": 169,
      "ê": 170,
      "ë": 171,
      "ì": 172,
      "í": 173,
      "î": 174,
      "ï": 175,
      "ð": 176,
      "Ċ": 177,
      "Ġ": 178,
      "Ģ": 179,
      "ģ": 180,
      "Ĥ": 181,
      "ĥ": 182,
      "Ħ": 183,
      "ħ": 184,
      "Ĩ": 185,
      "ĩ": 186,
      "Ī": 187,
      "ī": 188,
      "Ĭ": 189,
      "ĭ": 190,
      "Į": 191,
      "į": 192,
      "İ": 193,
      "ı": 194,
      "Ĳ": 195,
      "ĳ": 196,
      "Ĵ": 197,
      "ĵ": 198,
      "Ķ": 199,
      "ķ": 200,
      "ĸ": 201,
      "Ĺ": 202,
      "ĺ": 203,
      "Ļ": 204,
      "ļ": 205,
      "Ľ": 206,
      "ľ": 207,
      "Ŀ": 208,
      "ŀ": 209,
      "Ł": 210,
      "ł": 211,
      "Ń": 212,
      "Ġt": 213,
      "he": 214,
      "Ġa": 215,
      "in": 216,
      "Ġthe": 217,
      "er": 218,
      "on": 219,
      "re": 220,
      "an": 221,
      "Ġo": 222,
      "ed": 223,
      "Ġw": 224,
      "ar": 225,
      "at": 226,
      "en": 227,
      "Ġs": 228,
      "or": 229,
      "Ġc": 230,
      "it": 231,
      "Ġf": 232,
      "al": 233,
      "es": 234,
      "is": 235,
      "Ġof": 236,
      "Ġin": 237,
      "as": 238,
      "nd": 239,
      "Ġp": 240,
      "ing": 241,
      "Ġb": 242,
      "Ġto": 243,
      "ic": 244,
      "Ġand": 245,
      "Ġm": 246,
      "ro": 247,
      "le": 248,
      "Ġd": 249,
      "ion": 250,
      "ĠT": 251,
      "ou": 252,
      "Ġh": 253,
      "Ġ1": 254,
      "ĠS": 255,
      "ĠC": 256,
      "el": 257,
      "st": 258,
      "ĠA": 259,
      "om": 260,
      "ent": 261,
      "il": 262,
      "Ġg": 263,
      "am": 264,
      "Ġre": 265,
      "Ġl": 266,
      "ĠB": 267,
      "ow": 268,
      "ad": 269,
      "ac": 270,
      "ter": 271,
      "ol": 272,
      "Ġth": 273,
      "ĠM": 274,
      "us": 275,
      "Ġon": 276,
      "ir": 277,
      "Ġn": 278,
      "Ġ2": 279,
      "ec": 280,
      "ard": 281,
      "id": 282,
      "et": 283,
      "ĠI": 284,
      "ith": 285,
      "iv": 286,
      "ĠP": 287,
      "ur": 288,
      "Ġfor": 289,
      "ĠR": 290,
      "Ġe": 291,
      "ot": 292,
      "ch": 293,
      "ĠThe": 294,
      "Ġwas": 295,
      "ly": 296,
      "im": 297,
      "Ġcon": 298,
      "Ġwith": 299,
      "ut": 300,
      "ers": 301,
      "ig": 302,
      "ay": 303,
      "Ġ(": 304,
      "ation": 305,
      "Ġis": 306,
      "ĠH": 307,
      "un": 308,
      "Ġas": 309,
      "ce": 310,
      "ĠD": 311,
      "ĠW": 312,
      "00": 313,
      "yard": 314,
      "ver": 315,
      "te": 316,
      "ĠF": 317,
      "ĠG": 318,
      "th": 319,
      "her": 320,
      "Ġst": 321,
      "ul": 322,
      "ĠJ": 323,
      "ĠL": 324,
      "ĠN": 325,
      "os": 326,
      "Ġby": 327,
      "Ġr": 328,
      "ĠE": 329,
      "and": 330,
      "qu": 331,
      "op": 332,
      "Ġbe": 333,
      "Ġwh": 334,
      "ts": 335,
      "Ġan": 336,
      "ag": 337,
      "ain": 338,
      "rom": 339,
      "av": 340,
      "Ġ19": 341,
      "em": 342,
      "ri": 343,
      "Ġal": 344,
      "ore": 345,
      "ate": 346,
      "'s": 347,
      "xt": 348,
      "est": 349,
      "um": 350,
      "Ġfrom": 351,
      "Ġthat": 352,
      "Ġat": 353,
      "ct": 354,
      "ld": 355,
      "Ġcom": 356,
      "ĠO": 357,
      "Ġit": 358,
      "ist": 359,
      "ian": 360,
      "od": 361,
      "ass": 362,
      "ĠIn": 363,
      "up": 364,
      "own": 365,
      "ak": 366,
      "ord": 367,
      "ame": 368,
      "Ġhe": 369,
      "ap": 370,
      "Ġgo": 371,
      "ill": 372,
      "ack": 373,
      "ere": 374,
      "ity": 375,
      "Ġor": 376,
      "Ġ3": 377,
      "cc": 378,
      "Ġle": 379,
      "ies": 380,
      "uch": 381,
      "Ġk": 382,
      "Ġde": 383,
      "Ġare": 384,
      "Ġconte": 385,
      "all": 386,
      "if": 387,
      "Ġcontext": 388,
      "Ġwere": 389,
      "Ġqu": 390,
      "ich": 391,
      "Ġv": 392,
      "ab": 393,
      "ĠK": 394,
      "ear": 395,
      "Ġ\"": 396,
      "igh": 397,
      "use": 398,
      "âĢ": 399,
      "ia": 400,
      "res": 401,
      "art": 402,
      "ĠU": 403,
      "ber": 404,
      "ive": 405,
      "end": 406,
      "ew": 407,
      "Ġpro": 408,
      "ĠCh": 409,
      "irst": 410,
      "arter": 411,
      "iel": 412,
      "se": 413,
      "Ġ4": 414,
      "oc": 415,
      "ield": 416,
      "Ġtheir": 417,
      "Ġfirst": 418,
      "Ġpl": 419,
      "Ġquarter": 420,
      "ess": 421,
      "ud": 422,
      "ort": 423,
      "Ġ20": 424,
      "our": 425,
      "ant": 426,
      "ory": 427,
      "ond": 428,
      "Ġse": 429,
      "Ġhis": 430,
      "ug": 431,
      "ased": 432,
      "any": 433,
      "ost": 434,
      "ish": 435,
      "ong": 436,
      "oun": 437,
      "ial": 438,
      "ĠSt": 439,
      "Ġfield": 440,
      "Ġpass": 441,
      "ov": 442,
      "ast": 443,
      "Wh": 444,
      "ick": 445,
      "ell": 446,
      "ated": 447,
      "Ġgoal": 448,
      "ans": 449,
      "Ġy": 450,
      "ub": 451,
      "ment": 452,
      "ome": 453,
      "ie": 454,
      "ther": 455,
      "Ġcomp": 456,
      "ould": 457,
      "Ġex": 458,
      "ĠV": 459,
      "down": 460,
      "und": 461,
      "Ġch": 462,
      "ge": 463,
      "Ġtouch": 464,
      "ary": 465,
      "Ġtouchdown": 466,
      "ave": 467,
      "ions": 468,
      "Ġwhich": 469,
      "ens": 470,
      "ip": 471,
      "Ġsc": 472,
      "ok": 473,
      "Ġ200": 474,
      "Ġhad": 475,
      "hen": 476,
      "ted": 477,
      "fter": 478,
      "ust": 479,
      "Ġnot": 480,
      "Ġtr": 481,
      "ording": 482,
      "ine": 483,
      "ight": 484,
      "ref": 485,
      "ĠBr": 486,
      "ure": 487,
      "ccording": 488,
      "ical": 489,
      "ep": 490,
      "âĢĵ": 491,
      "mer": 492,
      "Ġsp": 493,
      "ff": 494,
      "ime": 495,
      "Ġinc": 496,
      "Ġsh": 497,
      "og": 498,
      "Ġ201": 499,
      "Ġbut": 500,
      "so": 501,
      "ide": 502,
      "Ġ5": 503,
      "Ġlead": 504,
      "ry": 505,
      "refuse": 506,
      "|>": 507,
      "<|": 508,
      "Ġmany": 509,
      "Ġres": 510,
      "ous": 511,
      "age": 512,
      "Ġun": 513,
      "are": 514,
      "According": 515,
      "Ġsec": 516,
      "Ġag": 517,
      "ĠTh": 518,
      "Based": 519,
      "),": 520,
      "Ġhave": 521,
      "ting": 522,
      "ire": 523,
      "to": 524,
      "uc": 525,
      "aw": 526,
      "ue": 527,
      "ates": 528,
      "ang": 529,
      "ik": 530,
      "Ġar": 531,
      "land": 532,
      "Ġgame": 533,
      "Ġdid": 534,
      "Ġcl": 535,
      "pp": 536,
      "The": 537,
      "wo": 538,
      "Ġper": 539,
      "ĠUn": 540,
      "ail": 541,
      "ork": 542,
      "out": 543,
      "Ġalso": 544,
      "ount": 545,
      "ace": 546,
      "19": 547,
      "Ġcont": 548,
      "Ġwould": 549,
      "iz": 550,
      "low": 551,
      "Ġab": 552,
      "Ġyear": 553,
      "Ġ18": 554,
      "ning": 555,
      "per": 556,
      "Ġhas": 557,
      "ater": 558,
      "ect": 559,
      "What": 560,
      "Ġoff": 561,
      "ally": 562,
      "les": 563,
      "Ġplay": 564,
      "Ġrun": 565,
      "ree": 566,
      "Ġ6": 567,
      "Ġthey": 568,
      "Ġus": 569,
      "ence": 570,
      "pt": 571,
      "Ġpe": 572,
      "row": 573,
      "ade": 574,
      "Ġup": 575,
      "ateg": 576,
      "ĠTD": 577,
      "Ġits": 578,
      "ĠIt": 579,
      "ound": 580,
      "Ġover": 581,
      "ren": 582,
      "Ġsecond": 583,
      "ople": 584,
      "Ġad": 585,
      "Ġro": 586,
      "ign": 587,
      "Ġone": 588,
      "Ġbec": 589,
      "ĠY": 590,
      "Ġother": 591,
      "fer": 592,
      "Ġ7": 593,
      "ran": 594,
      "Ġtwo": 595,
      "ited": 596,
      "ake": 597,
      "ey": 598,
      "hed": 599,
      "amp": 600,
      "ice": 601,
      "Ġout": 602,
      "Ġkick": 603,
      "ategory": 604,
      "ra": 605,
      "ations": 606,
      "gh": 607,
      "Ġwho": 608,
      "old": 609,
      "ile": 610,
      "oin": 611,
      "ib": 612,
      "Ġthis": 613,
      ").": 614,
      "erm": 615,
      "Ġim": 616,
      "ugh": 617,
      "yards": 618,
      "Ġwhen": 619,
      "Ġmore": 620,
      "ach": 621,
      "Ġte": 622,
      "Ġafter": 623,
      "Ġinter": 624,
      "ason": 625,
      "als": 626,
      "Ġrec": 627,
      "ied": 628,
      "ces": 629,
      "ĠHe": 630,
      "How": 631,
      "ican": 632,
      "Ġne": 633,
      "ition": 634,
      "pl": 635,
      "ĠAl": 636,
      "Ġscore": 637,
      "port": 638,
      "ind": 639,
      "oy": 640,
      "Ġagain": 641,
      "Ġpeople": 642,
      "Ġpart": 643,
      "ult": 644,
      "Ġyards": 645,
      "Ġend": 646,
      "we": 647,
      "Ġall": 648,
      "Ġinto": 649,
      "orm": 650,
      "Ġj": 651,
      "hn": 652,
      "ely": 653,
      "ĠAr": 654,
      "lud": 655,
      "uring": 656,
      "oss": 657,
      "Ġ8": 658,
      "son": 659,
      "000": 660,
      "ton": 661,
      "urn": 662,
      "ob": 663,
      "ite": 664,
      "ĠQ": 665,
      "Ġtime": 666,
      "Ġwe": 667,
      "Ġonly": 668,
      "act": 669,
      "Ġcan": 670,
      "ĠMar": 671,
      "Ġen": 672,
      "ft": 673,
      "rop": 674,
      "att": 675,
      "20": 676,
      "ng": 677,
      "Ġcomple": 678,
      "ict": 679,
      "Ġdis": 680,
      "ough": 681,
      "ird": 682,
      "one": 683,
      "Ġfour": 684,
      "rit": 685,
      "Ġpr": 686,
      "ational": 687,
      "lect": 688,
      "Ġmost": 689,
      "Ġdef": 690,
      "Ġdo": 691,
      "ĠRe": 692,
      "opul": 693,
      "Ġwin": 694,
      "ath": 695,
      "ents": 696,
      "ĠNew": 697,
      "Ġbeen": 698,
      "erv": 699,
      "Ġ10": 700,
      "arg": 701,
      "Ġear": 702,
      "Ġback": 703,
      "Ġinclud": 704,
      "ings": 705,
      "Ġthan": 706,
      "ors": 707,
      "reat": 708,
      "Ġ17": 709,
      "Category": 710,
      "Ġ199": 711,
      "Ġ9": 712,
      "ark": 713,
      "Ġpopul": 714,
      "ress": 715,
      "orld": 716,
      "Ġcent": 717,
      "ose": 718,
      "ubl": 719,
      "here": 720,
      "tern": 721,
      "Ġcomm": 722,
      "ĠAmer": 723,
      "Ġret": 724,
      "ance": 725,
      "ivers": 726,
      "over": 727,
      "Ġget": 728,
      "ever": 729,
      "Ġbet": 730,
      "ince": 731,
      "uct": 732,
      "ons": 733,
      "ered": 734,
      "Ġev": 735,
      "ward": 736,
      "Ġmade": 737,
      "gan": 738,
      "ild": 739,
      "ins": 740,
      "vel": 741,
      "ek": 742,
      "Ġdr": 743,
      "Ġreg": 744,
      "aid": 745,
      "ĠOn": 746,
      "Ġyears": 747,
      "Ġapp": 748,
      "Ġher": 749,
      "ĠJo": 750,
      "Ġhal": 751,
      "Ġkn": 752,
      "ollow": 753,
      "Ġund": 754,
      "mp": 755,
      "Ġ15": 756,
      "ween": 757,
      "Âł": 758,
      "able": 759,
      "Ġcount": 760,
      "Ġpre": 761,
      "ĠLe": 762,
      "Ġ16": 763,
      "Ġthird": 764,
      "Ġthere": 765,
      "Ġ-": 766,
      "ĠThis": 767,
      "rough": 768,
      "Ġme": 769,
      "Ġbetween": 770,
      "Ġabout": 771,
      "ĠAn": 772,
      "ase": 773,
      "Ġthem": 774,
      "Ġunder": 775,
      "iss": 776,
      "ook": 777,
      "ĠAs": 778,
      "Ġwork": 779,
      "ĠĊ": 780,
      "Ġused": 781,
      "ĠStates": 782,
      "ember": 783,
      "ah": 784,
      "Ġnew": 785,
      "iver": 786,
      "Ġcall": 787,
      "ism": 788,
      "ock": 789,
      "ĠUnited": 790,
      "Ġmov": 791,
      "owever": 792,
      "Ġcons": 793,
      "10": 794,
      "ury": 795,
      "Ġrel": 796,
      "Ġ14": 797,
      "Ġind": 798,
      "back": 799,
      "very": 800,
      "Ġfound": 801,
      "orth": 802,
      "orn": 803,
      "Ġcity": 804,
      "Ġdec": 805,
      "Ġsome": 806,
      "oth": 807,
      "ics": 808,
      "Ġform": 809,
      "way": 810,
      "Ġgro": 811,
      "Ġrem": 812,
      "outh": 813,
      "ĠEng": 814,
      "Ġrece": 815,
      "ĠSp": 816,
      "ious": 817,
      "Ġ12": 818,
      "Ġseason": 819,
      "Ġsuch": 820,
      "Ġcol": 821,
      "ood": 822,
      "Ġfollow": 823,
      "ĠInd": 824,
      "ames": 825,
      "ike": 826,
      "ĠCol": 827,
      "led": 828,
      "ĠAfter": 829,
      "Ġagainst": 830,
      "Ġsy": 831,
      "ced": 832,
      "In": 833,
      "Ġstr": 834,
      "ots": 835,
      "Ġso": 836,
      "ool": 837,
      "Ġfin": 838,
      "ision": 839,
      "Ġdes": 840,
      "ams": 841,
      "ph": 842,
      "io": 843,
      "ten": 844,
      "Ġpol": 845,
      "Ġkicker": 846,
      "ities": 847,
      "âĢĶ": 848,
      "Ġthree": 849,
      "Ġ13": 850,
      "red": 851,
      "wn": 852,
      "Ġ0": 853,
      "ĠCom": 854,
      "Ġduring": 855,
      "olog": 856,
      "Ġact": 857,
      "other": 858,
      "ĠWar": 859,
      "uss": 860,
      "ener": 861,
      "Ġhim": 862,
      "Ġgot": 863,
      "aj": 864,
      "ident": 865,
      "Ġhome": 866,
      "ĠFran": 867,
      "Ġearly": 868,
      "Ġsup": 869,
      "ese": 870,
      "Ġcap": 871,
      "Ġwhat": 872,
      "Ġlong": 873,
      "Ġnum": 874,
      "ĠJohn": 875,
      "ĠSe": 876,
      "ower": 877,
      "Ġthen": 878,
      "rown": 879,
      "ve": 880,
      "Ġresp": 881,
      "ric": 882,
      "Ġcalled": 883,
      "ral": 884,
      "ks": 885,
      "ĠPat": 886,
      "form": 887,
      "ĠSte": 888,
      "Ġfourth": 889,
      "Ġstart": 890,
      "ual": 891,
      "Ġpopulation": 892,
      "ris": 893,
      "ĠSh": 894,
      "ause": 895,
      "Ġhalf": 896,
      "rib": 897,
      "Ġshe": 898,
      "ĠBrit": 899,
      "pen": 900,
      "Ġtook": 901,
      "Ġatt": 902,
      "hy": 903,
      "illion": 904,
      "Ġ198": 905,
      "ution": 906,
      "iet": 907,
      "Ġman": 908,
      "ific": 909,
      "ouse": 910,
      "rew": 911,
      "ont": 912,
      "ex": 913,
      "ier": 914,
      "ina": 915,
      "aking": 916,
      "fore": 917,
      "ters": 918,
      "vern": 919,
      "man": 920,
      "Ġwhile": 921,
      "ash": 922,
      "Ġbl": 923,
      "ved": 924,
      "Ġpoin": 925,
      "ix": 926,
      "Ġthrough": 927,
      "Ġwar": 928,
      "Ġmake": 929,
      "ĠGerm": 930,
      "ale": 931,
      "ern": 932,
      "lish": 933,
      "my": 934,
      "ĠCar": 935,
      "Ġgovern": 936,
      "az": 937,
      "Ġdif": 938,
      "duc": 939,
      "Ġset": 940,
      "cent": 941,
      "iving": 942,
      "hip": 943,
      "18": 944,
      "ublic": 945,
      "ĠAmerican": 946,
      "Ġlater": 947,
      "Ġmon": 948,
      "Ġbecame": 949,
      "Ġsu": 950,
      "uary": 951,
      "ailed": 952,
      "ĠEu": 953,
      "Ġsub": 954,
      "ĠThey": 955,
      "ians": 956,
      "round": 957,
      "hes": 958,
      "ily": 959,
      "Ġinv": 960,
      "Ġpres": 961,
      "Ã©": 962,
      "ists": 963,
      "stem": 964,
      "ished": 965,
      "sk": 966,
      "Ġwhere": 967,
      "Ġ11": 968,
      "ĠIs": 969,
      "cept": 970,
      "ative": 971,
      "ating": 972,
      "rope": 973,
      "eng": 974,
      "Ġknown": 975,
      "chool": 976,
      "Ġfam": 977,
      "Ġexp": 978,
      "Ġincre": 979,
      "hil": 980,
      "Ġreturn": 981,
      "Ġgroup": 982,
      "Ġam": 983,
      "imes": 984,
      "\".": 985,
      "str": 986,
      "12": 987,
      "Ġ197": 988,
      "Ġdown": 989,
      "ĠHowever": 990,
      "inc": 991,
      "yp": 992,
      "enn": 993,
      "Ġgr": 994,
      "ĠPatri": 995,
      "Ġac": 996,
      "ium": 997,
      "Ġno": 998,
      "ually": 999,
      "Ġbu": 1000,
      "Ġcontin": 1001,
      "tem": 1002,
      "ife": 1003,
      "ĠPr": 1004,
      "eth": 1005,
      "Ġest": 1006,
      "Ġday": 1007,
      "Ġstud": 1008,
      "oman": 1009,
      "ĠEurope": 1010,
      "onc": 1011,
      "ĠQB": 1012,
      "Ġbefore": 1013,
      "ensus": 1014,
      "ros": 1015,
      "Ġmin": 1016,
      "Ġsince": 1017,
      "Ġelect": 1018,
      "Ġimp": 1019,
      "ĠPatriots": 1020,
      "Ġspec": 1021,
      "ets": 1022,
      "ĠAt": 1023,
      "Ġass": 1024,
      "ĠWe": 1025,
      "ense": 1026,
      "br": 1027,
      "Ġany": 1028,
      "velop": 1029,
      "iam": 1030,
      "Ġgetting": 1031,
      "ĠSc": 1032,
      "ann": 1033,
      "ement": 1034,
      "ccess": 1035,
      "angu": 1036,
      "ble": 1037,
      "ars": 1038,
      "ĠWR": 1039,
      "16": 1040,
      "ĠâĢĵ": 1041,
      "ences": 1042,
      "ried": 1043,
      "Ġworld": 1044,
      "Who": 1045,
      "Ġstate": 1046,
      "ĠMan": 1047,
      "iversity": 1048,
      "ained": 1049,
      "bs": 1050,
      "Ġserv": 1051,
      "Ġsystem": 1052,
      "ĠZ": 1053,
      "Ġrep": 1054,
      "Ġgovernment": 1055,
      "Ġcentury": 1056,
      "Ġnumber": 1057,
      "Ġuse": 1058,
      "14": 1059,
      "ober": 1060,
      "ived": 1061,
      "Ġadd": 1062,
      "ather": 1063,
      "Ġsur": 1064,
      "ĠWith": 1065,
      "13": 1066,
      "atch": 1067,
      "ĠDe": 1068,
      "Ġdiffer": 1069,
      "Ġwell": 1070,
      "ĠBrown": 1071,
      "Ġran": 1072,
      "Ġlast": 1073,
      "Ġprov": 1074,
      "ures": 1075,
      "Ġsm": 1076,
      "Ġhist": 1077,
      "iod": 1078,
      "gr": 1079,
      "ll": 1080,
      "Ġfe": 1081,
      "ared": 1082,
      "attle": 1083,
      "ued": 1084,
      "ular": 1085,
      "Ġmay": 1086,
      "17": 1087,
      "Ġboth": 1088,
      "erson": 1089,
      "Ġco": 1090,
      "its": 1091,
      "Ġteam": 1092,
      "50": 1093,
      "Ġlarg": 1094,
      "til": 1095,
      "ĠFor": 1096,
      "Ġbeing": 1097,
      "Ġmain": 1098,
      "Ġline": 1099,
      "Ġloss": 1100,
      "ĠCon": 1101,
      "ven": 1102,
      "usic": 1103,
      "Ġ196": 1104,
      "ajor": 1105,
      "Ġrecord": 1106,
      "ne": 1107,
      "ke": 1108,
      "200": 1109,
      "Ġinf": 1110,
      "ĠOr": 1111,
      "ĠGre": 1112,
      "ty": 1113,
      "ages": 1114,
      "Ġdevelop": 1115,
      "ise": 1116,
      "Ġext": 1117,
      "ĠKing": 1118,
      "ient": 1119,
      "Ġmillion": 1120,
      "Ġmod": 1121,
      "Ġown": 1122,
      "Ġcompleted": 1123,
      "oot": 1124,
      "Ġfl": 1125,
      "Ġloc": 1126,
      "Ġtrans": 1127,
      "ĠWh": 1128,
      "ley": 1129,
      "ized": 1130,
      "Ġthese": 1131,
      "une": 1132,
      "Ġbegan": 1133,
      "Ġlangu": 1134,
      "air": 1135,
      "Ġent": 1136,
      "Ġcould": 1137,
      "Ġdist": 1138,
      "wards": 1139,
      "Ġ24": 1140,
      "ĠYork": 1141,
      "ĠBritish": 1142,
      "ries": 1143,
      "ural": 1144,
      "der": 1145,
      "ful": 1146,
      "ĠAd": 1147,
      "Ġincluding": 1148,
      "Ġint": 1149,
      "ital": 1150,
      "duct": 1151,
      "ears": 1152,
      "ger": 1153,
      "rench": 1154,
      "arge": 1155,
      "Ġsaid": 1156,
      "ĠCl": 1157,
      "stit": 1158,
      "Ġperiod": 1159,
      "elf": 1160,
      "ĠWorld": 1161,
      "ague": 1162,
      "emb": 1163,
      "ĠPro": 1164,
      "Ġwill": 1165,
      "uel": 1166,
      "ĠJan": 1167,
      "Ġem": 1168,
      "Ġ30": 1169,
      "Ġname": 1170,
      "15": 1171,
      "inn": 1172,
      "onom": 1173,
      "Ġ25": 1174,
      "Ġbecause": 1175,
      "Ġhigh": 1176,
      "ull": 1177,
      "ants": 1178,
      "Ġoffic": 1179,
      "Ġscored": 1180,
      "Ġsign": 1181,
      "rap": 1182,
      "omin": 1183,
      "co": 1184,
      "Ġuntil": 1185,
      "Ġwent": 1186,
      "ief": 1187,
      ".\"": 1188,
      "ines": 1189,
      "Ġcar": 1190,
      "ai": 1191,
      "Ġgener": 1192,
      "ments": 1193,
      "ert": 1194,
      "ĠBronc": 1195,
      "Ġquarterback": 1196,
      "anc": 1197,
      "ature": 1198,
      "ĠAust": 1199,
      "Ġanother": 1200,
      "Ġmajor": 1201,
      "ica": 1202,
      "rol": 1203,
      "Ġfollowed": 1204,
      "Ġleft": 1205,
      "rist": 1206,
      "Ġbel": 1207,
      "Ġposs": 1208,
      "ĠBroncos": 1209,
      "irect": 1210,
      "ax": 1211,
      "Ġdrive": 1212,
      "Ġlike": 1213,
      "ĠRuss": 1214,
      "ĠNorth": 1215,
      "ĠFrench": 1216,
      "Ġpoints": 1217,
      "Ġmil": 1218,
      "af": 1219,
      "tal": 1220,
      "eries": 1221,
      "Ġopen": 1222,
      "Ġvery": 1223,
      "Ġwide": 1224,
      "Ġshow": 1225,
      "Ġmed": 1226,
      "tt": 1227,
      "ĠRB": 1228,
      "ĠMay": 1229,
      "Ġbr": 1230,
      "ĠEnglish": 1231,
      "ĠBl": 1232,
      "ially": 1233,
      "Ġschool": 1234,
      "Ġdiv": 1235,
      "ives": 1236,
      "Ġ23": 1237,
      "Ġsmall": 1238,
      "Ġarea": 1239,
      "ĠPl": 1240,
      "Ġacc": 1241,
      "Ġled": 1242,
      "ony": 1243,
      "ped": 1244,
      "ĠAf": 1245,
      "min": 1246,
      "Ġca": 1247,
      "igin": 1248,
      "gy": 1249,
      "Ġ194": 1250,
      "vent": 1251,
      "Ġbro": 1252,
      "Ġ21": 1253,
      "ĠII": 1254,
      "ains": 1255,
      "vers": 1256,
      "the": 1257,
      "Ġpar": 1258,
      "pr": 1259,
      "Ġnext": 1260,
      "ĠPol": 1261,
      "\",": 1262,
      "ink": 1263,
      "els": 1264,
      "Ġold": 1265,
      "ĠTr": 1266,
      "ĠGr": 1267,
      "Ġland": 1268,
      "ĠMc": 1269,
      "Ġhel": 1270,
      "ady": 1271,
      "Ġlaw": 1272,
      "ush": 1273,
      "Ġtake": 1274,
      "Ġsame": 1275,
      "Which": 1276,
      "Ġterm": 1277,
      "Ġpun": 1278,
      "Ġocc": 1279,
      "ute": 1280,
      "Ġcre": 1281,
      "Ġeff": 1282,
      "Ġhouse": 1283,
      "ible": 1284,
      "ĠPhil": 1285,
      "day": 1286,
      "ĠRep": 1287,
      "ĠPe": 1288,
      "Ġcame": 1289,
      "osed": 1290,
      "ĠWill": 1291,
      "urch": 1292,
      "ĠSteel": 1293,
      "Ġcountry": 1294,
      "ĠSouth": 1295,
      "Ġplace": 1296,
      "Ġmar": 1297,
      "ected": 1298,
      "Ġdep": 1299,
      "Ġdifferent": 1300,
      "Ġart": 1301,
      "Ġsever": 1302,
      "Ġdoes": 1303,
      "Ġeach": 1304,
      "ided": 1305,
      "enc": 1306,
      "ĠCensus": 1307,
      "Ġweek": 1308,
      "Ġ22": 1309,
      "ĠDec": 1310,
      "Ġpower": 1311,
      "Ġrele": 1312,
      "Ġoften": 1313,
      "ĠWest": 1314,
      "ically": 1315,
      "ĠSteelers": 1316,
      "Ġnear": 1317,
      "ology": 1318,
      "ession": 1319,
      "Ġdisc": 1320,
      "Ġmuch": 1321,
      "ĠEd": 1322,
      "ball": 1323,
      "iew": 1324,
      "ĠPar": 1325,
      "Ġmusic": 1326,
      "30": 1327,
      "Ġmaking": 1328,
      "Ġ.": 1329,
      "ĠSan": 1330,
      "ĠWeek": 1331,
      "ĠThere": 1332,
      "Ġrunning": 1333,
      "sh": 1334,
      "Ġed": 1335,
      "Ġtyp": 1336,
      "ĠMatt": 1337,
      "Ġtotal": 1338,
      "ĠShe": 1339,
      "yn": 1340,
      "orts": 1341,
      "ales": 1342,
      "ĠCity": 1343,
      "Ġdeath": 1344,
      "uck": 1345,
      "Ġalong": 1346,
      "Ġcompleting": 1347,
      "ĠFe": 1348,
      "Ġ28": 1349,
      "ilm": 1350,
      "Ġreceiver": 1351,
      "aining": 1352,
      "Ġaround": 1353,
      "ĠComm": 1354,
      "ired": 1355,
      "Ġair": 1356,
      "Ġchild": 1357,
      "ĠUniversity": 1358,
      "Ġsuccess": 1359,
      "Ġ$": 1360,
      "ler": 1361,
      "Ġlarge": 1362,
      "ĠRed": 1363,
      "ĠUS": 1364,
      "Ġthough": 1365,
      "ĠNov": 1366,
      "ox": 1367,
      "amed": 1368,
      "tle": 1369,
      "Ġann": 1370,
      "Ġrespond": 1371,
      "Ġjust": 1372,
      "bur": 1373,
      "ĠJu": 1374,
      "Ġ2010": 1375,
      "Ġestab": 1376,
      "ĠAnd": 1377,
      "Ġsing": 1378,
      "ects": 1379,
      "Ġaut": 1380,
      "Ġallow": 1381,
      "ross": 1382,
      "Ġwon": 1383,
      "Ġorgan": 1384,
      "by": 1385,
      "Ġec": 1386,
      "ites": 1387,
      "Ġwrit": 1388,
      "ington": 1389,
      "Ġage": 1390,
      "tember": 1391,
      "ĠGe": 1392,
      "lev": 1393,
      "ner": 1394,
      "ĠChrist": 1395,
      "Ġreturned": 1396,
      "ĠSain": 1397,
      "ĠSep": 1398,
      "au": 1399,
      "Ġpolit": 1400,
      "Ġvar": 1401,
      "ene": 1402,
      "Ġ26": 1403,
      "Ġins": 1404,
      "11": 1405,
      "ĠFrance": 1406,
      "cl": 1407,
      "Ġmet": 1408,
      "oard": 1409,
      "23": 1410,
      "ĠĠ": 1411,
      "Ġball": 1412,
      "alt": 1413,
      "Ġmark": 1414,
      "gin": 1415,
      "Ġter": 1416,
      "ĠCan": 1417,
      "Ġpercent": 1418,
      "24": 1419,
      "oys": 1420,
      "apan": 1421,
      "ĠGerman": 1422,
      "Ġimport": 1423,
      "Ġcr": 1424,
      "ĠEngland": 1425,
      "itary": 1426,
      "ues": 1427,
      "ĠChar": 1428,
      "ctober": 1429,
      "ĠOther": 1430,
      "ham": 1431,
      "FC": 1432,
      "aced": 1433,
      "Ġlanguage": 1434,
      "aged": 1435,
      "ston": 1436,
      "ĠBears": 1437,
      "Ġorigin": 1438,
      "Ġhum": 1439,
      "Ġstarted": 1440,
      "Ġway": 1441,
      "ung": 1442,
      "ugust": 1443,
      "Ġnow": 1444,
      "Ġsim": 1445,
      "Ġneed": 1446,
      "ills": 1447,
      "Ġcontrol": 1448,
      "olution": 1449,
      "Ġdirect": 1450,
      "Ġsupport": 1451,
      "Ġattack": 1452,
      "Ġseveral": 1453,
      "Ġseries": 1454,
      "Ġplayed": 1455,
      "wh": 1456,
      "ĠFl": 1457,
      "Ġaver": 1458,
      "ĠSeptember": 1459,
      "eder": 1460,
      "Ġperson": 1461,
      "Ġhead": 1462,
      "ones": 1463,
      "Ġheld": 1464,
      "dom": 1465,
      "Ġcontinued": 1466,
      "Ġ27": 1467,
      "duced": 1468,
      "ĠBe": 1469,
      "rent": 1470,
      "though": 1471,
      "ister": 1472,
      "Ġlife": 1473,
      "off": 1474,
      "hest": 1475,
      "ĠX": 1476,
      "Ġ49": 1477,
      "ices": 1478,
      "ret": 1479,
      "Ġtrad": 1480,
      "hem": 1481,
      "ĠCategory": 1482,
      "ĠBar": 1483,
      "Ġexamp": 1484,
      "ĠMarch": 1485,
      "ately": 1486,
      "Ġrepl": 1487,
      "Ġchar": 1488,
      "ured": 1489,
      "Ġoper": 1490,
      "ĠLions": 1491,
      "Ġpartic": 1492,
      "Ġfle": 1493,
      "rem": 1494,
      "Ġlargest": 1495,
      "Ġpublic": 1496,
      "ferences": 1497,
      "estern": 1498,
      "Ġwithin": 1499,
      "Ġgoals": 1500,
      "ĠCent": 1501,
      "pril": 1502,
      "Ġput": 1503,
      "ĠJune": 1504,
      "ject": 1505,
      "ĠOctober": 1506,
      "ĠAugust": 1507,
      "Ġfinal": 1508,
      "med": 1509,
      "Ġbuild": 1510,
      "ival": 1511,
      "ron": 1512,
      "ility": 1513,
      "Ġsoc": 1514,
      "ĠEl": 1515,
      "Ġcommon": 1516,
      "Ġhistory": 1517,
      "esp": 1518,
      "ĠAll": 1519,
      "ograp": 1520,
      "199": 1521,
      "ights": 1522,
      "Ġeven": 1523,
      "ĠJapan": 1524,
      "used": 1525,
      "Ġgames": 1526,
      "ĠDecember": 1527,
      "less": 1528,
      "22": 1529,
      "ane": 1530,
      "hold": 1531,
      "Ġconf": 1532,
      "Ġregion": 1533,
      "ĠHar": 1534,
      "Ġstill": 1535,
      "ĠâĢĶ": 1536,
      "atic": 1537,
      "Ġhig": 1538,
      "ĠJanuary": 1539,
      "Ġleg": 1540,
      "ole": 1541,
      "Ġif": 1542,
      "Ġ40": 1543,
      "ended": 1544,
      "Ġlit": 1545,
      "Ġ100": 1546,
      "mpire": 1547,
      "ĠNational": 1548,
      "ĠHis": 1549,
      "Ġph": 1550,
      "ĠDav": 1551,
      "px": 1552,
      "Ġclass": 1553,
      "ĠJuly": 1554,
      "ĠItal": 1555,
      "com": 1556,
      "reak": 1557,
      "Ġcult": 1558,
      "ception": 1559,
      "Ġ2011": 1560,
      "ple": 1561,
      "ience": 1562,
      "Ġshort": 1563,
      "ank": 1564,
      "ney": 1565,
      "Ġturn": 1566,
      "ively": 1567,
      "Ġconsid": 1568,
      "ĠTex": 1569,
      "Ġcur": 1570,
      "ised": 1571,
      "embers": 1572,
      "lin": 1573,
      "aun": 1574,
      "Ġthose": 1575,
      "ĠReferences": 1576,
      "Ġsl": 1577,
      "Ġevery": 1578,
      "ĠApril": 1579,
      "ille": 1580,
      "ĠBy": 1581,
      "Ġz": 1582,
      "Ġadv": 1583,
      "Ġ'": 1584,
      "ms": 1585,
      "Ġ195": 1586,
      "ize": 1587,
      "Ġaway": 1588,
      "ĠBu": 1589,
      "Ġcommun": 1590,
      "ĠBay": 1591,
      "ackers": 1592,
      "Ġaverage": 1593,
      "ified": 1594,
      "Ġwater": 1595,
      "ĠPres": 1596,
      "Ġincreased": 1597,
      "'t": 1598,
      "Ġ2008": 1599,
      "Ġcountries": 1600,
      "Ġref": 1601,
      "Ġob": 1602,
      "bum": 1603,
      "ĠNovember": 1604,
      "aim": 1605,
      "Ġkill": 1606,
      "ensive": 1607,
      "osition": 1608,
      "ĠSw": 1609,
      "ech": 1610,
      "Ġfive": 1611,
      "Ġlate": 1612,
      "Ġspe": 1613,
      "ĠEag": 1614,
      "lands": 1615,
      "lu": 1616,
      "ĠRoman": 1617,
      "Ġcome": 1618,
      "25": 1619,
      "ove": 1620,
      "ats": 1621,
      "Ġreb": 1622,
      "epend": 1623,
      "ĠRo": 1624,
      "Ġforces": 1625,
      "oint": 1626,
      "Ġfamily": 1627,
      "ference": 1628,
      "get": 1629,
      "alth": 1630,
      "acter": 1631,
      "yan": 1632,
      "ĠGu": 1633,
      "21": 1634,
      "sp": 1635,
      "ody": 1636,
      "Ġ31": 1637,
      "Ġ2007": 1638,
      "ĠBeng": 1639,
      "Ġmen": 1640,
      "Ġeconom": 1641,
      "ugg": 1642,
      "ling": 1643,
      "Ġprot": 1644,
      "aving": 1645,
      "ald": 1646,
      "ondon": 1647,
      "Ġarmy": 1648,
      "ampa": 1649,
      "Ġinclude": 1650,
      "ths": 1651,
      "aces": 1652,
      "ases": 1653,
      "ories": 1654,
      "ĠJack": 1655,
      "ops": 1656,
      "ĠAm": 1657,
      "Ġfr": 1658,
      "Ġvict": 1659,
      "alc": 1660,
      "Ġ29": 1661,
      "ourt": 1662,
      "ĠEagles": 1663,
      "Ġstand": 1664,
      "Ġ&": 1665,
      "Ġimportant": 1666,
      "Ġnational": 1667,
      "oming": 1668,
      "Ġdefense": 1669,
      "sw": 1670,
      "Ġmilitary": 1671,
      "ĠRaid": 1672,
      "Ġsix": 1673,
      "Ġrev": 1674,
      "ivil": 1675,
      "idd": 1676,
      "ĠLeague": 1677,
      "Ġexample": 1678,
      "Ġduel": 1679,
      "Ġevent": 1680,
      "rian": 1681,
      "ĠIndian": 1682,
      "ashington": 1683,
      "Ġopp": 1684,
      "60": 1685,
      "iven": 1686,
      "Ġrelig": 1687,
      "ĠSm": 1688,
      "Ġ2012": 1689,
      "Ġtimes": 1690,
      "ays": 1691,
      "anish": 1692,
      "hers": 1693,
      "echn": 1694,
      "par": 1695,
      "ĠCount": 1696,
      "Un": 1697,
      "ĠEast": 1698,
      "istr": 1699,
      "go": 1700,
      "Ġdefe": 1701,
      "alk": 1702,
      "omen": 1703,
      "ange": 1704,
      "Ġtouchdowns": 1705,
      "ĠEuropean": 1706,
      "Ġformer": 1707,
      "bruary": 1708,
      "oring": 1709,
      "Ġconn": 1710,
      "ski": 1711,
      "omet": 1712,
      ",\"": 1713,
      "ĠBrowns": 1714,
      "ootball": 1715,
      "Ġmembers": 1716,
      "iation": 1717,
      "ago": 1718,
      "ĠColts": 1719,
      "Ġhit": 1720,
      "Ġcare": 1721,
      "Ġ2009": 1722,
      "Ġhow": 1723,
      "inese": 1724,
      "ĠEar": 1725,
      "ĠWashington": 1726,
      "ĠChief": 1727,
      "Ġfollowing": 1728,
      "Ġrest": 1729,
      "rican": 1730,
      "ĠLondon": 1731,
      "Ġnon": 1732,
      "Ġgreat": 1733,
      "Ġgu": 1734,
      "utes": 1735,
      "ission": 1736,
      "Ġ,": 1737,
      "ck": 1738,
      "vin": 1739,
      "ecut": 1740,
      "Ġless": 1741,
      "Ġsold": 1742,
      "itions": 1743,
      "40": 1744,
      "ĠVik": 1745,
      "80": 1746,
      "Ġ2006": 1747,
      "cess": 1748,
      "Ġdied": 1749,
      "Ġrul": 1750,
      "ĠGeor": 1751,
      "por": 1752,
      "When": 1753,
      "Ġword": 1754,
      "ĠRaiders": 1755,
      "Ġfilm": 1756,
      "Ġfell": 1757,
      "ĠCal": 1758,
      "umb": 1759,
      "Ġterrit": 1760,
      "levision": 1761,
      "overed": 1762,
      "ius": 1763,
      "Ġperform": 1764,
      "ched": 1765,
      "side": 1766,
      "Ġchang": 1767,
      "Ġimpro": 1768,
      "Ġbecome": 1769,
      "Ġdesc": 1770,
      "Ġ193": 1771,
      "ĠRav": 1772,
      "Ġdesign": 1773,
      "hor": 1774,
      "Ġwebs": 1775,
      "Ġroad": 1776,
      "ĠCanad": 1777,
      "urs": 1778,
      "Ġtried": 1779,
      "ĠNe": 1780,
      "Ġfew": 1781,
      "ott": 1782,
      "ĠBengals": 1783,
      "Ġresponded": 1784,
      "70": 1785,
      "Ġ50": 1786,
      "ves": 1787,
      "Ġbook": 1788,
      "ĠCow": 1789,
      "Ġchildren": 1790,
      "Ġpolitical": 1791,
      "ides": 1792,
      "ĠFebruary": 1793,
      "ĠAb": 1794,
      "aff": 1795,
      "Ġarr": 1796,
      "Ġamong": 1797,
      "ization": 1798,
      "Ġnamed": 1799,
      "ĠTe": 1800,
      "ality": 1801,
      "ilt": 1802,
      "iants": 1803,
      "que": 1804,
      "ĠJets": 1805,
      "lo": 1806,
      "Ġel": 1807,
      "Ġinst": 1808,
      "Ġhousehold": 1809,
      "ĠThese": 1810,
      "Ġdem": 1811,
      "adium": 1812,
      "Ġdue": 1813,
      "Ġhand": 1814,
      "Ġ35": 1815,
      "Ġnorth": 1816,
      "Ġgrow": 1817,
      "Ġtown": 1818,
      "resent": 1819,
      "ĠChina": 1820,
      "ĠAustral": 1821,
      "ĠTit": 1822,
      "Ġhap": 1823,
      "ode": 1824,
      "Ġintern": 1825,
      "ĠChinese": 1826,
      "ĠEmpire": 1827,
      "ĠSup": 1828,
      "Ġlost": 1829,
      "Ġstates": 1830,
      "Ġcapt": 1831,
      "Ġhowever": 1832,
      "ampions": 1833,
      "Ġsk": 1834,
      "Ġcor": 1835,
      "duction": 1836,
      "Ġkicked": 1837,
      "Ġ2000": 1838,
      "na": 1839,
      "Ġprom": 1840,
      "Ġmodern": 1841,
      "Ġgood": 1842,
      "Ġconc": 1843,
      "ĠGermany": 1844,
      "Ġtro": 1845,
      "ps": 1846,
      "arm": 1847,
      "ĠSome": 1848,
      "ĠLa": 1849,
      "Ġreleased": 1850,
      "Ġbeh": 1851,
      "Ġcapital": 1852,
      "ĠCowb": 1853,
      "Ġsouth": 1854,
      "astern": 1855,
      "Ġtem": 1856,
      "Ġgl": 1857,
      "ĠMin": 1858,
      "ĠIntern": 1859,
      "ches": 1860,
      "ĠRavens": 1861,
      "ĠPal": 1862,
      "ĠPort": 1863,
      "yle": 1864,
      "ĠLou": 1865,
      "aul": 1866,
      "Ġrequ": 1867,
      "struct": 1868,
      "ĠWhen": 1869,
      "cep": 1870,
      "ĠCharg": 1871,
      "Ġvis": 1872,
      "ently": 1873,
      "ness": 1874,
      "ean": 1875,
      "Ġfind": 1876,
      "akes": 1877,
      "ule": 1878,
      "ĠJos": 1879,
      "ined": 1880,
      "Ġinflu": 1881,
      "Ġav": 1882,
      "Ġ2013": 1883,
      "ĠCowboys": 1884,
      "Ġbased": 1885,
      "ison": 1886,
      "Ġpopular": 1887,
      "rest": 1888,
      "etro": 1889,
      "ftime": 1890,
      "ope": 1891,
      "ying": 1892,
      "ĠGreen": 1893,
      "ĠManning": 1894,
      "Ġmat": 1895,
      "Ġhalftime": 1896,
      "Ġred": 1897,
      "ĠChargers": 1898,
      "iron": 1899,
      "line": 1900,
      "Ġended": 1901,
      "men": 1902,
      "ĠVikings": 1903,
      "Ġ33": 1904,
      "oung": 1905,
      "ardin": 1906,
      "Ġyou": 1907,
      "Ġdro": 1908,
      "ĠGiants": 1909,
      "atin": 1910,
      "ael": 1911,
      "Ġeng": 1912,
      "ĠPackers": 1913,
      "Ġpresent": 1914,
      "ĠAmerica": 1915,
      "reed": 1916,
      "earch": 1917,
      "ĠBur": 1918,
      "Ġsent": 1919,
      "Ġgroups": 1920,
      "Ġide": 1921,
      "Ġtop": 1922,
      "owski": 1923,
      "ering": 1924,
      "Ġappro": 1925,
      "Ġwithout": 1926,
      "Ġequ": 1927,
      "hern": 1928,
      "work": 1929,
      "Ġalbum": 1930,
      "Ġthrew": 1931,
      "Ġprogr": 1932,
      "iber": 1933,
      "amm": 1934,
      "aster": 1935,
      "ata": 1936,
      "hys": 1937,
      "Ġ45": 1938,
      "urther": 1939,
      "Ġofficial": 1940,
      "Ġansw": 1941,
      "iety": 1942,
      "ator": 1943,
      "ĠMich": 1944,
      "ama": 1945,
      "ocr": 1946,
      "Ġfore": 1947,
      "acy": 1948,
      "Ġplays": 1949,
      "Ġgave": 1950,
      "ĠPart": 1951,
      "riend": 1952,
      "Ġresul": 1953,
      "Ġexper": 1954,
      "27": 1955,
      "ior": 1956,
      "Ġright": 1957,
      "Ġpo": 1958,
      "Ġinterception": 1959,
      "ĠChiefs": 1960,
      "ĠIndia": 1961,
      "Ġ2014": 1962,
      "ĠUnion": 1963,
      "Ġgen": 1964,
      "Ġusually": 1965,
      "reek": 1966,
      "oviet": 1967,
      "Ġet": 1968,
      "Ġteams": 1969,
      "Ã¡": 1970,
      "ĠJackson": 1971,
      "Ġ34": 1972,
      "orthern": 1973,
      "Ġcomb": 1974,
      "ency": 1975,
      "Ġsong": 1976,
      "Ġstat": 1977,
      "Ġking": 1978,
      "Ġaff": 1979,
      "Ġhuman": 1980,
      "Ġareas": 1981,
      "lished": 1982,
      "time": 1983,
      "Ġanim": 1984,
      "Ġmoved": 1985,
      "ĠJohnson": 1986,
      "ĠWhite": 1987,
      "Ġprev": 1988,
      "ĠRepublic": 1989,
      "Ġtrav": 1990,
      "ĠAng": 1991,
      "Ġspecies": 1992,
      "ĠMed": 1993,
      "ĠEm": 1994,
      "Ġtit": 1995,
      "Ġ38": 1996,
      "28": 1997,
      "Ġforced": 1998,
      "ged": 1999,
      "Ġyet": 2000,
      "icago": 2001,
      "ĠSy": 2002,
      "ĠKingdom": 2003,
      "Ġlook": 2004,
      "ĠRedsk": 2005,
      "Ġexpl": 2006,
      "ĠMon": 2007,
      "ached": 2008,
      "Ġpasses": 2009,
      "United": 2010,
      "olph": 2011,
      "ĠHol": 2012,
      "ĠThom": 2013,
      "uce": 2014,
      "ĠRedskins": 2015,
      "ĠTexans": 2016,
      "ĠPresident": 2017,
      "ĠSec": 2018,
      "Ġste": 2019,
      "ĠDavid": 2020,
      "Ġprocess": 2021,
      "Ġdivision": 2022,
      "Ġpunt": 2023,
      "Ġbir": 2024,
      "29": 2025,
      "Ġprof": 2026,
      "Ġdays": 2027,
      "riz": 2028,
      "ĠOtt": 2029,
      "ĠRace": 2030,
      "Ġforce": 2031,
      "Ġhelp": 2032,
      "itional": 2033,
      "ĠEn": 2034,
      "rd": 2035,
      "ending": 2036,
      "most": 2037,
      "Ġfem": 2038,
      "ĠDuring": 2039,
      "ĠSch": 2040,
      "Ġant": 2041,
      "ĠBills": 2042,
      "Ġ2005": 2043,
      "reaty": 2044,
      "ĠHer": 2045,
      "let": 2046,
      "ĠOne": 2047,
      "ĠSu": 2048,
      "irc": 2049,
      "Ġpubl": 2050,
      "Ġgiven": 2051,
      "ĠTE": 2052,
      "stitution": 2053,
      "ae": 2054,
      "Ġhold": 2055,
      "Ġflew": 2056,
      "Ġ32": 2057,
      "ilar": 2058,
      "ĠLouis": 2059,
      "ption": 2060,
      "Ġval": 2061,
      "ĠSoviet": 2062,
      "Ġsingle": 2063,
      "rie": 2064,
      "Ch": 2065,
      "Ġliving": 2066,
      "Ġusing": 2067,
      "Ġbegin": 2068,
      "thern": 2069,
      "temp": 2070,
      "FL": 2071,
      "Ġtelevision": 2072,
      "ĠCharles": 2073,
      "ĠJames": 2074,
      "Ġbus": 2075,
      "ĠSpanish": 2076,
      "iers": 2077,
      "Ġreport": 2078,
      "ges": 2079,
      "itz": 2080,
      "ailing": 2081,
      "ounc": 2082,
      "augh": 2083,
      "Ġfact": 2084,
      "Ġcreated": 2085,
      "Ġindepend": 2086,
      "aken": 2087,
      "ĠEx": 2088,
      "osing": 2089,
      "Ġlevel": 2090,
      "iddle": 2091,
      "ĠChicago": 2092,
      "ction": 2093,
      "Ġdel": 2094,
      "head": 2095,
      "ploy": 2096,
      "Ġpoint": 2097,
      "outhern": 2098,
      "Ġbest": 2099,
      "Ġlocal": 2100,
      "sc": 2101,
      "26": 2102,
      "ona": 2103,
      "Ġarch": 2104,
      "Ġvers": 2105,
      "..": 2106,
      "Ġanc": 2107,
      "for": 2108,
      "St": 2109,
      "Ġshould": 2110,
      "Ġvictory": 2111,
      "Ġfailed": 2112,
      "ĠBen": 2113,
      "âĢĻ": 2114,
      "ĠBut": 2115,
      "ĠCo": 2116,
      "Ġlow": 2117,
      "ĠAtl": 2118,
      "ĠAss": 2119,
      "Ġ2015": 2120,
      "Ġclaim": 2121,
      "ford": 2122,
      "ĠJew": 2123,
      "Ġstrong": 2124,
      "ĠSmith": 2125,
      "Ġcurrent": 2126,
      "Ġpat": 2127,
      "ĠHist": 2128,
      "aren": 2129,
      "amb": 2130,
      "Ġestablished": 2131,
      "Ġtrailed": 2132,
      "ote": 2133,
      "iness": 2134,
      "Ġbuilt": 2135,
      "cepted": 2136,
      "avy": 2137,
      "int": 2138,
      "Ġbelie": 2139,
      "ĠSaints": 2140,
      "Ġable": 2141,
      "ĠChurch": 2142,
      "ĠStadium": 2143,
      "Ġconsidered": 2144,
      "Ġorder": 2145,
      "ead": 2146,
      "cis": 2147,
      "awks": 2148,
      "Ġhost": 2149,
      "olic": 2150,
      "Ġproble": 2151,
      "ery": 2152,
      "Ġwant": 2153,
      "Ġindust": 2154,
      "ĠCup": 2155,
      "ederal": 2156,
      "ĠReg": 2157,
      "ĠAle": 2158,
      "Ġclose": 2159,
      "self": 2160,
      "Ġ190": 2161,
      "read": 2162,
      "Ġ2004": 2163,
      "Ġprim": 2164,
      "Ġtechn": 2165,
      "uan": 2166,
      "Ġcommand": 2167,
      "ask": 2168,
      "ĠRyan": 2169,
      "Ġcareer": 2170,
      "Ġjoin": 2171,
      "ĠCarol": 2172,
      "Ġsn": 2173,
      "Ġlight": 2174,
      "ĠAir": 2175,
      "Ġincluded": 2176,
      "ĠRom": 2177,
      "Ġpossession": 2178,
      "lege": 2179,
      "ĠÂ": 2180,
      "ĠRussian": 2181,
      "ĠTom": 2182,
      "ĠCounty": 2183,
      "ĠRiver": 2184,
      "artment": 2185,
      "ental": 2186,
      "ban": 2187,
      "Ġkilled": 2188,
      "Ġneeded": 2189,
      "lic": 2190,
      "Ġer": 2191,
      "Ġhistor": 2192,
      "oyal": 2193,
      "ring": 2194,
      "Ġgive": 2195,
      "de": 2196,
      "Ġlist": 2197,
      "Ġdest": 2198,
      "uk": 2199,
      "Ġpost": 2200,
      "ĠDolph": 2201,
      "ometimes": 2202,
      "ĠCr": 2203,
      "ither": 2204,
      "Ġauthor": 2205,
      "ivid": 2206,
      "90": 2207,
      "rees": 2208,
      "Ġsqu": 2209,
      "ĠMo": 2210,
      "Ġsuccessful": 2211,
      "ara": 2212,
      "ĠState": 2213,
      "Ġ36": 2214,
      "gen": 2215,
      "Ġbody": 2216,
      "ĠTur": 2217,
      "itation": 2218,
      "198": 2219,
      "Ġmatch": 2220,
      "ĠHen": 2221,
      "ĠRams": 2222,
      "ept": 2223,
      "Ġeduc": 2224,
      "Ġscoring": 2225,
      "Ġremaining": 2226,
      "ĠCath": 2227,
      "Ġknow": 2228,
      "Ġnight": 2229,
      "ĠPark": 2230,
      "Ġ37": 2231,
      "isc": 2232,
      "ĠFalc": 2233,
      "Where": 2234,
      "Ġcrit": 2235,
      "Ġplayers": 2236,
      "ergy": 2237,
      "Ġview": 2238,
      "anta": 2239,
      "ĠBattle": 2240,
      "Ġpen": 2241,
      "Ġdeveloped": 2242,
      "osp": 2243,
      "ection": 2244,
      "ico": 2245,
      "Ġiss": 2246,
      "lim": 2247,
      "ĠBrady": 2248,
      "ogn": 2249,
      "ĠAfrican": 2250,
      "Ġbig": 2251,
      "Ġlim": 2252,
      "II": 2253,
      "point": 2254,
      "Ġboard": 2255,
      "Ġspecial": 2256,
      "ampionship": 2257,
      "ounced": 2258,
      "lam": 2259,
      "Ġship": 2260,
      "Ġsw": 2261,
      "ĠComp": 2262,
      "ĠGreat": 2263,
      "Ġeffect": 2264,
      "Ġparticular": 2265,
      "ĠRet": 2266,
      "Ġgeneral": 2267,
      "allas": 2268,
      "Ġlive": 2269,
      "Ġborn": 2270,
      "ĠChristian": 2271,
      "ĠGreek": 2272,
      "Ġattemp": 2273,
      "Ġtroops": 2274,
      "ouncil": 2275,
      "ĠArmy": 2276,
      "Ġcompany": 2277,
      "overn": 2278,
      "Ġsocial": 2279,
      "ĠDolphins": 2280,
      "Ġproduc": 2281,
      "ĠRob": 2282,
      "win": 2283,
      "ological": 2284,
      "ĠCardin": 2285,
      "ĠTitans": 2286,
      "Ġmanaged": 2287,
      "ĠAct": 2288,
      "idge": 2289,
      "Ġplan": 2290,
      "Ġdescrib": 2291,
      "ours": 2292,
      "Ġtoget": 2293,
      "Ġtogether": 2294,
      "ĠFalcons": 2295,
      "Ġplayer": 2296,
      "iated": 2297,
      "ĠHou": 2298,
      "Ġfurther": 2299,
      "ĠDen": 2300,
      "Ġadded": 2301,
      "ĠDem": 2302,
      "Ġcivil": 2303,
      "ĠHouse": 2304,
      "burg": 2305,
      "ĠDallas": 2306,
      "Ġcharacter": 2307,
      "Ġcompet": 2308,
      "Ġreceived": 2309,
      "ĠBC": 2310,
      "eneral": 2311,
      "Ġwebsites": 2312,
      "Ġconvers": 2313,
      "arch": 2314,
      "Ġele": 2315,
      "Ġwid": 2316,
      "ĠInternational": 2317,
      "Ġfather": 2318,
      "ĠNo": 2319,
      "ards": 2320,
      "33": 2321,
      "reen": 2322,
      "ked": 2323,
      "Ġmean": 2324,
      "Ġrepresent": 2325,
      "Ġinj": 2326,
      "ĠFrancis": 2327,
      "umble": 2328,
      "Ġparts": 2329,
      "Ġdevelopment": 2330,
      "Ġrad": 2331,
      "urning": 2332,
      "ĠMichael": 2333,
      "Ġson": 2334,
      "Ġthrow": 2335,
      "ought": 2336,
      "Ġfall": 2337,
      "75": 2338,
      "utch": 2339,
      "Ġdomin": 2340,
      "ances": 2341,
      "Ġfight": 2342,
      "Ġband": 2343,
      "rote": 2344,
      "etroit": 2345,
      "Ġsimilar": 2346,
      "Ġpresident": 2347,
      "Ġmust": 2348,
      "ville": 2349,
      "ee": 2350,
      "ĠQue": 2351,
      "tempt": 2352,
      "Coming": 2353,
      "Ġexist": 2354,
      "ecutive": 2355,
      "ĠDie": 2356,
      "ention": 2357,
      "Ġcounty": 2358,
      "lis": 2359,
      "ĠPer": 2360,
      "ĠPhilip": 2361,
      "ĠHouston": 2362,
      "Ġpain": 2363,
      "Ġtight": 2364,
      "Ġattempt": 2365,
      "Ġsepar": 2366,
      "Ġsol": 2367,
      "Ġmiss": 2368,
      "Ġ44": 2369,
      "Ġresult": 2370,
      "apt": 2371,
      "of": 2372,
      "Ġprevious": 2373,
      "Ġtype": 2374,
      "ribut": 2375,
      "ana": 2376,
      "eff": 2377,
      "Ġestim": 2378,
      "ĠWilliam": 2379,
      "atural": 2380,
      "aur": 2381,
      "Ġtravel": 2382,
      "Ġmy": 2383,
      "ĠDr": 2384,
      "Ġhaving": 2385,
      "ĠThomas": 2386,
      "well": 2387,
      "ampaign": 2388,
      "Ġsaf": 2389,
      "ĠMus": 2390,
      "ett": 2391,
      "raft": 2392,
      "Ġbattle": 2393,
      "Ġallowed": 2394,
      "ria": 2395,
      "mit": 2396,
      "esc": 2397,
      "lear": 2398,
      "ĠAlex": 2399,
      "Ġinvol": 2400,
      "formation": 2401,
      "asing": 2402,
      "35": 2403,
      "ertain": 2404,
      "ĠCarolina": 2405,
      "Ġcut": 2406,
      "Ġenergy": 2407,
      "Ã¼": 2408,
      "Ġresid": 2409,
      "Ġposition": 2410,
      "con": 2411,
      "Ġsee": 2412,
      "Ġwomen": 2413,
      "ĠDetroit": 2414,
      "ĠRober": 2415,
      "agn": 2416,
      "Ġident": 2417,
      "Ġthought": 2418,
      "Ġpract": 2419,
      "ĠĠĠĠ": 2420,
      "udd": 2421,
      "ĠSeah": 2422,
      "ĠJason": 2423,
      "Ġleast": 2424,
      "ĠGl": 2425,
      "ĠSam": 2426,
      "Ġwrote": 2427,
      "45": 2428,
      "Ġhappen": 2429,
      "Ġothers": 2430,
      "Ġmid": 2431,
      "Ġcell": 2432,
      "Ġ39": 2433,
      "Th": 2434,
      "oll": 2435,
      "Ġstri": 2436,
      "Ġrate": 2437,
      "Ġalthough": 2438,
      "ĠFin": 2439,
      "andon": 2440,
      "Ġ41": 2441,
      "Ġmass": 2442,
      "ota": 2443,
      "ape": 2444,
      "ĠBritain": 2445,
      "yl": 2446,
      "Ġrush": 2447,
      "Ġcop": 2448,
      "ha": 2449,
      "omb": 2450,
      "Ġstop": 2451,
      "Ġlocated": 2452,
      "etwork": 2453,
      "Ġtw": 2454,
      "Ġdev": 2455,
      "ĠParty": 2456,
      "ators": 2457,
      "ĠAFC": 2458,
      "Ġfull": 2459,
      "Ġcensus": 2460,
      "ĠPit": 2461,
      "ĠJones": 2462,
      "ĠNFL": 2463,
      "ideo": 2464,
      "hel": 2465,
      "Ġfumble": 2466,
      "see": 2467,
      "ĠSeahawks": 2468,
      "ĠRev": 2469,
      "Ġdeb": 2470,
      "Ġactiv": 2471,
      "Ġterritory": 2472,
      "roy": 2473,
      "ĠRich": 2474,
      "ificant": 2475,
      "Ġzone": 2476,
      "ored": 2477,
      "Ġsay": 2478,
      "Ġ48": 2479,
      "Ġprop": 2480,
      "Ġnever": 2481,
      "Ġport": 2482,
      "ĠHenry": 2483,
      "Ġfriend": 2484,
      "berger": 2485,
      "ĠCardinals": 2486,
      "Ġisland": 2487,
      "Ġnailed": 2488,
      "Ġvol": 2489,
      "Ġmeans": 2490,
      "agu": 2491,
      "Ġindivid": 2492,
      "Ġearl": 2493,
      "Ġintro": 2494,
      "ably": 2495,
      "Ġoccur": 2496,
      "Ġep": 2497,
      "%)": 2498,
      "ĠIr": 2499,
      "ety": 2500,
      "ĠSchool": 2501,
      "burgh": 2502,
      "ma": 2503,
      "Ġside": 2504,
      "Ġ2001": 2505,
      "arn": 2506,
      "ayed": 2507,
      "Ġlongest": 2508,
      "Ġestablish": 2509,
      "Ġfar": 2510,
      "sel": 2511,
      "ĠCor": 2512,
      "rica": 2513,
      "ĠLatin": 2514,
      "&#": 2515,
      "Ġservice": 2516,
      "ways": 2517,
      "stant": 2518,
      "Ġlonger": 2519,
      "Ġclub": 2520,
      "Ġvarious": 2521,
      "ification": 2522,
      "Amer": 2523,
      "adel": 2524,
      "ades": 2525,
      "Ġcontr": 2526,
      "Ġformed": 2527,
      "ĠBro": 2528,
      "Ġfun": 2529,
      "ĠGeorge": 2530,
      "bert": 2531,
      "ilies": 2532,
      "Ġhard": 2533,
      "Ġ2016": 2534,
      "Ġsuff": 2535,
      "ĠDan": 2536,
      "Ġphys": 2537,
      "ĠPant": 2538,
      "ĠAmeric": 2539,
      "raight": 2540,
      "Ġsignificant": 2541,
      "ĠDiego": 2542,
      "Ġ|": 2543,
      "Ġschools": 2544,
      "Ġincrease": 2545,
      "ensity": 2546,
      "34": 2547,
      "Ġcities": 2548,
      "Ġhous": 2549,
      "Ġminutes": 2550,
      "ĠBlack": 2551,
      "Ġground": 2552,
      "ination": 2553,
      "Ġfac": 2554,
      "ĠâĢ": 2555,
      "Ġblack": 2556,
      "eck": 2557,
      "Ġmember": 2558,
      "Ġrefer": 2559,
      "ugu": 2560,
      "Ġ2003": 2561,
      "pan": 2562,
      "oon": 2563,
      "Ġmovie": 2564,
      "emy": 2565,
      "ĠMany": 2566,
      "Ġlab": 2567,
      "ĠMex": 2568,
      "ĠGod": 2569,
      "rick": 2570,
      "Ġlet": 2571,
      "ĠArab": 2572,
      "iol": 2573,
      "Ġwhite": 2574,
      "Ġfree": 2575,
      "Ġhighest": 2576,
      "istan": 2577,
      "Ġ43": 2578,
      "On": 2579,
      "Ġfood": 2580,
      "Ġparty": 2581,
      "aries": 2582,
      "Ġgiving": 2583,
      "oping": 2584,
      "Ġstudents": 2585,
      "Ġhouseholds": 2586,
      "aves": 2587,
      "Ġ42": 2588,
      "ids": 2589,
      "osop": 2590,
      "Ġreached": 2591,
      "Ġopening": 2592,
      "gypt": 2593,
      "Ġpublished": 2594,
      "Ġbas": 2595,
      "Ġconversion": 2596,
      "Ġrole": 2597,
      "ĠPh": 2598,
      "Ġblock": 2599,
      ".,": 2600,
      "Ġ1990": 2601,
      "ements": 2602,
      "field": 2603,
      "ster": 2604,
      "ece": 2605,
      "ummer": 2606,
      "ĠQu": 2607,
      "liam": 2608,
      "Ġ46": 2609,
      "Ġhigher": 2610,
      "ministr": 2611,
      "Ġcampaign": 2612,
      "app": 2613,
      "ĠOttoman": 2614,
      "ĠNFC": 2615,
      "Ġsour": 2616,
      "Ġmot": 2617,
      "ĠAustralia": 2618,
      "Ġinit": 2619,
      "Ġfootball": 2620,
      "Ġbord": 2621,
      "ested": 2622,
      "Ġonce": 2623,
      "ĠRussia": 2624,
      "ansas": 2625,
      "Ġ47": 2626,
      "val": 2627,
      "ictor": 2628,
      "ĠMac": 2629,
      "uter": 2630,
      "Ġwritten": 2631,
      "Ġstudy": 2632,
      "ĠGovern": 2633,
      "Ġbillion": 2634,
      "Ġacross": 2635,
      "Ġmeet": 2636,
      "Ġbehind": 2637,
      "BC": 2638,
      "ography": 2639,
      "Ġsaw": 2640,
      "ĠRod": 2641,
      "ĠKore": 2642,
      "ential": 2643,
      "ĠSaint": 2644,
      "Ġrule": 2645,
      "reet": 2646,
      "sequ": 2647,
      "ĠIsland": 2648,
      "ĠAfrica": 2649,
      "ĠJapanese": 2650,
      "rought": 2651,
      "Ġoriginal": 2652,
      "ĠBer": 2653,
      "ĠDutch": 2654,
      "Ġthings": 2655,
      "istic": 2656,
      "ĠFirst": 2657,
      "ij": 2658,
      "ĠDon": 2659,
      "eep": 2660,
      "peror": 2661,
      "Ġcollect": 2662,
      "ĠKh": 2663,
      "olk": 2664,
      "Ġinternational": 2665,
      "Ġgoing": 2666,
      "km": 2667,
      "adelph": 2668,
      "Ġchange": 2669,
      "Ġoffense": 2670,
      "Ġwest": 2671,
      "lisberger": 2672,
      "ati": 2673,
      "Ġfamous": 2674,
      "Ġpriv": 2675,
      "aper": 2676,
      "ĠMike": 2677,
      "ĠCle": 2678,
      "Ġrecogn": 2679,
      "Ġrace": 2680,
      "Ġmult": 2681,
      "adelphia": 2682,
      "Ġmater": 2683,
      "ĠGeneral": 2684,
      "imate": 2685,
      "ethlisberger": 2686,
      "Ġsometimes": 2687,
      "As": 2688,
      "ĠRoethlisberger": 2689,
      "Ġ2002": 2690,
      "liament": 2691,
      "Ġseven": 2692,
      "ĠMor": 2693,
      "Ġsect": 2694,
      "ĠAfterwards": 2695,
      "ander": 2696,
      "iami": 2697,
      "ĠGrand": 2698,
      "ĠSoc": 2699,
      "useum": 2700,
      "yr": 2701,
      "36": 2702,
      "ĠPanthers": 2703,
      "ĠRoyal": 2704,
      "iams": 2705,
      "82": 2706,
      "Ġimproved": 2707,
      "ĠWestern": 2708,
      "Ġmother": 2709,
      "cy": 2710,
      "Ġreal": 2711,
      "Ġdefeated": 2712,
      "ĠCatholic": 2713,
      "Ġread": 2714,
      "Ġvon": 2715,
      "Ġbuilding": 2716,
      "ÃŃ": 2717,
      "ĠBalt": 2718,
      "reland": 2719,
      "ino": 2720,
      "van": 2721,
      "Ġmonths": 2722,
      "American": 2723,
      "igr": 2724,
      "Ã³": 2725,
      "Ġtri": 2726,
      "Ġscient": 2727,
      "Ġcond": 2728,
      "Ġ65": 2729,
      "Ġcompared": 2730,
      "ys": 2731,
      "Ġproduced": 2732,
      "Ġcaused": 2733,
      "bor": 2734,
      "Ġimm": 2735,
      "Ġtemper": 2736,
      "ĠTo": 2737,
      "ows": 2738,
      "Ġtoo": 2739,
      "ĠWil": 2740,
      "Ġ60": 2741,
      "Ġlanguages": 2742,
      "Ġcirc": 2743,
      "Ġrook": 2744,
      "Ġalmost": 2745,
      "ĠItalian": 2746,
      "Ġsack": 2747,
      "Ġrelations": 2748,
      "Ġoccup": 2749,
      "Ġnailing": 2750,
      "Ġreligious": 2751,
      "ĠRec": 2752,
      "Al": 2753,
      "uf": 2754,
      "Ġphil": 2755,
      "incip": 2756,
      "ĠVal": 2757,
      "ĠPaul": 2758,
      "Ġpred": 2759,
      "ecially": 2760,
      "ĠPhiladelphia": 2761,
      "ression": 2762,
      "Ġproper": 2763,
      "ests": 2764,
      "76": 2765,
      "Ġstruct": 2766,
      "ĠWilliams": 2767,
      "Ġseen": 2768,
      "ula": 2769,
      "Ġrookie": 2770,
      "ĠSl": 2771,
      "Ġlittle": 2772,
      "Ġkind": 2773,
      "Ġpolic": 2774,
      "ĠDiv": 2775,
      "Ġur": 2776,
      "Ġpress": 2777,
      "Ġsurv": 2778,
      "--": 2779,
      "eh": 2780,
      "ranch": 2781,
      "Ġtied": 2782,
      "ĠEgypt": 2783,
      "iff": 2784,
      "ele": 2785,
      "lymp": 2786,
      "Ġtitle": 2787,
      "Ġyoung": 2788,
      "ĠOff": 2789,
      "99": 2790,
      "Ġaccording": 2791,
      "arian": 2792,
      "Ġthroughout": 2793,
      "Ġappear": 2794,
      "atter": 2795,
      "ethod": 2796,
      "Ġcatch": 2797,
      "otes": 2798,
      "especially": 2799,
      "ĠNor": 2800,
      "Ġdi": 2801,
      "ĠMiami": 2802,
      "Ġcourt": 2803,
      "Ġren": 2804,
      "ĠMost": 2805,
      "berg": 2806,
      "asion": 2807,
      "Ġconstruct": 2808,
      "Ġintercepted": 2809,
      "ynast": 2810,
      "ĠIreland": 2811,
      "38": 2812,
      "Ġannounced": 2813,
      "ĠHistory": 2814,
      "iction": 2815,
      "stand": 2816,
      "ĠIslam": 2817,
      "ĠRobert": 2818,
      "ĠMart": 2819,
      "Ġleading": 2820,
      "atures": 2821,
      "ĠParis": 2822,
      "Ġassoc": 2823,
      "Ġtaken": 2824,
      "Ġbusiness": 2825,
      "Ġeast": 2826,
      "Ġmer": 2827,
      "Ġcolon": 2828,
      "Ġtie": 2829,
      "ĠVictor": 2830,
      "Ġ80": 2831,
      "Ġrushing": 2832,
      "ĠMal": 2833,
      "unic": 2834,
      "Ġcoast": 2835,
      "ena": 2836,
      "ĠCong": 2837,
      "ĠSuper": 2838,
      "Ġens": 2839,
      "abb": 2840,
      "Ġwinning": 2841,
      "ĠApp": 2842,
      "Ġproduction": 2843,
      "Ġeconomic": 2844,
      "Ġhimself": 2845,
      "ĠTer": 2846,
      "ĠMad": 2847,
      "ĠKansas": 2848,
      "Ġrock": 2849,
      "37": 2850,
      "Ġterms": 2851,
      "ĠAg": 2852,
      "ĠRes": 2853,
      "ĠField": 2854,
      "ĠGar": 2855,
      "with": 2856,
      "fic": 2857,
      "Ġbroad": 2858,
      "kowski": 2859,
      "Ġremained": 2860,
      "Ġlosing": 2861,
      "ceed": 2862,
      "Ġcoun": 2863,
      "Ġcost": 2864,
      "48": 2865,
      "ĠChris": 2866,
      "ĠJust": 2867,
      "Ġdecl": 2868,
      "ĠItaly": 2869,
      "Ġworks": 2870,
      "ĠCanada": 2871,
      "game": 2872,
      "65": 2873,
      "tsburgh": 2874,
      "Ġsize": 2875,
      "Ġenc": 2876,
      "An": 2877,
      "Ġeither": 2878,
      "Ġkeep": 2879,
      "itect": 2880,
      "Ġliter": 2881,
      "ĠBel": 2882,
      "ware": 2883,
      "Ġbrought": 2884,
      "aled": 2885,
      "iforn": 2886,
      "Ġreason": 2887,
      "Ġmaterial": 2888,
      "Ġappe": 2889,
      "Ġbi": 2890,
      "ograph": 2891,
      "mb": 2892,
      "cast": 2893,
      "Ġdensity": 2894,
      "Ġfamilies": 2895,
      "Ġeducation": 2896,
      "itive": 2897,
      "enced": 2898,
      "Ġsquare": 2899,
      "ĠMont": 2900,
      "eg": 2901,
      "ĠSwed": 2902,
      "Ġfounded": 2903,
      "ĠDel": 2904,
      "imately": 2905,
      "selves": 2906,
      "Ġbrother": 2907,
      "Ġquick": 2908,
      "Ar": 2909,
      "Ġten": 2910,
      "oice": 2911,
      "Ġcentral": 2912,
      "Ġphilosop": 2913,
      "Ġthemselves": 2914,
      "ĠKe": 2915,
      "ĠAward": 2916,
      "Ġanswered": 2917,
      "ĠLaw": 2918,
      "Ġarg": 2919,
      "ude": 2920,
      "Ġculture": 2921,
      "ught": 2922,
      "Ġcase": 2923,
      "Ġmoney": 2924,
      "Ġsafety": 2925,
      "ĠAsia": 2926,
      "64": 2927,
      "FA": 2928,
      "ĠPittsburgh": 2929,
      "iles": 2930,
      "ĠJer": 2931,
      "ennes": 2932,
      "Ġopened": 2933,
      "Ġmarket": 2934,
      "ĠPeter": 2935,
      "ĠAccording": 2936,
      "Ġregular": 2937,
      "ifornia": 2938,
      "etic": 2939,
      "onn": 2940,
      "Ġthink": 2941,
      "Ġstar": 2942,
      "year": 2943,
      "ument": 2944,
      "Ġdet": 2945,
      "Ġespecially": 2946,
      "pped": 2947,
      "Ġunits": 2948,
      "Ġengine": 2949,
      "ĠIm": 2950,
      "Ġstyle": 2951,
      "Ġeventually": 2952,
      "Ġemploy": 2953,
      "ĠBow": 2954,
      "ĠKn": 2955,
      "Ġsit": 2956,
      "Ġneg": 2957,
      "Ġavail": 2958,
      "ĠMary": 2959,
      "Ġaddition": 2960,
      "Ġsoldiers": 2961,
      "Ġsupp": 2962,
      "Ġfav": 2963,
      "ĠCentral": 2964,
      "ĠRel": 2965,
      "oms": 2966,
      "Ġmove": 2967,
      "Ġmeas": 2968,
      "oul": 2969,
      "ĠJeff": 2970,
      "Ġsouthern": 2971,
      "ĠOlymp": 2972,
      "ĠFort": 2973,
      "Ġord": 2974,
      "Ġ1980": 2975,
      "nder": 2976,
      "ĠMuslim": 2977,
      "aval": 2978,
      "ĠAmericans": 2979,
      "Ġpul": 2980,
      "ĠAc": 2981,
      "Ġnatural": 2982,
      "Ġrac": 2983,
      "Ġlaun": 2984,
      "Ġeight": 2985,
      "ols": 2986,
      "Ġunivers": 2987,
      "Ġpassed": 2988,
      "Ġmarried": 2989,
      "Ġdrove": 2990,
      "ocratic": 2991,
      "Ġstrugg": 2992,
      "Ġblood": 2993,
      "Ġpay": 2994,
      "Ġrally": 2995,
      "Ġrights": 2996,
      "ĠCalifornia": 2997,
      "ya": 2998,
      "ĠDep": 2999,
      "ĠSeattle": 3000,
      "160": 3001,
      "olis": 3002,
      "Ġ1970": 3003,
      "Ġbreak": 3004,
      "ollowing": 3005,
      "44": 3006,
      "Ġtrade": 3007,
      "Ġreturning": 3008,
      "100": 3009,
      "ĠCut": 3010,
      "aps": 3011,
      "Ġsettle": 3012,
      "ĠMcC": 3013,
      "ĠCollege": 3014,
      "uries": 3015,
      "uit": 3016,
      "Ġsystems": 3017,
      "Ġevents": 3018,
      "ĠFrom": 3019,
      "ĠHigh": 3020,
      "ĠPac": 3021,
      "ĠChampionship": 3022,
      "ream": 3023,
      "icle": 3024,
      "ĠTurk": 3025,
      "uing": 3026,
      "Ġfre": 3027,
      "ĠCourt": 3028,
      "Ġspok": 3029,
      "Ġresearch": 3030,
      "Ġnorthern": 3031,
      "ĠIrish": 3032,
      "irl": 3033,
      "ĠCouncil": 3034,
      "reg": 3035,
      "ords": 3036,
      "ĠIII": 3037,
      "Ġrespect": 3038,
      "Ġbeginning": 3039,
      "ĠBo": 3040,
      "Ġfinally": 3041,
      "77": 3042,
      "ounds": 3043,
      "Ġoutside": 3044,
      "Ġclos": 3045,
      "Ġgrowth": 3046,
      "ores": 3047,
      "aine": 3048,
      "Ġhealth": 3049,
      "uses": 3050,
      "ĠFrancisco": 3051,
      "95": 3052,
      "Ġrecorded": 3053,
      "action": 3054,
      "ands": 3055,
      "Ġcamp": 3056,
      "Ġlower": 3057,
      "Ġreach": 3058,
      "inal": 3059,
      "Ġever": 3060,
      "Ġcaught": 3061,
      "After": 3062,
      "Ġelection": 3063,
      "imore": 3064,
      "ĠSen": 3065,
      "Ġconver": 3066,
      "Ġleaders": 3067,
      "63": 3068,
      "Ġdata": 3069,
      "tr": 3070,
      "Ġsigned": 3071,
      "Ġnetwork": 3072,
      "ĠVir": 3073,
      "Ġsex": 3074,
      "Ġincreasing": 3075,
      "bers": 3076,
      "bour": 3077,
      "iqu": 3078,
      "raham": 3079,
      "Ġstreak": 3080,
      "rel": 3081,
      "Ġrange": 3082,
      "arily": 3083,
      "ĠArt": 3084,
      "omes": 3085,
      "Ã¶": 3086,
      "ĠRichard": 3087,
      "ida": 3088,
      "Ġreported": 3089,
      "Ġmajority": 3090,
      "hab": 3091,
      "kn": 3092,
      "Ġstraight": 3093,
      "gers": 3094,
      "Ġwind": 3095,
      "Ġreplied": 3096,
      "Ġwhe": 3097,
      "Ġrather": 3098,
      "ĠSpain": 3099,
      "ĠDu": 3100,
      "Ġentire": 3101,
      "ennessee": 3102,
      "Ġ--": 3103,
      "chie": 3104,
      "ĠRivers": 3105,
      "alo": 3106,
      "Ġflow": 3107,
      "Ġstandard": 3108,
      "Ġstation": 3109,
      "ĠDar": 3110,
      "ĠFr": 3111,
      "Ġpers": 3112,
      "Ġmethod": 3113,
      "Ġcit": 3114,
      "ĠMinn": 3115,
      "ynasty": 3116,
      "ĠHill": 3117,
      "olit": 3118,
      "play": 3119,
      "lor": 3120,
      "ĠJoe": 3121,
      "Ġmount": 3122,
      "55": 3123,
      "ibr": 3124,
      "ĠAnt": 3125,
      "Ġolder": 3126,
      "Ġprevent": 3127,
      "ĠArmen": 3128,
      "Ġinstead": 3129,
      "Ġmor": 3130,
      "not": 3131,
      "jects": 3132,
      "Ġhelped": 3133,
      "ĠBest": 3134,
      "perial": 3135,
      "medi": 3136,
      "mon": 3137,
      "ĠDenver": 3138,
      "Ġgenerally": 3139,
      "Ġdise": 3140,
      "Ġuniversity": 3141,
      "Ġviol": 3142,
      "Ġlik": 3143,
      "west": 3144,
      "Ġsugg": 3145,
      "ĠTennessee": 3146,
      "Ġpast": 3147,
      "ĠSer": 3148,
      "Ġpur": 3149,
      "ĠSing": 3150,
      "Ġtheory": 3151,
      "ari": 3152,
      "Ġpossible": 3153,
      "rael": 3154,
      "Ġspeak": 3155,
      "Ġinformation": 3156,
      "Ġfire": 3157,
      "Ġcertain": 3158,
      "49": 3159,
      "ĠCutler": 3160,
      "Ġriver": 3161,
      "Ġtoday": 3162,
      "ourn": 3163,
      "Ġpeace": 3164,
      "Ġleader": 3165,
      "66": 3166,
      "Ġclosed": 3167,
      "Ġcour": 3168,
      "be": 3169,
      "rior": 3170,
      "ĠJay": 3171,
      "ĠAsian": 3172,
      "esota": 3173,
      "ising": 3174,
      "ĠOl": 3175,
      "Ġlived": 3176,
      "atory": 3177,
      "39": 3178,
      "31": 3179,
      "Ġincludes": 3180,
      "ique": 3181,
      "Ġmovement": 3182,
      "Ġchurch": 3183,
      "Ġupon": 3184,
      "tain": 3185,
      "Ġ1999": 3186,
      "Ġge": 3187,
      "ĠQueen": 3188,
      "Ġavailable": 3189,
      "ĠBaltimore": 3190,
      "antic": 3191,
      "ĠIf": 3192,
      "Ġchanged": 3193,
      "Ġestimated": 3194,
      "Ġadministr": 3195,
      "ĠBrandon": 3196,
      "Ġhappened": 3197,
      "ĠJosh": 3198,
      "Ġitself": 3199,
      "Ġfederal": 3200,
      "ĠMinnesota": 3201,
      "%),": 3202,
      "Ġbo": 3203,
      "ĠEarth": 3204,
      "hew": 3205,
      "Ġrecovered": 3206,
      "ĠUK": 3207,
      "elling": 3208,
      "Ġoffice": 3209,
      "ĠPlay": 3210,
      "isl": 3211,
      "idence": 3212,
      "like": 3213,
      "ĠTreaty": 3214,
      "ĠAk": 3215,
      "Ġconqu": 3216,
      "adu": 3217,
      "pro": 3218,
      "Ġ[": 3219,
      "board": 3220,
      "Ġservices": 3221,
      "Ġprincip": 3222,
      "Ġsom": 3223,
      "Ġturned": 3224,
      "Ġcenter": 3225,
      "ĠÃ": 3226,
      "Ġdam": 3227,
      "47": 3228,
      "ky": 3229,
      "Ġethn": 3230,
      "Ġarchitect": 3231,
      "born": 3232,
      "ta": 3233,
      "ĠHall": 3234,
      "ĠWhile": 3235,
      "Ġvideo": 3236,
      "Ġtaking": 3237,
      "ĠTwo": 3238,
      "ĠOak": 3239,
      "Ġfront": 3240,
      "Ġspread": 3241,
      "rizona": 3242,
      "ĠPeople": 3243,
      "Ġra": 3244,
      "Ġversion": 3245,
      "Ġlarger": 3246,
      "85": 3247,
      "Ġhy": 3248,
      "viron": 3249,
      "ĠAlthough": 3250,
      "rison": 3251,
      "Ġtrib": 3252,
      "Ġcross": 3253,
      "Ġcases": 3254,
      "Ġworking": 3255,
      "Ġsea": 3256,
      "hib": 3257,
      "ĠProt": 3258,
      "Ĺı": 3259,
      "Ġobs": 3260,
      "urt": 3261,
      "ĠVin": 3262,
      "Ġarm": 3263,
      "Ġcaptured": 3264,
      "Ġtreat": 3265,
      "Ġtax": 3266,
      "ĠLater": 3267,
      "ze": 3268,
      "erous": 3269,
      "69": 3270,
      "add": 3271,
      "ability": 3272,
      "Ġsett": 3273,
      "ĠFrank": 3274,
      "ĠDivision": 3275,
      "hi": 3276,
      "NA": 3277,
      "ss": 3278,
      "Ġcause": 3279,
      "Ġseconds": 3280,
      "alty": 3281,
      "âĹı": 3282,
      "Ġdestroy": 3283,
      "ĠThen": 3284,
      "Ġabove": 3285,
      "ĠArizona": 3286,
      "Ġsoon": 3287,
      "Ġdecided": 3288,
      "ĠSund": 3289,
      "ĠMount": 3290,
      "Ġcompan": 3291,
      "Ġmight": 3292,
      "=\"": 3293,
      "Ġpos": 3294,
      "Ġchem": 3295,
      "Ġprison": 3296,
      "ĠSim": 3297,
      "me": 3298,
      "ĠMer": 3299,
      "ires": 3300,
      "Ġnation": 3301,
      "Ġbetter": 3302,
      "ĠRomo": 3303,
      "Ġdeep": 3304,
      "ancial": 3305,
      "Ġ2017": 3306,
      "Ġprofession": 3307,
      "Ġforms": 3308,
      "Ġchanges": 3309,
      "Ġpot": 3310,
      "61": 3311,
      "iest": 3312,
      "Ġinfluence": 3313,
      "ĠLong": 3314,
      "Äģ": 3315,
      "atives": 3316,
      "Ġhook": 3317,
      "32": 3318,
      "Ġaccess": 3319,
      "heast": 3320,
      "Ġprivate": 3321,
      "Ġproblems": 3322,
      "Ġhun": 3323,
      "ĠBul": 3324,
      "ĠMiddle": 3325,
      "Ġvill": 3326,
      "ano": 3327,
      "Ġrival": 3328,
      "stitut": 3329,
      "reme": 3330,
      "ĠSal": 3331,
      "roup": 3332,
      "ĠMark": 3333,
      "Ġstruck": 3334,
      "bon": 3335,
      "Ġjoined": 3336,
      "89": 3337,
      "part": 3338,
      "ump": 3339,
      "Ġraces": 3340,
      "Ġjob": 3341,
      "ĠPolish": 3342,
      "ĠMe": 3343,
      "ground": 3344,
      "ĠRh": 3345,
      "rac": 3346,
      "Ġanimals": 3347,
      "Ġfund": 3348,
      "Ġvisit": 3349,
      "face": 3350,
      "Ġcolor": 3351,
      "Ġprovince": 3352,
      "ĠAv": 3353,
      "Ġscoreless": 3354,
      "500": 3355,
      "apolis": 3356,
      "Ġmanag": 3357,
      "Ġwife": 3358,
      "Ġconnected": 3359,
      "Ġancest": 3360,
      "Ġ1998": 3361,
      "Ġpolice": 3362,
      "sy": 3363,
      "Ġinvest": 3364,
      "ĠCenter": 3365,
      "59": 3366,
      "Ġwanted": 3367,
      "79": 3368,
      "Ġstory": 3369,
      "Did": 3370,
      "Ġnumbers": 3371,
      "ĠAtlanta": 3372,
      "cle": 3373,
      "Ġforeign": 3374,
      "Ġtest": 3375,
      "Ġaward": 3376,
      "Ġbirth": 3377,
      "oted": 3378,
      "ĠCast": 3379,
      "Ġindustry": 3380,
      "Ġfeature": 3381,
      "Ġreplaced": 3382,
      "Ġserved": 3383,
      "iter": 3384,
      "ened": 3385,
      "Ġeas": 3386,
      "Ġsch": 3387,
      "Ġcat": 3388,
      "iding": 3389,
      "Ġwords": 3390,
      "Ġplant": 3391,
      "Ġrespons": 3392,
      "Ġaction": 3393,
      "Ã¨": 3394,
      "ĠCinc": 3395,
      "Ġmostly": 3396,
      "owers": 3397,
      "Ġtraditional": 3398,
      "Ġnar": 3399,
      "Ġmonth": 3400,
      "Ġrebound": 3401,
      "Ġdeter": 3402,
      "Ġintroduced": 3403,
      "ĠJagu": 3404,
      ".[": 3405,
      "Hoping": 3406,
      "iment": 3407,
      "Ġpick": 3408,
      "cean": 3409,
      "wood": 3410,
      "Ġdig": 3411,
      "eph": 3412,
      "Ġscience": 3413,
      "Ġconduct": 3414,
      "Ġstarting": 3415,
      "ĠTony": 3416,
      "Ġquickly": 3417,
      "uments": 3418,
      "Ġfif": 3419,
      "Ġadop": 3420,
      "Ġbar": 3421,
      "odes": 3422,
      "Ġfoc": 3423,
      "Ġelected": 3424,
      "Ġworked": 3425,
      "Ġ1997": 3426,
      "Ġi": 3427,
      "ĠGold": 3428,
      "Ġdeg": 3429,
      "Ġminor": 3430,
      "ux": 3431,
      "Ġdiffic": 3432,
      "ĠCam": 3433,
      "Ġmus": 3434,
      "46": 3435,
      "ror": 3436,
      "Ġcoll": 3437,
      "innati": 3438,
      "Ġrail": 3439,
      "Ġpulled": 3440,
      "estic": 3441,
      "ilities": 3442,
      "Ġbird": 3443,
      "Ġcommer": 3444,
      "aut": 3445,
      "Ġlaws": 3446,
      "Ġfemale": 3447,
      "uguese": 3448,
      "ether": 3449,
      "uge": 3450,
      "ĠAngel": 3451,
      "ĠIsrael": 3452,
      "87": 3453,
      "Ġprogram": 3454,
      "Ġdifficult": 3455,
      "ĠMinister": 3456,
      "ĠMil": 3457,
      "ccane": 3458,
      "42": 3459,
      "Ġsat": 3460,
      "Ġneigh": 3461,
      "ĠFlor": 3462,
      "Ġder": 3463,
      "ĠJaguars": 3464,
      "ĠPoland": 3465,
      "Ġkey": 3466,
      "ĠMexico": 3467,
      "ĠPacific": 3468,
      "aughter": 3469,
      "hood": 3470,
      "ishing": 3471,
      "Ġ70": 3472,
      "ĠScott": 3473,
      "ĠBell": 3474,
      "Ġalways": 3475,
      "ĠBuccane": 3476,
      "Ġachie": 3477,
      "alled": 3478,
      "ĠCincinnati": 3479,
      "anks": 3480,
      "unn": 3481,
      "ĠBuff": 3482,
      "ĠGo": 3483,
      "Ġquest": 3484,
      "irm": 3485,
      "ĠTor": 3486,
      "Ġconsist": 3487,
      "ĠCamp": 3488,
      "Ġincome": 3489,
      "Ġwhose": 3490,
      "Ġsays": 3491,
      "Ġwestern": 3492,
      "Ġnearly": 3493,
      "ĠScot": 3494,
      "ĠNight": 3495,
      "elled": 3496,
      "ĠCat": 3497,
      "ĠYou": 3498,
      "ĠRevolution": 3499,
      "rial": 3500,
      "ĠFootball": 3501,
      "ĠLab": 3502,
      "assel": 3503,
      "Ġlo": 3504,
      "Ġplants": 3505,
      "Ġindependent": 3506,
      "Ġ/": 3507,
      "Ġmeaning": 3508,
      "ĠNick": 3509,
      "che": 3510,
      "Ġcou": 3511,
      "Ġtraveled": 3512,
      "ĠMy": 3513,
      "ĠCongress": 3514,
      "ĠOakland": 3515,
      "Ġcombined": 3516,
      "what": 3517,
      "ingu": 3518,
      "Ġdou": 3519,
      "Ġsmaller": 3520,
      "ready": 3521,
      "ĠSea": 3522,
      "aded": 3523,
      "ait": 3524,
      "lict": 3525,
      "Ġsite": 3526,
      "CA": 3527,
      "Ġleague": 3528,
      "Ġbirths": 3529,
      "citation": 3530,
      "Ġbuildings": 3531,
      "Ġkm": 3532,
      "conference": 3533,
      "Ġenough": 3534,
      "Ġcover": 3535,
      "veland": 3536,
      "Ġemer": 3537,
      "Ġcommunity": 3538,
      "ĠArch": 3539,
      "Ġ51": 3540,
      "ĠWind": 3541,
      "istance": 3542,
      "ament": 3543,
      "vironment": 3544,
      "Ġbase": 3545,
      "Ġmodel": 3546,
      "41": 3547,
      "ĠÂ°": 3548,
      "73": 3549,
      "rying": 3550,
      "ĠBill": 3551,
      "ufact": 3552,
      "Ġ1991": 3553,
      "56": 3554,
      "71": 3555,
      "ĠYear": 3556,
      "Ġfort": 3557,
      "Ġcommit": 3558,
      "rup": 3559,
      "ving": 3560,
      "ressed": 3561,
      "kins": 3562,
      "Ġcorn": 3563,
      "Ġconsecutive": 3564,
      "Ġ1960": 3565,
      "Ġden": 3566,
      "ume": 3567,
      "la": 3568,
      "ĠEastern": 3569,
      "Ġkept": 3570,
      "Ġyard": 3571,
      "ĠCleveland": 3572,
      "Ġdescribed": 3573,
      "ĠGraham": 3574,
      "ĠVictoria": 3575,
      "ĠTampa": 3576,
      "Ġparticularly": 3577,
      "Ġethnic": 3578,
      "uals": 3579,
      "pe": 3580,
      "Ġ52": 3581,
      "ĠBuccaneers": 3582,
      "ĠKa": 3583,
      "anded": 3584,
      "ĠEmperor": 3585,
      "urity": 3586,
      "Ġtour": 3587,
      "Ġ1996": 3588,
      "Ġremain": 3589,
      "ĠMusic": 3590,
      "Ġrain": 3591,
      "Ġcitiz": 3592,
      "ĠLos": 3593,
      "Ġclock": 3594,
      "Ġsil": 3595,
      "Ġyes": 3596,
      "Ġborder": 3597,
      "Ġentered": 3598,
      "ĠSince": 3599,
      "Ġdone": 3600,
      "Ġdate": 3601,
      "Ġoffensive": 3602,
      "Ġ75": 3603,
      "Ġspace": 3604,
      "Ġabs": 3605,
      "Ġappeared": 3606,
      "Ġjud": 3607,
      "oph": 3608,
      "Ġreligion": 3609,
      "Ġkickoff": 3610,
      "Ġfig": 3611,
      "Ġanal": 3612,
      "iance": 3613,
      "oes": 3614,
      "78": 3615,
      "Ġcy": 3616,
      "Ġthreat": 3617,
      "ecess": 3618,
      "Ġdom": 3619,
      "vention": 3620,
      "ĠCompany": 3621,
      "ify": 3622,
      "ĠMuseum": 3623,
      "Ġprovide": 3624,
      "68": 3625,
      "Ġdisp": 3626,
      "Ġdeaths": 3627,
      "Ġattempted": 3628,
      "leans": 3629,
      "Ġdistr": 3630,
      "ĠJews": 3631,
      "leg": 3632,
      "ĠCB": 3633,
      "craft": 3634,
      "ĠIndianapolis": 3635,
      "ĠAnton": 3636,
      "Ġlay": 3637,
      "Ġregard": 3638,
      "ĠIts": 3639,
      "Ġdog": 3640,
      "ĠMr": 3641,
      "ĠJac": 3642,
      "Ġfrequ": 3643,
      "ĠDay": 3644,
      "stitute": 3645,
      "Ġtold": 3646,
      "wide": 3647,
      "ĠFred": 3648,
      "Ġearlier": 3649,
      "onic": 3650,
      "Ġeconomy": 3651,
      "Ġindic": 3652,
      "Ġalready": 3653,
      "Ġmakes": 3654,
      "ĠPrince": 3655,
      "Ġfinished": 3656,
      "ka": 3657,
      "bell": 3658,
      "ĠSom": 3659,
      "Ġparticip": 3660,
      "\")": 3661,
      "ĠParliament": 3662,
      "Ġconflict": 3663,
      "Ġmag": 3664,
      "Ġcompanies": 3665,
      "Ġmem": 3666,
      "Ġimmedi": 3667,
      "ken": 3668,
      "ĠWars": 3669,
      "aven": 3670,
      "isions": 3671,
      "ĠSunday": 3672,
      "ĠPortuguese": 3673,
      "Ġdoct": 3674,
      "istics": 3675,
      "rieved": 3676,
      "uz": 3677,
      "ĠCanadian": 3678,
      "Ġpenalty": 3679,
      "duce": 3680,
      "erve": 3681,
      "ixed": 3682,
      "Ġhon": 3683,
      "ĠMarsh": 3684,
      "eding": 3685,
      "âĢĶâĢĶ": 3686,
      "dr": 3687,
      "Ġtypes": 3688,
      "onse": 3689,
      "ĠEdward": 3690,
      "ĠAssoc": 3691,
      "Ġnorm": 3692,
      "ĠThat": 3693,
      "HL": 3694,
      "Ġ189": 3695,
      "Ġwhom": 3696,
      "Ġeastern": 3697,
      "Ġbring": 3698,
      "ximately": 3699,
      "Ġselect": 3700,
      "ibet": 3701,
      "ecause": 3702,
      "Ġ1995": 3703,
      "Ġround": 3704,
      "ulf": 3705,
      "Ġgold": 3706,
      "elt": 3707,
      "Ġsound": 3708,
      "Ġox": 3709,
      "Ġinhab": 3710,
      "ein": 3711,
      "Ġface": 3712,
      "Ġparen": 3713,
      "Ġschol": 3714,
      "Ġshows": 3715,
      "ĠInter": 3716,
      "iller": 3717,
      "ulation": 3718,
      "ublican": 3719,
      "Ġphot": 3720,
      "otion": 3721,
      "Ġancient": 3722,
      "ĠFav": 3723,
      "ĠEv": 3724,
      "inct": 3725,
      "Ġ1994": 3726,
      "orial": 3727,
      "Ġ90": 3728,
      "mph": 3729,
      "Ġser": 3730,
      "NN": 3731,
      "icial": 3732,
      "Ġrecent": 3733,
      "Ġsubsequ": 3734,
      "ĠPress": 3735,
      "ali": 3736,
      "Ġrelationship": 3737,
      "Ġrelease": 3738,
      "72": 3739,
      "acters": 3740,
      "Ġcomplet": 3741,
      "ĠBuffalo": 3742,
      "Ġprimary": 3743,
      "reement": 3744,
      "Ġsoft": 3745,
      "Ġdynasty": 3746,
      "AT": 3747,
      "Ġdepartment": 3748,
      "Ġplaying": 3749,
      "Ġaud": 3750,
      "rich": 3751,
      "ĠBudd": 3752,
      "cial": 3753,
      "airs": 3754,
      "Ġmarked": 3755,
      "ĠMore": 3756,
      "ĠHan": 3757,
      "43": 3758,
      "Â²": 3759,
      "tee": 3760,
      "ĠHans": 3761,
      "58": 3762,
      "ĠRodgers": 3763,
      "echan": 3764,
      "Ġpages": 3765,
      "Ġself": 3766,
      "ĠGame": 3767,
      "anned": 3768,
      "icro": 3769,
      "Ġseem": 3770,
      "Ġbooks": 3771,
      "Ġoil": 3772,
      "ĠBre": 3773,
      "ĠCommun": 3774,
      "ends": 3775,
      "Ġtowards": 3776,
      "Ġlegal": 3777,
      "Ġplayoff": 3778,
      "ĠMel": 3779,
      "Ġovertime": 3780,
      "obal": 3781,
      "Is": 3782,
      "Ġprovided": 3783,
      "ĠOld": 3784,
      "Ġvir": 3785,
      "ĠSecond": 3786,
      "62": 3787,
      "uture": 3788,
      "elebr": 3789,
      "mar": 3790,
      "Ġche": 3791,
      "ĠGreg": 3792,
      "awn": 3793,
      "ĠOrleans": 3794,
      "bit": 3795,
      "Ġ1992": 3796,
      "Ġruled": 3797,
      "Ġpercentage": 3798,
      "emic": 3799,
      "Ġdivided": 3800,
      "Ġrecover": 3801,
      "Ġhot": 3802,
      "ĠMa": 3803,
      "Ġdistrict": 3804,
      "ceptions": 3805,
      "Ġfemales": 3806,
      "Ġcounter": 3807,
      "Ġkicking": 3808,
      "ĠVirgin": 3809,
      "Ġpassing": 3810,
      "Ġelectric": 3811,
      "%,": 3812,
      "Ġcomplex": 3813,
      "Ġuses": 3814,
      "Ġcenturies": 3815,
      "Ġdesigned": 3816,
      "Ġtreaty": 3817,
      "istrict": 3818,
      "ĠEarly": 3819,
      "Ġbelieved": 3820,
      "ada": 3821,
      "Ġtransl": 3822,
      "Ġfinding": 3823,
      "It": 3824,
      "Ġperformance": 3825,
      "ecting": 3826,
      "Ġstayed": 3827,
      "ĠJewish": 3828,
      "Ġsnap": 3829,
      "aker": 3830,
      "ios": 3831,
      "Ġdefensive": 3832,
      "Ġill": 3833,
      "Ġdefeat": 3834,
      "ĠCivil": 3835,
      "Ġmanufact": 3836,
      "Ġcultural": 3837,
      "olf": 3838,
      "Ġ(\"": 3839,
      "sen": 3840,
      "ĠBrees": 3841,
      "ĠIran": 3842,
      "Ġsongs": 3843,
      "ĠGould": 3844,
      "ĠStud": 3845,
      "undred": 3846,
      "ĠGeorg": 3847,
      "Ġgre": 3848,
      "Ġmovies": 3849,
      "Ġgun": 3850,
      "ners": 3851,
      "band": 3852,
      "Ġamount": 3853,
      "ĠBry": 3854,
      "ledge": 3855,
      "Ġsupported": 3856,
      "oor": 3857,
      "edy": 3858,
      "Ġtext": 3859,
      "Ġsymb": 3860,
      "Ġrelated": 3861,
      "Ġmach": 3862,
      "ĠBook": 3863,
      "ĠWall": 3864,
      "igned": 3865,
      "Ġconstruction": 3866,
      "remier": 3867,
      "Ġthous": 3868,
      "âĢĿ": 3869,
      "Ġidea": 3870,
      "Ġepis": 3871,
      "Ġ53": 3872,
      "Ġproblem": 3873,
      "ĠSo": 3874,
      "Ġcomplete": 3875,
      "Ġâ": 3876,
      "ĠRome": 3877,
      "Ġexc": 3878,
      "ĠPrater": 3879,
      "Ġwr": 3880,
      "Ġmales": 3881,
      "Ġ64": 3882,
      "ricult": 3883,
      "Ġgrant": 3884,
      "Ġpoor": 3885,
      "overs": 3886,
      "gress": 3887,
      "ev": 3888,
      "Ġesc": 3889,
      "Ġtre": 3890,
      "Ġregions": 3891,
      "ushed": 3892,
      "Ġcast": 3893,
      "ĠFollowing": 3894,
      ");": 3895,
      "09": 3896,
      "Ġmedia": 3897,
      "unicip": 3898,
      "Ġnine": 3899,
      "ĠJes": 3900,
      "ĠStreet": 3901,
      "Ġtemperature": 3902,
      "Ġracial": 3903,
      "ping": 3904,
      "88": 3905,
      "ĠMass": 3906,
      "67": 3907,
      "Ġop": 3908,
      "Ġdeclared": 3909,
      "Ġinstr": 3910,
      "ĠTim": 3911,
      "Ġextended": 3912,
      "Ġinside": 3913,
      "ĠNorthern": 3914,
      "isham": 3915,
      "Ġlot": 3916,
      "Ġver": 3917,
      "ĠTV": 3918,
      "anced": 3919,
      "ĠHam": 3920,
      "Ġ2018": 3921,
      "ĠFlorida": 3922,
      "Ġinvolved": 3923,
      "Ġadvant": 3924,
      "Ġslow": 3925,
      "ĠConf": 3926,
      "icker": 3927,
      "ength": 3928,
      "ĠPey": 3929,
      "Ġcomeback": 3930,
      "Ġpolicy": 3931,
      "zone": 3932,
      "chest": 3933,
      "ĠGost": 3934,
      "Ġhours": 3935,
      "Ġbomb": 3936,
      "Ġresponse": 3937,
      "Ġnames": 3938,
      "Ġcorner": 3939,
      "ties": 3940,
      "Ġtradition": 3941,
      "riage": 3942,
      "ĠStaff": 3943,
      "ĠFavre": 3944,
      "ES": 3945,
      "mark": 3946,
      "Ġcontro": 3947,
      "ER": 3948,
      "Ġrequired": 3949,
      "Ġbur": 3950,
      "ension": 3951,
      "Ġplaces": 3952,
      "For": 3953,
      "oston": 3954,
      "ĠSun": 3955,
      "ĠPak": 3956,
      "thing": 3957,
      "Ġinvasion": 3958,
      "ĠFer": 3959,
      "rim": 3960,
      "Ġgrand": 3961,
      "cel": 3962,
      "ĠBowl": 3963,
      "Ġweeks": 3964,
      "known": 3965,
      "Ġcritic": 3966,
      "itch": 3967,
      "ĠAwards": 3968,
      "57": 3969,
      "Ġmiddle": 3970,
      "ĠTibet": 3971,
      "andy": 3972,
      "iences": 3973,
      "ĠJoseph": 3974,
      "ropical": 3975,
      "Ġthrowing": 3976,
      "ĠScotland": 3977,
      "Ġinterconference": 3978,
      "Ġdefin": 3979,
      "54": 3980,
      "Ġcharacters": 3981,
      "Ġdon": 3982,
      "Ġfranch": 3983,
      "51": 3984,
      "oo": 3985,
      "53": 3986,
      "Ġresulted": 3987,
      "ĠStr": 3988,
      "Ġships": 3989,
      "ĠNap": 3990,
      "There": 3991,
      "Ġaircraft": 3992,
      "Ġoccurred": 3993,
      "Ġindependence": 3994,
      "ĠJul": 3995,
      "Ġdropped": 3996,
      "ĠTexas": 3997,
      "Ġey": 3998,
      "Ġradio": 3999,
      "TV": 4000,
      "Ġfinancial": 4001,
      "ola": 4002,
      "Ġinterest": 4003,
      "Ġclear": 4004,
      "olitan": 4005,
      "who": 4006,
      "Ġthus": 4007,
      "ĠAlso": 4008,
      "Ġsitu": 4009,
      "Ġdrug": 4010,
      "Ġbye": 4011,
      "Ġthr": 4012,
      "atively": 4013,
      "Ġannual": 4014,
      "ĠĠĠĠĠĠĠĠ": 4015,
      "Ġdisease": 4016,
      "ĠPeyton": 4017,
      "Ġrap": 4018,
      "ĠAcad": 4019,
      "ĠGostkowski": 4020,
      "ournal": 4021,
      "ĠTrans": 4022,
      "Ġcells": 4023,
      "Ġlearn": 4024,
      "Ġobject": 4025,
      "Ġfriends": 4026,
      "ĠPers": 4027,
      "Ġclimate": 4028,
      "Ġacqu": 4029,
      "ributed": 4030,
      "ĠRay": 4031,
      "Ġcomputer": 4032,
      "ĠPalmer": 4033,
      "Ġstatus": 4034,
      "Ġsuper": 4035,
      "Åį": 4036,
      "ĠMiss": 4037,
      "ube": 4038,
      "Ġconsider": 4039,
      "Ġroy": 4040,
      "Ġonto": 4041,
      "ĠPen": 4042,
      "Ġvia": 4043,
      "Ġfought": 4044,
      "Ġofficially": 4045,
      "ĠMond": 4046,
      "ĠCharl": 4047,
      "Ġnomin": 4048,
      "ĠHung": 4049,
      "ym": 4050,
      "Ġapplic": 4051,
      "Ġbelow": 4052,
      "Ġdial": 4053,
      "ĠPruss": 4054,
      "ĠNot": 4055,
      "Ġaccom": 4056,
      "Ġcelebr": 4057,
      "Ġbroke": 4058,
      "Ġassociated": 4059,
      "BA": 4060,
      "Ġcannot": 4061,
      "Ġprofessional": 4062,
      "ĠMong": 4063,
      "ender": 4064,
      "right": 4065,
      "ita": 4066,
      "za": 4067,
      "ript": 4068,
      "Ġcreat": 4069,
      "Ġanswer": 4070,
      "Ġprior": 4071,
      "Ġagreed": 4072,
      "Ġcitizens": 4073,
      "ĠLind": 4074,
      "usp": 4075,
      "lying": 4076,
      "osa": 4077,
      "ĠAustralian": 4078,
      "Ġasked": 4079,
      "ĠLiber": 4080,
      "Ġlines": 4081,
      "Ġdoc": 4082,
      "Ġpi": 4083,
      "ointed": 4084,
      "Ġago": 4085,
      "Ġdeal": 4086,
      "Ġnarrow": 4087,
      "uman": 4088,
      "Ġsource": 4089,
      "74": 4090,
      "Ġdaughter": 4091,
      "ĠSuisham": 4092,
      "unk": 4093,
      "ĠBryant": 4094,
      "Ġsurround": 4095,
      "ĠYoung": 4096,
      "Ġour": 4097,
      "ĠDistrict": 4098,
      "Ġbre": 4099,
      "Ġhousing": 4100,
      "based": 4101,
      "asc": 4102,
      "Ġindividual": 4103,
      "icit": 4104,
      "ĠTheir": 4105,
      "azil": 4106,
      "Ġarrived": 4107,
      "no": 4108,
      "Ġactive": 4109,
      "Ġworkers": 4110,
      "Ġheart": 4111,
      "Ġheavy": 4112,
      "Ġahead": 4113,
      "espite": 4114,
      "ray": 4115,
      "Ġtransport": 4116,
      "Ġwor": 4117,
      "ĠGreece": 4118,
      "Ġmainly": 4119,
      "ĠElect": 4120,
      "oved": 4121,
      "Ġspeed": 4122,
      "ĠJon": 4123,
      "oe": 4124,
      "ontin": 4125,
      "03": 4126,
      "ĠMod": 4127,
      "quarter": 4128,
      "Ġseparate": 4129,
      "oid": 4130,
      "Ġfranchise": 4131,
      "Ġresidents": 4132,
      "ĠSteve": 4133,
      "Ġobserv": 4134,
      "pris": 4135,
      "ram": 4136,
      "ĠDepartment": 4137,
      "ockey": 4138,
      "Ġpurp": 4139,
      "Ġlimited": 4140,
      "ething": 4141,
      "ĠEr": 4142,
      "ĠVen": 4143,
      "Ġreferred": 4144,
      "Ġmom": 4145,
      "ĠMartin": 4146,
      "Ġpersonal": 4147,
      "eal": 4148,
      "Ġmissed": 4149,
      "83": 4150,
      "ĠOs": 4151,
      "Ġwhether": 4152,
      "Ġgas": 4153,
      "Ġislands": 4154,
      "Ġbene": 4155,
      "ĠGal": 4156,
      "ĠDal": 4157,
      "ĠFre": 4158,
      "Ġ||": 4159,
      "Ġcoach": 4160,
      "ĠDemocratic": 4161,
      "how": 4162,
      "ĠLee": 4163,
      "sych": 4164,
      "52": 4165,
      "ĠBos": 4166,
      "aron": 4167,
      "Ġcreate": 4168,
      "acco": 4169,
      "|-": 4170,
      "Ġ1950": 4171,
      "Ġ1993": 4172,
      "ĠAdd": 4173,
      "ĠAssociation": 4174,
      "oper": 4175,
      "alls": 4176,
      "ĠBush": 4177,
      "Ġcommonly": 4178,
      "Ġpark": 4179,
      "rence": 4180,
      "Ġevidence": 4181,
      "light": 4182,
      "He": 4183,
      "ani": 4184,
      "ĠBrian": 4185,
      "Ġcommercial": 4186,
      "Ġera": 4187,
      "Ġlack": 4188,
      "ĠAz": 4189,
      "Ġgained": 4190,
      "lav": 4191,
      "Ġgrew": 4192,
      "enth": 4193,
      "Ġapproximately": 4194,
      "inated": 4195,
      "Ġenvironment": 4196,
      "reng": 4197,
      "Ġalone": 4198,
      "ĠMet": 4199,
      "odox": 4200,
      "Ġwriting": 4201,
      "ayne": 4202,
      "%.": 4203,
      "ĠKorea": 4204,
      "ĠDef": 4205,
      "Ġruns": 4206,
      "Ġlaunched": 4207,
      "ĠSur": 4208,
      "ĠâĢľ": 4209,
      "Ġwhole": 4210,
      "01": 4211,
      "Ġfuture": 4212,
      "Ġrematch": 4213,
      "winning": 4214,
      "standing": 4215,
      "ĠBoth": 4216,
      "Ġdead": 4217,
      "Ġprotect": 4218,
      "ibility": 4219,
      "Ġmultip": 4220,
      "Ġfeel": 4221,
      "Ġprob": 4222,
      "DP": 4223,
      "illa": 4224,
      "ĠSir": 4225,
      "aring": 4226,
      "ĠNative": 4227,
      "itants": 4228,
      "ef": 4229,
      "Ġmechan": 4230,
      "ĠProtest": 4231,
      "Ġpref": 4232,
      "Ġmile": 4233,
      "Ġ1989": 4234,
      "Ġwood": 4235,
      "ĠGen": 4236,
      "Ġlegisl": 4237,
      "Ġadvantage": 4238,
      "Ġrespectively": 4239,
      "Ġexch": 4240,
      "Ġsuffered": 4241,
      "Ġoriginally": 4242,
      "iege": 4243,
      "panic": 4244,
      "Ġcommunic": 4245,
      "war": 4246,
      "ĠMonday": 4247,
      "ĠBecause": 4248,
      "Ġbeat": 4249,
      "Ġbelieve": 4250,
      "ishop": 4251,
      "Ġfumb": 4252,
      "ĠAngeles": 4253,
      "Ġcal": 4254,
      "ming": 4255,
      "ĠFB": 4256,
      "Ġsubject": 4257,
      "Ġdiscovered": 4258,
      "Ġmale": 4259,
      "ĠAnother": 4260,
      "Ġsurface": 4261,
      "ĠDuke": 4262,
      "US": 4263,
      "ĠSat": 4264,
      "Ġ54": 4265,
      "Ġattacked": 4266,
      "aria": 4267,
      "ĠAntonio": 4268,
      "Ġwidely": 4269,
      "uff": 4270,
      "era": 4271,
      "umn": 4272,
      "ĠPakistan": 4273,
      "olved": 4274,
      "ned": 4275,
      "ĠBrad": 4276,
      "At": 4277,
      "ĠDis": 4278,
      "Ġnov": 4279,
      "Ġgirl": 4280,
      "Ġdivisional": 4281,
      "Ġclaimed": 4282,
      "Ġfunction": 4283,
      "Ġfavor": 4284,
      "Ġhundred": 4285,
      "Ġcust": 4286,
      "ĠOver": 4287,
      "Ġsyn": 4288,
      "ĠTod": 4289,
      "Ġcoin": 4290,
      "Ġmiles": 4291,
      "ĠCub": 4292,
      "ĠBoston": 4293,
      "Ġnuc": 4294,
      "ortun": 4295,
      "ĠMag": 4296,
      "ĠUnder": 4297,
      "Ġwebsite": 4298,
      "ĠRock": 4299,
      "ikowski": 4300,
      "ĠYes": 4301,
      "ĠKevin": 4302,
      "ww": 4303,
      "Why": 4304,
      "onents": 4305,
      "otal": 4306,
      "Ġconstitution": 4307,
      "iger": 4308,
      "retary": 4309,
      "Ġproduce": 4310,
      "Ġmi": 4311,
      "Ġpowers": 4312,
      "thodox": 4313,
      "ift": 4314,
      "ĠOf": 4315,
      "ĠAtlantic": 4316,
      "ĠJacob": 4317,
      "Ġcand": 4318,
      "Ġsummer": 4319,
      "Ġpaper": 4320,
      "Ġfeatures": 4321,
      "ĠJanikowski": 4322,
      "ĠFitz": 4323,
      "ĠAkers": 4324,
      "istry": 4325,
      "ĠMcN": 4326,
      "Ġattacks": 4327,
      "yarder": 4328,
      "using": 4329,
      "urd": 4330,
      "eter": 4331,
      "Ġbecoming": 4332,
      "Ġchemical": 4333,
      "Ġ55": 4334,
      "ibrary": 4335,
      "icles": 4336,
      "Ġdestroyed": 4337,
      "Ġla": 4338,
      "ĠJim": 4339,
      "ĠAustria": 4340,
      "Ġfast": 4341,
      "Ġindividuals": 4342,
      "Ġstructure": 4343,
      "ĠWin": 4344,
      "Ġtowns": 4345,
      "Ġtell": 4346,
      "Ġgreen": 4347,
      "Ġstreng": 4348,
      "ĠBern": 4349,
      "07": 4350,
      "Ġranked": 4351,
      "ki": 4352,
      "ribution": 4353,
      "Ġlevels": 4354,
      "ĠVol": 4355,
      "illy": 4356,
      "ĠKer": 4357,
      "Sp": 4358,
      "rants": 4359,
      "ĠShaun": 4360,
      "Ġanti": 4361,
      "Ġplaced": 4362,
      "iant": 4363,
      "Ġstorm": 4364,
      "08": 4365,
      "och": 4366,
      "Ġsociety": 4367,
      "ĠBet": 4368,
      "usion": 4369,
      "Ġseasons": 4370,
      "isms": 4371,
      "Ġkingdom": 4372,
      "ithuan": 4373,
      "ĠFilm": 4374,
      "ails": 4375,
      "Ġoldest": 4376,
      "Ġpressure": 4377,
      "gs": 4378,
      "ospital": 4379,
      "ieri": 4380,
      "Ġemb": 4381,
      "Ġtrack": 4382,
      "Ġice": 4383,
      "Ġqual": 4384,
      "Ġnews": 4385,
      "Ġvote": 4386,
      "New": 4387,
      "inary": 4388,
      "ĠFolk": 4389,
      "Ġproduct": 4390,
      "Ġearth": 4391,
      "Ġsomething": 4392,
      "ĠTay": 4393,
      "Ġbad": 4394,
      "ropolitan": 4395,
      "Ġnob": 4396,
      "iations": 4397,
      "mond": 4398,
      "itor": 4399,
      "ĠPope": 4400,
      "Ġwoman": 4401,
      "ĠCons": 4402,
      "06": 4403,
      "onent": 4404,
      "Ġdrew": 4405,
      "abeth": 4406,
      "Ġhor": 4407,
      "Sh": 4408,
      "ĠGroup": 4409,
      "02": 4410,
      "icient": 4411,
      "gl": 4412,
      "rell": 4413,
      "teen": 4414,
      "Ġcomes": 4415,
      "ias": 4416,
      "Ġideas": 4417,
      "Ġris": 4418,
      "kr": 4419,
      "ceeded": 4420,
      "ipp": 4421,
      "Ġcapac": 4422,
      "Ġvoc": 4423,
      "Ġorganization": 4424,
      "ĠMos": 4425,
      "mission": 4426,
      "iot": 4427,
      "Ġensuing": 4428,
      "ĠCro": 4429,
      "ĠMat": 4430,
      "ĠSa": 4431,
      "Ġstudies": 4432,
      "ĠOb": 4433,
      "Ġroyal": 4434,
      "98": 4435,
      "Ġterritories": 4436,
      "ĠAlexander": 4437,
      "view": 4438,
      "ĠSociety": 4439,
      "Ġstage": 4440,
      "ĠLand": 4441,
      "ĠSant": 4442,
      "phen": 4443,
      "Ġspecific": 4444,
      "ca": 4445,
      "Ġhapp": 4446,
      "ĠConstitution": 4447,
      "ĠClass": 4448,
      "ĠAnn": 4449,
      "verse": 4450,
      "tic": 4451,
      "ĠAdam": 4452,
      "which": 4453,
      "Ġcoming": 4454,
      "annel": 4455,
      "ĠCap": 4456,
      "cher": 4457,
      "ĠBuddh": 4458,
      "oud": 4459,
      "Ġconcern": 4460,
      "Ġlargely": 4461,
      "Ġsurre": 4462,
      "ĠServ": 4463,
      "ĠRelated": 4464,
      "refore": 4465,
      "ils": 4466,
      "ĠGovernment": 4467,
      "rey": 4468,
      "Ġdirectly": 4469,
      "Ġshowed": 4470,
      "Ġsusp": 4471,
      "ĠWood": 4472,
      "ĠHanson": 4473,
      "ero": 4474,
      "Ġrecords": 4475,
      "ĠDaw": 4476,
      "Ġremains": 4477,
      "put": 4478,
      "Ġappointed": 4479,
      "Ġperformed": 4480,
      "Ġhumans": 4481,
      "Ã¤": 4482,
      "Ġpossess": 4483,
      "Jo": 4484,
      "||": 4485,
      "Ġinhabitants": 4486,
      "Ġhus": 4487,
      "venue": 4488,
      "Ġnature": 4489,
      "Ġblue": 4490,
      "Ġreview": 4491,
      "Ġgreater": 4492,
      "ĠNate": 4493,
      "ĠBrazil": 4494,
      "Ġcontinue": 4495,
      "ini": 4496,
      "05": 4497,
      "Ġleave": 4498,
      "rize": 4499,
      "itude": 4500,
      "Ġimmediately": 4501,
      "dro": 4502,
      "2010": 4503,
      "ĠMu": 4504,
      "ĠFore": 4505,
      "ĠFederal": 4506,
      "Ġcompos": 4507,
      "Ġappl": 4508,
      "Ġdecision": 4509,
      "inces": 4510,
      "Ġaltern": 4511,
      "Ġfighting": 4512,
      "Ġstrike": 4513,
      "Ġurban": 4514,
      "oles": 4515,
      "Ġarrest": 4516,
      "ĠThree": 4517,
      "Ġraid": 4518,
      "Ġshown": 4519,
      "ĠViet": 4520,
      "Ġvalue": 4521,
      "Ġconditions": 4522,
      "Ġgod": 4523,
      "ented": 4524,
      "Ġteach": 4525,
      "Ġagreement": 4526,
      "ĠNations": 4527,
      "Ġgain": 4528,
      "Ġ1920": 4529,
      "Ġ500": 4530,
      "Ġdomestic": 4531,
      "Ġsports": 4532,
      "estival": 4533,
      "Â°": 4534,
      "Ġconv": 4535,
      "Ġagricult": 4536,
      "azine": 4537,
      "Ġbehav": 4538,
      "This": 4539,
      "ĠInstitute": 4540,
      "2000": 4541,
      "mad": 4542,
      "Ġelements": 4543,
      "king": 4544,
      "embly": 4545,
      "Ġparties": 4546,
      "ĠCommon": 4547,
      "Ġmonarch": 4548,
      "Ġlikely": 4549,
      "zech": 4550,
      "ĠProv": 4551,
      "ĠIslands": 4552,
      "Ġmoving": 4553,
      "ersey": 4554,
      "Ġvac": 4555,
      "Ġtalk": 4556,
      "ĠHind": 4557,
      "Ġweap": 4558,
      "stein": 4559,
      "olt": 4560,
      "ĠKar": 4561,
      "ua": 4562,
      "ĠHow": 4563,
      "ĠGovernor": 4564,
      "imum": 4565,
      "ĠLeg": 4566,
      "Ġinjury": 4567,
      "aph": 4568,
      "Ġresults": 4569,
      "Ġwalk": 4570,
      "Ġmigr": 4571,
      "Ġproject": 4572,
      "anged": 4573,
      "Ġconsum": 4574,
      "etherlands": 4575,
      "ili": 4576,
      "ĠIslamic": 4577,
      "Ġoperations": 4578,
      "):": 4579,
      "Ġdesp": 4580,
      "Ġlog": 4581,
      "Ġconcept": 4582,
      "ĠMatthew": 4583,
      "ading": 4584,
      "ĠLord": 4585,
      "Ġ#": 4586,
      "oma": 4587,
      "Ġpractice": 4588,
      "izations": 4589,
      "Ġ+": 4590,
      "bie": 4591,
      "Ġbelong": 4592,
      "Ġendzone": 4593,
      "Ġdoll": 4594,
      "onia": 4595,
      "Ġregained": 4596,
      "Mar": 4597,
      "ĠAp": 4598,
      "ĠJord": 4599,
      "Ġadopted": 4600,
      "ado": 4601,
      "ĠUN": 4602,
      "Ġinterceptions": 4603,
      "ruct": 4604,
      "Ġ2020": 4605,
      "Ġmeeting": 4606,
      "Ġreceiving": 4607,
      "Ġrat": 4608,
      "Ġdiss": 4609,
      "enna": 4610,
      "Ġshare": 4611,
      "ĠBulg": 4612,
      "Ġcentre": 4613,
      "Ġbirds": 4614,
      "Ġnecess": 4615,
      "ĠLife": 4616,
      "town": 4617,
      "Ġfleet": 4618,
      "ĠUnivers": 4619,
      "AP": 4620,
      "Ġresulting": 4621,
      "gie": 4622,
      "ĠWal": 4623,
      "Ġcandid": 4624,
      "ĠPrime": 4625,
      "uth": 4626,
      "ĠDes": 4627,
      "Ġreform": 4628,
      "Ġtack": 4629,
      "Ġstopped": 4630,
      "Ġrevolution": 4631,
      "Ġhom": 4632,
      "onstr": 4633,
      "Ġblocked": 4634,
      "ĠWilson": 4635,
      "Ġhusband": 4636,
      "iana": 4637,
      "Ġkil": 4638,
      "ĠNorm": 4639,
      "Ġ1988": 4640,
      "izing": 4641,
      "Ġmeant": 4642,
      "stitutions": 4643,
      "Ġphilosophy": 4644,
      "jected": 4645,
      "Ġfarm": 4646,
      "ĠSouthern": 4647,
      "olec": 4648,
      "Ġarchitecture": 4649,
      "ĠTaylor": 4650,
      "ĠLew": 4651,
      "Ġmatter": 4652,
      "orpor": 4653,
      "Ġscientific": 4654,
      "centr": 4655,
      "rupt": 4656,
      "orary": 4657,
      "Ġlength": 4658,
      "ĠStafford": 4659,
      "century": 4660,
      "Ġchall": 4661,
      "Ġbacter": 4662,
      "igen": 4663,
      "ĠGames": 4664,
      "ĠÂ£": 4665,
      "Ġforest": 4666,
      "Ġsources": 4667,
      "outheast": 4668,
      "ĠLu": 4669,
      "ker": 4670,
      "Ġnative": 4671,
      "urrican": 4672,
      "Ġparents": 4673,
      "ĠWarner": 4674,
      "ĠStephen": 4675,
      "Ġflag": 4676,
      "Ġfail": 4677,
      "ĠCa": 4678,
      ".)": 4679,
      "ura": 4680,
      "ĠAD": 4681,
      "84": 4682,
      "atieri": 4683,
      "Ġlives": 4684,
      "Ġrules": 4685,
      "urg": 4686,
      "ĠAnderson": 4687,
      "ĠLake": 4688,
      "Ġnewsp": 4689,
      "Ġtypically": 4690,
      "Ġdidn": 4691,
      "Ġtarg": 4692,
      "rid": 4693,
      "mitted": 4694,
      "ĠDespite": 4695,
      "81": 4696,
      "Ġmagn": 4697,
      "aily": 4698,
      "Ġscholars": 4699,
      "Ġtechnology": 4700,
      "ĠTimes": 4701,
      "urches": 4702,
      "force": 4703,
      "ĠIV": 4704,
      "ĠRad": 4705,
      "Ġextra": 4706,
      "Ġstated": 4707,
      "Ġbatt": 4708,
      "ivity": 4709,
      "Was": 4710,
      "Ġquestion": 4711,
      "ĠOlympic": 4712,
      "86": 4713,
      "ĠFam": 4714,
      "Ġrebell": 4715,
      "edia": 4716,
      "Ġ:": 4717,
      "Ġcharg": 4718,
      "ĠGall": 4719,
      "Ġmedical": 4720,
      "Ġcompetition": 4721,
      "road": 4722,
      "ĠVinatieri": 4723,
      "Ġstrateg": 4724,
      "ĠOw": 4725,
      "ĠMah": 4726,
      "ĠHy": 4727,
      "Ġmaint": 4728,
      "Ġmill": 4729,
      "Ġmedian": 4730,
      "Ġbeg": 4731,
      "ĠSweden": 4732,
      "Ġsettled": 4733,
      "ĠVirginia": 4734,
      "ĠTeam": 4735,
      "ĠDomin": 4736,
      "Ġnegot": 4737,
      "ĠMur": 4738,
      "ĠTri": 4739,
      "ription": 4740,
      "Ġauthority": 4741,
      "unt": 4742,
      "ĠAlbert": 4743,
      "Ġtransfer": 4744,
      "96": 4745,
      "ĠNetherlands": 4746,
      "ĠRos": 4747,
      "ĠMason": 4748,
      "ĠReed": 4749,
      "Ġprimarily": 4750,
      "Ġmand": 4751,
      "Ġliber": 4752,
      "ĠHa": 4753,
      "isation": 4754,
      "04": 4755,
      "Ġshot": 4756,
      "amin": 4757,
      "aches": 4758,
      "ala": 4759,
      "ĠBank": 4760,
      "Ġsum": 4761,
      "Ġstudent": 4762,
      "Ġallowing": 4763,
      "Ġ1918": 4764,
      "pat": 4765,
      "ĠAcademy": 4766,
      "Ġshut": 4767,
      "antry": 4768,
      "Ġtry": 4769,
      "itar": 4770,
      "Ġphysical": 4771,
      "ounded": 4772,
      "ĠBey": 4773,
      "Ġfifth": 4774,
      "lit": 4775,
      "agon": 4776,
      "ĠOcean": 4777,
      "ellow": 4778,
      "Ġsuc": 4779,
      "Ġsexual": 4780,
      "CNN": 4781,
      "ulated": 4782,
      "Ġ?": 4783,
      "Ġconcentr": 4784,
      "ĠSystem": 4785,
      "Ġchief": 4786,
      "kicker": 4787,
      "va": 4788,
      "Ġoccupied": 4789,
      "ĠAaron": 4790,
      "Ġcurrently": 4791,
      "SA": 4792,
      "met": 4793,
      "Ġmission": 4794,
      "Ġbank": 4795,
      "Ġtrue": 4796,
      "ĠColl": 4797,
      "ĠSol": 4798,
      "Ġinsp": 4799,
      "Ġpreviously": 4800,
      "iform": 4801,
      "ella": 4802,
      "Ġdiscuss": 4803,
      "Ġmetal": 4804,
      "Ġang": 4805,
      "Ġsem": 4806,
      "Ġevolution": 4807,
      "ĠFlacco": 4808,
      "fall": 4809,
      "Ġlands": 4810,
      "Ġissue": 4811,
      "ois": 4812,
      "Ġsealed": 4813,
      "Ġyour": 4814,
      "Ġroom": 4815,
      "opes": 4816,
      "ansion": 4817,
      "Ġhighly": 4818,
      "Com": 4819,
      "ply": 4820,
      "Ġeat": 4821,
      "ĠNews": 4822,
      "Ġcourse": 4823,
      "ĠCzech": 4824,
      "Ġwear": 4825,
      "And": 4826,
      "Ġprime": 4827,
      "Ġprec": 4828,
      "ĠRepublican": 4829,
      "izabeth": 4830,
      "illed": 4831,
      "Ġ300": 4832,
      "During": 4833,
      "Ġ1984": 4834,
      "atre": 4835,
      "Ġ56": 4836,
      "bro": 4837,
      "throp": 4838,
      "Ġrequire": 4839,
      "itzer": 4840,
      "ĠGermans": 4841,
      "Ġrapid": 4842,
      "ĠEc": 4843,
      "Ġrise": 4844,
      "Ġnumerous": 4845,
      "azi": 4846,
      "ĠVietn": 4847,
      "Ġhistorical": 4848,
      "Ġdemonstr": 4849,
      "ĠSand": 4850,
      "omer": 4851,
      "Ġexecut": 4852,
      "ampion": 4853,
      "ully": 4854,
      "ĠCarr": 4855,
      "ĠDo": 4856,
      "Ġlink": 4857,
      "ĠFour": 4858,
      "iled": 4859,
      "Ġsoftware": 4860,
      "Ġuniversities": 4861,
      "Ġglass": 4862,
      "92": 4863,
      "...": 4864,
      "Ġpal": 4865,
      "ĠEp": 4866,
      "ĠDrew": 4867,
      "urb": 4868,
      "ĠJud": 4869,
      "Ġraised": 4870,
      "Ġancestry": 4871,
      "ares": 4872,
      "ĠJacksonville": 4873,
      "ĠOrder": 4874,
      "ĠJesus": 4875,
      "risis": 4876,
      "ĠKenn": 4877,
      "lement": 4878,
      "94": 4879,
      "enh": 4880,
      "Ġdie": 4881,
      "Ġsomeone": 4882,
      "oration": 4883,
      "lers": 4884,
      "Ġcollege": 4885,
      "Ġletter": 4886,
      "Ġknowledge": 4887,
      "asts": 4888,
      "ĠAut": 4889,
      "Ġflight": 4890,
      "Ġearliest": 4891,
      "Ġasp": 4892,
      "erman": 4893,
      "Ġunit": 4894,
      "Ġsequ": 4895,
      "Ġreduced": 4896,
      "ĠDou": 4897,
      "ĠUr": 4898,
      "Ġspir": 4899,
      "Ġdespite": 4900,
      "Ġmountain": 4901,
      "Ġpp": 4902,
      "Ġbroadcast": 4903,
      "mir": 4904,
      "Ġproducts": 4905,
      "ĠWindows": 4906,
      "ault": 4907,
      "acing": 4908,
      "western": 4909,
      "ironas": 4910,
      "Ġvo": 4911,
      "Ġplacekicker": 4912,
      "Ġspoken": 4913,
      "93": 4914,
      "Ġvillage": 4915,
      "Ġways": 4916,
      "gest": 4917,
      "beck": 4918,
      "ĠSupreme": 4919,
      "Ġanimal": 4920,
      "Ġinte": 4921,
      "aya": 4922,
      "Ġsiege": 4923,
      "Ġdegree": 4924,
      "ĠAndrew": 4925,
      "Ġinjured": 4926,
      "acher": 4927,
      "Ġending": 4928,
      "col": 4929,
      "Ġdip": 4930,
      "Ġdecre": 4931,
      "Ġcarried": 4932,
      "With": 4933,
      "ugal": 4934,
      "ĠMarc": 4935,
      "inet": 4936,
      "Ġordered": 4937,
      "reedom": 4938,
      "Ġawarded": 4939,
      "Man": 4940,
      "ĠCros": 4941,
      "aging": 4942,
      "ĠSil": 4943,
      "luding": 4944,
      "ĠSong": 4945,
      "ĠOrthodox": 4946,
      "Ġresponsible": 4947,
      "Ġstations": 4948,
      "Ġgovernor": 4949,
      "Ġgradu": 4950,
      "Ġassist": 4951,
      "Ġlatter": 4952,
      "ening": 4953,
      "Ġcred": 4954,
      "eed": 4955,
      "Ġmedic": 4956,
      "Ġspent": 4957,
      "ĠSi": 4958,
      "aped": 4959,
      "Ġ=": 4960,
      "Ġcontains": 4961,
      "ĠFI": 4962,
      "Ġexperience": 4963,
      "ĠClub": 4964,
      "ĠHel": 4965,
      "Ġattempts": 4966,
      "Ġcontain": 4967,
      "ĠCampbell": 4968,
      "Ġprograms": 4969,
      "rea": 4970,
      "Ġdebut": 4971,
      "Ġ1986": 4972,
      "hemat": 4973,
      "Ġhands": 4974,
      "Ġdamage": 4975,
      "shire": 4976,
      "ĠBironas": 4977,
      "Ġpotential": 4978,
      "ĠTime": 4979,
      "ĠBa": 4980,
      "Ġpull": 4981,
      "ĠColumb": 4982,
      "Ġmakeup": 4983,
      "ĠApple": 4984,
      "ĠNapole": 4985,
      "Ġsacked": 4986,
      "Ġcornerback": 4987,
      "iano": 4988,
      "ĠMare": 4989,
      "Ġdraw": 4990,
      "Ġtakes": 4991,
      "Ġ2019": 4992,
      "ĠDavis": 4993,
      "Ġcommunities": 4994,
      "Ġpath": 4995,
      "Ġcontrolled": 4996,
      "arr": 4997,
      "ellig": 4998,
      "ĠLewis": 4999,
      "ĠUkr": 5000,
      "Ġintended": 5001,
      "akh": 5002,
      "ygen": 5003,
      "ging": 5004,
      "state": 5005,
      "Ġconverted": 5006,
      "Ã³n": 5007,
      "ules": 5008,
      "Ġrecording": 5009,
      "Ġliterature": 5010,
      ".\".": 5011,
      "Ġdistinct": 5012,
      "ĠDawson": 5013,
      "Ġhar": 5014,
      "Ġult": 5015,
      "Ġdiscover": 5016,
      "Ġmusical": 5017,
      "Ġestablishments": 5018,
      "iny": 5019,
      "oral": 5020,
      "ĠInc": 5021,
      "ources": 5022,
      "Ġaccount": 5023,
      "ĠMov": 5024,
      "Ġcer": 5025,
      "ĠSocial": 5026,
      "Ġfumbled": 5027,
      "Ġ120": 5028,
      "Ġincom": 5029,
      "à¸": 5030,
      "Ġelim": 5031,
      "Ġhooked": 5032,
      "ĠMarshall": 5033,
      "Ġdefined": 5034,
      "Ġactivity": 5035,
      "ĠOk": 5036,
      "ĠPre": 5037,
      "oz": 5038,
      "Ġsens": 5039,
      "ĠForce": 5040,
      "ĠConn": 5041,
      "isters": 5042,
      "Ġleaving": 5043,
      "raq": 5044,
      "ĠLeon": 5045,
      "Ġworldwide": 5046,
      "ĠJustin": 5047,
      "ĠElizabeth": 5048,
      "Ġ1979": 5049,
      "ii": 5050,
      "Ġserious": 5051,
      "ĠTw": 5052,
      "ĠSqu": 5053,
      "ien": 5054,
      "Ġprogramm": 5055,
      "Ġlosses": 5056,
      "Ġoverall": 5057,
      "ĠDirect": 5058,
      "Ġwars": 5059,
      "ĠOx": 5060,
      "pass": 5061,
      "Ġboy": 5062,
      "ounts": 5063,
      "backer": 5064,
      "Ġelse": 5065,
      "Ġgranted": 5066,
      "ĠOut": 5067,
      "Ġglobal": 5068,
      "Ġrelatively": 5069,
      "Ġdifference": 5070,
      "Ġrow": 5071,
      "aters": 5072,
      "Ġcode": 5073,
      "Ġofficers": 5074,
      "Ġproposed": 5075,
      "rus": 5076,
      "Ġess": 5077,
      "rad": 5078,
      "Ġvariety": 5079,
      "ny": 5080,
      "Ġexped": 5081,
      "ictures": 5082,
      "astic": 5083,
      "ĠHoly": 5084,
      "Ġboot": 5085,
      "Ġgrowing": 5086,
      "Ġhouses": 5087,
      "Ġgar": 5088,
      "Ġreign": 5089,
      "wan": 5090,
      "ĠKas": 5091,
      "ĠCommission": 5092,
      "ĠKorean": 5093,
      "ĠBas": 5094,
      "Ġtwice": 5095,
      "Ġwrest": 5096,
      "ĠWales": 5097,
      "ĠKaeding": 5098,
      "Ġprobably": 5099,
      "Ġempire": 5100,
      "arry": 5101,
      "Ġlooking": 5102,
      "ĠTown": 5103,
      "Ġ1985": 5104,
      "Ġtrail": 5105,
      "cing": 5106,
      "itt": 5107,
      "Ġregional": 5108,
      "igation": 5109,
      "91": 5110,
      "onomy": 5111,
      "Ġwinter": 5112,
      "ĠMiller": 5113,
      "Ġsal": 5114,
      "Ġsun": 5115,
      "Ġadministration": 5116,
      "Ġunc": 5117,
      "Ġartists": 5118,
      "ĠCur": 5119,
      "Ġcharge": 5120,
      "ato": 5121,
      "ederation": 5122,
      "ables": 5123,
      "ancy": 5124,
      "Ġlooked": 5125,
      "ĠBob": 5126,
      "ronic": 5127,
      "iga": 5128,
      "ĠHon": 5129,
      "Ġhosted": 5130,
      "Ġburn": 5131,
      "iate": 5132,
      "anj": 5133,
      "ĠCrosby": 5134,
      "ĠHu": 5135,
      "Ġwild": 5136,
      "ĠIraq": 5137,
      "ivals": 5138,
      "Ġ1940": 5139,
      "Ġpainting": 5140,
      "ĠSpec": 5141,
      "Ġ1982": 5142,
      "orter": 5143,
      "Ġmunicip": 5144,
      "rix": 5145,
      "eds": 5146,
      "IN": 5147,
      "ĠCommit": 5148,
      "ĠÐ": 5149,
      "Ġeg": 5150,
      "Ġofficials": 5151,
      "Ġproperty": 5152,
      "itness": 5153,
      "Ġpsych": 5154,
      "Ġcho": 5155,
      "ĠRetrieved": 5156,
      "ĠProtestant": 5157,
      "ĠConstant": 5158,
      "ugent": 5159,
      "Ġhere": 5160,
      "Ġbul": 5161,
      "Ġmolec": 5162,
      "Ġissues": 5163,
      "den": 5164,
      "ĠTy": 5165,
      "ĠVer": 5166,
      "asser": 5167,
      "Ġstore": 5168,
      "ĠImperial": 5169,
      "otton": 5170,
      "ĠCarson": 5171,
      "Ġfeet": 5172,
      "ĠDer": 5173,
      "hev": 5174,
      "ĠEnter": 5175,
      "ĠNugent": 5176,
      "gu": 5177,
      "ĠPenn": 5178,
      "ĠVick": 5179,
      "Ġdetermin": 5180,
      "hol": 5181,
      "ĠScottish": 5182,
      "ĠMen": 5183,
      "ĠDaniel": 5184,
      "Ġdoing": 5185,
      "Ġpattern": 5186,
      "Ġaccepted": 5187,
      "Ġcontract": 5188,
      "Ġchance": 5189,
      "Ġ57": 5190,
      "//": 5191,
      "Ġadditional": 5192,
      "Ġaim": 5193,
      "ĠSeries": 5194,
      "Ġmoment": 5195,
      "Ġsides": 5196,
      "Ġcold": 5197,
      "Ġrare": 5198,
      "Ġreception": 5199,
      "Ġowned": 5200,
      "ĠArmenian": 5201,
      "Ġindustrial": 5202,
      "Sc": 5203,
      "iy": 5204,
      "AR": 5205,
      "aith": 5206,
      "Ġnations": 5207,
      "rief": 5208,
      "Ġsector": 5209,
      "umber": 5210,
      "Ġexpected": 5211,
      "ees": 5212,
      "Ġtor": 5213,
      "Ġ59": 5214,
      "Ġnovel": 5215,
      "enty": 5216,
      "ED": 5217,
      "Ġadvanced": 5218,
      "Ġeffects": 5219,
      "Ġpurch": 5220,
      "ĠEston": 5221,
      "ĠHistor": 5222,
      "ĠList": 5223,
      "ĠLawrence": 5224,
      "Ġsales": 5225,
      "Ġ1976": 5226,
      "agan": 5227,
      "ĠBig": 5228,
      "bast": 5229,
      "Ġ1987": 5230,
      "ĠValley": 5231,
      "ĠTurkish": 5232,
      "Ġlinebacker": 5233,
      "ĠPublic": 5234,
      "ĠLithuan": 5235,
      "ras": 5236,
      "encies": 5237,
      "Ġap": 5238,
      "Ġdirection": 5239,
      "Ġinterp": 5240,
      "erick": 5241,
      "Ġdark": 5242,
      "Ġrefused": 5243,
      "ients": 5244,
      "Ġsen": 5245,
      "oses": 5246,
      "Ġdeficit": 5247,
      "Ġfaced": 5248,
      "SP": 5249,
      "Ġalbums": 5250,
      "eman": 5251,
      "uous": 5252,
      "Ġ150": 5253,
      "Ġbrain": 5254,
      "Ġdu": 5255,
      "://": 5256,
      "ËĪ": 5257,
      "Ġbit": 5258,
      "mouth": 5259,
      "Ġtraining": 5260,
      "Ġmarched": 5261,
      "Ġmultiple": 5262,
      "Ġnotable": 5263,
      "nes": 5264,
      "Ġmess": 5265,
      "resp": 5266,
      "Ġencour": 5267,
      "ching": 5268,
      "ĠPortugal": 5269,
      "Ġarticle": 5270,
      "lined": 5271,
      "aub": 5272,
      "Ġappearance": 5273,
      "Ġtable": 5274,
      "ĠSecretary": 5275,
      "ĠNavy": 5276,
      "Ġcontrovers": 5277,
      "Ġuns": 5278,
      "ĠKhan": 5279,
      "Ġunable": 5280,
      "ĠAirport": 5281,
      "hing": 5282,
      "Ġinfluenced": 5283,
      "ĠPremier": 5284,
      "ĠLongwell": 5285,
      "Ġdouble": 5286,
      "fit": 5287,
      "Ġelev": 5288,
      "hens": 5289,
      "Ġsettlement": 5290,
      "We": 5291,
      "ĠNed": 5292,
      "ĠCarl": 5293,
      "ĠJen": 5294,
      "Ġmotor": 5295,
      "where": 5296,
      "Ġability": 5297,
      "ĠMcNabb": 5298,
      "ĠRecords": 5299,
      "ĠGeorgia": 5300,
      "lines": 5301,
      "ĠForm": 5302,
      "Ġfilms": 5303,
      "Ġexpansion": 5304,
      "Ġrecognized": 5305,
      "Go": 5306,
      "Ġpack": 5307,
      "Ġlove": 5308,
      "Ġtree": 5309,
      "bridge": 5310,
      "ĠInf": 5311,
      "8212": 5312,
      "ih": 5313,
      "ĠCont": 5314,
      "Ġconserv": 5315,
      "Ġ1945": 5316,
      "ĠHot": 5317,
      "endo": 5318,
      "Ġhydro": 5319,
      "Ġexcept": 5320,
      "ĠCD": 5321,
      "ĠEdwards": 5322,
      "Ġimprove": 5323,
      "ĠMoore": 5324,
      "300": 5325,
      "Ġmention": 5326,
      "Ġsetting": 5327,
      "Ġcloser": 5328,
      "Ġissued": 5329,
      "EFA": 5330,
      "Ġactivities": 5331,
      "Ġpaid": 5332,
      "ager": 5333,
      "Ġpromin": 5334,
      "rect": 5335,
      "wealth": 5336,
      "Ġcauses": 5337,
      "gent": 5338,
      "ĠHart": 5339,
      "Ġstay": 5340,
      "ricts": 5341,
      "Ġacad": 5342,
      "Ġscientists": 5343,
      "ĠInternet": 5344,
      "Ġcouncil": 5345,
      "ĠMid": 5346,
      "Ġhitting": 5347,
      "ĠAlbum": 5348,
      "iring": 5349,
      "Ġsecurity": 5350,
      "Ġconnect": 5351,
      "ĠRackers": 5352,
      "Ġ1930": 5353,
      "awa": 5354,
      "Ġcas": 5355,
      "ĠEven": 5356,
      "Ġchurches": 5357,
      "cer": 5358,
      "Ġplanned": 5359,
      "Ġpresence": 5360,
      "set": 5361,
      "Ġbelief": 5362,
      "Ġdirector": 5363,
      "Ġ1983": 5364,
      "Cl": 5365,
      "igrants": 5366,
      "tar": 5367,
      "Ã§": 5368,
      "Ġinstitutions": 5369,
      "ĠWW": 5370,
      "Ġ1981": 5371,
      "Ġreve": 5372,
      "ĠSebast": 5373,
      "urricane": 5374,
      "eign": 5375,
      "Ġsense": 5376,
      "ĠChad": 5377,
      "Ġperman": 5378,
      "Ġholding": 5379,
      "ĠLindell": 5380,
      "Ġmorning": 5381,
      "Ġbound": 5382,
      "ĠJr": 5383,
      "Ġpowerful": 5384,
      "ĠJordan": 5385,
      "ĠSwedish": 5386,
      "Ġresistance": 5387,
      "Ġmob": 5388,
      "ĠIndepend": 5389,
      "het": 5390,
      "more": 5391,
      "ador": 5392,
      "ĠNob": 5393,
      "Ġrough": 5394,
      "Ġformal": 5395,
      "Ġelectr": 5396,
      "bl": 5397,
      "ĠSub": 5398,
      "ieval": 5399,
      "ician": 5400,
      "ĠEach": 5401,
      "Ġrecently": 5402,
      "bo": 5403,
      "bourne": 5404,
      "ads": 5405,
      "97": 5406,
      "ĠBBC": 5407,
      "Ġprin": 5408,
      "ĠStar": 5409,
      "ĠStan": 5410,
      "Ġincorpor": 5411,
      "Ġmarriage": 5412,
      "Ġmemory": 5413,
      "uther": 5414,
      "Ġactually": 5415,
      "Ġpeak": 5416,
      "Ġsinger": 5417,
      "ĠRobbie": 5418,
      "iday": 5419,
      "Ġrein": 5420,
      "Ġminister": 5421,
      "Ġelections": 5422,
      "ÅĤ": 5423,
      "iced": 5424,
      "ĠMem": 5425,
      "Ġresiding": 5426,
      "Ġcollection": 5427,
      "Ġfish": 5428,
      "Ġcrisis": 5429,
      "usc": 5430,
      "ĠNHL": 5431,
      "Ġoffered": 5432,
      "Ġequip": 5433,
      "CH": 5434,
      "uty": 5435,
      "ĠPeterson": 5436,
      "eated": 5437,
      "ĠMongol": 5438,
      "bed": 5439,
      "ĠCH": 5440,
      "Ġmeasure": 5441,
      "Ġthrone": 5442,
      "ici": 5443,
      "ĠAth": 5444,
      "Ġlimit": 5445,
      "Ġserve": 5446,
      "heim": 5447,
      "essor": 5448,
      "Ġtele": 5449,
      "actions": 5450,
      "Ġsituation": 5451,
      "Ġarms": 5452,
      "ylvan": 5453,
      "Ġbiggest": 5454,
      "Ġsister": 5455,
      "Ġveh": 5456,
      "luded": 5457,
      "Ġchampionship": 5458,
      "Ġconstant": 5459,
      "ĠPan": 5460,
      "Ġsnow": 5461,
      "ips": 5462,
      "Ġlocation": 5463,
      "ĠUp": 5464,
      "rising": 5465,
      "ĠGDP": 5466,
      "Ġfeatured": 5467,
      "mas": 5468,
      "Ġcapture": 5469,
      "Ġbasis": 5470,
      "Ġcontent": 5471,
      "acts": 5472,
      "odies": 5473,
      "Ġheat": 5474,
      "Ġcompletely": 5475,
      "oncÃ©": 5476,
      "ographic": 5477,
      "ĠDig": 5478,
      "leep": 5479,
      "now": 5480,
      "Ġwealth": 5481,
      "ĠCyp": 5482,
      "took": 5483,
      "ĠWomen": 5484,
      "avalry": 5485,
      "?\"": 5486,
      "Ġbox": 5487,
      "Ġactors": 5488,
      "ĠUs": 5489,
      "Ġimperial": 5490,
      "ype": 5491,
      "ĠScience": 5492,
      "Ġclassical": 5493,
      "onz": 5494,
      "ĠCalvin": 5495,
      "ĠMajor": 5496,
      "Ġ400": 5497,
      "ysis": 5498,
      "Ġshortest": 5499,
      "ques": 5500,
      "ĠNic": 5501,
      "Ġbal": 5502,
      "plete": 5503,
      "Ġlabor": 5504,
      "ĠHay": 5505,
      "aint": 5506,
      "ĠEric": 5507,
      "ems": 5508,
      "uer": 5509,
      "everal": 5510,
      "Pe": 5511,
      "ĠEduc": 5512,
      "Ġtrying": 5513,
      "iang": 5514,
      "Ġreasons": 5515,
      "Ġaccept": 5516,
      "Ġapplied": 5517,
      "ĠLove": 5518,
      "oke": 5519,
      "ĠReggie": 5520,
      "orough": 5521,
      "ĠCommittee": 5522,
      "ĠSanta": 5523,
      "aska": 5524,
      "Ġsuccessfully": 5525,
      "Ġnuclear": 5526,
      "Ġlin": 5527,
      "ĠHassel": 5528,
      "ĠZeal": 5529,
      "ĠÅ": 5530,
      "Le": 5531,
      "Ġwrite": 5532,
      "Ġdigital": 5533,
      "hedral": 5534,
      "Ġinitial": 5535,
      "ĠBefore": 5536,
      "inson": 5537,
      ".:": 5538,
      "Ġequal": 5539,
      "ĠTem": 5540,
      "ĠRhine": 5541,
      "istered": 5542,
      "ĠOper": 5543,
      "Ġrates": 5544,
      "Ġcopper": 5545,
      "ĠFox": 5546,
      "Ġreflect": 5547,
      "Ð°": 5548,
      "ĠSenate": 5549,
      "Ġinn": 5550,
      "ĠPrize": 5551,
      "ĠId": 5552,
      "ĠHispanic": 5553,
      "Ġcarbon": 5554,
      "ĠCorn": 5555,
      "ĠMax": 5556,
      "itzerland": 5557,
      "Ġ1978": 5558,
      "ĠZealand": 5559,
      "ba": 5560,
      "pet": 5561,
      "ĠFeely": 5562,
      "Ġprefer": 5563,
      "anche": 5564,
      "overeign": 5565,
      "comm": 5566,
      "ĠSlav": 5567,
      "Ġmachine": 5568,
      "han": 5569,
      "formed": 5570,
      "Ġinitially": 5571,
      "igenous": 5572,
      "ĠMoss": 5573,
      "Ġclubs": 5574,
      "Ġoxygen": 5575,
      "Ġheav": 5576,
      "ĪĴ": 5577,
      "Ġsplit": 5578,
      "Ġheadquarter": 5579,
      "Ġapproach": 5580,
      "Ġcreation": 5581,
      "ĠPier": 5582,
      "pton": 5583,
      "Ġexchange": 5584,
      "ĠHasselbeck": 5585,
      "icture": 5586,
      "onian": 5587,
      "ga": 5588,
      "Ġrebellion": 5589,
      "Ġmut": 5590,
      "eces": 5591,
      "Ġsecret": 5592,
      "ĠJersey": 5593,
      "ĠAbout": 5594,
      "Ġsupply": 5595,
      "CO": 5596,
      "icians": 5597,
      "Ġmind": 5598,
      "anda": 5599,
      "ĠPhilipp": 5600,
      "III": 5601,
      "nings": 5602,
      "ective": 5603,
      "Ġbasic": 5604,
      "rier": 5605,
      "ĠWarsaw": 5606,
      "ĠSebastian": 5607,
      "Ġdominated": 5608,
      "Ġexpanded": 5609,
      "ĠWhat": 5610,
      "ĠTop": 5611,
      "Ġquant": 5612,
      "Ġsimply": 5613,
      "itage": 5614,
      "ĠBerlin": 5615,
      "ainian": 5616,
      "App": 5617,
      "Ġlif": 5618,
      "Ġdistance": 5619,
      "range": 5620,
      "ĠBull": 5621,
      "ĠPrinc": 5622,
      "Ġcolonial": 5623,
      "ĠKerry": 5624,
      "Ġsimple": 5625,
      "Ġwins": 5626,
      "Ġtherefore": 5627,
      "ises": 5628,
      "house": 5629,
      "Ġcomposed": 5630,
      "ptions": 5631,
      "org": 5632,
      "Ġopportun": 5633,
      "ĠNapoleon": 5634,
      "Ġpurpose": 5635,
      "gal": 5636,
      "Ġseal": 5637,
      "Ġ1971": 5638,
      "asket": 5639,
      "equ": 5640,
      "ĠHaw": 5641,
      "Ġsuppl": 5642,
      "Ġbranch": 5643,
      "Ġconnecting": 5644,
      "Ġ1972": 5645,
      "Ġdocument": 5646,
      "ima": 5647,
      "Ġthousands": 5648,
      "Ġspeech": 5649,
      "Ġpasseng": 5650,
      "ghan": 5651,
      "athan": 5652,
      "ĠRog": 5653,
      "ulate": 5654,
      "aris": 5655,
      "Ġpopulations": 5656,
      "Ġtreatment": 5657,
      "Ġnormal": 5658,
      "Ġattend": 5659,
      "SR": 5660,
      "Ġauthorities": 5661,
      "hips": 5662,
      "Ġpresidential": 5663,
      "Ind": 5664,
      "ĠKasay": 5665,
      "rev": 5666,
      "Ġupper": 5667,
      "ĠVi": 5668,
      "ĠHaven": 5669,
      "Ġfoot": 5670,
      "arden": 5671,
      "2008": 5672,
      "ĠCommonwealth": 5673,
      "ĠKyle": 5674,
      "ondiss": 5675,
      "ults": 5676,
      "Ġconsists": 5677,
      "ounted": 5678,
      "edic": 5679,
      "Ġslight": 5680,
      "Ġmixed": 5681,
      "ider": 5682,
      "cia": 5683,
      "Ġ1974": 5684,
      "Ġreceive": 5685,
      "Ġtarget": 5686,
      "enter": 5687,
      "ĠOrgan": 5688,
      "Ġoperating": 5689,
      "uters": 5690,
      "icks": 5691,
      "Ġefforts": 5692,
      "Ġorganizations": 5693,
      "ez": 5694,
      "2006": 5695,
      "ĠSk": 5696,
      "eld": 5697,
      "ĠAsh": 5698,
      "Ġremoved": 5699,
      "Ġweapons": 5700,
      "ĠFree": 5701,
      "Ġprovinces": 5702,
      "Ġpoet": 5703,
      "ĠAnth": 5704,
      "Ġlic": 5705,
      "econd": 5706,
      "intendo": 5707,
      "mese": 5708,
      "achus": 5709,
      "oyd": 5710,
      "Ġprisoners": 5711,
      "edd": 5712,
      "ĠLib": 5713,
      "Ġuniform": 5714,
      "oples": 5715,
      "amese": 5716,
      "pson": 5717,
      "writ": 5718,
      "ĠUSA": 5719,
      "Ġproducer": 5720,
      "Ġattention": 5721,
      "etts": 5722,
      "Ġtribes": 5723,
      "aran": 5724,
      "Ġple": 5725,
      "Ġcarry": 5726,
      "rance": 5727,
      "Ġhuge": 5728,
      "Can": 5729,
      "Ġdistribution": 5730,
      "Ġdepart": 5731,
      "imal": 5732,
      "Ġaid": 5733,
      "ĠMaur": 5734,
      "ĠKit": 5735,
      "Ġparliament": 5736,
      "arent": 5737,
      "Ġ58": 5738,
      "raf": 5739,
      "Ġartist": 5740,
      "TER": 5741,
      "Ġpicked": 5742,
      "CC": 5743,
      "een": 5744,
      "Ġcle": 5745,
      "ĠAge": 5746,
      "osis": 5747,
      "ittle": 5748,
      "By": 5749,
      "Ġcovered": 5750,
      "Ã¡n": 5751,
      "igan": 5752,
      "2007": 5753,
      "Ġ1967": 5754,
      "Ġ1917": 5755,
      "Ġfer": 5756,
      "Ġorganized": 5757,
      "Ġgrad": 5758,
      "ĠSchaub": 5759,
      "ĠÂł": 5760,
      "insula": 5761,
      "Ġsubsequently": 5762,
      "ĠAndre": 5763,
      "Ġsection": 5764,
      "umed": 5765,
      "ĠLuc": 5766,
      "ĠBlue": 5767,
      "ĠRoad": 5768,
      "Ġfocus": 5769,
      "uls": 5770,
      "lah": 5771,
      "ĠNedney": 5772,
      "Ġdang": 5773,
      "idents": 5774,
      "oa": 5775,
      "Ġgoes": 5776,
      "Ġquality": 5777,
      "ĠTour": 5778,
      "ĠRail": 5779,
      "Ġexhib": 5780,
      "ibly": 5781,
      "Ġcrown": 5782,
      "ylvania": 5783,
      "Ġdefinition": 5784,
      "Ġ1977": 5785,
      "ĠDev": 5786,
      "Ġcrime": 5787,
      "Ġmaterials": 5788,
      "Ġeyes": 5789,
      "Ġstudied": 5790,
      "orate": 5791,
      "Ġexecutive": 5792,
      "Ġprogress": 5793,
      "ĠTa": 5794,
      "Ġmagazine": 5795,
      "Ġiron": 5796,
      "Ġallows": 5797,
      "Ġgreatest": 5798,
      "ĠTechn": 5799,
      "ĠHuman": 5800,
      "Ġoffer": 5801,
      "zant": 5802,
      "respond": 5803,
      "ĠFord": 5804,
      "Ġ1968": 5805,
      "PA": 5806,
      "li": 5807,
      "Ġtoward": 5808,
      "Ġcerem": 5809,
      "icted": 5810,
      "Ġargued": 5811,
      "real": 5812,
      "bury": 5813,
      "ĠCare": 5814,
      "ĠEli": 5815,
      "Ġelement": 5816,
      "oster": 5817,
      "Ġdefend": 5818,
      "ĠGood": 5819,
      "ĠPet": 5820,
      "ĠChild": 5821,
      "ĠJustice": 5822,
      "ĠFIFA": 5823,
      "Ġarmies": 5824,
      "ĠSwitzerland": 5825,
      "Ġexamples": 5826,
      "Ġavoid": 5827,
      "Ġ1975": 5828,
      "Ġcontemp": 5829,
      "alle": 5830,
      "Ġfelt": 5831,
      "vement": 5832,
      "ĠReport": 5833,
      "ĠBi": 5834,
      "ĠCop": 5835,
      "RA": 5836,
      "Ġsymbol": 5837,
      "Ġplans": 5838,
      "IA": 5839,
      "Ġlisted": 5840,
      "Ġprovides": 5841,
      "Ġvoice": 5842,
      "inction": 5843,
      "aimed": 5844,
      "2005": 5845,
      "Ġpositions": 5846,
      "Ġopposition": 5847,
      "ĠNorway": 5848,
      "Ġletters": 5849,
      "Ġexcl": 5850,
      "Ġearned": 5851,
      "Ġstrength": 5852,
      "Ġguitar": 5853,
      "Ġmethods": 5854,
      "ĠOxford": 5855,
      "Ġthing": 5856,
      "Ġamb": 5857,
      "From": 5858,
      "ĠStand": 5859,
      "ĠVI": 5860,
      "ĠBurmese": 5861,
      "hammad": 5862,
      "Ġalliance": 5863,
      "Ġrepresented": 5864,
      "apers": 5865,
      "ĠThough": 5866,
      "ĠOffice": 5867,
      "Ġwhy": 5868,
      "ĠYale": 5869,
      "Ġseat": 5870,
      "Ġir": 5871,
      "ĠSummer": 5872,
      "Ġhab": 5873,
      "Ġnoted": 5874,
      "ora": 5875,
      "ifying": 5876,
      "apore": 5877,
      "Ġtrain": 5878,
      "Ġ62": 5879,
      "Ġenter": 5880,
      "ĠToday": 5881,
      "ĠOrton": 5882,
      "Ġcontrast": 5883,
      "ester": 5884,
      "ĠCollins": 5885,
      "sur": 5886,
      "400": 5887,
      "ĠGolden": 5888,
      "ĠAdrian": 5889,
      "ĠBeyoncÃ©": 5890,
      "lom": 5891,
      "ĠAh": 5892,
      "Ġscreen": 5893,
      "ibb": 5894,
      "ĠAlf": 5895,
      "Ġpositive": 5896,
      "John": 5897,
      "Ġnick": 5898,
      "uj": 5899,
      "othing": 5900,
      "Ġonline": 5901,
      "Ġslaves": 5902,
      "book": 5903,
      "Ġcoup": 5904,
      "Ġforcing": 5905,
      "Ġroute": 5906,
      "erb": 5907,
      "Ġdecline": 5908,
      "Ġobjects": 5909,
      "ĠInt": 5910,
      "Ġsuggest": 5911,
      "Äĩ": 5912,
      "Ġexpedition": 5913,
      "Ġ1973": 5914,
      "ĠByzant": 5915,
      "Ġsched": 5916,
      "2009": 5917,
      "ĠDisney": 5918,
      "Ġmathemat": 5919,
      "Ġdevices": 5920,
      "Ġspoke": 5921,
      "irmed": 5922,
      "Ġnearby": 5923,
      "Ġidentity": 5924,
      "Ġepisode": 5925,
      "ecution": 5926,
      "Ġunion": 5927,
      "Ġlowest": 5928,
      "ĠMuslims": 5929,
      "box": 5930,
      "Ġ61": 5931,
      "Ġsecondary": 5932,
      "Ġlasted": 5933,
      "Ġidentified": 5934,
      "ĠDNA": 5935,
      "ĠGri": 5936,
      "Ġautom": 5937,
      "Ġcampus": 5938,
      "ounger": 5939,
      "ĠDonald": 5940,
      "Ġ74": 5941,
      "ĠFestival": 5942,
      "osh": 5943,
      "Ġscale": 5944,
      "ĠPatrick": 5945,
      "ĠHarv": 5946,
      "Ġmarg": 5947,
      "ologists": 5948,
      "Ġ1969": 5949,
      "ĠOh": 5950,
      "Ġ63": 5951,
      "ĠPalace": 5952,
      "ĠPrussia": 5953,
      "Ġbrief": 5954,
      "Ġ78": 5955,
      "Ġenj": 5956,
      "ĠBus": 5957,
      "Ġsaying": 5958,
      "ĠChristianity": 5959,
      "ĠTam": 5960,
      "ĠHun": 5961,
      "ogen": 5962,
      "Ġcotton": 5963,
      "ĠModern": 5964,
      "oln": 5965,
      "ĠCassel": 5966,
      "ĠFound": 5967,
      "ĠCastle": 5968,
      "Ġdriving": 5969,
      "mod": 5970,
      "orship": 5971,
      "Ġcoal": 5972,
      "Ġclaims": 5973,
      "alf": 5974,
      "oren": 5975,
      "Ġarmed": 5976,
      "ĠMexican": 5977,
      "Ġbes": 5978,
      "ĠBelg": 5979,
      "Ġcontest": 5980,
      "Ġsucceeded": 5981,
      "Ġprotection": 5982,
      "Eng": 5983,
      "ader": 5984,
      "ĠGonz": 5985,
      "Ġ68": 5986,
      "Ġstudio": 5987,
      "ursday": 5988,
      "Ġleadership": 5989,
      "Ġgovernments": 5990,
      "ndered": 5991,
      "ctions": 5992,
      "ĠMountains": 5993,
      "Ġstructures": 5994,
      "Ġjobs": 5995,
      "ĠBrett": 5996,
      "Ġfigure": 5997,
      "Pro": 5998,
      "Ġrang": 5999,
      "ĠAssembly": 6000,
      "onna": 6001,
      "Ġhunting": 6002,
      "active": 6003,
      "Ġreserv": 6004,
      "opin": 6005,
      "ĠElam": 6006,
      "Ġbattles": 6007,
      "achusetts": 6008,
      "ĠTurkey": 6009,
      "erc": 6010,
      "Ġconquered": 6011,
      "ĠAnc": 6012,
      "Ġbroken": 6013,
      "Ġexistence": 6014,
      "ID": 6015,
      "ais": 6016,
      "mi": 6017,
      "Ġtitles": 6018,
      "ĠLuck": 6019,
      "ellen": 6020,
      "ĠBang": 6021,
      "resh": 6022,
      "alities": 6023,
      "eston": 6024,
      "2011": 6025,
      "Ġgives": 6026,
      "Ġrivers": 6027,
      "eral": 6028,
      "Ġsovereign": 6029,
      "Ġdecade": 6030,
      "Ã±": 6031,
      "ĠDown": 6032,
      "erek": 6033,
      "Ġlear": 6034,
      "ĠThursday": 6035,
      "Ġsilver": 6036,
      "Ġextrem": 6037,
      "zh": 6038,
      "Ġmuseum": 6039,
      "lahoma": 6040,
      "Ġsearch": 6041,
      "ivered": 6042,
      "ĠEarl": 6043,
      "ĠLi": 6044,
      "isted": 6045,
      "Ġmetropolitan": 6046,
      "greg": 6047,
      "ĠAnthony": 6048,
      "Ġsixth": 6049,
      "Jan": 6050,
      "Ġwriter": 6051,
      "ĠBron": 6052,
      "Ġ95": 6053,
      "while": 6054,
      "Trying": 6055,
      "ĠMicro": 6056,
      "ĠStat": 6057,
      "ĠChe": 6058,
      "ĠRegion": 6059,
      "GB": 6060,
      "zy": 6061,
      "Ġinternal": 6062,
      "Ġneighbor": 6063,
      "ĠWork": 6064,
      "Ġcopies": 6065,
      "Or": 6066,
      "ĠChristians": 6067,
      "Ġdirected": 6068,
      "Ġantib": 6069,
      "ĠFrederick": 6070,
      "Ġvisited": 6071,
      "Ġfields": 6072,
      "Ġvs": 6073,
      "ynes": 6074,
      "Ġlose": 6075,
      "Ġpossessions": 6076,
      "ĠTurn": 6077,
      "ayer": 6078,
      "Ġresources": 6079,
      "othes": 6080,
      "ĠUt": 6081,
      "Ġeffort": 6082,
      "thur": 6083,
      "tainment": 6084,
      "Ġtropical": 6085,
      "Ġpurs": 6086,
      "Ġtempor": 6087,
      "ĠSerb": 6088,
      "uro": 6089,
      "Ġstadium": 6090,
      "Ġspring": 6091,
      "din": 6092,
      "ĠDam": 6093,
      "ĠNotes": 6094,
      "ĠEducation": 6095,
      "olin": 6096,
      "die": 6097,
      "chester": 6098,
      "ĠIll": 6099,
      "Ġft": 6100,
      "oting": 6101,
      "ĠBilly": 6102,
      "Ġprep": 6103,
      "Ġhospital": 6104,
      "Ġoperation": 6105,
      "Pr": 6106,
      "ĠSar": 6107,
      "Ġquite": 6108,
      "izes": 6109,
      "Ġweather": 6110,
      "incoln": 6111,
      "ette": 6112,
      "ishes": 6113,
      "Ġlearning": 6114,
      "Ġemperor": 6115,
      "aught": 6116,
      "onald": 6117,
      "ĠClin": 6118,
      "Ġofficer": 6119,
      "Ġcalc": 6120,
      "Ġmur": 6121,
      "fect": 6122,
      "Ġdance": 6123,
      "APTER": 6124,
      "Ġfoss": 6125,
      "Ġminute": 6126,
      "Ġbill": 6127,
      "Ġdistricts": 6128,
      "Ġdelivered": 6129,
      "ST": 6130,
      "can": 6131,
      "abs": 6132,
      "Ġdrop": 6133,
      "Ġdistingu": 6134,
      "Ġsurpris": 6135,
      "ĠMelbourne": 6136,
      "ĠNin": 6137,
      "ava": 6138,
      "Ġrose": 6139,
      "ĠPersian": 6140,
      "Ġones": 6141,
      "Ġpoll": 6142,
      "Ġdoub": 6143,
      "Ġpair": 6144,
      "rine": 6145,
      "ternal": 6146,
      "ĠClark": 6147,
      "Ġsport": 6148,
      "Ġsuppor": 6149,
      "haps": 6150,
      "ĠQing": 6151,
      "Ġ1966": 6152,
      "iro": 6153,
      "Ġimplement": 6154,
      "Ġbands": 6155,
      "anium": 6156,
      "Ġcorrespond": 6157,
      "omm": 6158,
      "soft": 6159,
      "Ġconducted": 6160,
      "ĠPop": 6161,
      "aby": 6162,
      "Ġseek": 6163,
      "Ġformation": 6164,
      "ĠAfghan": 6165,
      "Ġsuggested": 6166,
      "ims": 6167,
      "rip": 6168,
      "ĠAllen": 6169,
      "ĠEst": 6170,
      "Ġbecomes": 6171,
      "Ġinvaded": 6172,
      "Ġrebels": 6173,
      "Ġemph": 6174,
      "ĠNintendo": 6175,
      "ĠResearch": 6176,
      "patrick": 6177,
      "enses": 6178,
      "Ġdecades": 6179,
      "ĠWallace": 6180,
      "spe": 6181,
      "struction": 6182,
      "ĠLatino": 6183,
      "%).": 6184,
      "Ġrot": 6185,
      "Ġpersons": 6186,
      "ieties": 6187,
      "ĠEll": 6188,
      "Ġadj": 6189,
      "ĠVietnam": 6190,
      "Ð¾": 6191,
      "Ġwithdr": 6192,
      "ĠZh": 6193,
      "Ġminority": 6194,
      "ĠMassachusetts": 6195,
      "ĠHungary": 6196,
      "Ġbey": 6197,
      "Ġ73": 6198,
      "Ġ85": 6199,
      "ĠWat": 6200,
      "elligence": 6201,
      "poration": 6202,
      "ĠColumbia": 6203,
      "ĠTai": 6204,
      "Ġnewspaper": 6205,
      "Ġfailure": 6206,
      "ĠFA": 6207,
      "ĠCas": 6208,
      "Ġmaintain": 6209,
      "Ġadvance": 6210,
      "ĠMP": 6211,
      "Ġsend": 6212,
      "Ġnaval": 6213,
      "Ġprice": 6214,
      "Ġexecuted": 6215,
      "Be": 6216,
      "Ġstruggled": 6217,
      "ĠJam": 6218,
      "aly": 6219,
      "ĠiP": 6220,
      "Ġpeoples": 6221,
      "Ġjournal": 6222,
      "iments": 6223,
      "Ġanything": 6224,
      "osen": 6225,
      "Ġeffective": 6226,
      "ĠSingapore": 6227,
      "acks": 6228,
      "ĠTomlin": 6229,
      "Ġ1963": 6230,
      "Ġsubsequent": 6231,
      "inger": 6232,
      "Total": 6233,
      "Ġattr": 6234,
      "ĠOlympics": 6235,
      "usal": 6236,
      "ĠEntertainment": 6237,
      "ĠAnglo": 6238,
      "iable": 6239,
      "ĠDeath": 6240,
      "Ġspirit": 6241,
      "ĠSax": 6242,
      "inner": 6243,
      "anguage": 6244,
      "Ġcarries": 6245,
      "Ġmatches": 6246,
      "Ġstruggle": 6247,
      "Ġnewly": 6248,
      "Ġstars": 6249,
      "All": 6250,
      "udi": 6251,
      "Ġshoot": 6252,
      "Ġabandon": 6253,
      "Ġspot": 6254,
      "Ġcolonies": 6255,
      "ĠPC": 6256,
      "Ġenemy": 6257,
      "come": 6258,
      "Ġille": 6259,
      "Ġpage": 6260,
      "ĠCross": 6261,
      "Ġrank": 6262,
      "Ġcontribut": 6263,
      "Ġnort": 6264,
      "Ġbacteria": 6265,
      "arct": 6266,
      "ĠEth": 6267,
      "ĠNeil": 6268,
      "Ġinstruments": 6269,
      "ĠCarp": 6270,
      "Ġ1964": 6271,
      "ĠWard": 6272,
      "Ġopposed": 6273,
      "Ġproved": 6274,
      "ĠStover": 6275,
      "pper": 6276,
      "iques": 6277,
      "Ġmax": 6278,
      "alia": 6279,
      "ĠSeveral": 6280,
      "hann": 6281,
      "Ġimpact": 6282,
      "Ġcommander": 6283,
      "Ġstories": 6284,
      "Ġreaching": 6285,
      "elect": 6286,
      "ĠDerek": 6287,
      "oslav": 6288,
      "Ġmountains": 6289,
      "2014": 6290,
      "gor": 6291,
      "Ġstreet": 6292,
      "2012": 6293,
      "cycl": 6294,
      "asketball": 6295,
      "Ġbeyond": 6296,
      "vert": 6297,
      "elle": 6298,
      "organ": 6299,
      "ĠLy": 6300,
      "ĠMing": 6301,
      "ĠVan": 6302,
      "cles": 6303,
      "Ġreally": 6304,
      "ĠAC": 6305,
      "Ġut": 6306,
      "espread": 6307,
      "ÉĻ": 6308,
      "Ġreading": 6309,
      "Ġcolony": 6310,
      "including": 6311,
      "venth": 6312,
      "Ġhol": 6313,
      "uran": 6314,
      "Ġeasily": 6315,
      "Ġpieces": 6316,
      "ĠDi": 6317,
      "Ġstaff": 6318,
      "ĠOpen": 6319,
      "Ġkilling": 6320,
      "Ġnecessary": 6321,
      "uits": 6322,
      "ĠProf": 6323,
      "Ġemphas": 6324,
      "Ġnothing": 6325,
      "Ġtraff": 6326,
      "ira": 6327,
      "aga": 6328,
      "ocked": 6329,
      "Ġsell": 6330,
      "bec": 6331,
      "ĠEU": 6332,
      "ĠRaj": 6333,
      "ĠLarry": 6334,
      "igning": 6335,
      "Ġcompar": 6336,
      "ustr": 6337,
      "Ġactions": 6338,
      "2004": 6339,
      "Ġfair": 6340,
      "ĠChart": 6341,
      "Ġbridge": 6342,
      "ĠMcG": 6343,
      "Ġtrees": 6344,
      "ĠTs": 6345,
      "roll": 6346,
      "Ġenjoy": 6347,
      "Ġ69": 6348,
      "Ġclasses": 6349,
      "Ġsolar": 6350,
      "Ġvalley": 6351,
      "arv": 6352,
      "Ġcrow": 6353,
      "Ġ82": 6354,
      "Ġrisk": 6355,
      "Ġdifferences": 6356,
      "Ġ1965": 6357,
      "ĠOklahoma": 6358,
      "Ġtall": 6359,
      "His": 6360,
      "Ġ1961": 6361,
      "ĠGron": 6362,
      "Ġdispl": 6363,
      "Ġdescribe": 6364,
      "Ġsurrounding": 6365,
      "Ġhyp": 6366,
      "Ġchart": 6367,
      "Ġdepend": 6368,
      "Ġpermanent": 6369,
      "Ġvary": 6370,
      "Ġunderstand": 6371,
      "Ġedition": 6372,
      "ĠTower": 6373,
      "omans": 6374,
      "Ġimportance": 6375,
      "hat": 6376,
      "ĠLincoln": 6377,
      "Ġ66": 6378,
      "ĠAustrian": 6379,
      "itors": 6380,
      "ĠTal": 6381,
      "Ġforward": 6382,
      "Ġchampion": 6383,
      "Ġdrives": 6384,
      "Ġtemperatures": 6385,
      "Ġsought": 6386,
      "ĠService": 6387,
      "BM": 6388,
      "Ġexact": 6389,
      "worth": 6390,
      "Ġfully": 6391,
      "Ġcourts": 6392,
      "uda": 6393,
      "Ġvotes": 6394,
      "Ġ1944": 6395,
      "Ġcustom": 6396,
      "Ġfaith": 6397,
      "Ġretook": 6398,
      "Ġcolle": 6399,
      "ĠNBA": 6400,
      "ĠKel": 6401,
      "ĠArm": 6402,
      "ilding": 6403,
      "Ġregul": 6404,
      "ĠĠĠĠĠĠĠĠĠĠĠĠĠĠĠĠ": 6405,
      "ĠPower": 6406,
      "cow": 6407,
      "Ġacts": 6408,
      "Ġbehavior": 6409,
      "Ġprominent": 6410,
      "ighth": 6411,
      "ĠWalter": 6412,
      "oven": 6413,
      "imb": 6414,
      "Ġcomment": 6415,
      "ĠLine": 6416,
      "ĠBarber": 6417,
      "stone": 6418,
      "ĠMic": 6419,
      "elson": 6420,
      "Ġcritical": 6421,
      "ĠAges": 6422,
      "ĠFle": 6423,
      "Ġimage": 6424,
      "Ã¢": 6425,
      "uten": 6426,
      "Ġrelative": 6427,
      "ictions": 6428,
      "Ġaffected": 6429,
      "ĠArmenia": 6430,
      "Ġapart": 6431,
      "uins": 6432,
      "ĠFurther": 6433,
      "sole": 6434,
      "Ġfeat": 6435,
      "Ġrefers": 6436,
      "Ġcausing": 6437,
      "ĠEgyptian": 6438,
      "Ġachieved": 6439,
      "onder": 6440,
      "hess": 6441,
      "Ġpolitics": 6442,
      "ĠIS": 6443,
      "Ġdiplom": 6444,
      "Ġ1941": 6445,
      "ĠSav": 6446,
      "ĠPost": 6447,
      "ously": 6448,
      "Ġadministrative": 6449,
      "ĠPenns": 6450,
      "Ġweight": 6451,
      "Ġairport": 6452,
      "ĠHealth": 6453,
      "Ġdry": 6454,
      "stead": 6455,
      "Ġdeveloping": 6456,
      "Ġversions": 6457,
      "Ġacquired": 6458,
      "Ġdaily": 6459,
      "Ġwidespread": 6460,
      "Ġstre": 6461,
      "larg": 6462,
      "Ġrivalry": 6463,
      "Ġmovements": 6464,
      "Å¡": 6465,
      "ĠSum": 6466,
      "ĠBol": 6467,
      "occ": 6468,
      "ployment": 6469,
      "gn": 6470,
      "xts": 6471,
      "ĠDemocr": 6472,
      "Ġfigures": 6473,
      "ĠOnly": 6474,
      "Ġhooking": 6475,
      "ĠRang": 6476,
      "ĠFitzpatrick": 6477,
      "Ġpros": 6478,
      "ĠOfficial": 6479,
      "Ġrailway": 6480,
      "Ġtend": 6481,
      "Ġrich": 6482,
      "Ġequipment": 6483,
      "Ġspect": 6484,
      "ĠYears": 6485,
      "ĠConstantin": 6486,
      "ĠCult": 6487,
      "Ġ89": 6488,
      "Ġdominant": 6489,
      "Ġturnover": 6490,
      "ĠTomlinson": 6491,
      "Ġneut": 6492,
      "ĠUniversal": 6493,
      "portion": 6494,
      "Pl": 6495,
      "Ġrenew": 6496,
      "Ġcontemporary": 6497,
      "ĠPun": 6498,
      "Ġnegative": 6499,
      "such": 6500,
      "ĠConference": 6501,
      "Ġmanager": 6502,
      "Ġcul": 6503,
      "Ġcontact": 6504,
      "Ġaddress": 6505,
      "avel": 6506,
      "ĠPopul": 6507,
      "Ġusers": 6508,
      "Ġderived": 6509,
      "Ġmamm": 6510,
      "ĠChopin": 6511,
      "ĠChap": 6512,
      "Ġcapacity": 6513,
      "Ġcool": 6514,
      "ilton": 6515,
      "Ġvirt": 6516,
      "mosp": 6517,
      "outs": 6518,
      "Ġ72": 6519,
      "long": 6520,
      "\").": 6521,
      "Ġhistoric": 6522,
      "Ġestablishment": 6523,
      "Ġtal": 6524,
      "ĠMaria": 6525,
      "Ġslightly": 6526,
      "ĠNow": 6527,
      "2001": 6528,
      "also": 6529,
      "Ġve": 6530,
      "ranean": 6531,
      "Ġarrested": 6532,
      "Ġdivers": 6533,
      "pur": 6534,
      "run": 6535,
      "ĠFinland": 6536,
      "bu": 6537,
      "Ġsym": 6538,
      "Ġpron": 6539,
      "ĠBah": 6540,
      "Ġheard": 6541,
      "Ġgeneration": 6542,
      "ultan": 6543,
      "Ġsatell": 6544,
      "miss": 6545,
      "uted": 6546,
      "ĠLibrary": 6547,
      "hr": 6548,
      "Ġdowns": 6549,
      "Ġ;": 6550,
      "ĠBroad": 6551,
      "ĠOwens": 6552,
      "Ġyounger": 6553,
      "velopment": 6554,
      "Ġ1949": 6555,
      "Ġemotion": 6556,
      "Ġinstance": 6557,
      "Ġreduce": 6558,
      "Ġfuel": 6559,
      "iginal": 6560,
      "Ġapplications": 6561,
      "ĠRussians": 6562,
      "Ġfrequently": 6563,
      "Ġincomplete": 6564,
      "obe": 6565,
      "fl": 6566,
      "Ġdrink": 6567,
      "Ġfreedom": 6568,
      "Ġprote": 6569,
      "Ġoccasion": 6570,
      "Ġtons": 6571,
      "Ġpan": 6572,
      "Ġbodies": 6573,
      "ĠNav": 6574,
      "Ġsubs": 6575,
      "ĠAmong": 6576,
      "'.": 6577,
      "itable": 6578,
      "ĠOttomans": 6579,
      "ĠBrook": 6580,
      "Ġdrugs": 6581,
      "\"),": 6582,
      "Ġwinner": 6583,
      "iting": 6584,
      "icy": 6585,
      "Ġformat": 6586,
      "Ġ1948": 6587,
      "ĠDenmark": 6588,
      "Ġ1939": 6589,
      "2013": 6590,
      "ĠCyprus": 6591,
      "Ġheadquarters": 6592,
      "Ġcrop": 6593,
      "Ġfiction": 6594,
      "ĠWater": 6595,
      "Ġtaught": 6596,
      "Ġplat": 6597,
      "ĠCroat": 6598,
      "2002": 6599,
      "ĠRam": 6600,
      "ĠHo": 6601,
      "azz": 6602,
      "Ġexperi": 6603,
      "ĠMoscow": 6604,
      "Ġdemand": 6605,
      "ja": 6606,
      "Ġ71": 6607,
      "Ġwatch": 6608,
      "rophy": 6609,
      "Ġetc": 6610,
      "Ġdisapp": 6611,
      "Bl": 6612,
      "uccess": 6613,
      "Ġallies": 6614,
      "atinum": 6615,
      "Living": 6616,
      "Ġtrial": 6617,
      "2003": 6618,
      "Ġflu": 6619,
      "otte": 6620,
      "ĠOhio": 6621,
      "Ġ2021": 6622,
      "Ġdeclined": 6623,
      "ĠCarney": 6624,
      "Ġpresented": 6625,
      "ĠConserv": 6626,
      "Ġorganisms": 6627,
      "ĠBurma": 6628,
      "Ġcreating": 6629,
      "ĠPennsylvania": 6630,
      "illery": 6631,
      "under": 6632,
      "iterranean": 6633,
      "People": 6634,
      "called": 6635,
      "Ġpunted": 6636,
      "Ġearthqu": 6637,
      "!\"": 6638,
      "Ġsac": 6639,
      "ĠNewton": 6640,
      "break": 6641,
      "Ġwalls": 6642,
      "Ġbott": 6643,
      "Ġgreatly": 6644,
      "ĠAntarct": 6645,
      "ĠKong": 6646,
      "Ġchosen": 6647,
      "Ġsignificantly": 6648,
      "Ġcommitted": 6649,
      "Ġdogs": 6650,
      "Ġintegr": 6651,
      "Ġ77": 6652,
      "ifications": 6653,
      "ashion": 6654,
      "Ä«": 6655,
      "ennis": 6656,
      "ĠSel": 6657,
      "ĠFar": 6658,
      "ĠTelevision": 6659,
      "lon": 6660,
      "wa": 6661,
      "wart": 6662,
      "Ġfil": 6663,
      "irty": 6664,
      "season": 6665,
      "aka": 6666,
      "Ġseparated": 6667,
      "ĠLittle": 6668,
      "ĠBarb": 6669,
      "ĠBetween": 6670,
      "January": 6671,
      "Ġharm": 6672,
      "Ġspeakers": 6673,
      "ĠBillboard": 6674,
      "EC": 6675,
      "Ġbought": 6676,
      "Ġfans": 6677,
      "Ġhour": 6678,
      "Ġarrondiss": 6679,
      "Ġmurder": 6680,
      "Ġroughly": 6681,
      "afi": 6682,
      "Ġmanagement": 6683,
      "ĠPrix": 6684,
      "Ġhomes": 6685,
      "Ġ1919": 6686,
      "Ġputting": 6687,
      "Ġmentioned": 6688,
      "ĠTynes": 6689,
      "adesh": 6690,
      "enge": 6691,
      "Ġdetermined": 6692,
      "Ġpreserv": 6693,
      "ĠLight": 6694,
      "Ġcateg": 6695,
      "Ġ79": 6696,
      "iley": 6697,
      "ĠProvince": 6698,
      "nel": 6699,
      "ĠShow": 6700,
      "ĠObama": 6701,
      "ET": 6702,
      "ĠUEFA": 6703,
      "Ġtow": 6704,
      "Ġgenetic": 6705,
      "Ġsteam": 6706,
      "Ġemerg": 6707,
      "Ġweak": 6708,
      "ĠMicrosoft": 6709,
      "from": 6710,
      "Ġtourn": 6711,
      "Ġrural": 6712,
      "reeks": 6713,
      "ĠArts": 6714,
      "ĠGronkowski": 6715,
      "To": 6716,
      "mes": 6717,
      "ĠIb": 6718,
      "ĠFG": 6719,
      "aus": 6720,
      "wise": 6721,
      "Ġshared": 6722,
      "Ġactor": 6723,
      "ĠBal": 6724,
      "Ġemp": 6725,
      "ĠCapt": 6726,
      "ĠSky": 6727,
      "ĠRice": 6728,
      "Ġcasual": 6729,
      "Ġpunts": 6730,
      "ĠNetwork": 6731,
      "De": 6732,
      "Ġchalleng": 6733,
      "Ġ()": 6734,
      "Ġ93": 6735,
      "Ġnarrowed": 6736,
      "Ġwriters": 6737,
      "ĠCoast": 6738,
      "Ðµ": 6739,
      "ovak": 6740,
      "Ġgoods": 6741,
      "Some": 6742,
      "Ġeasy": 6743,
      "Ġneeds": 6744,
      "1990": 6745,
      "Ġcart": 6746,
      "ĠRussell": 6747,
      "rin": 6748,
      "isher": 6749,
      "ĠLuther": 6750,
      "agement": 6751,
      "Ġshape": 6752,
      "Ġconcluded": 6753,
      "fam": 6754,
      "ducing": 6755,
      "Ġexpress": 6756,
      "Ġvide": 6757,
      "Ġconfirmed": 6758,
      "Ġneighborhood": 6759,
      "adian": 6760,
      "Ġ67": 6761,
      "Ġguard": 6762,
      "Ġpolicies": 6763,
      "uts": 6764,
      "Ġapparent": 6765,
      "Ġpop": 6766,
      "ĠArgent": 6767,
      "Ġincreasingly": 6768,
      "Ġlingu": 6769,
      "rain": 6770,
      "Ġarts": 6771,
      "hester": 6772,
      "Ġcam": 6773,
      "ĠGates": 6774,
      "enne": 6775,
      "ĠWild": 6776,
      "ĠColor": 6777,
      "ila": 6778,
      "acted": 6779,
      "Ġonside": 6780,
      "Ġacademic": 6781,
      "ĠClinton": 6782,
      "ĠJean": 6783,
      "udget": 6784,
      "Ġsleep": 6785,
      "ĠLyn": 6786,
      "Ġexpand": 6787,
      "ĠPlayer": 6788,
      "Ġnote": 6789,
      "600": 6790,
      "elve": 6791,
      "ĠThus": 6792,
      "Ġpil": 6793,
      "uis": 6794,
      "Ġknew": 6795,
      "ĠMuhammad": 6796,
      "Ġvan": 6797,
      "ĠIndians": 6798,
      "ĠSpecial": 6799,
      "ĠUl": 6800,
      "ĠXX": 6801,
      "Ġplanet": 6802,
      "inate": 6803,
      "ĠNasser": 6804,
      "Ġadult": 6805,
      "Ġfactors": 6806,
      "Ġdegrees": 6807,
      "Ġmaster": 6808,
      "Ġcrowd": 6809,
      "ĠÎ": 6810,
      "ĠHarry": 6811,
      "cyclop": 6812,
      "ĠConstantinople": 6813,
      "Ġpractices": 6814,
      "Ġlabel": 6815,
      "sex": 6816,
      "Ġgets": 6817,
      "ĠManchester": 6818,
      "Ġuranium": 6819,
      "Ġprey": 6820,
      "Ġfloor": 6821,
      "Ġabb": 6822,
      "ĠAndy": 6823,
      "Ġ1962": 6824,
      "ĠHindu": 6825,
      "ayton": 6826,
      "ologist": 6827,
      "ĠWeb": 6828,
      "byter": 6829,
      "chers": 6830,
      "ĠEnd": 6831,
      "ensions": 6832,
      "issance": 6833,
      "ĠAustin": 6834,
      "ĠNiger": 6835,
      "ĠNelson": 6836,
      "uccessful": 6837,
      "Ġcorrect": 6838,
      "Ġbringing": 6839,
      "Ġclosely": 6840,
      "Ġthousand": 6841,
      "Ġcry": 6842,
      "ĠHome": 6843,
      "Ġterror": 6844,
      "Ġinfr": 6845,
      "Ġmodels": 6846,
      "Ġrob": 6847,
      "Ġconnection": 6848,
      "ĠBure": 6849,
      "Ġconquest": 6850,
      "minute": 6851,
      "ĠMediterranean": 6852,
      "Ġstores": 6853,
      "Ġx": 6854,
      "orage": 6855,
      "Ġmort": 6856,
      "Ġwarm": 6857,
      "Ġextend": 6858,
      "hard": 6859,
      "Ã¼r": 6860,
      "ĠFoundation": 6861,
      "Ġign": 6862,
      "Ġanthrop": 6863,
      "rett": 6864,
      "ON": 6865,
      "mand": 6866,
      "ĠMean": 6867,
      "ĠRoy": 6868,
      "Ġregarded": 6869,
      "water": 6870,
      "Ġreports": 6871,
      "igration": 6872,
      "Ġrecovering": 6873,
      "Ġcultures": 6874,
      "onto": 6875,
      "Ġguns": 6876,
      "Ġwithdraw": 6877,
      "ĠCatal": 6878,
      "Ġwall": 6879,
      "Ġunique": 6880,
      "aders": 6881,
      "Ġalt": 6882,
      "Ġanalysis": 6883,
      "ĠRus": 6884,
      "rient": 6885,
      "ighter": 6886,
      "ĠMaced": 6887,
      "riest": 6888,
      "life": 6889,
      "Ġstandards": 6890,
      "eless": 6891,
      "ĠMot": 6892,
      "overty": 6893,
      "brook": 6894,
      "ancing": 6895,
      "ĠPierre": 6896,
      "abad": 6897,
      "Ġdates": 6898,
      "rows": 6899,
      "Ġoccupation": 6900,
      "ĠAbb": 6901,
      "ĠKent": 6902,
      "Ġsolid": 6903,
      "Ġ1914": 6904,
      "ĠConfeder": 6905,
      "Ġsurrendered": 6906,
      "ye": 6907,
      "aser": 6908,
      "Ġatmosp": 6909,
      "ĠDalton": 6910,
      "Ġce": 6911,
      "ĠBuck": 6912,
      "Ġisol": 6913,
      "Ġruler": 6914,
      "ĠTu": 6915,
      "ĠAlaska": 6916,
      "Ġactual": 6917,
      "Ġmedieval": 6918,
      "ĠVienna": 6919,
      "Se": 6920,
      "Ġinsects": 6921,
      "Ġabsor": 6922,
      "Following": 6923,
      "No": 6924,
      "ĠSher": 6925,
      "ĠIN": 6926,
      "ĠLike": 6927,
      "ĠSucc": 6928,
      "undiff": 6929,
      "Ġskin": 6930,
      "Ġcommunication": 6931,
      "Ġchair": 6932,
      "Ġtwenty": 6933,
      "ĠTen": 6934,
      "à¤": 6935,
      "Ġring": 6936,
      "ĠSteven": 6937,
      "present": 6938,
      "ĠLady": 6939,
      "Ġlabour": 6940,
      "Ġemerged": 6941,
      "Ġdim": 6942,
      "ĠEis": 6943,
      "Ġrenamed": 6944,
      "Ġmaintained": 6945,
      "Ġfled": 6946,
      "urday": 6947,
      "iful": 6948,
      "Ġsubstant": 6949,
      "Goals": 6950,
      "ĠBack": 6951,
      "Ġbreed": 6952,
      "Ġturnovers": 6953,
      "Ġindigenous": 6954,
      "ĠCarpenter": 6955,
      "ĠMain": 6956,
      "uris": 6957,
      "pool": 6958,
      "Ġboys": 6959,
      "Ġdevice": 6960,
      "ĠDick": 6961,
      "ĠStation": 6962,
      "Ġ99": 6963,
      "ĠâĢ¢": 6964,
      "gar": 6965,
      "mat": 6966,
      "ĠRena": 6967,
      "Ġshowing": 6968,
      "atab": 6969,
      "Ġdialect": 6970,
      "inals": 6971,
      "ĠAvenue": 6972,
      "Ġrevolt": 6973,
      "rec": 6974,
      "Ġlaid": 6975,
      "Ġjoint": 6976,
      "ĠCE": 6977,
      "order": 6978,
      "key": 6979,
      "ĠDell": 6980,
      "AN": 6981,
      "ĠWalk": 6982,
      "tered": 6983,
      "Ġrevealed": 6984,
      "ĠMaurice": 6985,
      "ĠByzantine": 6986,
      "ione": 6987,
      "ĠMand": 6988,
      "Ġwrap": 6989,
      "ĠNon": 6990,
      "ĠLabor": 6991,
      "itionally": 6992,
      "yles": 6993,
      "ĠComing": 6994,
      "Ġslave": 6995,
      "ĠLes": 6996,
      "Ġuprising": 6997,
      "Ġmedicine": 6998,
      "ĠMir": 6999,
      "ĠSuccop": 7000,
      "Ġswe": 7001,
      "ĠCundiff": 7002,
      "ĠDanish": 7003,
      "Ġprinciple": 7004,
      "Ġmanufacturing": 7005,
      "Ġphen": 7006,
      "ĠThird": 7007,
      "jan": 7008,
      "ĠChristmas": 7009,
      "ĠSaf": 7010,
      "Ġ1922": 7011,
      "ĠExp": 7012,
      "Ð¸": 7013,
      "sey": 7014,
      "ovan": 7015,
      "Ġunsuccessful": 7016,
      "ËĲ": 7017,
      "Ġtrading": 7018,
      "One": 7019,
      "Ġmis": 7020,
      "mann": 7021,
      "Ġ1956": 7022,
      "Ġbeaut": 7023,
      "Ġhorse": 7024,
      "Ġmist": 7025,
      "ĠHong": 7026,
      "Ġteaching": 7027,
      "bow": 7028,
      "dy": 7029,
      "Ġreaction": 7030,
      "Ġ2022": 7031,
      "ĠDisc": 7032,
      "illing": 7033,
      "Ġinfluential": 7034,
      "Ġlaunch": 7035,
      "Ġbuy": 7036,
      "Ġcontributed": 7037,
      "Ġalco": 7038,
      "Ġrejected": 7039,
      "Ġproperties": 7040,
      "Ġplayoffs": 7041,
      "Ġowners": 7042,
      "ĠTrent": 7043,
      "unte": 7044,
      "amples": 7045,
      "ĠTaiwan": 7046,
      "Ġculmin": 7047,
      "Ġhero": 7048,
      "Ġ81": 7049,
      "Ġbackground": 7050,
      "sky": 7051,
      "Ġhair": 7052,
      "Ġ83": 7053,
      "Ġholds": 7054,
      "iÄĩ": 7055,
      "law": 7056,
      "ĠPo": 7057,
      "ĠBridge": 7058,
      "ĠShayne": 7059,
      "Ġinterpret": 7060,
      "150": 7061,
      "ĠWrest": 7062,
      "zen": 7063,
      "Ġlat": 7064,
      "ĠBoy": 7065,
      "ĠGer": 7066,
      "Ġappears": 7067,
      "Ġaccident": 7068,
      "Ġdestruct": 7069,
      "uy": 7070,
      "Ġ84": 7071,
      "Ġastr": 7072,
      "ĠBruce": 7073,
      "oto": 7074,
      "ĠGi": 7075,
      "ĠCambridge": 7076,
      "IV": 7077,
      "ĠLoc": 7078,
      "span": 7079,
      "ĠIndones": 7080,
      "ĠPrincess": 7081,
      "Ġmicro": 7082,
      "ĠAncient": 7083,
      "ĠDave": 7084,
      "Ġsurvey": 7085,
      "speaking": 7086,
      "Ġheavily": 7087,
      "Ġwave": 7088,
      "Ġcondition": 7089,
      "ĠHard": 7090,
      "abet": 7091,
      "Ġeggs": 7092,
      "ellect": 7093,
      "arl": 7094,
      "Ġunderstanding": 7095,
      "aza": 7096,
      "ĠTurner": 7097,
      "ucks": 7098,
      "Ġadapt": 7099,
      "Ġpharm": 7100,
      "English": 7101,
      "tical": 7102,
      "Ġmouth": 7103,
      "ĠJun": 7104,
      "Ġinterview": 7105,
      "ĠRadio": 7106,
      "Ġblow": 7107,
      "indo": 7108,
      "Ġformally": 7109,
      "oured": 7110,
      "Ġcommission": 7111,
      "then": 7112,
      "Ġprevented": 7113,
      "Ġcars": 7114,
      "rif": 7115,
      "Ġheaded": 7116,
      "Ġtraded": 7117,
      "giving": 7118,
      "Ġsites": 7119,
      "lymouth": 7120,
      "Apps": 7121,
      "Ġcrew": 7122,
      "ĠLis": 7123,
      "arks": 7124,
      "Ġcrim": 7125,
      "ĠFair": 7126,
      "Ġagricultural": 7127,
      "ns": 7128,
      "á¹": 7129,
      "Ġstone": 7130,
      "ĠSports": 7131,
      "ĠSaturday": 7132,
      "anas": 7133,
      "Ġcard": 7134,
      "Ġengineering": 7135,
      "Ġliqu": 7136,
      "ĠPeace": 7137,
      "Ġexclus": 7138,
      "ĠBishop": 7139,
      "ijing": 7140,
      "Ġseats": 7141,
      "Ġconsequ": 7142,
      "Ġsubst": 7143,
      "Ġpiece": 7144,
      "AL": 7145,
      "ĠAlexand": 7146,
      "Ġdollars": 7147,
      "osaur": 7148,
      "Ġphase": 7149,
      "enburg": 7150,
      "ĠBall": 7151,
      "ĠNobel": 7152,
      "AppsGoals": 7153,
      "Ġstood": 7154,
      "ĠBuddhism": 7155,
      "uum": 7156,
      "ĠGulf": 7157,
      "Ġ1900": 7158,
      "ugar": 7159,
      "Ġsupporters": 7160,
      "dney": 7161,
      "ĠMun": 7162,
      "after": 7163,
      "stream": 7164,
      "ĠCentre": 7165,
      "ocks": 7166,
      "www": 7167,
      "Ġtraffic": 7168,
      "Ġwounded": 7169,
      "ĠGuard": 7170,
      "cha": 7171,
      "Ġclothing": 7172,
      "celona": 7173,
      "amber": 7174,
      "Ġfewer": 7175,
      "Ġbrothers": 7176,
      "ĠBible": 7177,
      "ĠPass": 7178,
      "ĠNazi": 7179,
      "Ġexception": 7180,
      "ĠVis": 7181,
      "Ġscript": 7182,
      "ĠAbd": 7183,
      "teenth": 7184,
      "ĠJournal": 7185,
      "Ġevolved": 7186,
      "endar": 7187,
      "Ġextremely": 7188,
      "Ġmotion": 7189,
      "Ġfresh": 7190,
      "Ġyellow": 7191,
      "Ġresident": 7192,
      "Ġsole": 7193,
      "Ġproportion": 7194,
      "Ġgradually": 7195,
      "Ġsust": 7196,
      "ĠPictures": 7197,
      "Ġportion": 7198,
      "Ġcancer": 7199,
      "Ġocean": 7200,
      "Ġ1942": 7201,
      "Ġrestaur": 7202,
      "Rep": 7203,
      "ansk": 7204,
      "Ġ92": 7205,
      "Ġlearned": 7206,
      "ĠGreeks": 7207,
      "Ġweb": 7208,
      "Ġextensive": 7209,
      "Ġvalues": 7210,
      "Ġvast": 7211,
      "ĠChampions": 7212,
      "akers": 7213,
      "ĠBurke": 7214,
      "Ġemployed": 7215,
      "cks": 7216,
      "idel": 7217,
      "Ġcomputers": 7218,
      "AS": 7219,
      "ĠUpper": 7220,
      "ĠTerrit": 7221,
      "ĠWWE": 7222,
      "ĠEuro": 7223,
      "Ġreceptions": 7224,
      "imming": 7225,
      "ocide": 7226,
      "Ġmilit": 7227,
      "dam": 7228,
      "wich": 7229,
      "Ġsevere": 7230,
      "ĠKitna": 7231,
      "icide": 7232,
      "ĠArabic": 7233,
      "chestra": 7234,
      "ĠAlbums": 7235,
      "Ġincorporated": 7236,
      "ao": 7237,
      "Ġsacks": 7238,
      "Ġshall": 7239,
      "ĠLive": 7240,
      "onomic": 7241,
      "Ġalive": 7242,
      "Ġ76": 7243,
      "Ġinvestig": 7244,
      "kin": 7245,
      "ĠCharleston": 7246,
      "term": 7247,
      "Ġrecomm": 7248,
      "Ġhockey": 7249,
      "ĠNam": 7250,
      "ĠSoutheast": 7251,
      "emen": 7252,
      "Ġ88": 7253,
      "Ġhop": 7254,
      "Ġleaves": 7255,
      "ĠFBI": 7256,
      "itals": 7257,
      "Ġpoverty": 7258,
      "ĠBenn": 7259,
      "ĠBarth": 7260,
      "Ġnickn": 7261,
      "ĠBoard": 7262,
      "ĠTest": 7263,
      "Ġalle": 7264,
      "htt": 7265,
      "eller": 7266,
      "ibbean": 7267,
      "ining": 7268,
      "ĠAfghanistan": 7269,
      "ito": 7270,
      "Ġpra": 7271,
      "ĠForces": 7272,
      "Ġaccused": 7273,
      "olics": 7274,
      "istor": 7275,
      "uerto": 7276,
      "Ġattended": 7277,
      "oen": 7278,
      "Ġatom": 7279,
      "Ġtexts": 7280,
      "Ġmaximum": 7281,
      "Ġconcer": 7282,
      "Ġideal": 7283,
      "Ġbass": 7284,
      "Ġvess": 7285,
      "Ġassass": 7286,
      "Ge": 7287,
      "Ġzinc": 7288,
      "ĠOlindo": 7289,
      "Ã´": 7290,
      "ĠMaster": 7291,
      "ikh": 7292,
      "ĠLen": 7293,
      "iki": 7294,
      "Ġsure": 7295,
      "nington": 7296,
      "ĠArthur": 7297,
      "Ġimpl": 7298,
      "otic": 7299,
      "ĠFoster": 7300,
      "Ġleads": 7301,
      "Ġborders": 7302,
      "Ġcasualties": 7303,
      "Ġinspired": 7304,
      "ifically": 7305,
      "Ġapplication": 7306,
      "Ġexperienced": 7307,
      "Ġrushed": 7308,
      "ĠCBS": 7309,
      "Ġfat": 7310,
      "Ġpet": 7311,
      "Ġcompounds": 7312,
      "Ġmix": 7313,
      "ĠCy": 7314,
      "ĠRandy": 7315,
      "ells": 7316,
      "Ġretired": 7317,
      "anchez": 7318,
      "Ġagree": 7319,
      "Ġfinish": 7320,
      "Ġartillery": 7321,
      "Ġcouple": 7322,
      "Ġcounties": 7323,
      "Ġinher": 7324,
      "Ġruling": 7325,
      "ĠBCE": 7326,
      "Ġcandidate": 7327,
      "Ġdiscovery": 7328,
      "Ġconvert": 7329,
      "Ġcombat": 7330,
      "Ex": 7331,
      "à¦": 7332,
      "Ġnotes": 7333,
      "Ġopin": 7334,
      "ĠHarvard": 7335,
      "ĠNiners": 7336,
      "ĠTok": 7337,
      "Ġgrown": 7338,
      "ĠGoth": 7339,
      "ĠAdministr": 7340,
      "Ġburied": 7341,
      "mal": 7342,
      "Ġperiods": 7343,
      "Ġpoly": 7344,
      "2015": 7345,
      "ĠCountry": 7346,
      "Ø§": 7347,
      "ĠLiv": 7348,
      "Ġcomponents": 7349,
      "Ġscene": 7350,
      "Sean": 7351,
      "umped": 7352,
      "Ġfunctions": 7353,
      "ĠCommunity": 7354,
      "ĠLate": 7355,
      "ĠDevelopment": 7356,
      "Ġ2023": 7357,
      "Ġoccurs": 7358,
      "ynam": 7359,
      "'m": 7360,
      "Ġcab": 7361,
      "but": 7362,
      "Ġdoor": 7363,
      "heastern": 7364,
      "ĠSanchez": 7365,
      "Ġinvented": 7366,
      "Ġequival": 7367,
      "iens": 7368,
      "straight": 7369,
      "Ġheight": 7370,
      "Ġ1958": 7371,
      "800": 7372,
      "Tr": 7373,
      "Ġ1911": 7374,
      "ĠRights": 7375,
      "Ġsomew": 7376,
      "ymn": 7377,
      "Ġagriculture": 7378,
      "second": 7379,
      "Ġdebt": 7380,
      "iop": 7381,
      "Ġchannel": 7382,
      "Ġteacher": 7383,
      "ĠKr": 7384,
      "ocracy": 7385,
      "bes": 7386,
      "Ġdating": 7387,
      "ika": 7388,
      "Ġexisting": 7389,
      "udden": 7390,
      "Ġinfect": 7391,
      "ugoslav": 7392,
      "ĠHead": 7393,
      "Ġ97": 7394,
      "Te": 7395,
      "aration": 7396,
      "Ġdedic": 7397,
      "fort": 7398,
      "IT": 7399,
      "Ġdivisions": 7400,
      "Ġthin": 7401,
      "ĠMas": 7402,
      "ĠBernard": 7403,
      "ĠQuran": 7404,
      "ĠMontreal": 7405,
      "aved": 7406,
      "Ġretrieved": 7407,
      "Ġdram": 7408,
      "Ġviolence": 7409,
      "Ġflood": 7410,
      "uble": 7411,
      "Ġkinds": 7412,
      "ĠEver": 7413,
      "Ang": 7414,
      "hyth": 7415,
      "Ġcycle": 7416,
      "ĠBureau": 7417,
      "Ġban": 7418,
      "amental": 7419,
      "umin": 7420,
      "ĠThanks": 7421,
      "Ġhope": 7422,
      "ĠBad": 7423,
      "Ġconvention": 7424,
      "ĠSecurity": 7425,
      "ko": 7426,
      "ĠHor": 7427,
      "ĠKen": 7428,
      "ĠFinn": 7429,
      "assic": 7430,
      "Ġnotably": 7431,
      "Ġplate": 7432,
      "Ġdefending": 7433,
      "Ġfacilities": 7434,
      "icket": 7435,
      "ieuten": 7436,
      "Ġwinners": 7437,
      "ĠKu": 7438,
      "Ġ96": 7439,
      "top": 7440,
      "Ġnor": 7441,
      "riers": 7442,
      "OR": 7443,
      "lyn": 7444,
      "Ġcore": 7445,
      "Ġconcert": 7446,
      "Eu": 7447,
      "ĠSix": 7448,
      "Ġconference": 7449,
      "unch": 7450,
      "Ġdenomin": 7451,
      "700": 7452,
      "da": 7453,
      "Ġfirm": 7454,
      "usted": 7455,
      "Ġpup": 7456,
      "ĠSquare": 7457,
      "Ġclean": 7458,
      "Ġmel": 7459,
      "Ġath": 7460,
      "Ġdefence": 7461,
      "1998": 7462,
      "alez": 7463,
      "Ġdialects": 7464,
      "ĠHear": 7465,
      "Ġaged": 7466,
      "Ġcontinues": 7467,
      "ĠReal": 7468,
      "Ġstatement": 7469,
      "related": 7470,
      "anton": 7471,
      "Ġpiano": 7472,
      "amps": 7473,
      "Ġalternative": 7474,
      "Ġepisodes": 7475,
      "hatt": 7476,
      "OS": 7477,
      "ĠVill": 7478,
      "Ġ1947": 7479,
      "vis": 7480,
      "ĠAdams": 7481,
      "ĠLabour": 7482,
      "car": 7483,
      "Ġ1912": 7484,
      "ĠSwiss": 7485,
      "icer": 7486,
      "ĠPolit": 7487,
      "Ġevening": 7488,
      "Ġ1955": 7489,
      "contin": 7490,
      "Ġreference": 7491,
      "Ġburned": 7492,
      "entially": 7493,
      "Ġchap": 7494,
      "Ġworth": 7495,
      "Ġskid": 7496,
      "dinand": 7497,
      "ĠCrown": 7498,
      "ĠPolice": 7499,
      "ĠCorps": 7500,
      "ports": 7501,
      "Ġlake": 7502,
      "Ġ1921": 7503,
      "ĠMichigan": 7504,
      "Ġpartners": 7505,
      "Ġaudio": 7506,
      "ĠGonzalez": 7507,
      "May": 7508,
      "Ġ1953": 7509,
      "Ġslowly": 7510,
      "Ġprocl": 7511,
      "',": 7512,
      "oh": 7513,
      "orf": 7514,
      "Ġmassive": 7515,
      "Ġdiseases": 7516,
      "Ġlibrary": 7517,
      "aling": 7518,
      "rena": 7519,
      "Ġtheore": 7520,
      "Ġbudget": 7521,
      "Ġpromoted": 7522,
      "Ġprogramming": 7523,
      "Ġillegal": 7524,
      "Ġcompl": 7525,
      "stan": 7526,
      "Ġeffectively": 7527,
      "Ġnormally": 7528,
      "Ġgone": 7529,
      "ĠYuan": 7530,
      "Ġrestr": 7531,
      "ĠThrough": 7532,
      "osite": 7533,
      "Ġroles": 7534,
      "fe": 7535,
      "aming": 7536,
      "uchy": 7537,
      "Ġcompris": 7538,
      "ĠSeason": 7539,
      "Ġconsc": 7540,
      "Ġdiscip": 7541,
      "Ġmic": 7542,
      "ela": 7543,
      "Ġwarning": 7544,
      "Ġdepending": 7545,
      "ĠPlan": 7546,
      "ĠBoswell": 7547,
      "Ġkilomet": 7548,
      "Ġrivals": 7549,
      "ĠArea": 7550,
      "ĠPresbyter": 7551,
      "ĠIranian": 7552,
      "Ġexperiment": 7553,
      "ĠJuan": 7554,
      "ĠMorris": 7555,
      "Ġimmune": 7556,
      "thes": 7557,
      "room": 7558,
      "Ġprojects": 7559,
      "Ġ86": 7560,
      "Ġsuccessor": 7561,
      "irds": 7562,
      "ĠBold": 7563,
      "ĠRou": 7564,
      "Ġgraph": 7565,
      "Ġfeed": 7566,
      "ĠBeijing": 7567,
      "Ġabol": 7568,
      "ĠAli": 7569,
      "Station": 7570,
      "Ġcoastal": 7571,
      "Col": 7572,
      "uly": 7573,
      "etime": 7574,
      "ĠBarcelona": 7575,
      "ĠVenet": 7576,
      "Ġhabit": 7577,
      "Ġratio": 7578,
      "Ġultimately": 7579,
      "Ġsons": 7580,
      "Ġrapidly": 7581,
      "olas": 7582,
      "Ġdisplay": 7583,
      "ĠWinter": 7584,
      "ampton": 7585,
      "Ġexisted": 7586,
      "ĠDarwin": 7587,
      "acre": 7588,
      "ĠPuerto": 7589,
      "Ġdescend": 7590,
      "Ġacid": 7591,
      "Ġstanding": 7592,
      "ĠTibetan": 7593,
      "ĠPlymouth": 7594,
      "ĠGh": 7595,
      "Ġserving": 7596,
      "National": 7597,
      "fr": 7598,
      "uv": 7599,
      "iary": 7600,
      "ums": 7601,
      "Ġdesert": 7602,
      "iciency": 7603,
      "Ġstep": 7604,
      "ĠHoward": 7605,
      "ouri": 7606,
      "ĠLower": 7607,
      "ĠSyria": 7608,
      "Ġneighb": 7609,
      "Ġelectricity": 7610,
      "ĠTheatre": 7611,
      "ĠAmend": 7612,
      "Ġfactor": 7613,
      "ĠDelhi": 7614,
      "kh": 7615,
      "Ġselection": 7616,
      "Ġvoted": 7617,
      "ĠCathedral": 7618,
      "avery": 7619,
      "Ġmap": 7620,
      "ĠGab": 7621,
      "roph": 7622,
      "encing": 7623,
      "ĠChannel": 7624,
      "Ġcurren": 7625,
      "ĠGirl": 7626,
      "ĠLim": 7627,
      "ounce": 7628,
      "Ġgenes": 7629,
      "ĠDue": 7630,
      "Ġcomedy": 7631,
      "Ġkings": 7632,
      "ĠLeft": 7633,
      "Ġworst": 7634,
      "Premier": 7635,
      "roc": 7636,
      "Ġplatform": 7637,
      "ĠMrs": 7638,
      "ĠPhilippines": 7639,
      "IS": 7640,
      "Ġnet": 7641,
      "Ġperhaps": 7642,
      "ĠAff": 7643,
      "ĠKurt": 7644,
      "Ġaccur": 7645,
      "Ġattrac": 7646,
      "Ġhistorians": 7647,
      "ĠJake": 7648,
      "Ġoffices": 7649,
      "Ġsettlers": 7650,
      "Ġbed": 7651,
      "ceived": 7652,
      "Ġowner": 7653,
      "iling": 7654,
      "Ġunem": 7655,
      "Ġselected": 7656,
      "Ġglac": 7657,
      "Ġpopularity": 7658,
      "ĠCatholics": 7659,
      "ĠCamb": 7660,
      "Ġviewed": 7661,
      "ĠWestbrook": 7662,
      "Ġimmigrants": 7663,
      "Ġflat": 7664,
      "Ġbright": 7665,
      "Ġdeterm": 7666,
      "ruption": 7667,
      "120": 7668,
      "Ġawards": 7669,
      "Ġclassified": 7670,
      "Ġindustries": 7671,
      "Ġpropos": 7672,
      "Ġsemi": 7673,
      "ĠCaptain": 7674,
      "Ġacting": 7675,
      "Ġstarts": 7676,
      "ĠFerdinand": 7677,
      "hire": 7678,
      "ĠCorporation": 7679,
      "ĠIsa": 7680,
      "Ġ1952": 7681,
      "Ġfocused": 7682,
      "Ġcharged": 7683,
      "gment": 7684,
      "ova": 7685,
      "Ġresear": 7686,
      "anny": 7687,
      "Ġaccompan": 7688,
      "ĠDoct": 7689,
      "Ġconstructed": 7690,
      "senal": 7691,
      "ashed": 7692,
      "Ġspons": 7693,
      "ĠIndust": 7694,
      "Ġentirely": 7695,
      "Ġviews": 7696,
      "Tube": 7697,
      "ĠFire": 7698,
      "agh": 7699,
      "hered": 7700,
      "Ġhydrogen": 7701,
      "ĠSic": 7702,
      "ĠYugoslav": 7703,
      "ĠHD": 7704,
      "Ġresc": 7705,
      "Ġextent": 7706,
      "ĠGram": 7707,
      "Ġchoice": 7708,
      "ĠShah": 7709,
      "chen": 7710,
      "atically": 7711,
      "ĠDE": 7712,
      "ĠFamily": 7713,
      "Ġcruc": 7714,
      "Ġphysics": 7715,
      "asions": 7716,
      "Ġ1000": 7717,
      "ĠConc": 7718,
      "ĠPot": 7719,
      "Ġenvironmental": 7720,
      "Ñģ": 7721,
      "Ġtechniques": 7722,
      "ĠMemorial": 7723,
      "weight": 7724,
      "Ġhundreds": 7725,
      "Ġshop": 7726,
      "Ġopera": 7727,
      "Ġcharacteristics": 7728,
      "ĠTre": 7729,
      "ĠGore": 7730,
      "Ġuniverse": 7731,
      "Ġveget": 7732,
      "Ġhouseholder": 7733,
      "Ġsingles": 7734,
      "Ġscr": 7735,
      "Ġ1943": 7736,
      "ĠJulius": 7737,
      "Ġhappy": 7738,
      "Ġ1959": 7739,
      "ĠWayne": 7740,
      "ropri": 7741,
      "ĠOnce": 7742,
      "Ġreligions": 7743,
      "Ġmm": 7744,
      "Ġcolors": 7745,
      "ĠThanksgiving": 7746,
      "iat": 7747,
      "Ġnorthwest": 7748,
      "inth": 7749,
      "Ġinstitution": 7750,
      "elo": 7751,
      "ĠMario": 7752,
      "Ġgirls": 7753,
      "ĠDun": 7754,
      "ĠGro": 7755,
      "Ġintrac": 7756,
      "Ġsenior": 7757,
      "She": 7758,
      "ĠMedal": 7759,
      "ĠKris": 7760,
      "Ġclin": 7761,
      "ĠEstonia": 7762,
      "1999": 7763,
      "Ġrefuge": 7764,
      "Ġtorch": 7765,
      "ĠCab": 7766,
      "odge": 7767,
      "Ġoutput": 7768,
      "Ġapproved": 7769,
      "ĠRobinson": 7770,
      "ĠVincent": 7771,
      "Ġtheories": 7772,
      "Ġtwelve": 7773,
      "Ġgal": 7774,
      "ocol": 7775,
      "ĠAlfred": 7776,
      "ĠBalk": 7777,
      "ĠMalays": 7778,
      "Ġobt": 7779,
      "ĠHal": 7780,
      "Ġsecure": 7781,
      "Ġpeas": 7782,
      "Ġregistered": 7783,
      "Ġpushed": 7784,
      "ĠVar": 7785,
      "Ġopt": 7786,
      "ocated": 7787,
      "Ġintellect": 7788,
      "Ġoperated": 7789,
      "ĠRomans": 7790,
      "uration": 7791,
      "Ġwrong": 7792,
      "ĠUkraine": 7793,
      "Ġhors": 7794,
      "Ġdowntown": 7795,
      "place": 7796,
      "ĠAst": 7797,
      "Ġnut": 7798,
      "Ġscores": 7799,
      "abbed": 7800,
      "je": 7801,
      "was": 7802,
      "Ġcontained": 7803,
      "Ġpure": 7804,
      "eyn": 7805,
      "ĠHolmes": 7806,
      "Ġrating": 7807,
      "Ġexpensive": 7808,
      "Ġprecip": 7809,
      "rait": 7810,
      "Ġcastle": 7811,
      "ĠJeremy": 7812,
      "Ġ250": 7813,
      "ĠJennings": 7814,
      "orrow": 7815,
      "apes": 7816,
      "ĠAnne": 7817,
      "Ġtypical": 7818,
      "addafi": 7819,
      "yer": 7820,
      "Ġtough": 7821,
      "ĠNa": 7822,
      "Ġcontinuous": 7823,
      "Ġcircum": 7824,
      "ĠSony": 7825,
      "ĠGarcia": 7826,
      "vant": 7827,
      "Ġrequires": 7828,
      "CB": 7829,
      "lad": 7830,
      "ĠFortun": 7831,
      "Ġuser": 7832,
      "Ġsurvived": 7833,
      "ĠFriend": 7834,
      "ogue": 7835,
      "ĠBh": 7836,
      "Ġmerch": 7837,
      "Ġbreaking": 7838,
      "ĠCirc": 7839,
      "iously": 7840,
      "ĠSydney": 7841,
      "orph": 7842,
      "ĠMill": 7843,
      "ourney": 7844,
      "Ġprinciples": 7845,
      "Ġbegins": 7846,
      "onference": 7847,
      "Ġages": 7848,
      "asha": 7849,
      "uled": 7850,
      "ĠAmaz": 7851,
      "Ġopponent": 7852,
      "ĠChen": 7853,
      "ĠJane": 7854,
      "Ġspeaking": 7855,
      "ĠPennington": 7856,
      "Aust": 7857,
      "Ġanten": 7858,
      "ÑĢ": 7859,
      "Ġfly": 7860,
      "Ġvillages": 7861,
      "ĠBapt": 7862,
      "raz": 7863,
      "1996": 7864,
      "ĠHarrison": 7865,
      "ĠArn": 7866,
      "Ġcampaigns": 7867,
      "Ġoverse": 7868,
      "ĠBerm": 7869,
      "ĠInstead": 7870,
      "ĠConvention": 7871,
      "Ġvolume": 7872,
      "tion": 7873,
      "Ġfashion": 7874,
      "VD": 7875,
      "inity": 7876,
      "Ġstyles": 7877,
      "asy": 7878,
      "ĠLin": 7879,
      "Ġearthquake": 7880,
      "hee": 7881,
      "Ġgall": 7882,
      "Ġstret": 7883,
      "Ġframe": 7884,
      "Ġoperate": 7885,
      "Ġwait": 7886,
      "Ġrepeated": 7887,
      "Ġcommanded": 7888,
      "tario": 7889,
      "1980": 7890,
      "class": 7891,
      "Ġcritics": 7892,
      "Ġdebate": 7893,
      "Ġemployees": 7894,
      "Ġ...": 7895,
      "Ġ1957": 7896,
      "Ġsubjects": 7897,
      "Ġmusicians": 7898,
      "Ġopponents": 7899,
      "hom": 7900,
      "ista": 7901,
      "Ġbooted": 7902,
      "ĠHit": 7903,
      "Ġwhereas": 7904,
      "Ġchain": 7905,
      "Ġ1954": 7906,
      "Ġ&#": 7907,
      "ĠBosn": 7908,
      "atched": 7909,
      "osure": 7910,
      "Ġorders": 7911,
      "Ġgene": 7912,
      "aret": 7913,
      "ector": 7914,
      "Ġ98": 7915,
      "Europe": 7916,
      "estab": 7917,
      "ĠStandard": 7918,
      "Ġpicture": 7919,
      "ĠLamb": 7920,
      "Ġchose": 7921,
      "ĠBulgarian": 7922,
      "ĠGreater": 7923,
      "Ġceremony": 7924,
      "ieutenant": 7925,
      "Ġtransferred": 7926,
      "Ġfired": 7927,
      "unction": 7928,
      "ĠCaribbean": 7929,
      "Ġfounder": 7930,
      "Ġliterary": 7931,
      "Ġunknown": 7932,
      "enhower": 7933,
      "ĠLED": 7934,
      "ĠEvery": 7935,
      "ipe": 7936,
      "Ġproviding": 7937,
      "Ġfeaturing": 7938,
      "Ġstock": 7939,
      "umes": 7940,
      "Ġquestions": 7941,
      "fare": 7942,
      "nest": 7943,
      "eler": 7944,
      "Ġuseful": 7945,
      "Ġopposite": 7946,
      "ĠTerrell": 7947,
      "Ġmandolin": 7948,
      "eded": 7949,
      "rog": 7950,
      "Ġ1946": 7951,
      "ĠLB": 7952,
      "TA": 7953,
      "ĠForeign": 7954,
      "Ġbanks": 7955,
      "Ġreply": 7956,
      "ti": 7957,
      "ĠRem": 7958,
      "ĠKy": 7959,
      "ĠMeanwhile": 7960,
      "ĠMes": 7961,
      "apse": 7962,
      "ĠDonovan": 7963,
      "Ġconsisting": 7964,
      "ĠHockey": 7965,
      "apping": 7966,
      "Ġneither": 7967,
      "Ġannex": 7968,
      "Ġplanning": 7969,
      "Ġhonor": 7970,
      "isf": 7971,
      "ĠSus": 7972,
      "ĠCour": 7973,
      "ĠKings": 7974,
      "Ġplane": 7975,
      "Ġprepar": 7976,
      "Ġtraditions": 7977,
      "Fran": 7978,
      "Ãº": 7979,
      "Å«": 7980,
      "uties": 7981,
      "answ": 7982,
      "ĠTurks": 7983,
      "ĠWes": 7984,
      "Ġnortheast": 7985,
      "Ġdiet": 7986,
      "Ġready": 7987,
      "Ġremainder": 7988,
      "Ġtells": 7989,
      "ĠBat": 7990,
      "ĠStanley": 7991,
      "ĠWatson": 7992,
      "ĠRoss": 7993,
      "ĠBab": 7994,
      "acement": 7995,
      "Ġconsisted": 7996,
      "ĠEvans": 7997,
      "ollo": 7998,
      "Ġ1936": 7999,
      "Ġsubur": 8000,
      "German": 8001,
      "Ġbran": 8002,
      "Ã©s": 8003,
      "Ġstrip": 8004,
      "ĠToronto": 8005,
      "Ġconstitutional": 8006,
      "ĠGriff": 8007,
      "cont": 8008,
      "Ġroll": 8009,
      "Ġregarding": 8010,
      "Ġcrimes": 8011,
      "Ġtransition": 8012,
      "lywood": 8013,
      "rete": 8014,
      "scale": 8015,
      "Ġdocuments": 8016,
      "Ġgarrison": 8017,
      "anskrit": 8018,
      "ĠLo": 8019,
      "osm": 8020,
      "Ġhelps": 8021,
      "Ġstorage": 8022,
      "Ġunp": 8023,
      "imon": 8024,
      "IC": 8025,
      "Ġcovers": 8026,
      "Ġschem": 8027,
      "ĠNorman": 8028,
      "Ġliberal": 8029,
      "Ġbond": 8030,
      "Ġcolumn": 8031,
      "Ġelectron": 8032,
      "Ġrepro": 8033,
      "ĠKnow": 8034,
      "iology": 8035,
      "Ġ94": 8036,
      "eptune": 8037,
      "Ġeliminated": 8038,
      "ingham": 8039,
      "ĠBrig": 8040,
      "Ġcombination": 8041,
      "hevik": 8042,
      "ĠLithuania": 8043,
      "Ġbeer": 8044,
      "Ġperfect": 8045,
      "Ġ1910": 8046,
      "Ġ2024": 8047,
      "Ġexpect": 8048,
      "Ġdeliver": 8049,
      "ĠCrime": 8050,
      "Ġsets": 8051,
      "Ġcalendar": 8052,
      "Ġnegotiations": 8053,
      "If": 8054,
      "ĠCarter": 8055,
      "Ġflows": 8056,
      "Ġescape": 8057,
      "Ġtournament": 8058,
      "Ġproced": 8059,
      "ĠHawai": 8060,
      "unc": 8061,
      "ĠWel": 8062,
      "Ġarrang": 8063,
      "Ġconsole": 8064,
      "ĠLeonard": 8065,
      "arians": 8066,
      "Ġgross": 8067,
      "Ġinstrument": 8068,
      "ĠKir": 8069,
      "rard": 8070,
      "aki": 8071,
      "Ġremember": 8072,
      "allel": 8073,
      "Ġcavalry": 8074,
      "Ġstatistics": 8075,
      "ĠHarris": 8076,
      "Ġcontroll": 8077,
      "AC": 8078,
      "inem": 8079,
      "Ġbenef": 8080,
      "Ġanimated": 8081,
      "rig": 8082,
      "ania": 8083,
      "ĠKim": 8084,
      "ĠBrother": 8085,
      "ielberg": 8086,
      "Ġvisible": 8087,
      "Ġmeasures": 8088,
      "ĠLiberal": 8089,
      "Many": 8090,
      "Ġchanging": 8091,
      "Ġprincipal": 8092,
      "Ġdedicated": 8093,
      "ĠBon": 8094,
      "igins": 8095,
      "jab": 8096,
      "inois": 8097,
      "Ð½": 8098,
      "Ġinvent": 8099,
      "aux": 8100,
      "idden": 8101,
      "Ġassociation": 8102,
      "Ġkilometres": 8103,
      "Ġintraconference": 8104,
      "ĠTro": 8105,
      "Ġalph": 8106,
      "La": 8107,
      "Ġcook": 8108,
      "ĠCooper": 8109,
      "oli": 8110,
      "aked": 8111,
      "asa": 8112,
      "0000": 8113,
      "Ġfoundation": 8114,
      "Ġpalace": 8115,
      "kes": 8116,
      "lig": 8117,
      "ĠNear": 8118,
      "uber": 8119,
      "Ġsan": 8120,
      "Ġphon": 8121,
      "Ġmissing": 8122,
      "ĠWay": 8123,
      "acle": 8124,
      "2016": 8125,
      "ĠYouTube": 8126,
      "ĠPhys": 8127,
      "pping": 8128,
      "Ġgrass": 8129,
      "Ġconflic": 8130,
      "Ġtesting": 8131,
      "ĠDor": 8132,
      "Ġhear": 8133,
      "Ġprotest": 8134,
      "Ġeye": 8135,
      "Ġalcohol": 8136,
      "uation": 8137,
      "Ġsave": 8138,
      "Ġretreat": 8139,
      "ĠSud": 8140,
      "answered": 8141,
      "illes": 8142,
      "Ġadults": 8143,
      "Ġslavery": 8144,
      "Ġsupposed": 8145,
      "ĠiPod": 8146,
      "Ġther": 8147,
      "Brit": 8148,
      "eland": 8149,
      "Ġmedal": 8150,
      "Ġpig": 8151,
      "Ġbottom": 8152,
      "ologies": 8153,
      "Ġselling": 8154,
      "Ġexerc": 8155,
      "Ġprocesses": 8156,
      "ĠPalest": 8157,
      "Ġcycl": 8158,
      "Ġtransportation": 8159,
      "ĠSab": 8160,
      "Ġlies": 8161,
      "Ġsimpl": 8162,
      "Ġcheck": 8163,
      "orer": 8164,
      "Ġfixed": 8165,
      "ĠBuc": 8166,
      "Ġunanswered": 8167,
      "Ġsignal": 8168,
      "Ġseems": 8169,
      "ĠForest": 8170,
      "Ġsounds": 8171,
      "rech": 8172,
      "Ġpush": 8173,
      "Ġserves": 8174,
      "Ġopportunity": 8175,
      "achers": 8176,
      "ĠAmericas": 8177,
      "Ġdoctor": 8178,
      "Does": 8179,
      "ĠSid": 8180,
      "Ġrocks": 8181,
      "Ġcontinent": 8182,
      "ĠMedia": 8183,
      "ographical": 8184,
      "Ġaudience": 8185,
      "erbai": 8186,
      "Ġsed": 8187,
      "ĠDerrick": 8188,
      "bal": 8189,
      "hal": 8190,
      "ĠSeven": 8191
    },
    "merges": [
      [
        "Ġ",
        "t"
      ],
      [
        "h",
        "e"
      ],
      [
        "Ġ",
        "a"
      ],
      [
        "i",
        "n"
      ],
      [
        "Ġt",
        "he"
      ],
      [
        "e",
        "r"
      ],
      [
        "o",
        "n"
      ],
      [
        "r",
        "e"
      ],
      [
        "a",
        "n"
      ],
      [
        "Ġ",
        "o"
      ],
      [
        "e",
        "d"
      ],
      [
        "Ġ",
        "w"
      ],
      [
        "a",
        "r"
      ],
      [
        "a",
        "t"
      ],
      [
        "e",
        "n"
      ],
      [
        "Ġ",
        "s"
      ],
      [
        "o",
        "r"
      ],
      [
        "Ġ",
        "c"
      ],
      [
        "i",
        "t"
      ],
      [
        "Ġ",
        "f"
      ],
      [
        "a",
        "l"
      ],
      [
        "e",
        "s"
      ],
      [
        "i",
        "s"
      ],
      [
        "Ġo",
        "f"
      ],
      [
        "Ġ",
        "in"
      ],
      [
        "a",
        "s"
      ],
      [
        "n",
        "d"
      ],
      [
        "Ġ",
        "p"
      ],
      [
        "in",
        "g"
      ],
      [
        "Ġ",
        "b"
      ],
      [
        "Ġt",
        "o"
      ],
      [
        "i",
        "c"
      ],
      [
        "Ġa",
        "nd"
      ],
      [
        "Ġ",
        "m"
      ],
      [
        "r",
        "o"
      ],
      [
        "l",
        "e"
      ],
      [
        "Ġ",
        "d"
      ],
      [
        "i",
        "on"
      ],
      [
        "Ġ",
        "T"
      ],
      [
        "o",
        "u"
      ],
      [
        "Ġ",
        "h"
      ],
      [
        "Ġ",
        "1"
      ],
      [
        "Ġ",
        "S"
      ],
      [
        "Ġ",
        "C"
      ],
      [
        "e",
        "l"
      ],
      [
        "s",
        "t"
      ],
      [
        "Ġ",
        "A"
      ],
      [
        "o",
        "m"
      ],
      [
        "en",
        "t"
      ],
      [
        "i",
        "l"
      ],
      [
        "Ġ",
        "g"
      ],
      [
        "a",
        "m"
      ],
      [
        "Ġ",
        "re"
      ],
      [
        "Ġ",
        "l"
      ],
      [
        "Ġ",
        "B"
      ],
      [
        "o",
        "w"
      ],
      [
        "a",
        "d"
      ],
      [
        "a",
        "c"
      ],
      [
        "t",
        "er"
      ],
      [
        "o",
        "l"
      ],
      [
        "Ġt",
        "h"
      ],
      [
        "Ġ",
        "M"
      ],
      [
        "u",
        "s"
      ],
      [
        "Ġ",
        "on"
      ],
      [
        "i",
        "r"
      ],
      [
        "Ġ",
        "n"
      ],
      [
        "Ġ",
        "2"
      ],
      [
        "e",
        "c"
      ],
      [
        "ar",
        "d"
      ],
      [
        "i",
        "d"
      ],
      [
        "e",
        "t"
      ],
      [
        "Ġ",
        "I"
      ],
      [
        "it",
        "h"
      ],
      [
        "i",
        "v"
      ],
      [
        "Ġ",
        "P"
      ],
      [
        "u",
        "r"
      ],
      [
        "Ġf",
        "or"
      ],
      [
        "Ġ",
        "R"
      ],
      [
        "Ġ",
        "e"
      ],
      [
        "o",
        "t"
      ],
      [
        "c",
        "h"
      ],
      [
        "ĠT",
        "he"
      ],
      [
        "Ġw",
        "as"
      ],
      [
        "l",
        "y"
      ],
      [
        "i",
        "m"
      ],
      [
        "Ġc",
        "on"
      ],
      [
        "Ġw",
        "ith"
      ],
      [
        "u",
        "t"
      ],
      [
        "er",
        "s"
      ],
      [
        "i",
        "g"
      ],
      [
        "a",
        "y"
      ],
      [
        "Ġ",
        "("
      ],
      [
        "at",
        "ion"
      ],
      [
        "Ġ",
        "is"
      ],
      [
        "Ġ",
        "H"
      ],
      [
        "u",
        "n"
      ],
      [
        "Ġa",
        "s"
      ],
      [
        "c",
        "e"
      ],
      [
        "Ġ",
        "D"
      ],
      [
        "Ġ",
        "W"
      ],
      [
        "0",
        "0"
      ],
      [
        "y",
        "ard"
      ],
      [
        "v",
        "er"
      ],
      [
        "t",
        "e"
      ],
      [
        "Ġ",
        "F"
      ],
      [
        "Ġ",
        "G"
      ],
      [
        "t",
        "h"
      ],
      [
        "he",
        "r"
      ],
      [
        "Ġs",
        "t"
      ],
      [
        "u",
        "l"
      ],
      [
        "Ġ",
        "J"
      ],
      [
        "Ġ",
        "L"
      ],
      [
        "Ġ",
        "N"
      ],
      [
        "o",
        "s"
      ],
      [
        "Ġb",
        "y"
      ],
      [
        "Ġ",
        "r"
      ],
      [
        "Ġ",
        "E"
      ],
      [
        "an",
        "d"
      ],
      [
        "q",
        "u"
      ],
      [
        "o",
        "p"
      ],
      [
        "Ġb",
        "e"
      ],
      [
        "Ġw",
        "h"
      ],
      [
        "t",
        "s"
      ],
      [
        "Ġa",
        "n"
      ],
      [
        "a",
        "g"
      ],
      [
        "a",
        "in"
      ],
      [
        "ro",
        "m"
      ],
      [
        "a",
        "v"
      ],
      [
        "Ġ1",
        "9"
      ],
      [
        "e",
        "m"
      ],
      [
        "r",
        "i"
      ],
      [
        "Ġa",
        "l"
      ],
      [
        "o",
        "re"
      ],
      [
        "at",
        "e"
      ],
      [
        "'",
        "s"
      ],
      [
        "x",
        "t"
      ],
      [
        "es",
        "t"
      ],
      [
        "u",
        "m"
      ],
      [
        "Ġf",
        "rom"
      ],
      [
        "Ġth",
        "at"
      ],
      [
        "Ġa",
        "t"
      ],
      [
        "c",
        "t"
      ],
      [
        "l",
        "d"
      ],
      [
        "Ġc",
        "om"
      ],
      [
        "Ġ",
        "O"
      ],
      [
        "Ġ",
        "it"
      ],
      [
        "is",
        "t"
      ],
      [
        "i",
        "an"
      ],
      [
        "o",
        "d"
      ],
      [
        "as",
        "s"
      ],
      [
        "ĠI",
        "n"
      ],
      [
        "u",
        "p"
      ],
      [
        "ow",
        "n"
      ],
      [
        "a",
        "k"
      ],
      [
        "or",
        "d"
      ],
      [
        "am",
        "e"
      ],
      [
        "Ġ",
        "he"
      ],
      [
        "a",
        "p"
      ],
      [
        "Ġg",
        "o"
      ],
      [
        "il",
        "l"
      ],
      [
        "ac",
        "k"
      ],
      [
        "er",
        "e"
      ],
      [
        "it",
        "y"
      ],
      [
        "Ġo",
        "r"
      ],
      [
        "Ġ",
        "3"
      ],
      [
        "c",
        "c"
      ],
      [
        "Ġ",
        "le"
      ],
      [
        "i",
        "es"
      ],
      [
        "u",
        "ch"
      ],
      [
        "Ġ",
        "k"
      ],
      [
        "Ġd",
        "e"
      ],
      [
        "Ġa",
        "re"
      ],
      [
        "Ġcon",
        "te"
      ],
      [
        "al",
        "l"
      ],
      [
        "i",
        "f"
      ],
      [
        "Ġconte",
        "xt"
      ],
      [
        "Ġw",
        "ere"
      ],
      [
        "Ġ",
        "qu"
      ],
      [
        "ic",
        "h"
      ],
      [
        "Ġ",
        "v"
      ],
      [
        "a",
        "b"
      ],
      [
        "Ġ",
        "K"
      ],
      [
        "e",
        "ar"
      ],
      [
        "Ġ",
        "\""
      ],
      [
        "ig",
        "h"
      ],
      [
        "us",
        "e"
      ],
      [
        "â",
        "Ģ"
      ],
      [
        "i",
        "a"
      ],
      [
        "re",
        "s"
      ],
      [
        "ar",
        "t"
      ],
      [
        "Ġ",
        "U"
      ],
      [
        "b",
        "er"
      ],
      [
        "iv",
        "e"
      ],
      [
        "en",
        "d"
      ],
      [
        "e",
        "w"
      ],
      [
        "Ġp",
        "ro"
      ],
      [
        "ĠC",
        "h"
      ],
      [
        "ir",
        "st"
      ],
      [
        "ar",
        "ter"
      ],
      [
        "i",
        "el"
      ],
      [
        "s",
        "e"
      ],
      [
        "Ġ",
        "4"
      ],
      [
        "o",
        "c"
      ],
      [
        "iel",
        "d"
      ],
      [
        "Ġthe",
        "ir"
      ],
      [
        "Ġf",
        "irst"
      ],
      [
        "Ġp",
        "l"
      ],
      [
        "Ġqu",
        "arter"
      ],
      [
        "es",
        "s"
      ],
      [
        "u",
        "d"
      ],
      [
        "or",
        "t"
      ],
      [
        "Ġ2",
        "0"
      ],
      [
        "ou",
        "r"
      ],
      [
        "an",
        "t"
      ],
      [
        "or",
        "y"
      ],
      [
        "on",
        "d"
      ],
      [
        "Ġs",
        "e"
      ],
      [
        "Ġh",
        "is"
      ],
      [
        "u",
        "g"
      ],
      [
        "as",
        "ed"
      ],
      [
        "an",
        "y"
      ],
      [
        "o",
        "st"
      ],
      [
        "is",
        "h"
      ],
      [
        "on",
        "g"
      ],
      [
        "ou",
        "n"
      ],
      [
        "i",
        "al"
      ],
      [
        "ĠS",
        "t"
      ],
      [
        "Ġf",
        "ield"
      ],
      [
        "Ġp",
        "ass"
      ],
      [
        "o",
        "v"
      ],
      [
        "as",
        "t"
      ],
      [
        "W",
        "h"
      ],
      [
        "ic",
        "k"
      ],
      [
        "el",
        "l"
      ],
      [
        "at",
        "ed"
      ],
      [
        "Ġgo",
        "al"
      ],
      [
        "an",
        "s"
      ],
      [
        "Ġ",
        "y"
      ],
      [
        "u",
        "b"
      ],
      [
        "m",
        "ent"
      ],
      [
        "om",
        "e"
      ],
      [
        "i",
        "e"
      ],
      [
        "t",
        "her"
      ],
      [
        "Ġcom",
        "p"
      ],
      [
        "ou",
        "ld"
      ],
      [
        "Ġe",
        "x"
      ],
      [
        "Ġ",
        "V"
      ],
      [
        "d",
        "own"
      ],
      [
        "u",
        "nd"
      ],
      [
        "Ġc",
        "h"
      ],
      [
        "g",
        "e"
      ],
      [
        "Ġto",
        "uch"
      ],
      [
        "ar",
        "y"
      ],
      [
        "Ġtouch",
        "down"
      ],
      [
        "av",
        "e"
      ],
      [
        "ion",
        "s"
      ],
      [
        "Ġwh",
        "ich"
      ],
      [
        "en",
        "s"
      ],
      [
        "i",
        "p"
      ],
      [
        "Ġs",
        "c"
      ],
      [
        "o",
        "k"
      ],
      [
        "Ġ2",
        "00"
      ],
      [
        "Ġh",
        "ad"
      ],
      [
        "he",
        "n"
      ],
      [
        "t",
        "ed"
      ],
      [
        "f",
        "ter"
      ],
      [
        "u",
        "st"
      ],
      [
        "Ġn",
        "ot"
      ],
      [
        "Ġt",
        "r"
      ],
      [
        "ord",
        "ing"
      ],
      [
        "in",
        "e"
      ],
      [
        "igh",
        "t"
      ],
      [
        "re",
        "f"
      ],
      [
        "ĠB",
        "r"
      ],
      [
        "u",
        "re"
      ],
      [
        "cc",
        "ording"
      ],
      [
        "ic",
        "al"
      ],
      [
        "e",
        "p"
      ],
      [
        "âĢ",
        "ĵ"
      ],
      [
        "m",
        "er"
      ],
      [
        "Ġs",
        "p"
      ],
      [
        "f",
        "f"
      ],
      [
        "im",
        "e"
      ],
      [
        "Ġin",
        "c"
      ],
      [
        "Ġs",
        "h"
      ],
      [
        "o",
        "g"
      ],
      [
        "Ġ20",
        "1"
      ],
      [
        "Ġb",
        "ut"
      ],
      [
        "s",
        "o"
      ],
      [
        "id",
        "e"
      ],
      [
        "Ġ",
        "5"
      ],
      [
        "Ġle",
        "ad"
      ],
      [
        "r",
        "y"
      ],
      [
        "ref",
        "use"
      ],
      [
        "|",
        ">"
      ],
      [
        "<",
        "|"
      ],
      [
        "Ġm",
        "any"
      ],
      [
        "Ġre",
        "s"
      ],
      [
        "ou",
        "s"
      ],
      [
        "ag",
        "e"
      ],
      [
        "Ġ",
        "un"
      ],
      [
        "a",
        "re"
      ],
      [
        "A",
        "ccording"
      ],
      [
        "Ġs",
        "ec"
      ],
      [
        "Ġa",
        "g"
      ],
      [
        "ĠT",
        "h"
      ],
      [
        "B",
        "ased"
      ],
      [
        ")",
        ","
      ],
      [
        "Ġh",
        "ave"
      ],
      [
        "t",
        "ing"
      ],
      [
        "i",
        "re"
      ],
      [
        "t",
        "o"
      ],
      [
        "u",
        "c"
      ],
      [
        "a",
        "w"
      ],
      [
        "u",
        "e"
      ],
      [
        "at",
        "es"
      ],
      [
        "an",
        "g"
      ],
      [
        "i",
        "k"
      ],
      [
        "Ġa",
        "r"
      ],
      [
        "l",
        "and"
      ],
      [
        "Ġg",
        "ame"
      ],
      [
        "Ġd",
        "id"
      ],
      [
        "Ġc",
        "l"
      ],
      [
        "p",
        "p"
      ],
      [
        "T",
        "he"
      ],
      [
        "w",
        "o"
      ],
      [
        "Ġp",
        "er"
      ],
      [
        "ĠU",
        "n"
      ],
      [
        "a",
        "il"
      ],
      [
        "or",
        "k"
      ],
      [
        "ou",
        "t"
      ],
      [
        "Ġal",
        "so"
      ],
      [
        "oun",
        "t"
      ],
      [
        "ac",
        "e"
      ],
      [
        "1",
        "9"
      ],
      [
        "Ġcon",
        "t"
      ],
      [
        "Ġw",
        "ould"
      ],
      [
        "i",
        "z"
      ],
      [
        "l",
        "ow"
      ],
      [
        "Ġa",
        "b"
      ],
      [
        "Ġy",
        "ear"
      ],
      [
        "Ġ1",
        "8"
      ],
      [
        "n",
        "ing"
      ],
      [
        "p",
        "er"
      ],
      [
        "Ġh",
        "as"
      ],
      [
        "at",
        "er"
      ],
      [
        "ec",
        "t"
      ],
      [
        "Wh",
        "at"
      ],
      [
        "Ġof",
        "f"
      ],
      [
        "al",
        "ly"
      ],
      [
        "l",
        "es"
      ],
      [
        "Ġpl",
        "ay"
      ],
      [
        "Ġr",
        "un"
      ],
      [
        "re",
        "e"
      ],
      [
        "Ġ",
        "6"
      ],
      [
        "Ġthe",
        "y"
      ],
      [
        "Ġ",
        "us"
      ],
      [
        "en",
        "ce"
      ],
      [
        "p",
        "t"
      ],
      [
        "Ġp",
        "e"
      ],
      [
        "ro",
        "w"
      ],
      [
        "ad",
        "e"
      ],
      [
        "Ġ",
        "up"
      ],
      [
        "ate",
        "g"
      ],
      [
        "ĠT",
        "D"
      ],
      [
        "Ġit",
        "s"
      ],
      [
        "ĠI",
        "t"
      ],
      [
        "ou",
        "nd"
      ],
      [
        "Ġo",
        "ver"
      ],
      [
        "re",
        "n"
      ],
      [
        "Ġsec",
        "ond"
      ],
      [
        "op",
        "le"
      ],
      [
        "Ġa",
        "d"
      ],
      [
        "Ġ",
        "ro"
      ],
      [
        "ig",
        "n"
      ],
      [
        "Ġon",
        "e"
      ],
      [
        "Ġb",
        "ec"
      ],
      [
        "Ġ",
        "Y"
      ],
      [
        "Ġo",
        "ther"
      ],
      [
        "f",
        "er"
      ],
      [
        "Ġ",
        "7"
      ],
      [
        "r",
        "an"
      ],
      [
        "Ġt",
        "wo"
      ],
      [
        "it",
        "ed"
      ],
      [
        "ak",
        "e"
      ],
      [
        "e",
        "y"
      ],
      [
        "he",
        "d"
      ],
      [
        "am",
        "p"
      ],
      [
        "ic",
        "e"
      ],
      [
        "Ġo",
        "ut"
      ],
      [
        "Ġk",
        "ick"
      ],
      [
        "ateg",
        "ory"
      ],
      [
        "r",
        "a"
      ],
      [
        "ation",
        "s"
      ],
      [
        "g",
        "h"
      ],
      [
        "Ġwh",
        "o"
      ],
      [
        "ol",
        "d"
      ],
      [
        "i",
        "le"
      ],
      [
        "o",
        "in"
      ],
      [
        "i",
        "b"
      ],
      [
        "Ġth",
        "is"
      ],
      [
        ")",
        "."
      ],
      [
        "er",
        "m"
      ],
      [
        "Ġ",
        "im"
      ],
      [
        "ug",
        "h"
      ],
      [
        "yard",
        "s"
      ],
      [
        "Ġw",
        "hen"
      ],
      [
        "Ġm",
        "ore"
      ],
      [
        "ac",
        "h"
      ],
      [
        "Ġt",
        "e"
      ],
      [
        "Ġa",
        "fter"
      ],
      [
        "Ġin",
        "ter"
      ],
      [
        "as",
        "on"
      ],
      [
        "al",
        "s"
      ],
      [
        "Ġre",
        "c"
      ],
      [
        "i",
        "ed"
      ],
      [
        "c",
        "es"
      ],
      [
        "ĠH",
        "e"
      ],
      [
        "H",
        "ow"
      ],
      [
        "ic",
        "an"
      ],
      [
        "Ġn",
        "e"
      ],
      [
        "it",
        "ion"
      ],
      [
        "p",
        "l"
      ],
      [
        "ĠA",
        "l"
      ],
      [
        "Ġsc",
        "ore"
      ],
      [
        "p",
        "ort"
      ],
      [
        "in",
        "d"
      ],
      [
        "o",
        "y"
      ],
      [
        "Ġag",
        "ain"
      ],
      [
        "Ġpe",
        "ople"
      ],
      [
        "Ġp",
        "art"
      ],
      [
        "ul",
        "t"
      ],
      [
        "Ġ",
        "yards"
      ],
      [
        "Ġ",
        "end"
      ],
      [
        "w",
        "e"
      ],
      [
        "Ġal",
        "l"
      ],
      [
        "Ġin",
        "to"
      ],
      [
        "or",
        "m"
      ],
      [
        "Ġ",
        "j"
      ],
      [
        "h",
        "n"
      ],
      [
        "el",
        "y"
      ],
      [
        "ĠA",
        "r"
      ],
      [
        "l",
        "ud"
      ],
      [
        "ur",
        "ing"
      ],
      [
        "os",
        "s"
      ],
      [
        "Ġ",
        "8"
      ],
      [
        "s",
        "on"
      ],
      [
        "00",
        "0"
      ],
      [
        "t",
        "on"
      ],
      [
        "ur",
        "n"
      ],
      [
        "o",
        "b"
      ],
      [
        "it",
        "e"
      ],
      [
        "Ġ",
        "Q"
      ],
      [
        "Ġt",
        "ime"
      ],
      [
        "Ġw",
        "e"
      ],
      [
        "Ġon",
        "ly"
      ],
      [
        "ac",
        "t"
      ],
      [
        "Ġc",
        "an"
      ],
      [
        "ĠM",
        "ar"
      ],
      [
        "Ġ",
        "en"
      ],
      [
        "f",
        "t"
      ],
      [
        "ro",
        "p"
      ],
      [
        "at",
        "t"
      ],
      [
        "2",
        "0"
      ],
      [
        "n",
        "g"
      ],
      [
        "Ġcomp",
        "le"
      ],
      [
        "ic",
        "t"
      ],
      [
        "Ġd",
        "is"
      ],
      [
        "ou",
        "gh"
      ],
      [
        "ir",
        "d"
      ],
      [
        "on",
        "e"
      ],
      [
        "Ġf",
        "our"
      ],
      [
        "r",
        "it"
      ],
      [
        "Ġp",
        "r"
      ],
      [
        "ation",
        "al"
      ],
      [
        "le",
        "ct"
      ],
      [
        "Ġm",
        "ost"
      ],
      [
        "Ġde",
        "f"
      ],
      [
        "Ġd",
        "o"
      ],
      [
        "ĠR",
        "e"
      ],
      [
        "op",
        "ul"
      ],
      [
        "Ġw",
        "in"
      ],
      [
        "at",
        "h"
      ],
      [
        "ent",
        "s"
      ],
      [
        "ĠN",
        "ew"
      ],
      [
        "Ġbe",
        "en"
      ],
      [
        "er",
        "v"
      ],
      [
        "Ġ1",
        "0"
      ],
      [
        "ar",
        "g"
      ],
      [
        "Ġe",
        "ar"
      ],
      [
        "Ġb",
        "ack"
      ],
      [
        "Ġinc",
        "lud"
      ],
      [
        "ing",
        "s"
      ],
      [
        "Ġth",
        "an"
      ],
      [
        "or",
        "s"
      ],
      [
        "re",
        "at"
      ],
      [
        "Ġ1",
        "7"
      ],
      [
        "C",
        "ategory"
      ],
      [
        "Ġ19",
        "9"
      ],
      [
        "Ġ",
        "9"
      ],
      [
        "ar",
        "k"
      ],
      [
        "Ġp",
        "opul"
      ],
      [
        "res",
        "s"
      ],
      [
        "or",
        "ld"
      ],
      [
        "Ġc",
        "ent"
      ],
      [
        "os",
        "e"
      ],
      [
        "ub",
        "l"
      ],
      [
        "he",
        "re"
      ],
      [
        "ter",
        "n"
      ],
      [
        "Ġcom",
        "m"
      ],
      [
        "ĠA",
        "mer"
      ],
      [
        "Ġre",
        "t"
      ],
      [
        "an",
        "ce"
      ],
      [
        "iv",
        "ers"
      ],
      [
        "o",
        "ver"
      ],
      [
        "Ġg",
        "et"
      ],
      [
        "e",
        "ver"
      ],
      [
        "Ġb",
        "et"
      ],
      [
        "in",
        "ce"
      ],
      [
        "u",
        "ct"
      ],
      [
        "on",
        "s"
      ],
      [
        "er",
        "ed"
      ],
      [
        "Ġe",
        "v"
      ],
      [
        "w",
        "ard"
      ],
      [
        "Ġm",
        "ade"
      ],
      [
        "g",
        "an"
      ],
      [
        "il",
        "d"
      ],
      [
        "in",
        "s"
      ],
      [
        "v",
        "el"
      ],
      [
        "e",
        "k"
      ],
      [
        "Ġd",
        "r"
      ],
      [
        "Ġre",
        "g"
      ],
      [
        "a",
        "id"
      ],
      [
        "ĠO",
        "n"
      ],
      [
        "Ġyear",
        "s"
      ],
      [
        "Ġa",
        "pp"
      ],
      [
        "Ġ",
        "her"
      ],
      [
        "ĠJ",
        "o"
      ],
      [
        "Ġh",
        "al"
      ],
      [
        "Ġk",
        "n"
      ],
      [
        "ol",
        "low"
      ],
      [
        "Ġ",
        "und"
      ],
      [
        "m",
        "p"
      ],
      [
        "Ġ1",
        "5"
      ],
      [
        "we",
        "en"
      ],
      [
        "Â",
        "ł"
      ],
      [
        "ab",
        "le"
      ],
      [
        "Ġc",
        "ount"
      ],
      [
        "Ġp",
        "re"
      ],
      [
        "ĠL",
        "e"
      ],
      [
        "Ġ1",
        "6"
      ],
      [
        "Ġth",
        "ird"
      ],
      [
        "Ġthe",
        "re"
      ],
      [
        "Ġ",
        "-"
      ],
      [
        "ĠTh",
        "is"
      ],
      [
        "ro",
        "ugh"
      ],
      [
        "Ġm",
        "e"
      ],
      [
        "Ġbet",
        "ween"
      ],
      [
        "Ġab",
        "out"
      ],
      [
        "ĠA",
        "n"
      ],
      [
        "as",
        "e"
      ],
      [
        "Ġthe",
        "m"
      ],
      [
        "Ġund",
        "er"
      ],
      [
        "is",
        "s"
      ],
      [
        "o",
        "ok"
      ],
      [
        "ĠA",
        "s"
      ],
      [
        "Ġw",
        "ork"
      ],
      [
        "Ġ",
        "Ċ"
      ],
      [
        "Ġus",
        "ed"
      ],
      [
[...]
