{
  "version": "1.0",
  "truncation": null,
  "padding": null,
  "added_tokens": [
    {
      "id": 0,
      "content": "<|pad|>",
      "single_word": false,
      "lstrip": false,
      "rstrip": false,
      "normalized": false,
      "special": true
    },
    {
      "id": 1,
      "content": "<|eos|>",
      "single_word": false,
      "lstrip": false,
      "rstrip": false,
      "normalized": false,
      "special": true
    },
    {
      "id": 2,
      "content": "<|context|>",
      "single_word": false,
      "lstrip": false,
      "rstrip": false,
      "normalized": false,
      "special": true
    },
    {
      "id": 3,
      "content": "<|tools|>",
      "single_word": false,
      "lstrip": false,
      "rstrip": false,
      "normalized": false,
      "special": true
    },
    {
      "id": 4,
      "content": "<|user|>",
      "single_word": false,
      "lstrip": false,
      "rstrip": false,
      "normalized": false,
      "special": true
    },
    {
      "id": 5,
      "content": "<|assistant|>",
      "single_word": false,
      "lstrip": false,
      "rstrip": false,
      "normalized": false,
      "special": true
    },
    {
      "id": 6,
      "content": "<|tool_call|>",
      "single_word": false,
      "lstrip": false,
      "rstrip": false,
      "normalized": false,
      "special": true
    },
    {
      "id": 7,
      "content": "<|source|>",
      "single_word": false,
      "lstrip": false,
      "rstrip": false,
      "normalized": false,
      "special": true
    },
    {
      "id": 8,
      "content": "<|refuse|>",
      "single_word": false,
      "lstrip": false,
      "rstrip": false,
      "normalized": false,
      "special": true
    }
  ],
  "normalizer": null,
  "pre_tokenizer": {
    "type": "ByteLevel",
    "add_prefix_space": false,
    "trim_offsets": true,
    "use_regex": true
  },
  "post_processor": null,
  "decoder": {
    "type": "ByteLevel",
    "add_prefix_space": true,
    "trim_offsets": true,
    "use_regex": true
  },
  "model": {
    "type": "BPE",
    "dropout": null,
    "unk_token": null,
    "continuing_subword_prefix": null,
    "end_of_word_suffix": null,
    "fuse_unk": false,
    "byte_fallback": false,
    "ignore_merges": false,
    "vocab": {
      "<|pad|>": 0,
      "<|eos|>": 1,
      "<|context|>": 2,
      "<|tools|>": 3,
      "<|user|>": 4,
      "<|assistant|>": 5,
      "<|tool_call|>": 6,
      "<|source|>": 7,
      "<|refuse|>": 8,
      "!": 9,
      "\"": 10,
      "#": 11,
      "$": 12,
      "%": 13,
      "&": 14,
      "'": 15,
      "(": 16,
      ")": 17,
      "*": 18,
      "+": 19,
      ",": 20,
      "-": 21,
      ".": 22,
      "/": 23,
      "0": 24,
      "1": 25,
      "2": 26,
      "3": 27,
      "4": 28,
      "5": 29,
      "6": 30,
      "7": 31,
      "8": 32,
      "9": 33,
      ":": 34,
      ";": 35,
      "<": 36,
      "=": 37,
      ">": 38,
      "?": 39,
      "@": 40,
      "A": 41,
      "B": 42,
      "C": 43,
      "D": 44,
      "E": 45,
      "F": 46,
      "G": 47,
      "H": 48,
      "I": 49,
      "J": 50,
      "K": 51,
      "L": 52,
      "M": 53,
      "N": 54,
      "O": 55,
      "P": 56,
      "Q": 57,
      "R": 58,
      "S": 59,
      "T": 60,
      "U": 61,
      "V": 62,
      "W": 63,
      "X": 64,
      "Y": 65,
      "Z": 66,
      "[": 67,
      "\\": 68,
      "]": 69,
      "^": 70,
      "_": 71,
      "`": 72,
      "a": 73,
      "b": 74,
      "c": 75,
      "d": 76,
      "e": 77,
      "f": 78,
      "g": 79,
      "h": 80,
      "i": 81,
      "j": 82,
      "k": 83,
      "l": 84,
      "m": 85,
      "n": 86,
      "o": 87,
      "p": 88,
      "q": 89,
      "r": 90,
      "s": 91,
      "t": 92,
      "u": 93,
      "v": 94,
      "w": 95,
      "x": 96,
      "y": 97,
      "z": 98,
      "{": 99,
      "|": 100,
      "}": 101,
      "~": 102,
      "¡": 103,
      "¢": 104,
      "£": 105,
      "¤": 106,
      "¥": 107,
      "¦": 108,
      "§": 109,
      "¨": 110,
      "©": 111,
      "ª": 112,
      "«": 113,
      "¬": 114,
      "®": 115,
      "¯": 116,
      "°": 117,
      "±": 118,
      "²": 119,
      "³": 120,
      "´": 121,
      "µ": 122,
      "¶": 123,
      "·": 124,
      "¸": 125,
      "¹": 126,
      "º": 127,
      "»": 128,
      "¼": 129,
      "½": 130,
      "¾": 131,
      "¿": 132,
      "Â": 133,
      "Ã": 134,
      "Ä": 135,
      "Å": 136,
      "Æ": 137,
      "Ç": 138,
      "È": 139,
      "É": 140,
      "Ê": 141,
      "Ë": 142,
      "Ì": 143,
      "Í": 144,
      "Î": 145,
      "Ï": 146,
      "Ð": 147,
      "Ñ": 148,
      "Ò": 149,
      "Ó": 150,
      "Ô": 151,
      "Õ": 152,
      "Ö": 153,
      "×": 154,
      "Ø": 155,
      "Ù": 156,
      "Ú": 157,
      "Û": 158,
      "Ü": 159,
      "ß": 160,
      "à": 161,
      "á": 162,
      "â": 163,
      "ã": 164,
      "ä": 165,
      "å": 166,
      "æ": 167,
      "ç": 168,
      "è": 169,
      "é": 170,
      "ê": 171,
      "ë": 172,
      "ì": 173,
      "í": 174,
      "ï": 175,
      "ð": 176,
      "Ċ": 177,
      "Ġ": 178,
      "Ģ": 179,
      "ģ": 180,
      "Ĥ": 181,
      "ĥ": 182,
      "Ħ": 183,
      "ħ": 184,
      "Ĩ": 185,
      "ĩ": 186,
      "Ī": 187,
      "ī": 188,
      "Ĭ": 189,
      "ĭ": 190,
      "Į": 191,
      "į": 192,
      "İ": 193,
      "ı": 194,
      "Ĳ": 195,
      "ĳ": 196,
      "Ĵ": 197,
      "ĵ": 198,
      "Ķ": 199,
      "ķ": 200,
      "ĸ": 201,
      "Ĺ": 202,
      "ĺ": 203,
      "Ļ": 204,
      "ļ": 205,
      "Ľ": 206,
      "ľ": 207,
      "Ŀ": 208,
      "ŀ": 209,
      "Ł": 210,
      "ł": 211,
      "Ń": 212,
      "Ġt": 213,
      "he": 214,
      "in": 215,
      "Ġa": 216,
      "on": 217,
      "er": 218,
      "Ġthe": 219,
      "es": 220,
      "at": 221,
      "or": 222,
      "Ġ\"": 223,
      "an": 224,
      "ar": 225,
      "en": 226,
      "ed": 227,
      "Ġw": 228,
      "Ġs": 229,
      "Ġc": 230,
      "Ġo": 231,
      "ion": 232,
      "\":": 233,
      "it": 234,
      "is": 235,
      "al": 236,
      "re": 237,
      "Ġf": 238,
      "ing": 239,
      "Ġof": 240,
      "Ġin": 241,
      "Ġan": 242,
      "Ġp": 243,
      "Ġb": 244,
      "Ġto": 245,
      "as": 246,
      "ic": 247,
      "Ġm": 248,
      "Ġand": 249,
      "Ġd": 250,
      "ou": 251,
      "am": 252,
      "et": 253,
      "ri": 254,
      "om": 255,
      "Ġl": 256,
      "st": 257,
      "Ġh": 258,
      "ĠT": 259,
      "ent": 260,
      "\",": 261,
      "tion": 262,
      "{\"": 263,
      "el": 264,
      "il": 265,
      "Ġ{\"": 266,
      "ĠS": 267,
      "ol": 268,
      "ec": 269,
      "Ġ1": 270,
      "ĠA": 271,
      "ers": 272,
      "ĠC": 273,
      "ur": 274,
      "Ġn": 275,
      "Ġe": 276,
      "Ġth": 277,
      "des": 278,
      "ow": 279,
      "Ġg": 280,
      "ption": 281,
      "cri": 282,
      "ation": 283,
      "cription": 284,
      "description": 285,
      "ac": 286,
      "us": 287,
      "le": 288,
      "ad": 289,
      "im": 290,
      "un": 291,
      "Ġfor": 292,
      "ro": 293,
      "Ġon": 294,
      "Ġis": 295,
      "ĠB": 296,
      "ir": 297,
      "Ġre": 298,
      "ĠM": 299,
      "id": 300,
      "Ġcon": 301,
      "ĠI": 302,
      "pe": 303,
      "ame": 304,
      "ĠThe": 305,
      "ter": 306,
      "ch": 307,
      "te": 308,
      "ĠP": 309,
      "ve": 310,
      "}}": 311,
      "ver": 312,
      "ot": 313,
      "ty": 314,
      "ly": 315,
      "Ġwas": 316,
      "ate": 317,
      "ith": 318,
      "Ġ2": 319,
      "Ġ(": 320,
      "ay": 321,
      "ĠR": 322,
      "her": 323,
      "Ġr": 324,
      "xt": 325,
      "ce": 326,
      "ig": 327,
      "ut": 328,
      "um": 329,
      "str": 330,
      "Ġwith": 331,
      "ul": 332,
      "type": 333,
      "ag": 334,
      "ĠH": 335,
      "ard": 336,
      "Ġas": 337,
      "th": 338,
      "00": 339,
      "Ġst": 340,
      "od": 341,
      "qu": 342,
      "op": 343,
      "},": 344,
      "ĠE": 345,
      "ĠW": 346,
      "string": 347,
      "ĠF": 348,
      "Ġbe": 349,
      "ĠD": 350,
      "ĠG": 351,
      "rom": 352,
      "Ġthat": 353,
      "ord": 354,
      "and": 355,
      "Ġwh": 356,
      "os": 357,
      "ess": 358,
      "oun": 359,
      "Ġby": 360,
      "oc": 361,
      "ĠN": 362,
      "est": 363,
      "Ġal": 364,
      "ĠL": 365,
      "Ġor": 366,
      "par": 367,
      "ain": 368,
      "Ġare": 369,
      "ist": 370,
      "ĠJ": 371,
      "em": 372,
      "'s": 373,
      "name": 374,
      "text": 375,
      "eters": 376,
      "Ġit": 377,
      "Ġ19": 378,
      "ear": 379,
      "ĠIn": 380,
      "ans": 381,
      "all": 382,
      "iv": 383,
      "Ġfrom": 384,
      "ang": 385,
      "\"}}": 386,
      "ts": 387,
      "Ġcontext": 388,
      "ameters": 389,
      "parameters": 390,
      "ity": 391,
      "Ġcom": 392,
      "ld": 393,
      "Ġhe": 394,
      "Ġpro": 395,
      "Ġat": 396,
      "ab": 397,
      "gh": 398,
      "ak": 399,
      "ap": 400,
      "ĠO": 401,
      "up": 402,
      "if": 403,
      "yard": 404,
      "Ġde": 405,
      "own": 406,
      "Ġun": 407,
      "Ġv": 408,
      "ill": 409,
      "ies": 410,
      "ich": 411,
      "to": 412,
      "Ġk": 413,
      "ave": 414,
      "Ġex": 415,
      "ish": 416,
      "ber": 417,
      "Ġqu": 418,
      "end": 419,
      "ia": 420,
      "ere": 421,
      "cc": 422,
      "ore": 423,
      "ĠU": 424,
      "Ġ'": 425,
      "our": 426,
      "Ġwere": 427,
      "ect": 428,
      "ass": 429,
      "ian": 430,
      "ther": 431,
      "\"}}},": 432,
      "Ġ3": 433,
      "art": 434,
      "ew": 435,
      "ine": 436,
      "ĠK": 437,
      "age": 438,
      "Ġhave": 439,
      "\"},": 440,
      "ment": 441,
      "Ġgo": 442,
      "se": 443,
      "ub": 444,
      "Ġpl": 445,
      "we": 446,
      "ough": 447,
      "ial": 448,
      "ond": 449,
      "uch": 450,
      "ack": 451,
      "ost": 452,
      "ok": 453,
      "ud": 454,
      "ong": 455,
      "av": 456,
      "any": 457,
      "Ġus": 458,
      "Ġle": 459,
      "igh": 460,
      "ive": 461,
      "ant": 462,
      "ĠCh": 463,
      "ome": 464,
      "ip": 465,
      "Ġtim": 466,
      "uc": 467,
      "arg": 468,
      "âĢ": 469,
      "Ġy": 470,
      "orm": 471,
      "ical": 472,
      "ell": 473,
      "ary": 474,
      "Ġch": 475,
      "ased": 476,
      "ort": 477,
      "Ġnot": 478,
      "Ġse": 479,
      "Ġtheir": 480,
      "The": 481,
      "ory": 482,
      "irst": 483,
      "Ġtr": 484,
      "Ġhis": 485,
      "ast": 486,
      "hen": 487,
      "ure": 488,
      "Ġwhich": 489,
      "ated": 490,
      "pl": 491,
      "ail": 492,
      "Ġ4": 493,
      "Wh": 494,
      "tr": 495,
      "ound": 496,
      "ue": 497,
      "Ġfirst": 498,
      "ick": 499,
      "pr": 500,
      "Ġ20": 501,
      "der": 502,
      "so": 503,
      "ĠSt": 504,
      "Ġsh": 505,
      "Ġen": 506,
      "og": 507,
      "Ġar": 508,
      "iz": 509,
      "ould": 510,
      "form": 511,
      "eop": 512,
      "Ġhad": 513,
      "ĠV": 514,
      "ie": 515,
      "ide": 516,
      "iel": 517,
      "ording": 518,
      "urr": 519,
      "out": 520,
      "ous": 521,
      "use": 522,
      "ik": 523,
      "eople": 524,
      "ĠBr": 525,
      "ĠTh": 526,
      "Ġpr": 527,
      "Ġwe": 528,
      "ep": 529,
      "ccording": 530,
      "Ġbet": 531,
      "Ġab": 532,
      "Ġup": 533,
      "Ġalso": 534,
      "Ġ200": 535,
      "Ġbut": 536,
      "Ġsp": 537,
      "mer": 538,
      "Ġhas": 539,
      "Ġag": 540,
      "Ġinc": 541,
      "ield": 542,
      "fter": 543,
      "Ġthey": 544,
      "Ġte": 545,
      "Ġmany": 546,
      "econd": 547,
      "fer": 548,
      "arter": 549,
      "ire": 550,
      "ocation": 551,
      "ater": 552,
      "ween": 553,
      "ĠUn": 554,
      "ens": 555,
      "Ġwor": 556,
      "ition": 557,
      "Ġbec": 558,
      "land": 559,
      "ice": 560,
      "Ġcan": 561,
      "ĠIt": 562,
      "Ġgr": 563,
      "wo": 564,
      "ight": 565,
      "Ġbetween": 566,
      "Ġsc": 567,
      "Based": 568,
      "Ġpeople": 569,
      "Ġother": 570,
      "ov": 571,
      "),": 572,
      "down": 573,
      "per": 574,
      "ook": 575,
      "ust": 576,
      "Ġcl": 577,
      "Ġquarter": 578,
      "angu": 579,
      "ates": 580,
      "act": 581,
      "Ġpass": 582,
      "Ġcoun": 583,
      "Ġtime": 584,
      "According": 585,
      "ents": 586,
      "Ġlangu": 587,
      "ally": 588,
      "ces": 589,
      "Ġall": 590,
      "Ġfield": 591,
      "ng": 592,
      "Ġres": 593,
      "ession": 594,
      "ff": 595,
      "ade": 596,
      "ence": 597,
      "Ġyear": 598,
      "Ġad": 599,
      "erm": 600,
      "formation": 601,
      "get": 602,
      "urrent": 603,
      "What": 604,
      "oll": 605,
      "ode": 606,
      "Ġdef": 607,
      "Ġone": 608,
      "ace": 609,
      "earch": 610,
      "âĢĵ": 611,
      "aw": 612,
      "Ġtwo": 613,
      "Ġinformation": 614,
      "ree": 615,
      "Ġgoal": 616,
      ").": 617,
      "Ġthis": 618,
      "Ġits": 619,
      "Ġme": 620,
      "ake": 621,
      "Ġout": 622,
      "Ġ5": 623,
      "ited": 624,
      "ath": 625,
      "Ġ18": 626,
      "Ġper": 627,
      "Ġpart": 628,
      "Ġim": 629,
      "Ġmore": 630,
      "Ġlocation": 631,
      "Ġ201": 632,
      "port": 633,
      "Ġtouch": 634,
      "val": 635,
      "'\"}}},": 636,
      "ather": 637,
      "ock": 638,
      "Ġdid": 639,
      "Ġsecond": 640,
      "Ġsy": 641,
      "ct": 642,
      "ib": 643,
      "Ġprov": 644,
      "ance": 645,
      "ug": 646,
      "Ġtouchdown": 647,
      "ind": 648,
      "ult": 649,
      "Ġwho": 650,
      "19": 651,
      "Ġcall": 652,
      "ign": 653,
      "Ġnum": 654,
      "ach": 655,
      "ations": 656,
      "one": 657,
      "Ġlead": 658,
      "Ġdo": 659,
      "Ġrec": 660,
      "ry": 661,
      "Ġmost": 662,
      "urn": 663,
      "Ġwhen": 664,
      "les": 665,
      "ĠFr": 666,
      "Ġcont": 667,
      "Ġwould": 668,
      "Ġname": 669,
      "Ġover": 670,
      "Ġne": 671,
      "ĠHe": 672,
      "very": 673,
      "tern": 674,
      "ings": 675,
      "hed": 676,
      "Ġinto": 677,
      "|>": 678,
      "<|": 679,
      "ansl": 680,
      "Ġdis": 681,
      "amp": 682,
      "old": 683,
      "pression": 684,
      "rit": 685,
      "ĠAr": 686,
      "Ġplay": 687,
      "ile": 688,
      "Ġunit": 689,
      "ger": 690,
      "Ġj": 691,
      "ĠY": 692,
      "Ġcomp": 693,
      "ided": 694,
      "ons": 695,
      "unit": 696,
      "Ġel": 697,
      "Ġcalled": 698,
      "ateg": 699,
      "ely": 700,
      "Ġcurrent": 701,
      "Ġoff": 702,
      "lish": 703,
      "Ġabout": 704,
      "als": 705,
      "ĠAl": 706,
      "ĠAn": 707,
      "ike": 708,
      "Ġafter": 709,
      "Ġword": 710,
      "ric": 711,
      "meric": 712,
      "uring": 713,
      "Ġused": 714,
      "tions": 715,
      "ĠThis": 716,
      "ied": 717,
      "anslate": 718,
      "Ġ6": 719,
      "Ġincl": 720,
      "ne": 721,
      "000": 722,
      "Ġmade": 723,
      "Ġthan": 724,
      "ks": 725,
      "Ġrem": 726,
      "oin": 727,
      "Ġlanguage": 728,
      "ra": 729,
      "Ġtext": 730,
      "here": 731,
      "Get": 732,
      "ted": 733,
      "ient": 734,
      "ob": 735,
      "reat": 736,
      "ategory": 737,
      "opul": 738,
      "Ġcent": 739,
      "20": 740,
      "mp": 741,
      "ite": 742,
      "Ġ7": 743,
      "Ġgame": 744,
      "Ġonly": 745,
      "Ġbeen": 746,
      "ev": 747,
      "'t": 748,
      "hn": 749,
      "ge": 750,
      "ors": 751,
      "ions": 752,
      "oy": 753,
      "Ġcomm": 754,
      "ational": 755,
      "ft": 756,
      "Ġev": 757,
      "duc": 758,
      "ex": 759,
      "Ġthere": 760,
      "mb": 761,
      "Ġpopul": 762,
      "Ġthem": 763,
      "Ġkn": 764,
      "Ġrun": 765,
      "ild": 766,
      "Ġsome": 767,
      "ning": 768,
      "ĠAmeric": 769,
      "Ġagain": 770,
      "ose": 771,
      "ism": 772,
      "Ġyears": 773,
      "gan": 774,
      "Ġend": 775,
      "sw": 776,
      "nglish": 777,
      "Ġinclud": 778,
      "ause": 779,
      "Ġlarg": 780,
      "Ġear": 781,
      "ery": 782,
      "ages": 783,
      "ubl": 784,
      "Ġro": 785,
      "How": 786,
      "ope": 787,
      "ting": 788,
      "ĠMar": 789,
      "ten": 790,
      "Ġenough": 791,
      "ood": 792,
      "umm": 793,
      "Ġso": 794,
      "ences": 795,
      "riv": 796,
      "Ġher": 797,
      "Ġap": 798,
      "ton": 799,
      "Ġlong": 800,
      "icker": 801,
      "Ġ199": 802,
      "Ġret": 803,
      "Ġansw": 804,
      "inder": 805,
      "ĠNew": 806,
      "Ġdif": 807,
      "oss": 808,
      "ivers": 809,
      "Ġdon": 810,
      "Ġanswer": 811,
      "con": 812,
      "ics": 813,
      "able": 814,
      "ove": 815,
      "ĠUnited": 816,
      "ince": 817,
      "Ġcity": 818,
      "ener": 819,
      "ever": 820,
      "ef": 821,
      "Ġform": 822,
      "ower": 823,
      "ĠĊ": 824,
      "ax": 825,
      "ury": 826,
      "Ġrel": 827,
      "Ġprovided": 828,
      "hem": 829,
      "Ġsuch": 830,
      "mail": 831,
      "ase": 832,
      "erv": 833,
      "Ġreg": 834,
      "ĠTD": 835,
      "king": 836,
      "rough": 837,
      "att": 838,
      "ref": 839,
      "ins": 840,
      "day": 841,
      "ĠQ": 842,
      "Ġ8": 843,
      "Ġnew": 844,
      "Ġcount": 845,
      "Ġget": 846,
      "Ġstr": 847,
      "Ġques": 848,
      "ird": 849,
      "vern": 850,
      "olog": 851,
      "ĠThey": 852,
      "are": 853,
      "Ġunder": 854,
      "Ġ17": 855,
      "hy": 856,
      "[{\"": 857,
      "lang": 858,
      "ays": 859,
      "vel": 860,
      "word": 861,
      "aid": 862,
      "ark": 863,
      "Ġlike": 864,
      "ason": 865,
      "erson": 866,
      "Ġquestion": 867,
      "Ġsub": 868,
      "from": 869,
      "ody": 870,
      "Ġinter": 871,
      "ject": 872,
      "Ġfour": 873,
      "Ġ10": 874,
      "pan": 875,
      "vert": 876,
      "Âł": 877,
      "Ġ9": 878,
      "ource": 879,
      "ĠStates": 880,
      "ĠAs": 881,
      "refuse": 882,
      "Ġcons": 883,
      "ines": 884,
      "ĠPr": 885,
      "Category": 886,
      "Ġ15": 887,
      "Ġback": 888,
      "}]": 889,
      "oup": 890,
      "ward": 891,
      "\"}}}]": 892,
      "Ġ-": 893,
      "mbol": 894,
      "ĠRe": 895,
      "anc": 896,
      "outh": 897,
      "Ġind": 898,
      "ars": 899,
      "Ġbl": 900,
      "oth": 901,
      "Ġfound": 902,
      "iss": 903,
      "Ġnumber": 904,
      "Ġdiffer": 905,
      "yards": 906,
      "Ġdec": 907,
      "Ġpar": 908,
      "abel": 909,
      "ries": 910,
      "Ġpre": 911,
      "uate": 912,
      "orth": 913,
      "In": 914,
      "ĠJo": 915,
      "arget": 916,
      "Ġco": 917,
      "iet": 918,
      "ah": 919,
      "ĠInd": 920,
      "Ġac": 921,
      "ident": 922,
      "Ġri": 923,
      "ious": 924,
      "Ġ16": 925,
      "Ġdes": 926,
      "plet": 927,
      "uss": 928,
      "ists": 929,
      "other": 930,
      "Ġmake": 931,
      "Ġmat": 932,
      "ize": 933,
      "ollow": 934,
      "ime": 935,
      "Ġexpression": 936,
      "uration": 937,
      "gr": 938,
      "Ġtri": 939,
      "Ġfl": 940,
      "stem": 941,
      "imer": 942,
      "ute": 943,
      "Ġpol": 944,
      "ĠLe": 945,
      "ually": 946,
      "Ġsup": 947,
      "owever": 948,
      "wn": 949,
      "Ġcap": 950,
      "ities": 951,
      "Ġhim": 952,
      "Ġyards": 953,
      "Ġbecame": 954,
      "ise": 955,
      "tain": 956,
      "Ġop": 957,
      "ull": 958,
      "Ġadd": 959,
      "Ġwin": 960,
      "Ġwhat": 961,
      "valuate": 962,
      "ual": 963,
      "ution": 964,
      "Ġtimer": 965,
      "Ġduring": 966,
      "Search": 967,
      "Ġreturn": 968,
      "ublic": 969,
      "ey": 970,
      "ames": 971,
      "illion": 972,
      "ict": 973,
      "ĠEur": 974,
      "Source": 975,
      "Target": 976,
      "'\"},": 977,
      "Ġ0": 978,
      "ĠGerm": 979,
      "Ġworld": 980,
      "Ġbu": 981,
      "Ġwhere": 982,
      "io": 983,
      "Ġfam": 984,
      "ĠBrit": 985,
      "Ġperson": 986,
      "Ġcomplet": 987,
      "son": 988,
      "Ġsumm": 989,
      "orn": 990,
      "ĠCom": 991,
      "hes": 992,
      "Ġgovern": 993,
      "Ġwork": 994,
      "Ġvery": 995,
      "ows": 996,
      "ool": 997,
      "ph": 998,
      "Ġsm": 999,
      "ination": 1000,
      "Ġbecause": 1001,
      "pro": 1002,
      "Ġthree": 1003,
      "ific": 1004,
      "Ġthrough": 1005,
      "Ġshe": 1006,
      "Ġ14": 1007,
      "Ġknown": 1008,
      "Ġno": 1009,
      "ife": 1010,
      "Ġuse": 1011,
      "15": 1012,
      "ina": 1013,
      "alc": 1014,
      "ians": 1015,
      "Ġ12": 1016,
      "Ġstart": 1017,
      "ern": 1018,
      "ĠOn": 1019,
      "Ġmay": 1020,
      "Ġweb": 1021,
      "Ġspec": 1022,
      "ily": 1023,
      "\".": 1024,
      "aj": 1025,
      "Ġthen": 1026,
      "ĠEurope": 1027,
      "Ġpres": 1028,
      "ium": 1029,
      "Ġmus": 1030,
      "eth": 1031,
      "Ġdate": 1032,
      "Ġhal": 1033,
      "ĠWar": 1034,
      "ork": 1035,
      "Ġdifferent": 1036,
      "ator": 1037,
      "Ġgroup": 1038,
      "Ġman": 1039,
      "Ġfollow": 1040,
      "ision": 1041,
      "Ġagainst": 1042,
      "Ġinv": 1043,
      "panish": 1044,
      "Ġpopulation": 1045,
      "aking": 1046,
      "Tr": 1047,
      "ale": 1048,
      "az": 1049,
      "Ġstud": 1050,
      "inc": 1051,
      "ets": 1052,
      "au": 1053,
      "Ġwar": 1054,
      "oman": 1055,
      "ier": 1056,
      "eb": 1057,
      "px": 1058,
      "iam": 1059,
      "ĠIs": 1060,
      "Ġcol": 1061,
      "igin": 1062,
      "ĠAfter": 1063,
      "Ġsystem": 1064,
      "Ġearly": 1065,
      "pt": 1066,
      "10": 1067,
      "Ġ198": 1068,
      "Ġstate": 1069,
      "try": 1070,
      "iles": 1071,
      "25": 1072,
      "Ġfin": 1073,
      "ĠAmerican": 1074,
      "ouse": 1075,
      "ative": 1076,
      "Ġthird": 1077,
      "co": 1078,
      "Ġthese": 1079,
      "St": 1080,
      "rim": 1081,
      "ix": 1082,
      "ĠJohn": 1083,
      "Ġ13": 1084,
      "Ġcentury": 1085,
      "Ġam": 1086,
      "Ġsu": 1087,
      "ek": 1088,
      "Look": 1089,
      "Ġany": 1090,
      "Ġwhile": 1091,
      "ĠSh": 1092,
      "uments": 1093,
      "ures": 1094,
      "fl": 1095,
      "ced": 1096,
      "Ġgovernment": 1097,
      "fore": 1098,
      "Ġmov": 1099,
      "ĠFor": 1100,
      "ating": 1101,
      "ants": 1102,
      "Ġline": 1103,
      "Ġact": 1104,
      "Ġhel": 1105,
      "iver": 1106,
      "Ġwater": 1107,
      "Ġcar": 1108,
      "inte": 1109,
      "Ġwill": 1110,
      "Ġlater": 1111,
      "ots": 1112,
      "ros": 1113,
      "hip": 1114,
      "Ġval": 1115,
      "Ġchang": 1116,
      "ped": 1117,
      "way": 1118,
      "irec": 1119,
      "Ġlanguages": 1120,
      "ĠCon": 1121,
      "ght": 1122,
      "Ġmain": 1123,
      "Ġrece": 1124,
      "mber": 1125,
      "integer": 1126,
      "Ġhome": 1127,
      "ole": 1128,
      "reate": 1129,
      "Ġ197": 1130,
      "ered": 1131,
      "ash": 1132,
      "cent": 1133,
      "Ġsymbol": 1134,
      "ished": 1135,
      "rem": 1136,
      "Ġset": 1137,
      "ron": 1138,
      "Ġsmall": 1139,
      "ble": 1140,
      "Ġcountry": 1141,
      "Ġproduc": 1142,
      "chool": 1143,
      "Ġfe": 1144,
      "Ġacc": 1145,
      "Ġatt": 1146,
      "Ġwell": 1147,
      "Ġteam": 1148,
      "my": 1149,
      "eng": 1150,
      "Ġwrit": 1151,
      "ĠSc": 1152,
      "ĠEnglish": 1153,
      "ann": 1154,
      "Ġcontr": 1155,
      "Ġbel": 1156,
      "Ġresp": 1157,
      "ital": 1158,
      "Ġmem": 1159,
      "Ġoften": 1160,
      "ĠCol": 1161,
      "ĠHowever": 1162,
      "18": 1163,
      "Ġdefin": 1164,
      "riving": 1165,
      "rew": 1166,
      "Ġest": 1167,
      "ĠAt": 1168,
      "uary": 1169,
      "Ġelect": 1170,
      "Ġcould": 1171,
      "Ġbefore": 1172,
      "gy": 1173,
      "hil": 1174,
      "Ġtook": 1175,
      "call": 1176,
      "Ġhist": 1177,
      "ĠThere": 1178,
      "Ġpoin": 1179,
      "ĠKing": 1180,
      "ĠPar": 1181,
      "Ġty": 1182,
      "Ġmeas": 1183,
      "Ġmon": 1184,
      "til": 1185,
      "Ġtoday": 1186,
      "Ġmillion": 1187,
      "Ġmin": 1188,
      "ank": 1189,
      "rop": 1190,
      "Ġcontin": 1191,
      "Ġdown": 1192,
      "ench": 1193,
      "ĠâĢĵ": 1194,
      "Ġmusic": 1195,
      "yth": 1196,
      "air": 1197,
      "iving": 1198,
      "Ġmod": 1199,
      "Ġbeing": 1200,
      "Ġsince": 1201,
      "Ġseason": 1202,
      "bers": 1203,
      "Ġsame": 1204,
      "alking": 1205,
      "velop": 1206,
      "ural": 1207,
      "ved": 1208,
      "Ġgot": 1209,
      "Ġdevelop": 1210,
      "Ġass": 1211,
      "ĠZ": 1212,
      "Ġown": 1213,
      "ular": 1214,
      "enn": 1215,
      "orld": 1216,
      "Ġob": 1217,
      "Ġbody": 1218,
      "irections": 1219,
      "pos": 1220,
      "iversity": 1221,
      "Ġboth": 1222,
      "essage": 1223,
      "Ġdoes": 1224,
      "Ġsaid": 1225,
      "alcul": 1226,
      "ĠChr": 1227,
      "Ġweather": 1228,
      "Ġdr": 1229,
      "Ġcode": 1230,
      "led": 1231,
      "',": 1232,
      "red": 1233,
      "Ġhalf": 1234,
      "Ġscor": 1235,
      "Ġimport": 1236,
      "iod": 1237,
      "ection": 1238,
      "Ġdist": 1239,
      "200": 1240,
      "man": 1241,
      "ology": 1242,
      "Ġconc": 1243,
      "âĢĶ": 1244,
      "hemat": 1245,
      "Ġunits": 1246,
      "ajor": 1247,
      "code": 1248,
      "ĠAf": 1249,
      "Ġincre": 1250,
      "onom": 1251,
      "Ġincluding": 1252,
      "ĠBritish": 1253,
      "Ġaround": 1254,
      "ample": 1255,
      "elf": 1256,
      "Ġ196": 1257,
      "Ġcountries": 1258,
      "ĠCar": 1259,
      "rap": 1260,
      "ized": 1261,
      "Ġmed": 1262,
      "ects": 1263,
      "ilom": 1264,
      "Ġmet": 1265,
      "Ġbr": 1266,
      "ĠSte": 1267,
      "When": 1268,
      "Ġhigh": 1269,
      "ful": 1270,
      "ments": 1271,
      "tool": 1272,
      "Ġ11": 1273,
      "English": 1274,
      "Ġpower": 1275,
      "avel": 1276,
      "Ġ+": 1277,
      "ĠRuss": 1278,
      "arguments": 1279,
      "|>{\"": 1280,
      "Ġmuch": 1281,
      "ĠSp": 1282,
      "Ã©": 1283,
      "une": 1284,
      "back": 1285,
      "Ġemail": 1286,
      "ese": 1287,
      "ĠSe": 1288,
      "entences": 1289,
      "ink": 1290,
      "Ġsign": 1291,
      "Ġkicker": 1292,
      "Ġext": 1293,
      "Ġmathemat": 1294,
      "ature": 1295,
      "ĠWh": 1296,
      "Ġreminder": 1297,
      "Ġgener": 1298,
      "Ġeach": 1299,
      "ĠWorld": 1300,
      "Ġhum": 1301,
      "Ġthough": 1302,
      "ll": 1303,
      "Ġhow": 1304,
      "Ġlast": 1305,
      "Ġbegan": 1306,
      "sy": 1307,
      "Ġlaw": 1308,
      "ms": 1309,
      "Ġland": 1310,
      "ible": 1311,
      "the": 1312,
      "Ġair": 1313,
      "Ġdefinition": 1314,
      "Ġuntil": 1315,
      "arize": 1316,
      "ĠAp": 1317,
      "ĠPro": 1318,
      "Who": 1319,
      "Ġent": 1320,
      "ense": 1321,
      "ially": 1322,
      "Ġsummary": 1323,
      "Ġserv": 1324,
      "Ġoffic": 1325,
      "ren": 1326,
      "app": 1327,
      "Ġsl": 1328,
      "oot": 1329,
      "ĠFrench": 1330,
      "web": 1331,
      "def": 1332,
      "ĠNorth": 1333,
      "Ġexample": 1334,
      "Ġfourth": 1335,
      "Ġser": 1336,
      "ipient": 1337,
      "ĠCl": 1338,
      "Ġticker": 1339,
      "ython": 1340,
      "ecute": 1341,
      "its": 1342,
      "Ġseconds": 1343,
      "Ġmeasure": 1344,
      "ĠSome": 1345,
      "set": 1346,
      "Ġlarge": 1347,
      "Ġsur": 1348,
      "Ġarea": 1349,
      "ague": 1350,
      "Ġ*": 1351,
      "els": 1352,
      "Ġnumer": 1353,
      "Email": 1354,
      "Ġvalue": 1355,
      "ral": 1356,
      ".\"": 1357,
      "ĠEar": 1358,
      "Ġcr": 1359,
      "ĠGre": 1360,
      "Ġperiod": 1361,
      "enc": 1362,
      "thern": 1363,
      "ai": 1364,
      "ĠPat": 1365,
      "ived": 1366,
      "ress": 1367,
      "Ġrecord": 1368,
      "ĠTr": 1369,
      "search": 1370,
      "und": 1371,
      "query": 1372,
      "Ġmajor": 1373,
      "alculator": 1374,
      "ustr": 1375,
      "ilometers": 1376,
      "ailed": 1377,
      "Ġmar": 1378,
      "Ġscore": 1379,
      "expression": 1380,
      "translate": 1381,
      "Ġimportant": 1382,
      "Ġif": 1383,
      "Ġanother": 1384,
      "calculator": 1385,
      "ane": 1386,
      "weather": 1387,
      "stit": 1388,
      "aus": 1389,
      "Ġtrans": 1390,
      "Con": 1391,
      "ued": 1392,
      "urch": 1393,
      "Ġsim": 1394,
      "umber": 1395,
      "Ġins": 1396,
      "50": 1397,
      "attle": 1398,
      "location": 1399,
      "Ġorgan": 1400,
      "16": 1401,
      "Ġlife": 1402,
      "Ġneed": 1403,
      "akes": 1404,
      "ensus": 1405,
      "ĠOr": 1406,
      "Ġschool": 1407,
      "ives": 1408,
      "Ġart": 1409,
      "Ġint": 1410,
      "Ġcommon": 1411,
      "ven": 1412,
      "Ġterm": 1413,
      "define": 1414,
      "ĠChrist": 1415,
      "Spanish": 1416,
      "ected": 1417,
      "Ġnear": 1418,
      "ĠYork": 1419,
      "ĠGr": 1420,
      "Ġrele": 1421,
      "ĠPol": 1422,
      "Ġdiv": 1423,
      "Ġchild": 1424,
      "ĠAd": 1425,
      "Ġsom": 1426,
      "second": 1427,
      "Ġec": 1428,
      "ext": 1429,
      "ĠEng": 1430,
      "Ġsever": 1431,
      "ĠII": 1432,
      "ĠSouth": 1433,
      "12": 1434,
      "Ġsn": 1435,
      "Ġmathematical": 1436,
      "Ġeff": 1437,
      "dest": 1438,
      "Ġremain": 1439,
      "dom": 1440,
      "Ġeven": 1441,
      "af": 1442,
      "ĠPl": 1443,
      "tt": 1444,
      "Ġ194": 1445,
      "Ġspe": 1446,
      "Ġexp": 1447,
      "Ġkick": 1448,
      "ically": 1449,
      "Ġbro": 1450,
      "Ġcame": 1451,
      "ĠThese": 1452,
      "ĠOther": 1453,
      "Ġold": 1454,
      "ox": 1455,
      "Ġconvert": 1456,
      "verter": 1457,
      "value": 1458,
      "ke": 1459,
      "ley": 1460,
      "ience": 1461,
      "converter": 1462,
      "14": 1463,
      "17": 1464,
      "Ġplace": 1465,
      "Ġnow": 1466,
      "Ġocc": 1467,
      "imes": 1468,
      "vent": 1469,
      "Ġyou": 1470,
      "ĠAfric": 1471,
      "cl": 1472,
      "Ġleft": 1473,
      "Ġdefine": 1474,
      "amed": 1475,
      "seconds": 1476,
      "Ġloc": 1477,
      "ĠBl": 1478,
      "Ġevery": 1479,
      "date": 1480,
      "res": 1481,
      "Ġtranslate": 1482,
      "Ġed": 1483,
      "olution": 1484,
      "ross": 1485,
      "Ġlargest": 1486,
      "current": 1487,
      "Ġsupport": 1488,
      "ites": 1489,
      "miles": 1490,
      "Ġstill": 1491,
      "ĠRo": 1492,
      "Translate": 1493,
      "Ġpolit": 1494,
      "Ġmeasurement": 1495,
      "gin": 1496,
      "label": 1497,
      "ĠWith": 1498,
      "Ġled": 1499,
      "kilometers": 1500,
      "Ġjust": 1501,
      "duration": 1502,
      "Ġvar": 1503,
      "timer": 1504,
      "number": 1505,
      "Ġsoc": 1506,
      "Ġway": 1507,
      "ner": 1508,
      "City": 1509,
      "Ġday": 1510,
      "Ġduration": 1511,
      "Ġshow": 1512,
      "ilit": 1513,
      "Ġred": 1514,
      "Ġtake": 1515,
      "wards": 1516,
      "Ġdeath": 1517,
      "Set": 1518,
      "03": 1519,
      "Ġgetting": 1520,
      "Ġevaluate": 1521,
      "tle": 1522,
      "Ġ{": 1523,
      "Ġquery": 1524,
      "Math": 1525,
      "Ġusually": 1526,
      "Evaluate": 1527,
      "yn": 1528,
      "ĠWe": 1529,
      "Convert": 1530,
      "ĠGerman": 1531,
      "Ġ.": 1532,
      "ĠGe": 1533,
      "tal": 1534,
      "ipp": 1535,
      "Text": 1536,
      "ement": 1537,
      "Ġph": 1538,
      "order": 1539,
      "13": 1540,
      "ened": 1541,
      "Ġwent": 1542,
      "Ġpartic": 1543,
      "ccess": 1544,
      "Ġsing": 1545,
      "ps": 1546,
      "Ġ25": 1547,
      "orts": 1548,
      "ung": 1549,
      "Ġaut": 1550,
      "ĠFrance": 1551,
      "iew": 1552,
      "ĠMan": 1553,
      "Ġstarted": 1554,
      "ĠJan": 1555,
      "Ġcountdown": 1556,
      "apan": 1557,
      "ĠRep": 1558,
      "Ġnumeric": 1559,
      "Label": 1560,
      "ĠEngland": 1561,
      "Timer": 1562,
      "ĠCity": 1563,
      "Ġposs": 1564,
      "alt": 1565,
      "put": 1566,
      "ple": 1567,
      "Ġcre": 1568,
      "mpire": 1569,
      "Ġbuild": 1570,
      "ebr": 1571,
      "rid": 1572,
      "ĠDe": 1573,
      "ief": 1574,
      "ases": 1575,
      "ush": 1576,
      "Ġ30": 1577,
      "Ġmaking": 1578,
      "ĠMay": 1579,
      "lands": 1580,
      "Ġinclude": 1581,
      "ales": 1582,
      "ĠUS": 1583,
      "Ġ{}}": 1584,
      "ady": 1585,
      "ams": 1586,
      "ball": 1587,
      "Ġorigin": 1588,
      "Ġ24": 1589,
      "Ġcult": 1590,
      "ĠComm": 1591,
      "eder": 1592,
      "Ġmove": 1593,
      "ony": 1594,
      "amm": 1595,
      "ured": 1596,
      "Ġlit": 1597,
      "ĠQB": 1598,
      "ison": 1599,
      "Ġseveral": 1600,
      "ĠWhen": 1601,
      "ĠShe": 1602,
      "ount": 1603,
      "ĠDec": 1604,
      "Ġprot": 1605,
      "ember": 1606,
      "ĠEl": 1607,
      "ones": 1608,
      "omin": 1609,
      "ĠPatri": 1610,
      "Ġkill": 1611,
      "Ġdri": 1612,
      "alth": 1613,
      "Ġter": 1614,
      "ograp": 1615,
      "ues": 1616,
      "aces": 1617,
      "ĠUniversity": 1618,
      "irect": 1619,
      "Ġtrad": 1620,
      "ĠRoman": 1621,
      "ĠWest": 1622,
      "Ġrelig": 1623,
      "min": 1624,
      "Ġnext": 1625,
      "Ġchar": 1626,
      "Ġloss": 1627,
      "vers": 1628,
      "ĠEd": 1629,
      "ices": 1630,
      "uel": 1631,
      "Ġhapp": 1632,
      "Ġhistory": 1633,
      "ternational": 1634,
      "Ġhouse": 1635,
      "Ġide": 1636,
      "Ġestab": 1637,
      "Ġem": 1638,
      "ĠWR": 1639,
      "Ġclass": 1640,
      "ately": 1641,
      "ĠCan": 1642,
      "Ġbig": 1643,
      "gen": 1644,
      "ĠWill": 1645,
      "ĠJapan": 1646,
      "ĠĠ": 1647,
      "estern": 1648,
      "ried": 1649,
      "temp": 1650,
      "ĠX": 1651,
      "Ġ$": 1652,
      "ĠBrown": 1653,
      "Ġfil": 1654,
      "ĠPatriots": 1655,
      "Ġwon": 1656,
      "ney": 1657,
      "Ġhig": 1658,
      "Ġanim": 1659,
      "uture": 1660,
      "onc": 1661,
      "Ġalong": 1662,
      "wh": 1663,
      "ister": 1664,
      "Ġoper": 1665,
      "Ġage": 1666,
      "Ġpublic": 1667,
      "Ġleg": 1668,
      "Ġthings": 1669,
      "Ġfamily": 1670,
      "ĠAll": 1671,
      "ck": 1672,
      "epend": 1673,
      "ĠItal": 1674,
      "ĠPhil": 1675,
      "arm": 1676,
      "by": 1677,
      "hys": 1678,
      "Ġhead": 1679,
      "ories": 1680,
      "cont": 1681,
      "Ġfollowed": 1682,
      "Ġthose": 1683,
      "Ġsuccess": 1684,
      "ats": 1685,
      "atic": 1686,
      "etimes": 1687,
      "Ġcapital": 1688,
      "ands": 1689,
      "Ġcompleted": 1690,
      "though": 1691,
      "vered": 1692,
      "Ġbook": 1693,
      "24": 1694,
      "ised": 1695,
      "inn": 1696,
      "ech": 1697,
      "hest": 1698,
      "ĠJu": 1699,
      "aced": 1700,
      "ĠHis": 1701,
      "idd": 1702,
      "Ġeconom": 1703,
      "Ġfuture": 1704,
      "arr": 1705,
      "ility": 1706,
      "bert": 1707,
      "Ġtotal": 1708,
      "Ġallow": 1709,
      "Ġrul": 1710,
      "ĠChar": 1711,
      "ĠCent": 1712,
      "acter": 1713,
      "Ġsk": 1714,
      "Ġsubject": 1715,
      "Ġbecome": 1716,
      "ides": 1717,
      "Ġput": 1718,
      "Ġturn": 1719,
      "ret": 1720,
      "Ġpopular": 1721,
      "Ġattack": 1722,
      "Ġmilit": 1723,
      "Ġregion": 1724,
      "ĠPres": 1725,
      "ĠChina": 1726,
      "Ġgen": 1727,
      "Ġ21": 1728,
      "unc": 1729,
      "Ġtimes": 1730,
      "ange": 1731,
      "Ġtem": 1732,
      "Ġ23": 1733,
      "Ġconsid": 1734,
      "Ġprogr": 1735,
      "Ġgood": 1736,
      "ĠFl": 1737,
      "Ġgl": 1738,
      "23": 1739,
      "Ġresult": 1740,
      "Ġrest": 1741,
      "Ġcaus": 1742,
      "Ġbre": 1743,
      "Ġpo": 1744,
      "ared": 1745,
      "ste": 1746,
      "tember": 1747,
      "Ġ{}},": 1748,
      "Ġdied": 1749,
      "Ġpercent": 1750,
      "Ġmeans": 1751,
      "'\"}}}]": 1752,
      "bur": 1753,
      "Ġtop": 1754,
      "rib": 1755,
      "Ġgreat": 1756,
      "Ġpoints": 1757,
      "ĠEarth": 1758,
      "Ġgu": 1759,
      "Which": 1760,
      "ĠRepublic": 1761,
      "aving": 1762,
      "Ġcontact": 1763,
      "ears": 1764,
      "ĠEuropean": 1765,
      "ired": 1766,
      "Ġappe": 1767,
      "Ġcontrol": 1768,
      "verage": 1769,
      "Ġlight": 1770,
      "Ġann": 1771,
      "Ġz": 1772,
      "ĠAnd": 1773,
      "Ġhelp": 1774,
      "iqu": 1775,
      "ĠSep": 1776,
      "lex": 1777,
      "Ġplan": 1778,
      "Ġlive": 1779,
      "ugust": 1780,
      "ondon": 1781,
      "Ġless": 1782,
      "Ġgrow": 1783,
      "Ġwide": 1784,
      "ran": 1785,
      "oard": 1786,
      "com": 1787,
      "trans": 1788,
      "ferences": 1789,
      "ĠBy": 1790,
      "ĠMon": 1791,
      "etime": 1792,
      "ĠAir": 1793,
      "Ġlook": 1794,
      "Ġprice": 1795,
      "sh": 1796,
      "Ġinfl": 1797,
      "Ġfew": 1798,
      "ril": 1799,
      "ĠGermany": 1800,
      "AP": 1801,
      "Ġtel": 1802,
      "Ġaddress": 1803,
      "ission": 1804,
      "uct": 1805,
      "ivil": 1806,
      "ves": 1807,
      "Ġ193": 1808,
      "ĠEmpire": 1809,
      "ĠNational": 1810,
      "Ġmark": 1811,
      "tober": 1812,
      "ĠSan": 1813,
      "ained": 1814,
      "Ġ100": 1815,
      "ctober": 1816,
      "imum": 1817,
      "inese": 1818,
      "cess": 1819,
      "Ġmodern": 1820,
      "ĠCoun": 1821,
      "Ġequ": 1822,
      "part": 1823,
      "origin": 1824,
      "Ġnational": 1825,
      "âĢĻ": 1826,
      "Ġaway": 1827,
      "Ġdrive": 1828,
      "omen": 1829,
      "Ġmean": 1830,
      "Ġhuman": 1831,
      "run": 1832,
      "uck": 1833,
      "pres": 1834,
      "Ġsearch": 1835,
      "Ġmen": 1836,
      "Ġheld": 1837,
      "ĠCategory": 1838,
      "Ġwant": 1839,
      "ĠBe": 1840,
      "iation": 1841,
      "ilt": 1842,
      "aged": 1843,
      "ĠCensus": 1844,
      "Ġstock": 1845,
      "nd": 1846,
      "Ġshort": 1847,
      "Ġnamed": 1848,
      "ception": 1849,
      "Ġtyp": 1850,
      "esp": 1851,
      "Ġwithin": 1852,
      "echn": 1853,
      "ĠJanuary": 1854,
      "ĠAugust": 1855,
      "Ġchildren": 1856,
      "ergy": 1857,
      "ified": 1858,
      "ĠSeptember": 1859,
      "Ġcell": 1860,
      "Ġusing": 1861,
      "Ġscored": 1862,
      "ĠMany": 1863,
      "ĠMus": 1864,
      "Ġdriving": 1865,
      "Ġplayed": 1866,
      "ington": 1867,
      "Ġpos": 1868,
      "ĠAb": 1869,
      "Ġseries": 1870,
      "ĠMc": 1871,
      "Ġball": 1872,
      "oviet": 1873,
      "Ġrepl": 1874,
      "Ġstates": 1875,
      "atch": 1876,
      "Ġ22": 1877,
      "Ġgroups": 1878,
      "ĠSw": 1879,
      "Ġste": 1880,
      "Ġparts": 1881,
      "ively": 1882,
      "ĠDecember": 1883,
      "ĠRed": 1884,
      "ĠJune": 1885,
      "ĠUnion": 1886,
      "199": 1887,
      "Ġmembers": 1888,
      "Ġbelie": 1889,
      "ĠLondon": 1890,
      "gether": 1891,
      "ler": 1892,
      "ops": 1893,
      "Ġfive": 1894,
      "Ġpun": 1895,
      "Ġsold": 1896,
      "ĠOctober": 1897,
      "Ġnon": 1898,
      "Ġ195": 1899,
      "Ġ2010": 1900,
      "look": 1901,
      "Ġmilitary": 1902,
      "be": 1903,
      "Ġvis": 1904,
      "Ġexpl": 1905,
      "ĠWilliam": 1906,
      "Ġprim": 1907,
      "aim": 1908,
      "Ġgames": 1909,
      "ĠJuly": 1910,
      "ius": 1911,
      "body": 1912,
      "Ġcoll": 1913,
      "Ġcour": 1914,
      "Ġpolitical": 1915,
      "Ġarmy": 1916,
      "Ġcor": 1917,
      "ĠAmerica": 1918,
      "Ġattemp": 1919,
      "ĠGree": 1920,
      "ization": 1921,
      "Ġdem": 1922,
      "ĠBronc": 1923,
      "Ġquarterback": 1924,
      "ĠChinese": 1925,
      "Ġsol": 1926,
      "Ġ28": 1927,
      "ĠMarch": 1928,
      "ended": 1929,
      "ĠGeor": 1930,
      "ĠBroncos": 1931,
      "sk": 1932,
      "ĠBar": 1933,
      "Ġeas": 1934,
      "Ġ&": 1935,
      "ĠReferences": 1936,
      "itions": 1937,
      "ule": 1938,
      "Ġadv": 1939,
      "med": 1940,
      "Ġspecies": 1941,
      "Ġsee": 1942,
      "Ġsay": 1943,
      "Ġlate": 1944,
      "Ġtogether": 1945,
      "Ġaverage": 1946,
      "gger": 1947,
      "ovember": 1948,
      "side": 1949,
      "ency": 1950,
      "Ġrev": 1951,
      "ĠOne": 1952,
      "Ġcontinued": 1953,
      "ĠGu": 1954,
      "ĠSoviet": 1955,
      "ĠRB": 1956,
      "Ġdirect": 1957,
      "Ġproble": 1958,
      "Ġmessage": 1959,
      "ĠIndia": 1960,
      "ĠEx": 1961,
      "ustral": 1962,
      "hor": 1963,
      "Ġforces": 1964,
      "ĠLeague": 1965,
      "Ġ26": 1966,
      "Ġenergy": 1967,
      "ĠSun": 1968,
      "Ġexper": 1969,
      "Ġstand": 1970,
      "ĠCal": 1971,
      "Ġwebs": 1972,
      "Ġnorth": 1973,
      "mode": 1974,
      "Ġsec": 1975,
      "ĠApril": 1976,
      "destination": 1977,
      "aximum": 1978,
      "Ġsouth": 1979,
      "directions": 1980,
      "ĠEast": 1981,
      "bum": 1982,
      "ugg": 1983,
      "Ġwithout": 1984,
      "Ġopen": 1985,
      "Ġcommun": 1986,
      "oys": 1987,
      "ness": 1988,
      "ains": 1989,
      "Ġbased": 1990,
      "Ġking": 1991,
      "Ġant": 1992,
      "Ġpe": 1993,
      "Ġfind": 1994,
      "Ġdesign": 1995,
      "contact": 1996,
      "Ex": 1997,
      "Ġhy": 1998,
      "Ġconn": 1999,
      ",\"": 2000,
      "iven": 2001,
      "Ġrunning": 2002,
      "ĠGo": 2003,
      "ott": 2004,
      "lookup": 2005,
      "arting": 2006,
      "ae": 2007,
      "Ġshould": 2008,
      "Ġet": 2009,
      "22": 2010,
      "Ġreturned": 2011,
      "11": 2012,
      "driving": 2013,
      "Ġfood": 2014,
      "most": 2015,
      "Ġinflu": 2016,
      "iron": 2017,
      "stock": 2018,
      "Ġwalking": 2019,
      "Ġcamp": 2020,
      "ĠSy": 2021,
      "lin": 2022,
      "Ġdirections": 2023,
      "2025": 2024,
      "Ġlocations": 2025,
      "Ġdet": 2026,
      "ston": 2027,
      "symbol": 2028,
      "ĠNovember": 2029,
      "dat": 2030,
      "ills": 2031,
      "Ġperform": 2032,
      "Ġfamous": 2033,
      "Ġjoin": 2034,
      "Ġ,": 2035,
      "Gener": 2036,
      "Ġliving": 2037,
      "Ġ27": 2038,
      "Ġreleased": 2039,
      "por": 2040,
      "Ġinf": 2041,
      "Ġoutput": 2042,
      "urs": 2043,
      "ootball": 2044,
      "ality": 2045,
      "Ġamong": 2046,
      "ee": 2047,
      "Ġright": 2048,
      "ently": 2049,
      "ths": 2050,
      "price": 2051,
      "Ġknow": 2052,
      "Ġanc": 2053,
      "Ġmode": 2054,
      "agn": 2055,
      "Ġareas": 2056,
      "ata": 2057,
      "ĠAustral": 2058,
      "Ġstrong": 2059,
      "ĠSpanish": 2060,
      "estination": 2061,
      "ilar": 2062,
      "Ġtrigger": 2063,
      "Ġpartial": 2064,
      "iety": 2065,
      "ĠKingdom": 2066,
      "create": 2067,
      "sub": 2068,
      "uter": 2069,
      "datetime": 2070,
      "message": 2071,
      "ountain": 2072,
      "Ġevent": 2073,
      "Ġ2007": 2074,
      "Ġterrit": 2075,
      "reminder": 2076,
      "ĠMatt": 2077,
      "Ġspecial": 2078,
      "Ġcreated": 2079,
      "Ġbeh": 2080,
      "ocr": 2081,
      "go": 2082,
      "ĠSteel": 2083,
      "21": 2084,
      "off": 2085,
      "Ġprocess": 2086,
      "Ġeng": 2087,
      "osp": 2088,
      "aster": 2089,
      "evision": 2090,
      "alk": 2091,
      "Ġstudy": 2092,
      "Ġreac": 2093,
      "int": 2094,
      "Ġappro": 2095,
      "iddle": 2096,
      "ends": 2097,
      "Ġofficial": 2098,
      "Ġindepend": 2099,
      "Ġsentences": 2100,
      "atin": 2101,
      "Ġpresident": 2102,
      "Ġtown": 2103,
      "Ġreb": 2104,
      "umb": 2105,
      "ĠCanad": 2106,
      "Ġav": 2107,
      "Ġcer": 2108,
      "..": 2109,
      "Un": 2110,
      "Ġchem": 2111,
      "Ġscient": 2112,
      "Ġclos": 2113,
      "row": 2114,
      "Ġ2008": 2115,
      "acy": 2116,
      "Ġcome": 2117,
      "Rem": 2118,
      "Ġ09": 2119,
      "oney": 2120,
      "send": 2121,
      "ests": 2122,
      "Ġrespond": 2123,
      "Ġ2006": 2124,
      "Full": 2125,
      "ebruary": 2126,
      "Ġsong": 2127,
      "ĠHist": 2128,
      "ĠNor": 2129,
      "subject": 2130,
      "ĠAm": 2131,
      "Ġchange": 2132,
      "line": 2133,
      "Ġrequ": 2134,
      "walking": 2135,
      "ĠMost": 2136,
      "Ġbuilt": 2137,
      "ĠDav": 2138,
      "ĠSain": 2139,
      "max": 2140,
      "Starting": 2141,
      "email": 2142,
      "ene": 2143,
      "ĠIndian": 2144,
      "ape": 2145,
      "Rec": 2146,
      "irc": 2147,
      "present": 2148,
      "60": 2149,
      "ĠSteelers": 2150,
      "Ġcompleting": 2151,
      "transit": 2152,
      "Ġfinal": 2153,
      "ummarize": 2154,
      "Ġdue": 2155,
      "cept": 2156,
      "ounds": 2157,
      "ĠWeek": 2158,
      "sentences": 2159,
      "imate": 2160,
      "Ġmass": 2161,
      "summarize": 2162,
      "Ġ40": 2163,
      "rote": 2164,
      "Ġreceiver": 2165,
      "Ġfollowing": 2166,
      "ensive": 2167,
      "Ġrad": 2168,
      "Ġformer": 2169,
      "Ġalbum": 2170,
      "ald": 2171,
      "Travel": 2172,
      "oung": 2173,
      "ĠBC": 2174,
      "Ġthought": 2175,
      "Create": 2176,
      "Ġweek": 2177,
      "Destination": 2178,
      "uce": 2179,
      "APL": 2180,
      "ĠBut": 2181,
      "ways": 2182,
      "ica": 2183,
      "Ġsometimes": 2184,
      "Ġvers": 2185,
      "ett": 2186,
      "Ġsummarize": 2187,
      "Ġaff": 2188,
      "AAPL": 2189,
      "Ġsent": 2190,
      "ĠGreek": 2191,
      "ĠPort": 2192,
      "ĠPresident": 2193,
      "ĠJack": 2194,
      "ĠMin": 2195,
      "Ġkind": 2196,
      "Reminder": 2197,
      "Ġ2011": 2198,
      "Ġrecipient": 2199,
      "ference": 2200,
      "Ġprom": 2201,
      "ĠAng": 2202,
      "ĠFebruary": 2203,
      "Stock": 2204,
      "ĠPython": 2205,
      "Ġref": 2206,
      "Send": 2207,
      "Ġbus": 2208,
      "aul": 2209,
      "ĠDuring": 2210,
      "poin": 2211,
      "Ġlevel": 2212,
      "ĠMed": 2213,
      "oms": 2214,
      "ges": 2215,
      "Ġexecute": 2216,
      "amb": 2217,
      "Ġcities": 2218,
      "ille": 2219,
      "Ġcomb": 2220,
      "Ġpain": 2221,
      "men": 2222,
      "Ġarch": 2223,
      "Ġwrote": 2224,
      "Ġtreat": 2225,
      "ustri": 2226,
      "Ġconcise": 2227,
      "Ġdefe": 2228,
      "ki": 2229,
      "Ġfle": 2230,
      "Ġsix": 2231,
      "ham": 2232,
      "Ġforce": 2233,
      "Ġfem": 2234,
      "lear": 2235,
      "Maximum": 2236,
      "Ġdays": 2237,
      "Generate": 2238,
      "ental": 2239,
      "Ġ2000": 2240,
      "Ġlost": 2241,
      "Recipient": 2242,
      "aff": 2243,
      "Ġvict": 2244,
      "Ġmust": 2245,
      "iness": 2246,
      "ago": 2247,
      "Ġpat": 2248,
      "ĠTex": 2249,
      "for": 2250,
      "Ġincreased": 2251,
      "Ġgiven": 2252,
      "Ġsnipp": 2253,
      "Python": 2254,
      "bed": 2255,
      "Execute": 2256,
      "Ġsnippet": 2257,
      "Ġphys": 2258,
      "Ġfact": 2259,
      "Ġpresent": 2260,
      "30": 2261,
      "FC": 2262,
      "80": 2263,
      "ĠJew": 2264,
      "Ġimpro": 2265,
      "ĠChurch": 2266,
      "ama": 2267,
      "ĠHer": 2268,
      "ĠBu": 2269,
      "ĠHar": 2270,
      "Ġtype": 2271,
      "ashington": 2272,
      "arch": 2273,
      "oming": 2274,
      "Ġhard": 2275,
      "Ġbest": 2276,
      "ĠGod": 2277,
      "ĠSm": 2278,
      "Ġ190": 2279,
      "Ġwritten": 2280,
      "aves": 2281,
      "Ġbas": 2282,
      "Ġothers": 2283,
      "etic": 2284,
      "reed": 2285,
      "ĠGreat": 2286,
      "Ġer": 2287,
      "Ġdel": 2288,
      "yan": 2289,
      "ĠSup": 2290,
      "Ġ49": 2291,
      "Ġ50": 2292,
      "atural": 2293,
      "Ġcare": 2294,
      "Ġsimilar": 2295,
      "oon": 2296,
      "Ġhowever": 2297,
      "Ġdescri": 2298,
      "ĠPal": 2299,
      "read": 2300,
      "ecut": 2301,
      "iol": 2302,
      "ior": 2303,
      "ĠEm": 2304,
      "lam": 2305,
      "ys": 2306,
      "ĠHol": 2307,
      "Ġsocial": 2308,
      "less": 2309,
      "Ġtemper": 2310,
      "ĠEn": 2311,
      "Ġsqu": 2312,
      "ested": 2313,
      "ĠRussian": 2314,
      "ration": 2315,
      "Ġpoint": 2316,
      "ling": 2317,
      "Ġdisco": 2318,
      "iber": 2319,
      "Ġgave": 2320,
      "Ġtradition": 2321,
      "reen": 2322,
      "Ġhand": 2323,
      "ĠCath": 2324,
      "Ġconsidered": 2325,
      "Ġfar": 2326,
      "Ġlow": 2327,
      "ĠBay": 2328,
      "ĠWashington": 2329,
      "Ġcop": 2330,
      "istan": 2331,
      "Ġvol": 2332,
      "Ġisland": 2333,
      "70": 2334,
      "Ġ29": 2335,
      "ches": 2336,
      "ert": 2337,
      "outhern": 2338,
      "Ġ31": 2339,
      "Ġtechn": 2340,
      "eep": 2341,
      "Ġsingle": 2342,
      "Ġfr": 2343,
      "Ġdep": 2344,
      "Ġ2009": 2345,
      "Ġbir": 2346,
      "Ġhit": 2347,
      "Ġorder": 2348,
      "ĠRel": 2349,
      "Ġtried": 2350,
      "Ġfight": 2351,
      "itz": 2352,
      "eg": 2353,
      "iers": 2354,
      "Ġbegin": 2355,
      "ids": 2356,
      "Ġkilled": 2357,
      "ined": 2358,
      "Ġsepar": 2359,
      "stitution": 2360,
      "not": 2361,
      "Ġexist": 2362,
      "lished": 2363,
      "ece": 2364,
      "Ġran": 2365,
      "Ġstre": 2366,
      "ĠTur": 2367,
      "olic": 2368,
      "ances": 2369,
      "ither": 2370,
      "ĠBears": 2371,
      "40": 2372,
      "ĠChristian": 2373,
      "Ġlear": 2374,
      "Ġgive": 2375,
      "ĠPeople": 2376,
      "Ġdeveloped": 2377,
      "Ġborn": 2378,
      "Ġfri": 2379,
      "ĠâĢ": 2380,
      "Â°": 2381,
      "ĠLions": 2382,
      "Ġhold": 2383,
      "Ġneeded": 2384,
      "ending": 2385,
      "ote": 2386,
      "ana": 2387,
      "of": 2388,
      "Ġended": 2389,
      "ĠIf": 2390,
      "urther": 2391,
      "Ġblack": 2392,
      "ept": 2393,
      "ĠHen": 2394,
      "Ġlocal": 2395,
      "struc": 2396,
      "ĠAfrica": 2397,
      "Ã¡": 2398,
      "Ġtoo": 2399,
      "Ġgoals": 2400,
      "Ġwomen": 2401,
      "Ġdoc": 2402,
      "ael": 2403,
      "lim": 2404,
      "Ġcapt": 2405,
      "Ġfilm": 2406,
      "II": 2407,
      "ford": 2408,
      "ĠRiver": 2409,
      "Ġrock": 2410,
      "Ġfell": 2411,
      "Ġ2005": 2412,
      "hold": 2413,
      "ĠLou": 2414,
      "Ġmoved": 2415,
      "ĠBeng": 2416,
      "Ġhistor": 2417,
      "eter": 2418,
      "rees": 2419,
      "ological": 2420,
      "ĠCharles": 2421,
      "stead": 2422,
      "Ġtelevision": 2423,
      "Ġroad": 2424,
      "utes": 2425,
      "ĠSch": 2426,
      "ĠCr": 2427,
      "Ġanimals": 2428,
      "osop": 2429,
      "over": 2430,
      "Ġ2012": 2431,
      "Ġclub": 2432,
      "Ġside": 2433,
      "self": 2434,
      "aken": 2435,
      "Ġwords": 2436,
      "Ġla": 2437,
      "Ġmater": 2438,
      "Ġdest": 2439,
      "ying": 2440,
      "Ġclaim": 2441,
      "Ġstop": 2442,
      "Ġview": 2443,
      "Ġcivil": 2444,
      "ĠArab": 2445,
      "Ġsex": 2446,
      "Ġlist": 2447,
      "stant": 2448,
      "Ġtit": 2449,
      "Ġable": 2450,
      "Ġmakes": 2451,
      "Ġmoney": 2452,
      "sp": 2453,
      "ged": 2454,
      "udd": 2455,
      "Ġreport": 2456,
      "ply": 2457,
      "Ġeffect": 2458,
      "Ġhost": 2459,
      "Ch": 2460,
      "Ġtravel": 2461,
      "ising": 2462,
      "ĠOtt": 2463,
      "Ġfree": 2464,
      "Ġcompar": 2465,
      "Ġfather": 2466,
      "Ġprof": 2467,
      "Ġlim": 2468,
      "posed": 2469,
      "Ġgeneral": 2470,
      "na": 2471,
      "Ġkeep": 2472,
      "ention": 2473,
      "cep": 2474,
      "ĠJames": 2475,
      "sel": 2476,
      "Ġcompos": 2477,
      "ma": 2478,
      "Ġtw": 2479,
      "ĠWhite": 2480,
      "Ġson": 2481,
      "Ġincluded": 2482,
      "ought": 2483,
      "Ġestablished": 2484,
      "ĠMich": 2485,
      "udes": 2486,
      "iefs": 2487,
      "Ġparticular": 2488,
      "Ġfall": 2489,
      "ĠGreen": 2490,
      "ploy": 2491,
      "Ġdisc": 2492,
      "Ġwebsites": 2493,
      "ĠJos": 2494,
      "ights": 2495,
      "Th": 2496,
      "avy": 2497,
      "Ġ2013": 2498,
      "Ġhaving": 2499,
      "Ġread": 2500,
      "ecially": 2501,
      "adium": 2502,
      "Ġstat": 2503,
      "Ġdev": 2504,
      "ogn": 2505,
      "Ġunivers": 2506,
      "Ġrepresent": 2507,
      "Ġtro": 2508,
      "ĠAfrican": 2509,
      "Ġdefense": 2510,
      "Ġwhite": 2511,
      "press": 2512,
      "Ġeduc": 2513,
      "ackers": 2514,
      "ĠEag": 2515,
      "Ġreal": 2516,
      "Ã¼": 2517,
      "ĠQue": 2518,
      "urb": 2519,
      "Ġclose": 2520,
      "ples": 2521,
      "Ġpract": 2522,
      "ĠFranc": 2523,
      "ĠRussia": 2524,
      "ĠLatin": 2525,
      "roduc": 2526,
      "Ġdise": 2527,
      "ederal": 2528,
      "especially": 2529,
      "esc": 2530,
      "utch": 2531,
      "Ġpen": 2532,
      "Ġmaterial": 2533,
      "Ġox": 2534,
      "Ġcharacter": 2535,
      "riz": 2536,
      "ĠRev": 2537,
      "Ġauthor": 2538,
      "ĠKore": 2539,
      "Ġalmost": 2540,
      "Ġscience": 2541,
      "che": 2542,
      "Ġcompany": 2543,
      "Ġblood": 2544,
      "ĠBritain": 2545,
      "erc": 2546,
      "vious": 2547,
      "Ġinterception": 2548,
      "Ġpubl": 2549,
      "ards": 2550,
      "uan": 2551,
      "ĠRet": 2552,
      "inal": 2553,
      "Ġproper": 2554,
      "ĠRom": 2555,
      "27": 2556,
      "liam": 2557,
      "omb": 2558,
      "stand": 2559,
      "eph": 2560,
      "Ġaddition": 2561,
      "oyal": 2562,
      "uk": 2563,
      "Ġseen": 2564,
      "ĠHouse": 2565,
      "Ġdevelopment": 2566,
      "Ġ35": 2567,
      "ĠState": 2568,
      "Ġcolor": 2569,
      "aur": 2570,
      "Ġsuccessful": 2571,
      "Ġband": 2572,
      "Ġcirc": 2573,
      "ĠHistory": 2574,
      "Ġtheory": 2575,
      "ĠBur": 2576,
      "Ġcrit": 2577,
      "ara": 2578,
      "itation": 2579,
      "aper": 2580,
      "ivid": 2581,
      "ĠEagles": 2582,
      "bor": 2583,
      "rian": 2584,
      "rime": 2585,
      "ĠPark": 2586,
      "Ġ2004": 2587,
      "ival": 2588,
      "Ġteams": 2589,
      "time": 2590,
      "right": 2591,
      "ĠRaid": 2592,
      "Ġconf": 2593,
      "rict": 2594,
      "ĠBer": 2595,
      "Ġident": 2596,
      "Ġallowed": 2597,
      "Ġsw": 2598,
      "ography": 2599,
      "burg": 2600,
      "Ġinvol": 2601,
      "ĠIslam": 2602,
      "198": 2603,
      "Ġbi": 2604,
      "Ġsty": 2605,
      "ster": 2606,
      "elt": 2607,
      "ander": 2608,
      "ounced": 2609,
      "Ġformed": 2610,
      "ĠThom": 2611,
      "ators": 2612,
      "Ġiss": 2613,
      "Ġphil": 2614,
      "Ġdi": 2615,
      "Ġearl": 2616,
      "liament": 2617,
      "ĠInternational": 2618,
      "Ġforced": 2619,
      "Ġplays": 2620,
      "lo": 2621,
      "ona": 2622,
      "cean": 2623,
      "ethod": 2624,
      "Ġhighest": 2625,
      "Ġleast": 2626,
      "ĠTit": 2627,
      "Ġduel": 2628,
      "work": 2629,
      "iants": 2630,
      "Ġworks": 2631,
      "gypt": 2632,
      "ours": 2633,
      "Ġaccording": 2634,
      "ements": 2635,
      "Ġmult": 2636,
      "raft": 2637,
      "cil": 2638,
      "Ġnever": 2639,
      "Ġvarious": 2640,
      "Ġespecially": 2641,
      "Ġlittle": 2642,
      ".,": 2643,
      "Ġep": 2644,
      "Ġthink": 2645,
      "28": 2646,
      "Ġactiv": 2647,
      "eign": 2648,
      "ĠAc": 2649,
      "Ġ2014": 2650,
      "Ġnor": 2651,
      "Ġalthough": 2652,
      "ĠLouis": 2653,
      "ont": 2654,
      "26": 2655,
      "icago": 2656,
      "ĠGeorge": 2657,
      "Ġpost": 2658,
      "roy": 2659,
      "uit": 2660,
      "ĠSom": 2661,
      "iated": 2662,
      "used": 2663,
      "ably": 2664,
      "Ġfac": 2665,
      "Ġcaused": 2666,
      "Ġnight": 2667,
      "Ġtouchdowns": 2668,
      "Ġmother": 2669,
      "Ġship": 2670,
      "Ġtypes": 2671,
      "United": 2672,
      "ĠDan": 2673,
      "Where": 2674,
      "rd": 2675,
      "Ġfeat": 2676,
      "ĠBrowns": 2677,
      "ĠMo": 2678,
      "ĠTo": 2679,
      "Ġpress": 2680,
      "ĠAss": 2681,
      "Ġacross": 2682,
      "Ġ33": 2683,
      "ication": 2684,
      "Ġ45": 2685,
      "ĠDavid": 2686,
      "ico": 2687,
      "29": 2688,
      "ĠVik": 2689,
      "ĠGl": 2690,
      "ĠAustralia": 2691,
      "Ġrule": 2692,
      "Ġspeak": 2693,
      "ĠJackson": 2694,
      "Ġmight": 2695,
      "owb": 2696,
      "Ġplayer": 2697,
      "Ġimm": 2698,
      "Ġlonger": 2699,
      "like": 2700,
      "ampions": 2701,
      "Ġrefer": 2702,
      "Ġrep": 2703,
      "Ġcond": 2704,
      "Ġmovie": 2705,
      "ĠSoc": 2706,
      "iter": 2707,
      "Ġfull": 2708,
      "sc": 2709,
      "atter": 2710,
      "Ġadded": 2711,
      "lege": 2712,
      "Ġphilosop": 2713,
      "lant": 2714,
      "Ġbillion": 2715,
      "Ġspace": 2716,
      "omes": 2717,
      "ĠDem": 2718,
      "ĠCo": 2719,
      "reland": 2720,
      "Ġhigher": 2721,
      "Ġrate": 2722,
      "Ġhousehold": 2723,
      "ĠRaiders": 2724,
      "ĠArmy": 2725,
      "ĠReg": 2726,
      "jects": 2727,
      "Ġ1990": 2728,
      "aught": 2729,
      "head": 2730,
      "ĠWestern": 2731,
      "ĠAsia": 2732,
      "Ġonce": 2733,
      "Ġnumbers": 2734,
      "Ġmember": 2735,
      "ĠItaly": 2736,
      "Ġtroops": 2737,
      "Ġstruct": 2738,
      "Ġnet": 2739,
      "ĠEgypt": 2740,
      "Ġchemical": 2741,
      "ĠChicago": 2742,
      "Ġculture": 2743,
      "Ġposition": 2744,
      "Ġnatural": 2745,
      "Ġyoung": 2746,
      "Ġschools": 2747,
      "Ġyet": 2748,
      "Ġcompet": 2749,
      "ĠHenry": 2750,
      "ength": 2751,
      "Ġmountain": 2752,
      "ĠColts": 2753,
      "Americ": 2754,
      "ĠCatholic": 2755,
      "etro": 2756,
      "Ġsignific": 2757,
      "rought": 2758,
      "--": 2759,
      "Ġresponded": 2760,
      "ĠBattle": 2761,
      "Ġmostly": 2762,
      "Ġsea": 2763,
      "Ġlot": 2764,
      "Ġreligious": 2765,
      "ĠJohnson": 2766,
      "Ġhealth": 2767,
      "inals": 2768,
      "iction": 2769,
      "ĠĠĠĠ": 2770,
      "ĠPh": 2771,
      "ĠNe": 2772,
      "ĠMe": 2773,
      "Ġhelped": 2774,
      "ĠRav": 2775,
      "Ġindivid": 2776,
      "Ġbuilding": 2777,
      "ĠCup": 2778,
      "ĠDutch": 2779,
      "ummer": 2780,
      "Ġstar": 2781,
      "Ġpred": 2782,
      "ential": 2783,
      "ĠIreland": 2784,
      "aries": 2785,
      "Ġfurther": 2786,
      "Ġspok": 2787,
      "ĠPan": 2788,
      "ĠNo": 2789,
      "bon": 2790,
      "owers": 2791,
      "Ġchanges": 2792,
      "Ġchanged": 2793,
      "ude": 2794,
      "Ġlocated": 2795,
      "Ġcertain": 2796,
      "Ġplants": 2797,
      "ĠBengals": 2798,
      "Ġproblems": 2799,
      "Ġplaces": 2800,
      "Ġarr": 2801,
      "ĠComp": 2802,
      "Ġsurr": 2803,
      "Ġalways": 2804,
      "Ġsize": 2805,
      "90": 2806,
      "Ġinternational": 2807,
      "An": 2808,
      "selves": 2809,
      "ĠRich": 2810,
      "Ġcause": 2811,
      "ĠGener": 2812,
      "Ġrole": 2813,
      "45": 2814,
      "ĠPer": 2815,
      "ĠSer": 2816,
      "ored": 2817,
      "Ġrelations": 2818,
      "Ġwanted": 2819,
      "ena": 2820,
      "ument": 2821,
      "FL": 2822,
      "Ġ2001": 2823,
      "Ġeither": 2824,
      "Ġappl": 2825,
      "Ġpublished": 2826,
      "Ġsystems": 2827,
      "Ġoriginal": 2828,
      "Ġcoast": 2829,
      "ideo": 2830,
      "ĠMuslim": 2831,
      "Ġintroduc": 2832,
      "Ġthemselves": 2833,
      "Ġkicked": 2834,
      "ĠDen": 2835,
      "Ġdivision": 2836,
      "ino": 2837,
      "istic": 2838,
      "Ġpossession": 2839,
      "Ġcut": 2840,
      "ĠJapanese": 2841,
      "face": 2842,
      "Ġpi": 2843,
      "ĠPortug": 2844,
      "Ġtaken": 2845,
      "Ġ=": 2846,
      "astern": 2847,
      "peror": 2848,
      "aign": 2849,
      "ĠFirst": 2850,
      "Ġcannot": 2851,
      "Ġbird": 2852,
      "ĠCowb": 2853,
      "Ġstay": 2854,
      "Ġsaf": 2855,
      "ĠJets": 2856,
      "asing": 2857,
      "Ġbetter": 2858,
      "ĠLa": 2859,
      "ĠRace": 2860,
      "Ġbusiness": 2861,
      "isc": 2862,
      "Ġgas": 2863,
      "Ġreceived": 2864,
      "Ġprovide": 2865,
      "ridge": 2866,
      "Ġpriv": 2867,
      "Ġservice": 2868,
      "hel": 2869,
      "Ġparty": 2870,
      "Ġfailed": 2871,
      "arian": 2872,
      "Ġmy": 2873,
      "dro": 2874,
      "ask": 2875,
      "Ġ2015": 2876,
      "Ġmeet": 2877,
      "Ġhous": 2878,
      "Ġwhe": 2879,
      "Ġproduced": 2880,
      "Ġ38": 2881,
      "Ġcharg": 2882,
      "ched": 2883,
      "Ġrecogn": 2884,
      "Ġmethod": 2885,
      "Ġdata": 2886,
      "ĠCharg": 2887,
      "ols": 2888,
      "Ġincludes": 2889,
      "Ġground": 2890,
      "ĠAct": 2891,
      "hic": 2892,
      "Ġeast": 2893,
      "emy": 2894,
      "ĠParty": 2895,
      "Ġprevious": 2896,
      "Ġmid": 2897,
      "197": 2898,
      "Ġwest": 2899,
      "Ġestablish": 2900,
      "ĠPaul": 2901,
      "Ġpages": 2902,
      "incip": 2903,
      "Ġdeb": 2904,
      "aining": 2905,
      "ĠCarol": 2906,
      "cepted": 2907,
      "Ġstri": 2908,
      "iforn": 2909,
      "ĠSam": 2910,
      "BC": 2911,
      "ĠAtlant": 2912,
      "Ġfootball": 2913,
      "ĠCowboys": 2914,
      "ification": 2915,
      "Ġvictory": 2916,
      "ghts": 2917,
      "asons": 2918,
      "ĠMac": 2919,
      "Ġstudents": 2920,
      "Ġboard": 2921,
      "ĠMex": 2922,
      "minist": 2923,
      "uf": 2924,
      "Ġenc": 2925,
      "ections": 2926,
      "ĠCanada": 2927,
      "Ġlived": 2928,
      "ij": 2929,
      "ĠIr": 2930,
      "37": 2931,
      "Ġsignificant": 2932,
      "Ġdiff": 2933,
      "Ġviol": 2934,
      "Ġmonths": 2935,
      "point": 2936,
      "Ġresid": 2937,
      "ender": 2938,
      "ĠJe": 2939,
      "Ġforms": 2940,
      "itive": 2941,
      "Ġsaw": 2942,
      "elling": 2943,
      "ned": 2944,
      "Ġgoing": 2945,
      "American": 2946,
      "Ġsmaller": 2947,
      "Ġeconomic": 2948,
      "Ġ2003": 2949,
      "win": 2950,
      "ula": 2951,
      "ftime": 2952,
      "Ġlower": 2953,
      "Ġ32": 2954,
      "ĠRavens": 2955,
      "thers": 2956,
      "47": 2957,
      "ĠTom": 2958,
      "ĠBec": 2959,
      "Ġliter": 2960,
      "Ġthrew": 2961,
      "ĠMor": 2962,
      "Ġcells": 2963,
      "tor": 2964,
      "Ġbrought": 2965,
      "ĠAlex": 2966,
      "Ġhalftime": 2967,
      "ĠIsland": 2968,
      "ĠFrancis": 2969,
      "Ġoutside": 2970,
      "Ġmeaning": 2971,
      "Ġwind": 2972,
      "augh": 2973,
      "ĠMichael": 2974,
      "Ġengine": 2975,
      "ĠBro": 2976,
      "emb": 2977,
      "Ġpast": 2978,
      "35": 2979,
      "Ġinstead": 2980,
      "Ġterritory": 2981,
      "itect": 2982,
      "Ġidea": 2983,
      "ĠSmith": 2984,
      "Ġcolon": 2985,
      "ĠVikings": 2986,
      "ĠBlack": 2987,
      "ĠGiants": 2988,
      "yl": 2989,
      "Ġestim": 2990,
      "ĠSl": 2991,
      "useum": 2992,
      "ware": 2993,
      "ĠTurk": 2994,
      "ront": 2995,
      "ources": 2996,
      "Ġplayers": 2997,
      "ĠChargers": 2998,
      "ĠBen": 2999,
      "ĠManning": 3000,
      "Ġobs": 3001,
      "Ġarg": 3002,
      "ething": 3003,
      "Ġinj": 3004,
      "ĠItalian": 3005,
      "ĠCaliforn": 3006,
      "Ġlaws": 3007,
      "ĠPackers": 3008,
      "Ġ34": 3009,
      "Ġge": 3010,
      "Ġwid": 3011,
      "aps": 3012,
      "owski": 3013,
      "ĠParis": 3014,
      "Ġbattle": 3015,
      "Ġlet": 3016,
      "ĠCong": 3017,
      "ector": 3018,
      "Ġinside": 3019,
      "ĠGovern": 3020,
      "lymp": 3021,
      "ĠBel": 3022,
      "ilies": 3023,
      "ensity": 3024,
      "rain": 3025,
      "Ġtrade": 3026,
      "oles": 3027,
      "65": 3028,
      "Ġuses": 3029,
      "Ġpasses": 3030,
      "kn": 3031,
      "enced": 3032,
      "Ġcomes": 3033,
      "Ġimp": 3034,
      "Ġrain": 3035,
      "olph": 3036,
      "apt": 3037,
      "asion": 3038,
      "Ġblock": 3039,
      "Ġtemperature": 3040,
      "Ġcase": 3041,
      "Ġappear": 3042,
      "Ġbreak": 3043,
      "Ġassoc": 3044,
      "Ġnorm": 3045,
      "Ġbirth": 3046,
      "Ġfre": 3047,
      "Ġthroughout": 3048,
      "ĠOttoman": 3049,
      "âĢĿ": 3050,
      "ailing": 3051,
      "Ġquick": 3052,
      "ĠCentral": 3053,
      "ĠWind": 3054,
      "100": 3055,
      "icy": 3056,
      "icro": 3057,
      "ades": 3058,
      "Ġord": 3059,
      "Ġcampaign": 3060,
      "Ġoccup": 3061,
      "ecutive": 3062,
      "ĠChiefs": 3063,
      "Ġspread": 3064,
      "Ġplant": 3065,
      "Ġfounded": 3066,
      "Ġmiss": 3067,
      "Ġlik": 3068,
      "ĠSpain": 3069,
      "Ġnuc": 3070,
      "ĠCalifornia": 3071,
      "viron": 3072,
      "ĠCard": 3073,
      "partment": 3074,
      "ĠThat": 3075,
      "Ġleader": 3076,
      "ictor": 3077,
      "ĠMary": 3078,
      "rel": 3079,
      "ĠSchool": 3080,
      "hers": 3081,
      "Ġve": 3082,
      "ĠThomas": 3083,
      "Ġbo": 3084,
      "lor": 3085,
      "ĠKh": 3086,
      "On": 3087,
      "Ġrights": 3088,
      "Ġever": 3089,
      "Ġpossible": 3090,
      "Ġche": 3091,
      "Ġresearch": 3092,
      "ĠAmericans": 3093,
      "Ġflew": 3094,
      "Ġsit": 3095,
      "ĠRob": 3096,
      "ĠSu": 3097,
      "ĠStadium": 3098,
      "Ġproduction": 3099,
      "oul": 3100,
      "Ġancient": 3101,
      "Ġmarried": 3102,
      "Ġincrease": 3103,
      "Ġterms": 3104,
      "Ġabove": 3105,
      "uries": 3106,
      "Ġsquare": 3107,
      "ering": 3108,
      "Ġseven": 3109,
      "de": 3110,
      "Ġcareer": 3111,
      "Ġten": 3112,
      "que": 3113,
      "Ġlay": 3114,
      "Ġsomething": 3115,
      "Ġhimself": 3116,
      "ĠCor": 3117,
      "berg": 3118,
      "Ġinit": 3119,
      "igr": 3120,
      "Ġpull": 3121,
      "Ġdecl": 3122,
      "cle": 3123,
      "Ġcentral": 3124,
      "NA": 3125,
      "Ġcounty": 3126,
      "Ġelectric": 3127,
      "ĠRobert": 3128,
      "Ġeducation": 3129,
      "Ġsoldiers": 3130,
      "Ġcomputer": 3131,
      "Al": 3132,
      "Ġ[": 3133,
      "Ġ60": 3134,
      "Ġchurch": 3135,
      "Ġitself": 3136,
      "Ġavail": 3137,
      "Ġmarket": 3138,
      "ĠRedsk": 3139,
      "Ġdomin": 3140,
      "ĠAccording": 3141,
      "ym": 3142,
      "ĠTE": 3143,
      "Ġmovement": 3144,
      "ĠâĢľ": 3145,
      "ĠAnt": 3146,
      "Ã¶": 3147,
      "Ġremaining": 3148,
      "Ġ2002": 3149,
      "ĠOlymp": 3150,
      "%)": 3151,
      "Ġeat": 3152,
      "ĠRedskins": 3153,
      "ĠNet": 3154,
      "Ġnorthern": 3155,
      "Ġdivided": 3156,
      "ĠTexans": 3157,
      "Ġneg": 3158,
      "Ġcourt": 3159,
      "ĠStr": 3160,
      "ĠNot": 3161,
      "Ġinstr": 3162,
      "Ġpay": 3163,
      "Ġdone": 3164,
      "Ġtest": 3165,
      "Ġlarger": 3166,
      "asty": 3167,
      "ĠDis": 3168,
      "Ġriver": 3169,
      "cer": 3170,
      "Ġ1980": 3171,
      "ĠQueen": 3172,
      "Ġbehind": 3173,
      "cast": 3174,
      "Ġsouthern": 3175,
      "km": 3176,
      "Ġsound": 3177,
      "ĠMad": 3178,
      "oes": 3179,
      "bes": 3180,
      "Ġideas": 3181,
      "year": 3182,
      "Ġdyn": 3183,
      "sequ": 3184,
      "ĠBills": 3185,
      "ĠGeneral": 3186,
      "Ġbroad": 3187,
      "well": 3188,
      "Ġreligion": 3189,
      "ĠMal": 3190,
      "Ġpur": 3191,
      "erman": 3192,
      "ait": 3193,
      "ĠAg": 3194,
      "Ġleaders": 3195,
      "ĠDr": 3196,
      "Ġjob": 3197,
      "Ġcenter": 3198,
      "ĠRoyal": 3199,
      "Ġra": 3200,
      "Ġvon": 3201,
      "Ġago": 3202,
      "ĠMiddle": 3203,
      "ican": 3204,
      "Ġminutes": 3205,
      "Ġfunc": 3206,
      "Ġfire": 3207,
      "ygen": 3208,
      "Ġreached": 3209,
      "Ġevents": 3210,
      "ĠProt": 3211,
      "Ġcost": 3212,
      "ĠSwed": 3213,
      "ĠDie": 3214,
      "ha": 3215,
      "ĠOff": 3216,
      "Ġ36": 3217,
      "Ġversion": 3218,
      "itiz": 3219,
      "Ġtour": 3220,
      "ĠQu": 3221,
      "Ġsurv": 3222,
      "Ġ1970": 3223,
      "Ġpunt": 3224,
      "Ġ37": 3225,
      "bit": 3226,
      "Ġbooks": 3227,
      "ĠFlor": 3228,
      "ĠBo": 3229,
      "Ġcompan": 3230,
      "utions": 3231,
      "Ġpeace": 3232,
      "olk": 3233,
      "Ġpassed": 3234,
      "Ġsugg": 3235,
      "Ġstandard": 3236,
      "ibr": 3237,
      "Ġhot": 3238,
      "As": 3239,
      "ĠFrom": 3240,
      "Ġmanaged": 3241,
      "Ġattempt": 3242,
      "Ġgenerally": 3243,
      "ustry": 3244,
      "Ġconfl": 3245,
      "Ġâ": 3246,
      "Ġgrowth": 3247,
      "ĠCour": 3248,
      "chie": 3249,
      "abor": 3250,
      "ults": 3251,
      "99": 3252,
      "ĠIm": 3253,
      "ety": 3254,
      "omm": 3255,
      "struction": 3256,
      "Ġhun": 3257,
      "ky": 3258,
      "Ġrather": 3259,
      "Ġcensus": 3260,
      "Ġworking": 3261,
      "Ġtrailed": 3262,
      "Ġdisease": 3263,
      "ĠTreat": 3264,
      "Ġsays": 3265,
      "Ġshows": 3266,
      "ĠCounty": 3267,
      "Ġdiffic": 3268,
      "Ġbelieve": 3269,
      "48": 3270,
      "ria": 3271,
      "eds": 3272,
      "imately": 3273,
      "Ġmol": 3274,
      "Ġgod": 3275,
      "Ġphot": 3276,
      "Ġcommand": 3277,
      "Ġhydro": 3278,
      "ternet": 3279,
      "ios": 3280,
      "otion": 3281,
      "Ġtax": 3282,
      "ĠCarolina": 3283,
      "olit": 3284,
      "ĠAustri": 3285,
      "Ġclimate": 3286,
      "ĠFin": 3287,
      "Ġhumans": 3288,
      "ĠSaints": 3289,
      "oice": 3290,
      "itted": 3291,
      "ĠVictor": 3292,
      "Ġstory": 3293,
      "ĠWil": 3294,
      "uted": 3295,
      "Ġkey": 3296,
      "amples": 3297,
      "eck": 3298,
      "thing": 3299,
      "Ġdom": 3300,
      "ĠVal": 3301,
      "Ġbeginning": 3302,
      "ĠRelated": 3303,
      "Ġarchitect": 3304,
      "ĠHou": 3305,
      "33": 3306,
      "ĠRyan": 3307,
      "Ġvisit": 3308,
      "idence": 3309,
      "ĠSea": 3310,
      "Ġtitle": 3311,
      "Ġbar": 3312,
      "Ġrange": 3313,
      "ww": 3314,
      "iest": 3315,
      "ÃŃ": 3316,
      "Ġey": 3317,
      "Ġolder": 3318,
      "bour": 3319,
      "Ġport": 3320,
      "oud": 3321,
      "Ġcompared": 3322,
      "Ġamount": 3323,
      "ffer": 3324,
      "Ġconqu": 3325,
      "adel": 3326,
      "Ġstyle": 3327,
      "vin": 3328,
      "Ġhappened": 3329,
      "ications": 3330,
      "Ġdestroy": 3331,
      "Ġindependent": 3332,
      "Ġscientists": 3333,
      "Ġmor": 3334,
      "ĠRes": 3335,
      "Ġscoring": 3336,
      "Ġeventually": 3337,
      "vironment": 3338,
      "Ġgiving": 3339,
      "Ġprison": 3340,
      "ĠRec": 3341,
      "Ġpot": 3342,
      "Ġfish": 3343,
      "Ġregular": 3344,
      "ĠJones": 3345,
      "Ġ|": 3346,
      "Ġdrop": 3347,
      "Ġleading": 3348,
      "Ġlongest": 3349,
      "Ã³": 3350,
      "Ġavailable": 3351,
      "Ġconvers": 3352,
      "Äģ": 3353,
      "Ġfamilies": 3354,
      "field": 3355,
      "Ġinst": 3356,
      "Ġobject": 3357,
      "Ġprevent": 3358,
      "Ġice": 3359,
      "uge": 3360,
      "mph": 3361,
      "ump": 3362,
      "Ġsch": 3363,
      "Ġelected": 3364,
      "Ġunderstand": 3365,
      "atory": 3366,
      "ĠBecause": 3367,
      "agu": 3368,
      "Ġoffer": 3369,
      "ĠPoland": 3370,
      "Ġways": 3371,
      "Ġreach": 3372,
      "Ġentire": 3373,
      "ique": 3374,
      "Ġbelieved": 3375,
      "ĠLater": 3376,
      "ĠHouston": 3377,
      "edia": 3378,
      "Ġsoft": 3379,
      "Ġour": 3380,
      "ĠCouncil": 3381,
      "Ġdecided": 3382,
      "awks": 3383,
      "Ġfemale": 3384,
      "Ġdam": 3385,
      "ĠBalt": 3386,
      "urt": 3387,
      "ires": 3388,
      "ĠIts": 3389,
      "Ġask": 3390,
      "Ġreduc": 3391,
      "Ġremained": 3392,
      "reg": 3393,
      "Ġjoined": 3394,
      "Ar": 3395,
      "duce": 3396,
      "ĠRams": 3397,
      "Ġeconomy": 3398,
      "allas": 3399,
      "ĠScot": 3400,
      "ya": 3401,
      "ocratic": 3402,
      "bs": 3403,
      "Ġbuildings": 3404,
      "Ġelectr": 3405,
      "Ġtell": 3406,
      "ux": 3407,
      "ores": 3408,
      "Ġwife": 3409,
      "Ġfront": 3410,
      "rael": 3411,
      "Ġemploy": 3412,
      "Ġprincip": 3413,
      "ĠBest": 3414,
      "38": 3415,
      "Ġrespect": 3416,
      "Ġhere": 3417,
      "west": 3418,
      "Ġindustry": 3419,
      "There": 3420,
      "Ġcases": 3421,
      "olphins": 3422,
      "Ġannounced": 3423,
      "Ġopening": 3424,
      "etroit": 3425,
      "ĠAngel": 3426,
      "osing": 3427,
      "Ġdeep": 3428,
      "Ġpers": 3429,
      "Ġ2016": 3430,
      "ushing": 3431,
      "mon": 3432,
      "49": 3433,
      "Ġol": 3434,
      "Ġdig": 3435,
      "ĠSec": 3436,
      "Ġsurface": 3437,
      "play": 3438,
      "Ġdog": 3439,
      "Ġwriting": 3440,
      "ĠDon": 3441,
      "Ġ--": 3442,
      "ĠRevolution": 3443,
      "Ġmajority": 3444,
      "ĠWhile": 3445,
      "van": 3446,
      "onic": 3447,
      "Ġthous": 3448,
      "ability": 3449,
      "Ġelements": 3450,
      "ycl": 3451,
      "Ġcel": 3452,
      "andon": 3453,
      "ĠPac": 3454,
      "Ġzone": 3455,
      "//": 3456,
      "Ġquickly": 3457,
      "aun": 3458,
      "ĠAlthough": 3459,
      "ĠRichard": 3460,
      "ansas": 3461,
      "Ġislands": 3462,
      "irl": 3463,
      "Ġsett": 3464,
      "Ġsoon": 3465,
      "Ġrecorded": 3466,
      "Ġfav": 3467,
      "Ġfoc": 3468,
      "sych": 3469,
      "Ġpri": 3470,
      "Ġi": 3471,
      "Ġworked": 3472,
      "46": 3473,
      "Ġinfluence": 3474,
      "ĠMart": 3475,
      "Ġmatch": 3476,
      "Ġethn": 3477,
      "ota": 3478,
      "Ġdrug": 3479,
      "ĠLaw": 3480,
      "Ġnation": 3481,
      "ĠGrand": 3482,
      "Ġsuffer": 3483,
      "ĠDallas": 3484,
      "anks": 3485,
      "can": 3486,
      "Ġsil": 3487,
      "add": 3488,
      "Ġthrow": 3489,
      "Ġtight": 3490,
      "Ġ39": 3491,
      "Ġopened": 3492,
      "Ġmot": 3493,
      "Ġdefeated": 3494,
      "ĠBudd": 3495,
      "ĠSince": 3496,
      "ĠTitans": 3497,
      "\")": 3498,
      "Ġmach": 3499,
      "Ġsigned": 3500,
      "Ġoil": 3501,
      "Ġcat": 3502,
      "ĠVir": 3503,
      "ĠTe": 3504,
      "alcons": 3505,
      "hab": 3506,
      "ume": 3507,
      "estic": 3508,
      "Ġ44": 3509,
      "Ġdensity": 3510,
      "Ġadminist": 3511,
      "adelph": 3512,
      "ĠFrank": 3513,
      "Ġdiscovered": 3514,
      "ĠIrish": 3515,
      "ĠDetroit": 3516,
      "Ġ48": 3517,
      "Ġsat": 3518,
      "arily": 3519,
      "Ġ187": 3520,
      "ĠDiego": 3521,
      "ĠIII": 3522,
      "olled": 3523,
      "Ġmag": 3524,
      "Ġvir": 3525,
      "burgh": 3526,
      "Ġtraditional": 3527,
      "Ġearth": 3528,
      "ĠKn": 3529,
      "adelphia": 3530,
      "Ġfeel": 3531,
      "ĠCle": 3532,
      "ĠArt": 3533,
      "Ġuniversity": 3534,
      "Ġcovered": 3535,
      "ĠTwo": 3536,
      "Ġ41": 3537,
      "Ġeight": 3538,
      "ampionship": 3539,
      "Ġmolec": 3540,
      "Ġservices": 3541,
      "Ġmodel": 3542,
      "istry": 3543,
      "undred": 3544,
      "ĠRome": 3545,
      "ĠTer": 3546,
      "ĠÃ": 3547,
      "heast": 3548,
      "Ġprivate": 3549,
      "eless": 3550,
      "Ġancest": 3551,
      "ĠUK": 3552,
      "gg": 3553,
      "ĠParliament": 3554,
      "ulf": 3555,
      "Ġoppos": 3556,
      "Ġcross": 3557,
      "://": 3558,
      "acters": 3559,
      "ĠArmen": 3560,
      "Ġcompanies": 3561,
      "Ġcreate": 3562,
      "atives": 3563,
      "ĠJust": 3564,
      "Ġ1999": 3565,
      "Ġelection": 3566,
      "Ġupon": 3567,
      "Ġfig": 3568,
      "Ġwall": 3569,
      "Ġmanag": 3570,
      "Ġsettle": 3571,
      "riev": 3572,
      "ĠBrady": 3573,
      "36": 3574,
      "ceed": 3575,
      "ĠDolphins": 3576,
      "Ġarm": 3577,
      "Ġestimated": 3578,
      "ĠFalcons": 3579,
      "ĠDu": 3580,
      "ledge": 3581,
      "ĠDar": 3582,
      "ze": 3583,
      "iment": 3584,
      "Ġhouseholds": 3585,
      "Ġmetal": 3586,
      "ĠPit": 3587,
      "Ġoxygen": 3588,
      "perial": 3589,
      "Ġmatter": 3590,
      "Ġbase": 3591,
      "Ġabs": 3592,
      "ĠJews": 3593,
      "ules": 3594,
      "ĠSim": 3595,
      "ĠCommun": 3596,
      "ĠArch": 3597,
      "ĠThen": 3598,
      "ĠPress": 3599,
      "Ġforeign": 3600,
      "Ġborder": 3601,
      "ville": 3602,
      "ivision": 3603,
      "95": 3604,
      "Ġrival": 3605,
      "Ġintroduced": 3606,
      "ĠDev": 3607,
      "reme": 3608,
      "rick": 3609,
      "Ġneigh": 3610,
      "Ġ80": 3611,
      "ĠPolish": 3612,
      "Ġgold": 3613,
      "wood": 3614,
      "ĠPope": 3615,
      "Ġdescribed": 3616,
      "edy": 3617,
      "ixed": 3618,
      "Ġproblem": 3619,
      "Ġimproved": 3620,
      "Ġradio": 3621,
      "aughter": 3622,
      "ĠGen": 3623,
      "ram": 3624,
      "echan": 3625,
      "Ġren": 3626,
      "Ġmagn": 3627,
      "ĠKorea": 3628,
      "Ġfrequ": 3629,
      "Ġsun": 3630,
      "ords": 3631,
      "Ġ47": 3632,
      "uese": 3633,
      "Ġmer": 3634,
      "ĠSal": 3635,
      "Ġregions": 3636,
      "Ġturned": 3637,
      "Ġtold": 3638,
      "ĠAward": 3639,
      "ĠTreaty": 3640,
      "ĠPhiladelphia": 3641,
      "Ġreplaced": 3642,
      "Ġvot": 3643,
      "ĠStud": 3644,
      "ĠSaint": 3645,
      "âĢĶâĢĶ": 3646,
      "Ġ42": 3647,
      "sen": 3648,
      "Ġreported": 3649,
      "Ġvideo": 3650,
      "Ġprogram": 3651,
      "Ġwestern": 3652,
      "hood": 3653,
      "ror": 3654,
      "Ġnames": 3655,
      "ĠNFL": 3656,
      "hi": 3657,
      "Ġder": 3658,
      "ĠJason": 3659,
      "Ġoffice": 3660,
      "Ġdeg": 3661,
      "Ġrace": 3662,
      "Ġheart": 3663,
      "hol": 3664,
      "66": 3665,
      "oping": 3666,
      "war": 3667,
      "ready": 3668,
      "Ġtaking": 3669,
      "umble": 3670,
      "ĠEastern": 3671,
      "ĠCourt": 3672,
      "Ġens": 3673,
      "Ġwood": 3674,
      "Ġwoman": 3675,
      "ĠAFC": 3676,
      "Ġkept": 3677,
      "Ġcomplex": 3678,
      "iff": 3679,
      "ĠHigh": 3680,
      "&#": 3681,
      "Ġrelease": 3682,
      "Ġruled": 3683,
      "After": 3684,
      "Ġkm": 3685,
      "board": 3686,
      "Ġcenturies": 3687,
      "known": 3688,
      "Ġsongs": 3689,
      "uman": 3690,
      "Ġwhose": 3691,
      "gest": 3692,
      "Ġill": 3693,
      "Ġ43": 3694,
      "ĠAnother": 3695,
      "ties": 3696,
      "Ġ65": 3697,
      "Ġreason": 3698,
      "Ġcommunity": 3699,
      "ĠSystem": 3700,
      "oph": 3701,
      "Ġcaptured": 3702,
      "ĠCollege": 3703,
      "oid": 3704,
      "isl": 3705,
      "Ġlo": 3706,
      "Ġ1960": 3707,
      "Ġfund": 3708,
      "Ġrac": 3709,
      "ĠGold": 3710,
      "medi": 3711,
      "Ġbad": 3712,
      "Ġcitiz": 3713,
      "Ġrelated": 3714,
      "aded": 3715,
      "obal": 3716,
      "rieved": 3717,
      "Ġcreat": 3718,
      "elled": 3719,
      "rich": 3720,
      "aled": 3721,
      "Ġpoor": 3722,
      "ĠScotland": 3723,
      "ĠIsrael": 3724,
      "ĠCap": 3725,
      "Ġconduc": 3726,
      "ving": 3727,
      "istics": 3728,
      "ĠRh": 3729,
      "Ġbirds": 3730,
      "Ġminor": 3731,
      "Ġrank": 3732,
      "Ġslow": 3733,
      "ĠSuper": 3734,
      "ĠHall": 3735,
      "let": 3736,
      "Ġnearly": 3737,
      "ĠâĢĶ": 3738,
      "Coming": 3739,
      "olar": 3740,
      "lis": 3741,
      "Ġcontrib": 3742,
      "isions": 3743,
      "Ġmovies": 3744,
      "ĠDay": 3745,
      "ĠOld": 3746,
      "Ġincreasing": 3747,
      "ĠMinister": 3748,
      "Ġcatch": 3749,
      "Ġcharacters": 3750,
      "aval": 3751,
      "Ġpolice": 3752,
      "ĠSeah": 3753,
      "action": 3754,
      "iami": 3755,
      "500": 3756,
      "ixt": 3757,
      "ĠHind": 3758,
      "merc": 3759,
      "Ġdifficult": 3760,
      "67": 3761,
      "ĠSo": 3762,
      "Ġsomeone": 3763,
      "anger": 3764,
      "wide": 3765,
      "Ġinvent": 3766,
      "Ġprotect": 3767,
      "Ġrelationship": 3768,
      "Ġ1998": 3769,
      "Ġwinning": 3770,
      "Ġgreen": 3771,
      "ĠJer": 3772,
      "icial": 3773,
      "ĠAv": 3774,
      "Ġrespons": 3775,
      "ĠTheir": 3776,
      "Ġindependence": 3777,
      "ĠCardinals": 3778,
      "Ġmiddle": 3779,
      "64": 3780,
      "ises": 3781,
      "Ġanal": 3782,
      "Ġwhole": 3783,
      "Ġ188": 3784,
      "Ġtransl": 3785,
      "Ġalready": 3786,
      "%),": 3787,
      "Ġfederal": 3788,
      "ida": 3789,
      "ĠRod": 3790,
      "34": 3791,
      "Ġobserv": 3792,
      "ĠGreece": 3793,
      "Ġyour": 3794,
      "Ġspeed": 3795,
      "Ġgrad": 3796,
      "ĠWindows": 3797,
      "ĠMike": 3798,
      "Ġfinally": 3799,
      "Ġcelebr": 3800,
      "ĠÐ": 3801,
      "ĠJes": 3802,
      "It": 3803,
      "uals": 3804,
      "Ġemb": 3805,
      "ĠSat": 3806,
      "oved": 3807,
      "Ġplaying": 3808,
      "light": 3809,
      "55": 3810,
      "Ġnailed": 3811,
      "Ġseparate": 3812,
      "ĠPers": 3813,
      "ĠTy": 3814,
      "berger": 3815,
      "Ġbiggest": 3816,
      "olf": 3817,
      "ify": 3818,
      "Ġcarbon": 3819,
      "Ġmonth": 3820,
      "ĠSen": 3821,
      "Ġweap": 3822,
      "ati": 3823,
      "urity": 3824,
      "Ġmale": 3825,
      "ĠSeahawks": 3826,
      "Ġconversion": 3827,
      "ĠWilliams": 3828,
      "aria": 3829,
      "ari": 3830,
      "Ġgre": 3831,
      "Ġlosing": 3832,
      "Ġethnic": 3833,
      "pring": 3834,
      "Ġreco": 3835,
      "Ġmonarch": 3836,
      "ancial": 3837,
      "39": 3838,
      "ounded": 3839,
      "Ġdou": 3840,
      "Ġvill": 3841,
      "with": 3842,
      "ĠPlay": 3843,
      "icle": 3844,
      "Ġden": 3845,
      "Ġoccurr": 3846,
      "Ġthin": 3847,
      "icip": 3848,
      "ĠDel": 3849,
      "ĠCongress": 3850,
      "Ġfumble": 3851,
      "ners": 3852,
      "ĠAsian": 3853,
      "Ġsel": 3854,
      "ĠFort": 3855,
      "ĠSant": 3856,
      "Ġemer": 3857,
      "69": 3858,
      "Ġenvironment": 3859,
      "Ġclear": 3860,
      "Ġfriends": 3861,
      "Ġmaintain": 3862,
      "Ġachie": 3863,
      "Ġmiles": 3864,
      "ĠEmperor": 3865,
      "Ġsupported": 3866,
      "He": 3867,
      "ĠIran": 3868,
      "Ġ1991": 3869,
      "Ġserved": 3870,
      "Ġearlier": 3871,
      "Ġstrugg": 3872,
      "aut": 3873,
      "Ġsource": 3874,
      "rove": 3875,
      "istance": 3876,
      "Ġcast": 3877,
      "ĠGal": 3878,
      "Ġrecent": 3879,
      "craft": 3880,
      "ĠPortuguese": 3881,
      "ream": 3882,
      "Ġinvest": 3883,
      "Ġ(\"": 3884,
      "Ġattr": 3885,
      "Ġfif": 3886,
      "ken": 3887,
      "FA": 3888,
      "ĠPacific": 3889,
      "band": 3890,
      "Ġ#": 3891,
      "Ġdial": 3892,
      "mar": 3893,
      "airs": 3894,
      "Ġhundred": 3895,
      "ĠCast": 3896,
      "ĠMod": 3897,
      "HF": 3898,
      "ollowing": 3899,
      "Ġstra": 3900,
      "stein": 3901,
      "Ġmainly": 3902,
      "ilities": 3903,
      "ĠWars": 3904,
      "itch": 3905,
      "Ġseem": 3906,
      "Ġoldest": 3907,
      "Ġ1997": 3908,
      "erve": 3909,
      "Ġrules": 3910,
      "Ġmultip": 3911,
      "ming": 3912,
      "ingu": 3913,
      "ĠKansas": 3914,
      "oor": 3915,
      "ĠJewish": 3916,
      "iences": 3917,
      "ecess": 3918,
      "vention": 3919,
      "Ġlegal": 3920,
      "Ġsafety": 3921,
      "Ġfast": 3922,
      "ĠÂ°": 3923,
      "ourn": 3924,
      "Ġfarm": 3925,
      "aph": 3926,
      "ĠScott": 3927,
      "Ġver": 3928,
      "Ġpaper": 3929,
      "59": 3930,
      "68": 3931,
      "isms": 3932,
      "63": 3933,
      "ĠMiami": 3934,
      "ĠNorthern": 3935,
      "Ġself": 3936,
      "Ġconnected": 3937,
      "Ġrail": 3938,
      "ĠPak": 3939,
      "agan": 3940,
      "inct": 3941,
      "Ġcultural": 3942,
      "lines": 3943,
      "ĠCub": 3944,
      "emic": 3945,
      "Ġpressure": 3946,
      "ĠFil": 3947,
      "ufact": 3948,
      "Ġcarry": 3949,
      "oo": 3950,
      "Ġcommonly": 3951,
      "ali": 3952,
      "Ġhours": 3953,
      "ĠMexico": 3954,
      "aven": 3955,
      "ĠNFC": 3956,
      "Ġdynasty": 3957,
      "Ġplanet": 3958,
      "owl": 3959,
      "Ġdeterm": 3960,
      "ĠBook": 3961,
      "Ĺı": 3962,
      "ĠCenter": 3963,
      "ĠFrancisco": 3964,
      "Ġaction": 3965,
      "anned": 3966,
      "ĠPe": 3967,
      "Ġregard": 3968,
      "Ġsack": 3969,
      "Ġaccess": 3970,
      "Ġaud": 3971,
      "ĠYou": 3972,
      "Ġsite": 3973,
      "ao": 3974,
      "ĠTod": 3975,
      "Ġeastern": 3976,
      "ulture": 3977,
      "ĠTel": 3978,
      "icated": 3979,
      "inary": 3980,
      "anced": 3981,
      "ulation": 3982,
      "Ġsexual": 3983,
      "ĠPhilip": 3984,
      "Ġfought": 3985,
      "Ġparticularly": 3986,
      "Ġproduce": 3987,
      "Ġ/": 3988,
      "57": 3989,
      "Ġburn": 3990,
      "ĠOl": 3991,
      "Ġwhether": 3992,
      "Ġjud": 3993,
      "Ġgrew": 3994,
      "Ġconsist": 3995,
      "Ġdistrib": 3996,
      "ternal": 3997,
      "icine": 3998,
      "Ġblue": 3999,
      "ĠMos": 4000,
      "ĠMu": 4001,
      "Ġvac": 4002,
      "Ġspoken": 4003,
      "ĠCat": 4004,
      "Ġtied": 4005,
      "what": 4006,
      "Ġtransport": 4007,
      "Ġ46": 4008,
      "imore": 4009,
      "Ġprovince": 4010,
      "Did": 4011,
      "Ġmedia": 4012,
      "Ġbrother": 4013,
      "Ġstructure": 4014,
      "Is": 4015,
      "ĠFootball": 4016,
      "mission": 4017,
      "Ġyes": 4018,
      "Ġadop": 4019,
      "ka": 4020,
      "ĠLos": 4021,
      "amin": 4022,
      "Ġmechan": 4023,
      "Ġbelow": 4024,
      "ĠNap": 4025,
      "iny": 4026,
      "ĠField": 4027,
      "Ġpict": 4028,
      "Ġoffense": 4029,
      "ĠKar": 4030,
      "Ġ1996": 4031,
      "Ġcal": 4032,
      "rivers": 4033,
      "44": 4034,
      "Ġthreat": 4035,
      "Ġstraight": 4036,
      "ĠSecond": 4037,
      "Ġ189": 4038,
      "Ġbring": 4039,
      "Ġdead": 4040,
      "remier": 4041,
      "Can": 4042,
      "ĠNations": 4043,
      "hester": 4044,
      "eding": 4045,
      "07": 4046,
      "ĠMong": 4047,
      "ĠPrince": 4048,
      "Ġsociety": 4049,
      "ension": 4050,
      "ris": 4051,
      "Ġstation": 4052,
      "ground": 4053,
      "ola": 4054,
      "ĠStre": 4055,
      "Ġrap": 4056,
      "Ġdraw": 4057,
      "ĠMr": 4058,
      "ivity": 4059,
      "reement": 4060,
      "uing": 4061,
      "Ġhor": 4062,
      "âĹı": 4063,
      "ĠEv": 4064,
      "Ġstarting": 4065,
      "Ġlines": 4066,
      "ximately": 4067,
      "raham": 4068,
      "ĠCivil": 4069,
      "Ġthr": 4070,
      "Ġelectron": 4071,
      "Ġhon": 4072,
      "ĠOver": 4073,
      "Ġnetwork": 4074,
      "Ġlives": 4075,
      "Ġships": 4076,
      "ulg": 4077,
      "Ġheavy": 4078,
      "Ġliqu": 4079,
      "ĠCompany": 4080,
      "Ġhappen": 4081,
      "Ġcombined": 4082,
      "essional": 4083,
      "Ġmill": 4084,
      "Ġtakes": 4085,
      "ĠEarly": 4086,
      "asc": 4087,
      "ĠAfterwards": 4088,
      "Ġleague": 4089,
      "ĠMont": 4090,
      "Ġmoving": 4091,
      "Ġofficially": 4092,
      "Ġrook": 4093,
      "which": 4094,
      "Ġesc": 4095,
      "produc": 4096,
      "omic": 4097,
      "ĠTenn": 4098,
      "ĠNether": 4099,
      "ube": 4100,
      "uation": 4101,
      "abb": 4102,
      "Ġappeared": 4103,
      ".[": 4104,
      "Ġconflict": 4105,
      "Ġtrue": 4106,
      "ĠBill": 4107,
      "Ġclosed": 4108,
      "mark": 4109,
      "ĠHam": 4110,
      "cel": 4111,
      "lisberger": 4112,
      "ĠHung": 4113,
      "Ġtowards": 4114,
      "mercial": 4115,
      "ĠPanthers": 4116,
      "Ġshar": 4117,
      "hib": 4118,
      "efore": 4119,
      "ĠGeorg": 4120,
      "ping": 4121,
      "ĠPakistan": 4122,
      "ĠMark": 4123,
      "Fr": 4124,
      "ĠSing": 4125,
      "ethlisberger": 4126,
      "Ġprimary": 4127,
      "ĠBaltimore": 4128,
      "ĠRoethlisberger": 4129,
      "Ġincome": 4130,
      "Ġtree": 4131,
      "ĠFe": 4132,
      "ĠProtest": 4133,
      "ĠChris": 4134,
      "Ġscientific": 4135,
      "Ġface": 4136,
      "ĠJesus": 4137,
      "eks": 4138,
      "ĠVen": 4139,
      "58": 4140,
      "ttps": 4141,
      "Ġaward": 4142,
      "ta": 4143,
      "Ġcaught": 4144,
      "Ġ1995": 4145,
      "Ġnature": 4146,
      "ĠHill": 4147,
      "riage": 4148,
      "game": 4149,
      "Ġlog": 4150,
      "Ġdesigned": 4151,
      "Ġcy": 4152,
      "enth": 4153,
      "ĠAcad": 4154,
      "ustrial": 4155,
      "iding": 4156,
      "Ġhydrogen": 4157,
      "ĠOcean": 4158,
      "osphere": 4159,
      "ĠAlso": 4160,
      "iance": 4161,
      "Ġworkers": 4162,
      "ograph": 4163,
      "61": 4164,
      "Ġcitizens": 4165,
      "ĠInternet": 4166,
      "ĠTim": 4167,
      "Ġevidence": 4168,
      "Ġfunction": 4169,
      "ero": 4170,
      "Ġang": 4171,
      ");": 4172,
      "ament": 4173,
      "Ġfriend": 4174,
      "Ġrookie": 4175,
      "Ġtie": 4176,
      "ĠMuseum": 4177,
      "Ġrelat": 4178,
      "This": 4179,
      "Ġmedical": 4180,
      "Ġanimal": 4181,
      "Ġlearn": 4182,
      "Ġnarr": 4183,
      "42": 4184,
      "alty": 4185,
      "Ġnailing": 4186,
      "ĠBush": 4187,
      "Ġheat": 4188,
      "Ġprob": 4189,
      "ĠCy": 4190,
      "olitan": 4191,
      "ĠMcC": 4192,
      "Ġanswered": 4193,
      "AT": 4194,
      "era": 4195,
      "Ġ70": 4196,
      "ĠVictoria": 4197,
      "Ġgrand": 4198,
      "Ġbacter": 4199,
      "Ġmanufact": 4200,
      "Ġinterest": 4201,
      "Ġpersonal": 4202,
      "olis": 4203,
      "Ġaccur": 4204,
      "ails": 4205,
      "Ġagreed": 4206,
      "ĠCamb": 4207,
      "Ġinvasion": 4208,
      "Ġrushing": 4209,
      "Ġfeatures": 4210,
      "Ġsummer": 4211,
      "31": 4212,
      "Ġmom": 4213,
      "ĠRetrieved": 4214,
      "pose": 4215,
      "Ġstatus": 4216,
      "ĠEdward": 4217,
      "Ġknowledge": 4218,
      "citation": 4219,
      "unk": 4220,
      "ĠTower": 4221,
      "Ġdeal": 4222,
      "Ġwear": 4223,
      "NN": 4224,
      "78": 4225,
      "Ġkingdom": 4226,
      "azil": 4227,
      "ĠTrans": 4228,
      "Ġdeclared": 4229,
      "urban": 4230,
      "ibet": 4231,
      "pon": 4232,
      "Ġdaughter": 4233,
      "uran": 4234,
      "olved": 4235,
      "opes": 4236,
      "ĠÂ": 4237,
      "Ġwrite": 4238,
      "Ġexpand": 4239,
      "Ġbehav": 4240,
      "ĠTexas": 4241,
      "Ġcomput": 4242,
      "Ġasked": 4243,
      "ĠSeattle": 4244,
      "Ġ90": 4245,
      "br": 4246,
      "ecting": 4247,
      "Ġsuper": 4248,
      "Ġkinds": 4249,
      "Ġconstitution": 4250,
      "ils": 4251,
      "Ġ75": 4252,
      "stitute": 4253,
      "Ġ1994": 4254,
      "Ġwhom": 4255,
      "Ġfinished": 4256,
      "ĠMusic": 4257,
      "Ġcauses": 4258,
      "ĠNetherlands": 4259,
      "Ġshown": 4260,
      "ĠMet": 4261,
      "Ġpowerful": 4262,
      "ĠLong": 4263,
      "Ġpick": 4264,
      "Ġspir": 4265,
      "aker": 4266,
      "Ġpercentage": 4267,
      "ĠIslamic": 4268,
      "ĠBell": 4269,
      "ĠAngeles": 4270,
      "nes": 4271,
      "Ġcomplete": 4272,
      "32": 4273,
      "tsburgh": 4274,
      "ĠPruss": 4275,
      "Ġenter": 4276,
      "Ġtowns": 4277,
      "abeth": 4278,
      "ĠGar": 4279,
      "ĠInter": 4280,
      "eful": 4281,
      "ĠJoseph": 4282,
      "Ġintercepted": 4283,
      "01": 4284,
      "Ġsyn": 4285,
      "Ġindividual": 4286,
      "ĠHan": 4287,
      "Ġdeaths": 4288,
      "Ġdestroyed": 4289,
      "ban": 4290,
      "Ġinhab": 4291,
      "org": 4292,
      "Ġactive": 4293,
      "Ġobjects": 4294,
      "cient": 4295,
      "Ġassociated": 4296,
      "Ġwr": 4297,
      "Ġbomb": 4298,
      "ĠTV": 4299,
      "Ġshowed": 4300,
      "Ġevolution": 4301,
      "och": 4302,
      "Ġbecoming": 4303,
      "Ġrequired": 4304,
      "ĠBuddh": 4305,
      "ellow": 4306,
      "SA": 4307,
      "Ġshare": 4308,
      "Ġentered": 4309,
      "82": 4310,
      "Ġparents": 4311,
      "Ġparticip": 4312,
      "ada": 4313,
      "rived": 4314,
      "Ġconstruction": 4315,
      "dr": 4316,
      "essee": 4317,
      "ĠPittsburgh": 4318,
      "ĠDivision": 4319,
      "Ġreturning": 4320,
      "Ġwidely": 4321,
      "300": 4322,
      "urches": 4323,
      "Ġspecific": 4324,
      "la": 4325,
      "Ġteach": 4326,
      "Ġoriginally": 4327,
      "eces": 4328,
      ".)": 4329,
      "75": 4330,
      "Ġmeant": 4331,
      "Ġreferred": 4332,
      "Ġphysical": 4333,
      "osa": 4334,
      "ĠMass": 4335,
      "za": 4336,
      "krain": 4337,
      "Â²": 4338,
      "):": 4339,
      "ĠWall": 4340,
      "Ġcritic": 4341,
      "astic": 4342,
      "Ġsimple": 4343,
      "nam": 4344,
      "rig": 4345,
      "Ġweeks": 4346,
      "etry": 4347,
      "ĠIslands": 4348,
      "ĠMel": 4349,
      "ĠCamp": 4350,
      "iant": 4351,
      "Ġdiss": 4352,
      "itor": 4353,
      "Ġnuclear": 4354,
      "Ġgun": 4355,
      "Ġlength": 4356,
      "agon": 4357,
      "Ġegg": 4358,
      "Ġinvolved": 4359,
      "gers": 4360,
      "Ġnine": 4361,
      "ĠVirgin": 4362,
      "hew": 4363,
      "Ġcle": 4364,
      "kowski": 4365,
      "etters": 4366,
      "Ġbelong": 4367,
      "ĠDisney": 4368,
      "ĠMy": 4369,
      "unities": 4370,
      "ĠFer": 4371,
      "unched": 4372,
      "Ġstudies": 4373,
      "Ġpolicy": 4374,
      "ĠJeff": 4375,
      "aud": 4376,
      "Ġlevels": 4377,
      "ĠTennessee": 4378,
      "Ġproducts": 4379,
      "uy": 4380,
      "ĠPeter": 4381,
      "ĠEach": 4382,
      "Ġstars": 4383,
      "isk": 4384,
      "anch": 4385,
      "Ġwhy": 4386,
      "Ġpowers": 4387,
      "overs": 4388,
      "Ġleave": 4389,
      "ĠNaz": 4390,
      "ĠOx": 4391,
      "ĠAssoc": 4392,
      "62": 4393,
      "pen": 4394,
      "usion": 4395,
      "Ġrivers": 4396,
      "Ġdrove": 4397,
      "unicip": 4398,
      "Ġdirectly": 4399,
      "orks": 4400,
      "ĠMil": 4401,
      "ushed": 4402,
      "uses": 4403,
      "ĠHy": 4404,
      "izabeth": 4405,
      "Ġhar": 4406,
      "ĠMiss": 4407,
      "Ġnov": 4408,
      "Ġterritories": 4409,
      "Ġroy": 4410,
      "Ġaircraft": 4411,
      "Ġimmedi": 4412,
      "ĠGame": 4413,
      "Ġclock": 4414,
      "Ġraces": 4415,
      "Ġphilosophy": 4416,
      "ĠZe": 4417,
      "igned": 4418,
      "Ġcho": 4419,
      "odes": 4420,
      "Ġlikely": 4421,
      "ĠEven": 4422,
      "Ġconditions": 4423,
      "ru": 4424,
      "ithuan": 4425,
      "Ġ1950": 4426,
      "tress": 4427,
      "Ġconsider": 4428,
      "Ġfighting": 4429,
      "inces": 4430,
      "ĠVol": 4431,
      "ĠDist": 4432,
      "Ġcust": 4433,
      "ER": 4434,
      "ĠJul": 4435,
      "Ġdark": 4436,
      "Why": 4437,
      "born": 4438,
      "ĠUnder": 4439,
      "Ġ500": 4440,
      "%,": 4441,
      "Ġtreaty": 4442,
      "ĠStreet": 4443,
      "Ġtry": 4444,
      "ĠViet": 4445,
      "lud": 4446,
      "ID": 4447,
      "Ġcontain": 4448,
      "Ġmales": 4449,
      "ĠAk": 4450,
      "ĠJoe": 4451,
      "Ġlimited": 4452,
      "bre": 4453,
      "Ġ1992": 4454,
      "Ġera": 4455,
      "based": 4456,
      "ĠRivers": 4457,
      "odox": 4458,
      "Ġsports": 4459,
      "Ġdefeat": 4460,
      "Ġcover": 4461,
      "kins": 4462,
      "ua": 4463,
      "ift": 4464,
      "rizona": 4465,
      "ĠFre": 4466,
      "urg": 4467,
      "Ġquant": 4468,
      "ĠFam": 4469,
      "ĠNorm": 4470,
      "Ġelement": 4471,
      "ĠJac": 4472,
      "ĠTibet": 4473,
      "ĠBet": 4474,
      "ĠHow": 4475,
      "ĠBoth": 4476,
      "ĠCanadian": 4477,
      "ĠAustria": 4478,
      "cript": 4479,
      "Ġrally": 4480,
      "Ġfinancial": 4481,
      "ini": 4482,
      "Ġsle": 4483,
      "ounts": 4484,
      "ĠAz": 4485,
      "ĠJay": 4486,
      "ghan": 4487,
      "ĠCommon": 4488,
      "ective": 4489,
      "Ġgoes": 4490,
      "onse": 4491,
      "ĠConf": 4492,
      "Ġsem": 4493,
      "Ġcand": 4494,
      "iano": 4495,
      "Ġgirl": 4496,
      "ĠĠĠĠĠĠĠĠ": 4497,
      "Ġbrain": 4498,
      "Ġspl": 4499,
      "Ġatoms": 4500,
      "Ġnob": 4501,
      "odies": 4502,
      "Ġelev": 4503,
      "ĠAtlantic": 4504,
      "oe": 4505,
      "Ġletter": 4506,
      "Ġhus": 4507,
      "Ġ300": 4508,
      "Ġimprove": 4509,
      "ĠTor": 4510,
      "alo": 4511,
      "41": 4512,
      "raq": 4513,
      "Ġepis": 4514,
      "mas": 4515,
      "ĠNight": 4516,
      "Ġgrant": 4517,
      "ĠMore": 4518,
      "Ġmarked": 4519,
      "09": 4520,
      "ĠFlorida": 4521,
      "Ġcontains": 4522,
      "stronom": 4523,
      "Ġannual": 4524,
      "ĠBrazil": 4525,
      "Ġperformance": 4526,
      "ters": 4527,
      "Ġfemales": 4528,
      "ĠUN": 4529,
      "87": 4530,
      "ĠAnton": 4531,
      "Ġcommercial": 4532,
      "ĠUnivers": 4533,
      "olars": 4534,
      "Ġatm": 4535,
      "Ġfeet": 4536,
      "ĠCut": 4537,
      "Ġapproximately": 4538,
      "ĠPrime": 4539,
      "ĠArizona": 4540,
      "ĠSunday": 4541,
      "no": 4542,
      "century": 4543,
      "Ġreplied": 4544,
      "Ġstayed": 4545,
      "Ġarchitecture": 4546,
      "iger": 4547,
      "itte": 4548,
      "ĠUs": 4549,
      "ĠAD": 4550,
      "Ġstreak": 4551,
      "ES": 4552,
      "wan": 4553,
      "who": 4554,
      "Ġarrived": 4555,
      "ibrary": 4556,
      "ĠMartin": 4557,
      "ĠBre": 4558,
      "oper": 4559,
      "Ġ2017": 4560,
      "Ġ1989": 4561,
      "ibility": 4562,
      "Ġplanets": 4563,
      "https": 4564,
      "onia": 4565,
      "tic": 4566,
      "At": 4567,
      "gal": 4568,
      "atures": 4569,
      "asts": 4570,
      "Ġnative": 4571,
      "ĠUkrain": 4572,
      "Ġintell": 4573,
      "icians": 4574,
      "160": 4575,
      "ropolitan": 4576,
      "Ġmur": 4577,
      "Ġuniverse": 4578,
      "izations": 4579,
      "Ġhom": 4580,
      "thodox": 4581,
      "ili": 4582,
      "ĠDenver": 4583,
      "arters": 4584,
      "ny": 4585,
      "Ġbroke": 4586,
      "Ġanti": 4587,
      "Ġthus": 4588,
      "Ġrevolution": 4589,
      "Ġnormal": 4590,
      "Ġ64": 4591,
      "itar": 4592,
      "ĠElizabeth": 4593,
      "Ġglass": 4594,
      "Ġrecovered": 4595,
      "Ġben": 4596,
      "Ġtechnology": 4597,
      "Ġsoftware": 4598,
      "Ġsubsequ": 4599,
      "ĠEr": 4600,
      "Ġdistance": 4601,
      "Ġcold": 4602,
      "ĠLord": 4603,
      "Ġcounter": 4604,
      "irm": 4605,
      "ospital": 4606,
      "Ġvote": 4607,
      "aped": 4608,
      "...": 4609,
      "Ġcoin": 4610,
      "ĠMinn": 4611,
      "Ġcontrolled": 4612,
      "ĠOak": 4613,
      "Ġtraveled": 4614,
      "Ġocean": 4615,
      "Ġflag": 4616,
      "Ġremains": 4617,
      "Ġsal": 4618,
      "Ġprepar": 4619,
      "enna": 4620,
      "ĠJosh": 4621,
      "Ġmaterials": 4622,
      "Ġlaunched": 4623,
      "irection": 4624,
      "Ġcharge": 4625,
      "Ġdomestic": 4626,
      "Ġalone": 4627,
      "ishop": 4628,
      "Ġsources": 4629,
      "Ġshape": 4630,
      "Ġattacked": 4631,
      "teen": 4632,
      "Ġparties": 4633,
      "bl": 4634,
      "me": 4635,
      "Ġweapons": 4636,
      "izing": 4637,
      "Ġpractice": 4638,
      "Ġoccurred": 4639,
      "Ġgrowing": 4640,
      "ancy": 4641,
      "Ġskin": 4642,
      "ita": 4643,
      "ĠMicro": 4644,
      "uth": 4645,
      "uz": 4646,
      "ĠIraq": 4647,
      "Ġlack": 4648,
      "Ġcrim": 4649,
      "Ġpsych": 4650,
      "ĠDemocratic": 4651,
      "DP": 4652,
      "ĠDes": 4653,
      "Ġhusband": 4654,
      "ĠKy": 4655,
      "itzer": 4656,
      "Ġtypically": 4657,
      "ĠWarner": 4658,
      "unch": 4659,
      "ĠRock": 4660,
      "reedom": 4661,
      "Ġresponse": 4662,
      "wik": 4663,
      "Ġcompounds": 4664,
      "Ġcentre": 4665,
      "Ġcorn": 4666,
      "Ġconver": 4667,
      "Ġthing": 4668,
      "Ġlegisl": 4669,
      "Ġstruck": 4670,
      "Ġbasic": 4671,
      "Ġpal": 4672,
      "soft": 4673,
      "inent": 4674,
      "umn": 4675,
      "Ġresidents": 4676,
      "Ġprograms": 4677,
      "ĠNative": 4678,
      "89": 4679,
      "ca": 4680,
      "Ġplaced": 4681,
      "Ġagric": 4682,
      "Ġattacks": 4683,
      "85": 4684,
      "Ġconv": 4685,
      "Ġreform": 4686,
      "usp": 4687,
      "Ġ||": 4688,
      "ĠGreg": 4689,
      "ournal": 4690,
      "150": 4691,
      "250": 4692,
      "Ġstep": 4693,
      "icks": 4694,
      "ĠGovernment": 4695,
      "Ġacqu": 4696,
      "lav": 4697,
      "ĠBrandon": 4698,
      "Ġrecords": 4699,
      "Ġattempted": 4700,
      "43": 4701,
      "Ġgrav": 4702,
      "Ġperformed": 4703,
      "Ġtrees": 4704,
      "Ġtre": 4705,
      "ĠHans": 4706,
      "ĠPen": 4707,
      "Ġmention": 4708,
      "Ġelse": 4709,
      "Ġresulted": 4710,
      "Ġorganization": 4711,
      "Ġmast": 4712,
      "Ġstage": 4713,
      "Ġnews": 4714,
      "ĠYes": 4715,
      "Ġwebsite": 4716,
      "Ġfinding": 4717,
      "ĠCharl": 4718,
      "BA": 4719,
      "ĠToday": 4720,
      "Ġgets": 4721,
      "ĠBerlin": 4722,
      "Ġruns": 4723,
      "Ġfer": 4724,
      "Ġpulled": 4725,
      "ĠMountain": 4726,
      "Ġexch": 4727,
      "atre": 4728,
      "ables": 4729,
      "esota": 4730,
      "Ð°": 4731,
      "Ġwinter": 4732,
      "ĠClass": 4733,
      "Ġempire": 4734,
      "ads": 4735,
      "Ġcard": 4736,
      "uri": 4737,
      "Ġappoin": 4738,
      "ĠColumb": 4739,
      "Ġhouses": 4740,
      "ĠMill": 4741,
      "Ġclaimed": 4742,
      "view": 4743,
      "orders": 4744,
      "%.": 4745,
      "Ġhands": 4746,
      "ĠLife": 4747,
      "ĠMinnesota": 4748,
      "ĠOri": 4749,
      "ĠYear": 4750,
      "Ġproduct": 4751,
      "Ġliquid": 4752,
      "ĠSometimes": 4753,
      "Ġonto": 4754,
      "Ġhappens": 4755,
      "ropical": 4756,
      "Ġdiscuss": 4757,
      "Ġstopped": 4758,
      "rize": 4759,
      "ĠSociety": 4760,
      "Ġround": 4761,
      "itude": 4762,
      "Ġresults": 4763,
      "orial": 4764,
      "Ġmusical": 4765,
      "ĠBuff": 4766,
      "Ġproject": 4767,
      "Ġlands": 4768,
      "Ġpattern": 4769,
      "Ġcapac": 4770,
      "Ġvia": 4771,
      "ault": 4772,
      "Ġwars": 4773,
      "ĠFederal": 4774,
      "Ġglobal": 4775,
      "For": 4776,
      "Ġgained": 4777,
      "Ġadopted": 4778,
      "ĠBas": 4779,
      "ĠLake": 4780,
      "Ġuniversities": 4781,
      "ship": 4782,
      "Ġconcept": 4783,
      "56": 4784,
      "Ġhelps": 4785,
      "Ġpieces": 4786,
      "Ġserious": 4787,
      "Ġliterature": 4788,
      "Ġroyal": 4789,
      "Ġdifference": 4790,
      "Ġnecess": 4791,
      "Ġdistrict": 4792,
      "ĠSecret": 4793,
      "ĠMarsh": 4794,
      "where": 4795,
      "illa": 4796,
      "Ġprogramm": 4797,
      "stra": 4798,
      "Ġearliest": 4799,
      "Ġadvant": 4800,
      "ĠCa": 4801,
      "ĠCz": 4802,
      "mit": 4803,
      "Ġiron": 4804,
      "Ġactually": 4805,
      "ĠAdd": 4806,
      "oston": 4807,
      "gl": 4808,
      "ĠPict": 4809,
      "ËĪ": 4810,
      "Ġsnow": 4811,
      "isation": 4812,
      "Ġthousands": 4813,
      "Ġfly": 4814,
      "icient": 4815,
      "Ġchurches": 4816,
      "Ġracial": 4817,
      "Ġdie": 4818,
      "anged": 4819,
      "uda": 4820,
      "Ġurban": 4821,
      "ĠNapole": 4822,
      "Ġfail": 4823,
      "ician": 4824,
      "Ġpoll": 4825,
      "Ġ51": 4826,
      "ala": 4827,
      "outheast": 4828,
      "Ġdoing": 4829,
      "andy": 4830,
      "Ġneut": 4831,
      "Ġdoll": 4832,
      "ĠAssociation": 4833,
      "TV": 4834,
      "ĠAbout": 4835,
      "Ġrise": 4836,
      "ĠSouthern": 4837,
      "Ġworldwide": 4838,
      "iations": 4839,
      "Ġgives": 4840,
      "Ġconsum": 4841,
      "Ġcontinue": 4842,
      "Ġprime": 4843,
      "ĠHoly": 4844,
      "apolis": 4845,
      "estival": 4846,
      "ĠCutler": 4847,
      "Ġtalk": 4848,
      "onstr": 4849,
      "Ġsubst": 4850,
      "spe": 4851,
      "how": 4852,
      "ĠKenn": 4853,
      "ĠAcademy": 4854,
      "ĠCons": 4855,
      "ading": 4856,
      "Ġhistorical": 4857,
      "ĠHel": 4858,
      "inet": 4859,
      "Ġparticles": 4860,
      "Ġgreater": 4861,
      "ano": 4862,
      "Ġrat": 4863,
      "ultural": 4864,
      "ĠTony": 4865,
      "Ġprec": 4866,
      "Ġwild": 4867,
      "ĠJagu": 4868,
      "53": 4869,
      "ĠUp": 4870,
      "Ġdry": 4871,
      "Ġagreement": 4872,
      "ĠDef": 4873,
      "Ġsecret": 4874,
      "Ġpenalty": 4875,
      "Ġhuge": 4876,
      "Ġpath": 4877,
      "ĠSocial": 4878,
      "Ġprobably": 4879,
      "ĠSir": 4880,
      "Ġdanger": 4881,
      "Ġteac": 4882,
      "ĠColl": 4883,
      "Ġindividuals": 4884,
      "Ġmamm": 4885,
      "ĠAfghan": 4886,
      "Ġ1993": 4887,
      "Ġexamples": 4888,
      "rup": 4889,
      "ador": 4890,
      "ĠFollowing": 4891,
      "Ġnewsp": 4892,
      "ĠMag": 4893,
      "Ġeasily": 4894,
      "Ġhook": 4895,
      "Ġfavor": 4896,
      "Ġweak": 4897,
      "Ġroom": 4898,
      "ĠDuke": 4899,
      "54": 4900,
      "Ġlove": 4901,
      "Ġprior": 4902,
      "ĠAtlanta": 4903,
      "osis": 4904,
      "Ġcoming": 4905,
      "rec": 4906,
      "ĠMa": 4907,
      "Ġbeg": 4908,
      "Ġbri": 4909,
      "Ġbecomes": 4910,
      "Ġdefined": 4911,
      "Ġmountains": 4912,
      "Ġconcern": 4913,
      "Ġeffects": 4914,
      "ysis": 4915,
      "ĠMat": 4916,
      "Ġpron": 4917,
      "Ġhol": 4918,
      "GB": 4919,
      "Ġconcent": 4920,
      "Ġactivity": 4921,
      "Ġletters": 4922,
      "77": 4923,
      "pir": 4924,
      "Ġcopper": 4925,
      "oma": 4926,
      "Ġbeat": 4927,
      "Ġexcl": 4928,
      "orms": 4929,
      "Ġ2024": 4930,
      "ĠBefore": 4931,
      "Ġnations": 4932,
      "ĠRomo": 4933,
      "town": 4934,
      "otic": 4935,
      "verse": 4936,
      "Ġinstruments": 4937,
      "Ġreasons": 4938,
      "Ġ1920": 4939,
      "Ġcopy": 4940,
      "etr": 4941,
      "Ġ52": 4942,
      "ĠBulg": 4943,
      "gn": 4944,
      "Ġneighbor": 4945,
      "espite": 4946,
      "inated": 4947,
      "oted": 4948,
      "endo": 4949,
      "Ġinhabit": 4950,
      "Ð¾": 4951,
      "iege": 4952,
      "Ġeyes": 4953,
      "Ġsequ": 4954,
      "uff": 4955,
      "tainment": 4956,
      "Ġdirection": 4957,
      "Ġtarget": 4958,
      "veland": 4959,
      "inson": 4960,
      "omer": 4961,
      "icate": 4962,
      "Ġconsecutive": 4963,
      "ĠGroup": 4964,
      "88": 4965,
      "Ġexc": 4966,
      "Ġextended": 4967,
      "Ġcompl": 4968,
      "ĠChampionship": 4969,
      "Ġclassical": 4970,
      "Ġsens": 4971,
      "Ġexperience": 4972,
      "ĠAustralian": 4973,
      "Ġprote": 4974,
      "Ġlargely": 4975,
      "Ġmo": 4976,
      "ĠKa": 4977,
      "51": 4978,
      "aily": 4979,
      "ĠOs": 4980,
      "New": 4981,
      "Ġoffensive": 4982,
      "ĠThree": 4983,
      "mm": 4984,
      "ĠNick": 4985,
      "Ġbit": 4986,
      "igen": 4987,
      "ring": 4988,
      "Ġexcept": 4989,
      "hing": 4990,
      "ĠFord": 4991,
      "ĠNob": 4992,
      "acted": 4993,
      "ĠCleveland": 4994,
      "ĠServ": 4995,
      "Ġspent": 4996,
      "Ġcoup": 4997,
      "Ġbatt": 4998,
      "uts": 4999,
      "ĠDepartment": 5000,
      "ĠProtestant": 5001,
      "Ġscoreless": 5002,
      "bell": 5003,
      "ĠCB": 5004,
      "ĠGraham": 5005,
      "06": 5006,
      "Ã¤": 5007,
      "Ġmedicine": 5008,
      "Ġproperty": 5009,
      "ĠCinc": 5010,
      "Ġequal": 5011,
      "abet": 5012,
      "ĠKer": 5013,
      "ĠTri": 5014,
      "Ġdriv": 5015,
      "ĠEs": 5016,
      "active": 5017,
      "Ġcurrently": 5018,
      "ias": 5019,
      "Ġinfluenced": 5020,
      "ĠAlbert": 5021,
      "ĠClub": 5022,
      "Ġswe": 5023,
      "Ġstories": 5024,
      "Ġliber": 5025,
      "ato": 5026,
      "embly": 5027,
      "rect": 5028,
      "ĠMicrosoft": 5029,
      "ĠRad": 5030,
      "ĠLee": 5031,
      "hens": 5032,
      "Ġextra": 5033,
      "ĠWales": 5034,
      "ortion": 5035,
      "Ġvehic": 5036,
      "Ġfilms": 5037,
      "Ġlic": 5038,
      "Ġmeeting": 5039,
      "Ġtreatment": 5040,
      "aters": 5041,
      "Ġones": 5042,
      "ĠAncient": 5043,
      "Ġfun": 5044,
      "Ġinte": 5045,
      "igration": 5046,
      "Ġexact": 5047,
      "ĠAlexander": 5048,
      "ĠIS": 5049,
      "Ġmolecules": 5050,
      "Ġhousing": 5051,
      "ĠTai": 5052,
      "Ġaccom": 5053,
      "Ġsuffered": 5054,
      "Ġmoment": 5055,
      "Ġaltern": 5056,
      "ĠConstant": 5057,
      "ĠConstitution": 5058,
      "ampa": 5059,
      "ÉĻ": 5060,
      "Ġdropped": 5061,
      "aith": 5062,
      "uls": 5063,
      "Ġboy": 5064,
      "'.": 5065,
      "Ġsense": 5066,
      "osen": 5067,
      "ĠSweden": 5068,
      "ĠGames": 5069,
      "abour": 5070,
      "Ġsolid": 5071,
      "Ġrespectively": 5072,
      "Ġcomputers": 5073,
      "Ġscholars": 5074,
      "icted": 5075,
      "ĠLiber": 5076,
      "aby": 5077,
      "Ġrefl": 5078,
      "Ġpassing": 5079,
      "innati": 5080,
      "assel": 5081,
      "Ġcourse": 5082,
      "08": 5083,
      "ĠMongol": 5084,
      "ĠDNA": 5085,
      "iana": 5086,
      "ĠAwards": 5087,
      "Ġdamage": 5088,
      "alities": 5089,
      "ceeded": 5090,
      "annel": 5091,
      "Ġartists": 5092,
      "Ġguitar": 5093,
      "ĠCzech": 5094,
      "ems": 5095,
      "ips": 5096,
      "Ġranked": 5097,
      "orary": 5098,
      "Ġyard": 5099,
      "enty": 5100,
      "Ġcarried": 5101,
      "ĠSpec": 5102,
      "encies": 5103,
      "hamm": 5104,
      "Ġfort": 5105,
      "ully": 5106,
      "Ġinstit": 5107,
      "Ġlink": 5108,
      "ĠBos": 5109,
      "pressed": 5110,
      "ĠOf": 5111,
      "ĠMuslims": 5112,
      "icit": 5113,
      "isis": 5114,
      "vey": 5115,
      "Ġperm": 5116,
      "acts": 5117,
      "ranch": 5118,
      "Ġbirths": 5119,
      "ĠÂ£": 5120,
      "azine": 5121,
      "ĠAut": 5122,
      "Ġrequire": 5123,
      "Ġbenef": 5124,
      "Ġconserv": 5125,
      "Ġsymp": 5126,
      "Ġoccupied": 5127,
      "Ġtall": 5128,
      "02": 5129,
      "98": 5130,
      "cles": 5131,
      "Ġstore": 5132,
      "akh": 5133,
      "Ġoperating": 5134,
      "Ġrebound": 5135,
      "Ġbank": 5136,
      "Ġphysics": 5137,
      "Ġpack": 5138,
      "Ġnarrow": 5139,
      "fall": 5140,
      "Ġpiece": 5141,
      "ĠHaw": 5142,
      "ĠCincinnati": 5143,
      "Ġconstant": 5144,
      "Hoping": 5145,
      "Ġauthority": 5146,
      "ansion": 5147,
      "Ġappointed": 5148,
      "Ġmind": 5149,
      "ĠSqu": 5150,
      "unt": 5151,
      "ĠMer": 5152,
      "Ġindustrial": 5153,
      "ĠScience": 5154,
      "ĠJim": 5155,
      "Ġdu": 5156,
      "Ġhighly": 5157,
      "aging": 5158,
      "Ġsuc": 5159,
      "oz": 5160,
      "ĠOakland": 5161,
      "ople": 5162,
      "ĠOrthodox": 5163,
      "Ġemp": 5164,
      "ĠDoc": 5165,
      "Ġsusp": 5166,
      "cks": 5167,
      "Ġess": 5168,
      "ĠTime": 5169,
      "Ġdecision": 5170,
      "Ġreview": 5171,
      "othes": 5172,
      "Ã¨": 5173,
      "ccane": 5174,
      "ĠWin": 5175,
      "Ġsimply": 5176,
      "Ġdip": 5177,
      "Ġcompon": 5178,
      "Ġoperations": 5179,
      "Ġvariety": 5180,
      "ĠJaguars": 5181,
      "Ġsides": 5182,
      "ĠList": 5183,
      "ĠMond": 5184,
      "ella": 5185,
      "Ġseasons": 5186,
      "ĠBoston": 5187,
      "leans": 5188,
      "pat": 5189,
      "ĠLeon": 5190,
      "ĠApple": 5191,
      "ĠMem": 5192,
      "During": 5193,
      "ĠTurkey": 5194,
      "ĠOxford": 5195,
      "Ġbroadcast": 5196,
      "ĠHarr": 5197,
      "ĠBuccane": 5198,
      "Ġweight": 5199,
      "Ġinvented": 5200,
      "Ġinn": 5201,
      "aland": 5202,
      "Ġ1945": 5203,
      "throp": 5204,
      "05": 5205,
      "Ġ2018": 5206,
      "yclop": 5207,
      "ĠSur": 5208,
      "imal": 5209,
      "Ġflu": 5210,
      "itzerland": 5211,
      "Ġtrack": 5212,
      "evin": 5213,
      "ĠAnn": 5214,
      "ĠOlympic": 5215,
      "ĠOrleans": 5216,
      "intendo": 5217,
      "wealth": 5218,
      "anchester": 5219,
      "conference": 5220,
      "Ġstudent": 5221,
      "Ġquite": 5222,
      "uther": 5223,
      "ĠBern": 5224,
      "Ġmile": 5225,
      "ĠLithuan": 5226,
      "ĠMah": 5227,
      "Ġfocus": 5228,
      "ding": 5229,
      "een": 5230,
      "Ġlooking": 5231,
      "Ġbacteria": 5232,
      "Ġreally": 5233,
      "Ġraised": 5234,
      "Ġreception": 5235,
      "ĠLu": 5236,
      "Ġshot": 5237,
      "ĠYoung": 5238,
      "ĠProv": 5239,
      "ray": 5240,
      "Ġinhabitants": 5241,
      "enh": 5242,
      "ava": 5243,
      "Ġspeech": 5244,
      "Ġrapid": 5245,
      "ĠRay": 5246,
      "ĠBowl": 5247,
      "ovak": 5248,
      "ĠKorean": 5249,
      "ients": 5250,
      "Ġprofessional": 5251,
      "Ġaccepted": 5252,
      "Ġlearning": 5253,
      "Ġatmosphere": 5254,
      "ĠWater": 5255,
      "Ġcontent": 5256,
      "ĠTem": 5257,
      "Ġrebell": 5258,
      "Ġcommunities": 5259,
      "iting": 5260,
      "Ġgovernor": 5261,
      "anda": 5262,
      "illed": 5263,
      "2000": 5264,
      "ĠInstitute": 5265,
      "Ġresulting": 5266,
      "Ġprimarily": 5267,
      "ĠOb": 5268,
      "rovers": 5269,
      "ĠRon": 5270,
      "Sh": 5271,
      "Ġadvantage": 5272,
      "isters": 5273,
      "Ġtopic": 5274,
      "Ġ1918": 5275,
      "Ġdemonstr": 5276,
      "Ġheav": 5277,
      "ĠNic": 5278,
      "eral": 5279,
      "Ġwarm": 5280,
      "iments": 5281,
      "ĠOrgan": 5282,
      "Ġsplit": 5283,
      "Ġarms": 5284,
      "ĠWhat": 5285,
      "Ġplayoff": 5286,
      "ĠFri": 5287,
      "Ġissues": 5288,
      "ĠChristians": 5289,
      "ĠAirlines": 5290,
      "Ġmission": 5291,
      "97": 5292,
      "hev": 5293,
      "Ġinterp": 5294,
      "Ġprovinces": 5295,
      "Ġmethods": 5296,
      "mir": 5297,
      "Ġdecre": 5298,
      "ĠScottish": 5299,
      "Ġhair": 5300,
      "ittee": 5301,
      "ricts": 5302,
      "Ġflight": 5303,
      "ĠGermans": 5304,
      "Ġacid": 5305,
      "Ġorbit": 5306,
      "ĠHindu": 5307,
      "Ġmurder": 5308,
      "ĠAge": 5309,
      "ado": 5310,
      "Ġchall": 5311,
      "Ġneeds": 5312,
      "ĠDistrict": 5313,
      "Ġharm": 5314,
      "Ġvan": 5315,
      "Ġdrugs": 5316,
      "Ġmachine": 5317,
      "called": 5318,
      "ĠChristmas": 5319,
      "ĠChristianity": 5320,
      "exual": 5321,
      "Ġscale": 5322,
      "Ġstrateg": 5323,
      "Ġcompletely": 5324,
      "Ġgain": 5325,
      "Ġability": 5326,
      "ĠNews": 5327,
      "CNN": 5328,
      "ĠBible": 5329,
      "ĠBuccaneers": 5330,
      "ĠEp": 5331,
      "Ġoccur": 5332,
      "Ġnomin": 5333,
      "ques": 5334,
      "ĠBBC": 5335,
      "ĠTampa": 5336,
      "Ġtransfer": 5337,
      "SR": 5338,
      "Ġgal": 5339,
      "ĠLand": 5340,
      "Ġsleep": 5341,
      "Ġtable": 5342,
      "ĠBlue": 5343,
      "Ġsettled": 5344,
      "mond": 5345,
      "ologists": 5346,
      "cher": 5347,
      "Ġflow": 5348,
      "Ġremoved": 5349,
      "ĠCop": 5350,
      "state": 5351,
      "04": 5352,
      "Ġcompetition": 5353,
      "icles": 5354,
      "othing": 5355,
      "Ġowned": 5356,
      "Ġlooked": 5357,
      "Ġelectrons": 5358,
      "ached": 5359,
      "Ġkickoff": 5360,
      "Jo": 5361,
      "ercury": 5362,
      "venue": 5363,
      "52": 5364,
      "ĠFav": 5365,
      "oration": 5366,
      "olt": 5367,
      "Ġprin": 5368,
      "ĠCam": 5369,
      "Was": 5370,
      "ĠDomin": 5371,
      "Ġalph": 5372,
      "panic": 5373,
      "ously": 5374,
      "iy": 5375,
      "ederation": 5376,
      "ĠIndianapolis": 5377,
      "Ġastronom": 5378,
      "ĠDal": 5379,
      "Ġhear": 5380,
      "ĠSteve": 5381,
      "iced": 5382,
      "ounding": 5383,
      "Ġfleet": 5384,
      "rey": 5385,
      "Ġnumerous": 5386,
      "Ġleaving": 5387,
      "ker": 5388,
      "rea": 5389,
      "Ġdefensive": 5390,
      "Ġgreatest": 5391,
      "Ġestablishments": 5392,
      "ĠVirginia": 5393,
      "Ġtrying": 5394,
      "Ġ53": 5395,
      "elop": 5396,
      "Ġpotential": 5397,
      "Ġstations": 5398,
      "Ġordered": 5399,
      "ening": 5400,
      "Ġresponsible": 5401,
      "ieval": 5402,
      "Ġfranch": 5403,
      "ĠSil": 5404,
      "Ġslaves": 5405,
      "Ġprop": 5406,
      "ĠModern": 5407,
      "Ġmotor": 5408,
      "more": 5409,
      "ĠLeg": 5410,
      "Ġactivities": 5411,
      "now": 5412,
      "Ġbox": 5413,
      "Ġcred": 5414,
      "CA": 5415,
      "Ġallows": 5416,
      "Ġdistinct": 5417,
      "Ġ1940": 5418,
      "force": 5419,
      "ĠGovernor": 5420,
      "ĠTimes": 5421,
      "Ġaccurately": 5422,
      "Ġaccount": 5423,
      "Ġdegree": 5424,
      "Ġsend": 5425,
      "ĠWood": 5426,
      "Ġlif": 5427,
      "Ġcandid": 5428,
      "hedral": 5429,
      "Ġimmediately": 5430,
      "ĠWay": 5431,
      "Ġmixed": 5432,
      "Ġ1979": 5433,
      "ĠHuman": 5434,
      "Ġnovel": 5435,
      "Ġsolar": 5436,
      "ographic": 5437,
      "ĠSwitzerland": 5438,
      "ĠUr": 5439,
      "Ġincor": 5440,
      "itness": 5441,
      "Ġ1988": 5442,
      "ĠStep": 5443,
      "Ġcloud": 5444,
      "Ġregional": 5445,
      "Ġban": 5446,
      "Ġmil": 5447,
      "Ġ1986": 5448,
      "Ġstated": 5449,
      "Ġissue": 5450,
      "Ġcurr": 5451,
      "www": 5452,
      "ĠPremier": 5453,
      "Ġmemory": 5454,
      "izes": 5455,
      "Ġallowing": 5456,
      "plement": 5457,
      "Ġvolcan": 5458,
      "arct": 5459,
      "ĠVer": 5460,
      "Ġcalcul": 5461,
      "Ġdesp": 5462,
      "ĠWal": 5463,
      "Ġorganisms": 5464,
      "ports": 5465,
      "western": 5466,
      "ĠNapoleon": 5467,
      "Ġtheor": 5468,
      "Ġcrime": 5469,
      "mouth": 5470,
      "Ġearthqu": 5471,
      "fect": 5472,
      "ĠAfghanistan": 5473,
      "Ġfifth": 5474,
      "Ġahead": 5475,
      "Ġdescribe": 5476,
      "ĠRog": 5477,
      "Ġdidn": 5478,
      "Ġtwice": 5479,
      "Ġcorner": 5480,
      "Ġparliament": 5481,
      "ĠMax": 5482,
      "Ġstudied": 5483,
      "ĠJacob": 5484,
      "Ġbodies": 5485,
      "Ġclean": 5486,
      "Some": 5487,
      "94": 5488,
      "96": 5489,
      "Ġbound": 5490,
      "ĠSi": 5491,
      "ocracy": 5492,
      "Ġ54": 5493,
      "Ðµ": 5494,
      "Ġreduced": 5495,
      "Ġrich": 5496,
      "Ġsister": 5497,
      "ĠFB": 5498,
      "obile": 5499,
      "Ġrecognized": 5500,
      "ĠAges": 5501,
      "ĠGall": 5502,
      "Ġavoid": 5503,
      "And": 5504,
      "Ġsell": 5505,
      "otton": 5506,
      "Ġreign": 5507,
      "ĠRodgers": 5508,
      "ici": 5509,
      "92": 5510,
      "Ġeasy": 5511,
      "Ġencour": 5512,
      "Ġdouble": 5513,
      "Ġperman": 5514,
      "ĠLind": 5515,
      "Ġminister": 5516,
      ".\".": 5517,
      "Ġsnap": 5518,
      "Ġimage": 5519,
      "Ġspirit": 5520,
      "ĠMonday": 5521,
      "Ġrocks": 5522,
      "writ": 5523,
      "Ġrisk": 5524,
      "Ġsport": 5525,
      "Ġpreviously": 5526,
      "ĠTay": 5527,
      "Ġthrowing": 5528,
      "Ġcultures": 5529,
      "ĠJon": 5530,
      "ayer": 5531,
      "icket": 5532,
      "Ġrelatively": 5533,
      "ĠSupreme": 5534,
      "Ġjobs": 5535,
      "also": 5536,
      "ĠTurkish": 5537,
      "Ġpaid": 5538,
      "Ġregul": 5539,
      "Ġmand": 5540,
      "ĠFour": 5541,
      "ĠDenmark": 5542,
      "Ġproperties": 5543,
      "ĠCro": 5544,
      "ugar": 5545,
      "urd": 5546,
      "ĠSolar": 5547,
      "ĠIV": 5548,
      "Ġovertime": 5549,
      "Ġanything": 5550,
      "Ġarticle": 5551,
      "Ġnegot": 5552,
      "Ġrecording": 5553,
      "ees": 5554,
      "ĠStaff": 5555,
      "ĠBuffalo": 5556,
      "Ġfoot": 5557,
      "Ġeggs": 5558,
      "Ġaim": 5559,
      "Ġleaves": 5560,
      "Ġetc": 5561,
      "Ġgovernments": 5562,
      "Ġslight": 5563,
      "Ġequip": 5564,
      "Ġsecurity": 5565,
      "83": 5566,
      "everal": 5567,
      "Ġmentioned": 5568,
      "ĠBry": 5569,
      "ogen": 5570,
      "Ġlin": 5571,
      "ĠBi": 5572,
      "ĠEth": 5573,
      "larg": 5574,
      "ois": 5575,
      "Ġpresidential": 5576,
      "ĠVi": 5577,
      "Ġvoc": 5578,
      "ĠGeorgia": 5579,
      "ĠDespite": 5580,
      "ĠOrder": 5581,
      "III": 5582,
      "Ġnick": 5583,
      "ĠStar": 5584,
      "pes": 5585,
      "ĠForm": 5586,
      "Ġfeature": 5587,
      "Ġcontract": 5588,
      "ĠMain": 5589,
      "ĠSev": 5590,
      "ĠBank": 5591,
      "Ġproposed": 5592,
      "Ġcollege": 5593,
      "Ġdemand": 5594,
      "ĠTw": 5595,
      "Ġexpected": 5596,
      "Ġrough": 5597,
      "Ġadministr": 5598,
      "Ġrefused": 5599,
      "Ġmultiple": 5600,
      "Ġpaint": 5601,
      "rest": 5602,
      "leg": 5603,
      "ĠOk": 5604,
      "ĠLi": 5605,
      "uer": 5606,
      "ĪĴ": 5607,
      "book": 5608,
      "Ġpp": 5609,
      "Ġbands": 5610,
      "Ġlabor": 5611,
      "ĠJord": 5612,
      "ĠScient": 5613,
      "ĠHistor": 5614,
      "essor": 5615,
      "Ġcreation": 5616,
      "toms": 5617,
      "Ġdevices": 5618,
      "aste": 5619,
      "ĠAirport": 5620,
      "Ġdiseases": 5621,
      "Ġsubs": 5622,
      "Ġprogress": 5623,
      "Ġtools": 5624,
      "aska": 5625,
      "US": 5626,
      "apore": 5627,
      "ani": 5628,
      "Ġkicking": 5629,
      "Ġ2020": 5630,
      "ĠBob": 5631,
      "Ġmorning": 5632,
      "Ġbott": 5633,
      "Ġreligions": 5634,
      "rane": 5635,
      "Ġ1984": 5636,
      "ĠBrees": 5637,
      "Ġdogs": 5638,
      "Ġbor": 5639,
      "Ġadministration": 5640,
      "Ġenj": 5641,
      "Ġcloser": 5642,
      "resp": 5643,
      "Ġrepe": 5644,
      "ĠPart": 5645,
      "Ġ1982": 5646,
      "idents": 5647,
      "cing": 5648,
      "Ġwalk": 5649,
      "Ġfields": 5650,
      "ieties": 5651,
      "If": 5652,
      "Ġmi": 5653,
      "Ġancestry": 5654,
      "zone": 5655,
      "itt": 5656,
      "ĠAndrew": 5657,
      "hann": 5658,
      "Ġsupply": 5659,
      "acco": 5660,
      "Ġdeliver": 5661,
      "het": 5662,
      "eptune": 5663,
      "Ġpub": 5664,
      "ersey": 5665,
      "Ġaccept": 5666,
      "oute": 5667,
      "Ġonline": 5668,
      "ĠCommonwealth": 5669,
      "ĠBey": 5670,
      "Ġupper": 5671,
      "Ġlatter": 5672,
      "Ġpurpose": 5673,
      "Ġofficials": 5674,
      "Ġnucle": 5675,
      "Ġclubs": 5676,
      "ĠConn": 5677,
      "Ġ1985": 5678,
      "Ġfranchise": 5679,
      "ele": 5680,
      "ĠPrater": 5681,
      "Ġ2025": 5682,
      "Ġformal": 5683,
      "bourne": 5684,
      "ĠPri": 5685,
      "Ġhyp": 5686,
      "Ġwealth": 5687,
      "ĠOnly": 5688,
      "bo": 5689,
      "Ġple": 5690,
      "Ġplanned": 5691,
      "Ġrecently": 5692,
      "Ġcontrovers": 5693,
      "Ġmut": 5694,
      "Ġcam": 5695,
      "Ġending": 5696,
      "ĠBang": 5697,
      "house": 5698,
      "Ġbuy": 5699,
      "IV": 5700,
      "ĠRhine": 5701,
      "ĠSub": 5702,
      "Ġelections": 5703,
      "Ġversions": 5704,
      "Ġpositive": 5705,
      "Ġtemperatures": 5706,
      "ye": 5707,
      "ĠDeath": 5708,
      "eback": 5709,
      "ĠPalmer": 5710,
      "Ġdifferences": 5711,
      "igrants": 5712,
      "aron": 5713,
      "ĠEduc": 5714,
      "Ġstudio": 5715,
      "Ġfoss": 5716,
      "tors": 5717,
      "Ġpurch": 5718,
      "ĠOut": 5719,
      "Ġresources": 5720,
      "hammad": 5721,
      "Ġ1930": 5722,
      "ĠTown": 5723,
      "ĠPrize": 5724,
      "omy": 5725,
      "Ġnegative": 5726,
      "Ġimperial": 5727,
      "Ġserve": 5728,
      "oven": 5729,
      "ĠNintendo": 5730,
      "ĠAdam": 5731,
      "Ġgranted": 5732,
      "Ġflat": 5733,
      "Ġsinger": 5734,
      "Ġstrike": 5735,
      "ĠValley": 5736,
      "ĠForce": 5737,
      "93": 5738,
      "ji": 5739,
      "Ġdesc": 5740,
      "Ġpolic": 5741,
      "Ġheadqu": 5742,
      "ĠEcon": 5743,
      "Ġdin": 5744,
      "lers": 5745,
      "apes": 5746,
      "Ġ1981": 5747,
      "Ġcomeback": 5748,
      "ĠPey": 5749,
      "ĠHarry": 5750,
      "Ġtraining": 5751,
      "Ġadditional": 5752,
      "ĠGolden": 5753,
      "Se": 5754,
      "ĠBelg": 5755,
      "Ġfigure": 5756,
      "Ġmel": 5757,
      "Ġelectricity": 5758,
      "iate": 5759,
      "Ø§": 5760,
      "illy": 5761,
      "Ġmunicip": 5762,
      "aya": 5763,
      "Ġexecut": 5764,
      "Ġexpansion": 5765,
      "fort": 5766,
      "Ġcolors": 5767,
      "ĠFA": 5768,
      "ĠAntonio": 5769,
      "awn": 5770,
      "ĠPersian": 5771,
      "box": 5772,
      "Ġadvanced": 5773,
      "ĠFinland": 5774,
      "Ġthrone": 5775,
      "Ġcrop": 5776,
      "ĠBrian": 5777,
      "ĠManchester": 5778,
      "Ġcry": 5779,
      "ĠBrad": 5780,
      "ED": 5781,
      "Ġwatch": 5782,
      "Ġsiege": 5783,
      "isham": 5784,
      "ĠGould": 5785,
      "Ġ400": 5786,
      "abs": 5787,
      "ĠKevin": 5788,
      "ĠEnter": 5789,
      "Ġunion": 5790,
      "ĠMid": 5791,
      "Ġcoal": 5792,
      "?\"": 5793,
      "unn": 5794,
      "Ġawarded": 5795,
      "Ġemerg": 5796,
      "Ġextrem": 5797,
      "Ġmyth": 5798,
      "ĠFavre": 5799,
      "ĠHug": 5800,
      "Ġnormally": 5801,
      "Ġalco": 5802,
      "ĠElect": 5803,
      "ĠPortugal": 5804,
      "Ġ1976": 5805,
      "ĠChild": 5806,
      "ĠCont": 5807,
      "pass": 5808,
      "Ġdrew": 5809,
      "Ġtrib": 5810,
      "Ġmarriage": 5811,
      "Ġorganized": 5812,
      "ĠGDP": 5813,
      "Ġtherefore": 5814,
      "zant": 5815,
      "Ġwriter": 5816,
      "Ġattempts": 5817,
      "Ġvisited": 5818,
      "water": 5819,
      "Ġbasis": 5820,
      "ii": 5821,
      "Ġtor": 5822,
      "Ġmicro": 5823,
      "ĠBig": 5824,
      "Ġinterconference": 5825,
      "Ġcrisis": 5826,
      "Ġvillage": 5827,
      "Eur": 5828,
      "ĠSanta": 5829,
      "Ġcerem": 5830,
      "ager": 5831,
      "\").": 5832,
      "Ġshut": 5833,
      "Ġconquered": 5834,
      "ider": 5835,
      "Ġbranch": 5836,
      "ĠHu": 5837,
      "ĠIndepend": 5838,
      "ĠDou": 5839,
      "Ġcook": 5840,
      "ĠAust": 5841,
      "Ġhosted": 5842,
      "73": 5843,
      "Ġcool": 5844,
      "Ġ55": 5845,
      "ĠSwedish": 5846,
      "ĠRepublican": 5847,
      "Ġsettlement": 5848,
      "itage": 5849,
      "Ġbass": 5850,
      "ĠSlav": 5851,
      "orter": 5852,
      "uits": 5853,
      "ĠTaylor": 5854,
      "We": 5855,
      "Ġchance": 5856,
      "Ġhunting": 5857,
      "Ġdespite": 5858,
      "ĠBryant": 5859,
      "ura": 5860,
      "Ġcomposed": 5861,
      "Ġfair": 5862,
      "Ġinstitutions": 5863,
      "Ġpolitics": 5864,
      "Ġpiano": 5865,
      "insula": 5866,
      "cow": 5867,
      "Ġkilometers": 5868,
      "Ġnotable": 5869,
      "Ġtribes": 5870,
      "ĠFox": 5871,
      "ĠZealand": 5872,
      "Ġbond": 5873,
      "ĠTour": 5874,
      "Ġinsp": 5875,
      "Ġdepartment": 5876,
      "eoples": 5877,
      "Ġsector": 5878,
      "Ġfelt": 5879,
      "110": 5880,
      "Ġcoach": 5881,
      "ĠPeyton": 5882,
      "Ġ1974": 5883,
      "isted": 5884,
      "production": 5885,
      "Ġbal": 5886,
      "Ġcopies": 5887,
      "Ġsuppl": 5888,
      "anges": 5889,
      "Ġnearby": 5890,
      "Ġtrain": 5891,
      "ÙĦ": 5892,
      "Ġcrown": 5893,
      "rier": 5894,
      "Ġbye": 5895,
      "Ġdocument": 5896,
      "Ġ120": 5897,
      "acing": 5898,
      "Ġresistance": 5899,
      "Ġinsects": 5900,
      "rad": 5901,
      "Ġreve": 5902,
      "ĠGost": 5903,
      "Ġofficers": 5904,
      "under": 5905,
      "Ġfres": 5906,
      "thur": 5907,
      "umin": 5908,
      "ĠLib": 5909,
      "Ġsaying": 5910,
      "ĠFitz": 5911,
      "ĠWilson": 5912,
      "Ġidentity": 5913,
      "Ġinvaded": 5914,
      "Ġ1975": 5915,
      "ĠId": 5916,
      "oa": 5917,
      "Ġmissed": 5918,
      "ĠNavy": 5919,
      "iful": 5920,
      "91": 5921,
      "Ġ1987": 5922,
      "Ġ1971": 5923,
      "Ġslowly": 5924,
      "Ġlabel": 5925,
      "ĠPre": 5926,
      "ĠAntarct": 5927,
      "Ġbehavior": 5928,
      "Ġamb": 5929,
      "Ġfreedom": 5930,
      "Ġsituation": 5931,
      "Ġpair": 5932,
      "Ġmoon": 5933,
      "ĠArmenian": 5934,
      "Ġwalls": 5935,
      "ĠByzant": 5936,
      "Ġdistribution": 5937,
      "ĠSingapore": 5938,
      "arden": 5939,
      "eman": 5940,
      "ĠStan": 5941,
      "Ġoffered": 5942,
      "Ġconverted": 5943,
      "imb": 5944,
      "winning": 5945,
      "Ġantib": 5946,
      "ĠPeters": 5947,
      "Ġenjoy": 5948,
      "Ġdistricts": 5949,
      "igenous": 5950,
      "orer": 5951,
      "ittle": 5952,
      "apers": 5953,
      "met": 5954,
      "Ġoverall": 5955,
      "aint": 5956,
      "Ġshowing": 5957,
      "Ġlearned": 5958,
      "Fl": 5959,
      "ecution": 5960,
      "Ġuns": 5961,
      "Ġeverything": 5962,
      "ĠPublic": 5963,
      "ĠEston": 5964,
      "ĠInc": 5965,
      "Ġ1978": 5966,
      "ĠMatthew": 5967,
      "Ġapplied": 5968,
      "Ġinher": 5969,
      "Ġmuseum": 5970,
      "Ġille": 5971,
      "Ġasp": 5972,
      "Ġinjury": 5973,
      "ĠNow": 5974,
      "ishes": 5975,
      "ĠSecretary": 5976,
      "Ġlowest": 5977,
      "road": 5978,
      "Ġchief": 5979,
      "Ġ150": 5980,
      "Åį": 5981,
      "Ġpresence": 5982,
      "Ġacad": 5983,
      "rell": 5984,
      "Ġsales": 5985,
      "Ġcapture": 5986,
      "Ġreading": 5987,
      "Ġexped": 5988,
      "Ġsatell": 5989,
      "With": 5990,
      "xide": 5991,
      "Ġattend": 5992,
      "Ġbigger": 5993,
      "ĠMount": 5994,
      "Le": 5995,
      "ĠLuc": 5996,
      "Ġquality": 5997,
      "iva": 5998,
      "Ġtaught": 5999,
      "ĠSuisham": 6000,
      "Ġhab": 6001,
      "Ġuseful": 6002,
      "Ġorganizations": 6003,
      "ranean": 6004,
      "ĠPrinc": 6005,
      "Ġconsists": 6006,
      "Ġbroken": 6007,
      "rill": 6008,
      "ĠGostkowski": 6009,
      "iable": 6010,
      "ĠCarl": 6011,
      "Ġreceive": 6012,
      "Ġinvestig": 6013,
      "Ġintegr": 6014,
      "Ġmetropolitan": 6015,
      "Ġoppon": 6016,
      "Ġachieve": 6017,
      "mitted": 6018,
      "Ġpage": 6019,
      "ĠSong": 6020,
      "asser": 6021,
      "Ġexception": 6022,
      "ĠiP": 6023,
      "ĠTaiwan": 6024,
      "aling": 6025,
      "Ġintended": 6026,
      "Ġprotection": 6027,
      "ĠPenn": 6028,
      "Ġir": 6029,
      "azz": 6030,
      "equ": 6031,
      "Ġ1968": 6032,
      "alled": 6033,
      "ĠCommission": 6034,
      "Ġfat": 6035,
      "Ġrates": 6036,
      "inger": 6037,
      "ĠBah": 6038,
      "400": 6039,
      "Ġmammals": 6040,
      "ĠCD": 6041,
      "Ñģ": 6042,
      "Ġmouth": 6043,
      "Ġpeak": 6044,
      "Ġmanager": 6045,
      "Ġpopulations": 6046,
      "gent": 6047,
      "icts": 6048,
      "ĠPrussia": 6049,
      "Ġexchange": 6050,
      "vereign": 6051,
      "ĠLady": 6052,
      "ette": 6053,
      "ĠBron": 6054,
      "Ð¸": 6055,
      "Ġsure": 6056,
      "Ġsection": 6057,
      "Ġnotes": 6058,
      "ĠOlympics": 6059,
      "den": 6060,
      "ĠInt": 6061,
      "ÅĤ": 6062,
      "ĠMand": 6063,
      "Ġyellow": 6064,
      "ĠVin": 6065,
      "ĠNewton": 6066,
      "Ġattention": 6067,
      "Ġspect": 6068,
      "Ġgrown": 6069,
      "lah": 6070,
      "ĠNeptune": 6071,
      "ĠArabic": 6072,
      "Ind": 6073,
      "Ġfully": 6074,
      "ĠRA": 6075,
      "such": 6076,
      "Ġdirector": 6077,
      "71": 6078,
      "Ġtoward": 6079,
      "Ġstrength": 6080,
      "hu": 6081,
      "ĠRomans": 6082,
      "Ġstone": 6083,
      "Ġautom": 6084,
      "Ġnote": 6085,
      "ĠWeb": 6086,
      "actions": 6087,
      "Ġmovements": 6088,
      "Ġactors": 6089,
      "igence": 6090,
      "Ġbey": 6091,
      "ĠFolk": 6092,
      "Ġcolonies": 6093,
      "ieri": 6094,
      "Ġreceiving": 6095,
      "ĠEvery": 6096,
      "ba": 6097,
      "ipedia": 6098,
      "amese": 6099,
      "anging": 6100,
      "Ġmedian": 6101,
      "Ġkilling": 6102,
      "CO": 6103,
      "ixth": 6104,
      "Ġsen": 6105,
      "Ġcolony": 6106,
      "Ġbatter": 6107,
      "Ġapproach": 6108,
      "ĠStat": 6109,
      "76": 6110,
      "ibly": 6111,
      "Ġcolonial": 6112,
      "Ġrematch": 6113,
      "vard": 6114,
      "ĠDirect": 6115,
      "Ġcollection": 6116,
      "ss": 6117,
      "ĠFree": 6118,
      "formed": 6119,
      "ĠHungary": 6120,
      "Ġprovides": 6121,
      "transmission": 6122,
      "Ġpoly": 6123,
      "Ġ1973": 6124,
      "Ġexistence": 6125,
      "ĠLew": 6126,
      "Ġinternal": 6127,
      "ĠExpl": 6128,
      "ĠKhan": 6129,
      "lined": 6130,
      "ĠFilm": 6131,
      "ĠVietnam": 6132,
      "iterranean": 6133,
      "Ġsymptoms": 6134,
      "Ġemperor": 6135,
      "ĠPalace": 6136,
      "uated": 6137,
      "arry": 6138,
      "Ġappearance": 6139,
      "ĠImperial": 6140,
      "Ġdio": 6141,
      "obe": 6142,
      "Ġchemistry": 6143,
      "Ġradiation": 6144,
      "Ġaid": 6145,
      "yarder": 6146,
      "Ġexpanded": 6147,
      "see": 6148,
      "ĠRegion": 6149,
      "Ġrefers": 6150,
      "Ġbrief": 6151,
      "72": 6152,
      "onian": 6153,
      "Ġreaction": 6154,
      "Ġincorpor": 6155,
      "oke": 6156,
      "Ġmeat": 6157,
      "Ġbeyond": 6158,
      "inction": 6159,
      "aran": 6160,
      "Ġsounds": 6161,
      "Ġ2019": 6162,
      "Ġdigital": 6163,
      "upiter": 6164,
      "uction": 6165,
      "Ġspeakers": 6166,
      "iat": 6167,
      "Ġplat": 6168,
      "Ġvary": 6169,
      "alf": 6170,
      "Ġcancer": 6171,
      "Ġprisoners": 6172,
      "imon": 6173,
      "Ġstructures": 6174,
      "Ġzinc": 6175,
      "Ġlisted": 6176,
      "86": 6177,
      "ĠOper": 6178,
      "Ġorche": 6179,
      "ĠTechn": 6180,
      "Ġatom": 6181,
      "enses": 6182,
      "Ġlooks": 6183,
      "Ġspoke": 6184,
      "lom": 6185,
      "Ġclaims": 6186,
      "Ġefforts": 6187,
      "Ġsuggested": 6188,
      "Ġ250": 6189,
      "rist": 6190,
      "aches": 6191,
      "Ġamounts": 6192,
      "ĠMcN": 6193,
      "anguage": 6194,
      "Ġgeneration": 6195,
      "ĠPhilipp": 6196,
      "Ġgenes": 6197,
      "ĠStephen": 6198,
      "Ġfiction": 6199,
      "Ġadult": 6200,
      "Ġdivisional": 6201,
      "ĠCambridge": 6202,
      "Ġwrong": 6203,
      "ien": 6204,
      "ocol": 6205,
      "Ġdisplay": 6206,
      "Ġrepublic": 6207,
      "Ġlat": 6208,
      "pri": 6209,
      "Ġcreating": 6210,
      "Ġproducer": 6211,
      "ĠMoscow": 6212,
      "owing": 6213,
      "ensions": 6214,
      "cy": 6215,
      "ĠNorway": 6216,
      "Ġdoctor": 6217,
      "ĠWarsaw": 6218,
      "Ġmap": 6219,
      "Ġmakeup": 6220,
      "bury": 6221,
      "ĠSand": 6222,
      "Ġsovereign": 6223,
      "rog": 6224,
      "Ġborders": 6225,
      "Ġinjured": 6226,
      "CH": 6227,
      "Ġlose": 6228,
      "Ġmoves": 6229,
      "Ġveget": 6230,
      "Ġwaves": 6231,
      "Guy": 6232,
      "arn": 6233,
      "Ġfaster": 6234,
      "temporary": 6235,
      "life": 6236,
      "Ġspring": 6237,
      "Ġgraph": 6238,
      "Ġpregn": 6239,
      "Ġunable": 6240,
      "Ġpicture": 6241,
      "rm": 6242,
      "haps": 6243,
      "Ġnut": 6244,
      "Ġfeatured": 6245,
      "Ġinstance": 6246,
      "Ġpeoples": 6247,
      "Ġreject": 6248,
      "Ġbill": 6249,
      "col": 6250,
      "ĠMajor": 6251,
      "Ġfaith": 6252,
      "ĠVI": 6253,
      "French": 6254,
      "74": 6255,
      "Ġstreet": 6256,
      "Ġalbums": 6257,
      "ĠNazi": 6258,
      "ĠJanik": 6259,
      "Ġfactors": 6260,
      "ĠBus": 6261,
      "Ġblocked": 6262,
      "iop": 6263,
      "ĠCarter": 6264,
      "Ġnothing": 6265,
      "speaking": 6266,
      "oln": 6267,
      "Ġstorm": 6268,
      "ĠUSA": 6269,
      "istered": 6270,
      "ĠSerb": 6271,
      "Ġfumb": 6272,
      "Ġ1972": 6273,
      "Ġfruit": 6274,
      "ĠPier": 6275,
      "Ġsilver": 6276,
      "ĠAnderson": 6277,
      "alia": 6278,
      "Ġdepend": 6279,
      "ĠHart": 6280,
      "ĠEducation": 6281,
      "va": 6282,
      "Ġforest": 6283,
      "ĠJanikowski": 6284,
      "ĠAkers": 6285,
      "ĠGood": 6286,
      "ĠCalvin": 6287,
      "Ġgather": 6288,
      "igan": 6289,
      "ĠJane": 6290,
      "erts": 6291,
      "respond": 6292,
      "Ġfuel": 6293,
      "Ġrose": 6294,
      "Ġargued": 6295,
      "Ġabsor": 6296,
      "Ġartist": 6297,
      "ĠRecords": 6298,
      "Ġcorrect": 6299,
      "ĠReagan": 6300,
      "Ġhorse": 6301,
      "Ġ{}}]": 6302,
      "ĠTre": 6303,
      "Ġacts": 6304,
      "Ġlasted": 6305,
      "Ġplans": 6306,
      "Ġrecover": 6307,
      "Ġknew": 6308,
      "ĠIndones": 6309,
      "iot": 6310,
      "Ġlimit": 6311,
      "Ã§": 6312,
      "ĠStand": 6313,
      "Ġhospital": 6314,
      "Ġarmies": 6315,
      "Ġcolour": 6316,
      "ĠJr": 6317,
      "Ġgrass": 6318,
      "Ġstring": 6319,
      "Ġ2021": 6320,
      "Ġfailure": 6321,
      "Ġseparated": 6322,
      "Ġmix": 6323,
      "Ġusers": 6324,
      "ĠShaun": 6325,
      "ĠMic": 6326,
      "ĠEnc": 6327,
      "Ġensuing": 6328,
      "Ġslightly": 6329,
      "ĠSeveral": 6330,
      "ĠMountains": 6331,
      "Ġrout": 6332,
      "bro": 6333,
      "ounger": 6334,
      "Ġrepresented": 6335,
      "Ġissued": 6336,
      "ĠColumbia": 6337,
      "ĠSk": 6338,
      "ĠMediterranean": 6339,
      "Ġholding": 6340,
      "etres": 6341,
      "Ġwave": 6342,
      "Ġcausing": 6343,
      "Ġshared": 6344,
      "works": 6345,
      "ĠJordan": 6346,
      "ĠÎ": 6347,
      "Many": 6348,
      "avery": 6349,
      "issance": 6350,
      "instein": 6351,
      "Ġheight": 6352,
      "eing": 6353,
      "Ġpainting": 6354,
      "Ġdiscovery": 6355,
      "Ġfaced": 6356,
      "ĠMen": 6357,
      "Ġ1977": 6358,
      "Ġobtain": 6359,
      "||": 6360,
      "ĠEU": 6361,
      "Ġvoice": 6362,
      "Ġchanging": 6363,
      "eston": 6364,
      "Ġqual": 6365,
      "Ġauthorities": 6366,
      "ĠMuhammad": 6367,
      "All": 6368,
      "Ġconstit": 6369,
      "Ġinitial": 6370,
      "ĠMP": 6371,
      "ĠÅ": 6372,
      "anches": 6373,
      "Ġopposition": 6374,
      "ĠCastle": 6375,
      "Guyed": 6376,
      "Bl": 6377,
      "Ġapart": 6378,
      "gor": 6379,
      "Ġbes": 6380,
      "Ġ1983": 6381,
      "ĠHealth": 6382,
      "ĠAnim": 6383,
      "pet": 6384,
      "Ġinstrument": 6385,
      "autiful": 6386,
      "IA": 6387,
      "ĠLike": 6388,
      "stan": 6389,
      "Ġactor": 6390,
      "Ġclothing": 6391,
      "RA": 6392,
      "Ġchlor": 6393,
      "alin": 6394,
      "Ġeveryone": 6395,
      "ĠBCE": 6396,
      "Ġgoods": 6397,
      "Ġimpact": 6398,
      "81": 6399,
      "da": 6400,
      "CC": 6401,
      "By": 6402,
      "essed": 6403,
      "Ġrebellion": 6404,
      "related": 6405,
      "ĠSpe": 6406,
      "din": 6407,
      "Ġsugar": 6408,
      "ĠSenate": 6409,
      "ĠOrigin": 6410,
      "Ġ1967": 6411,
      "Ġgenetic": 6412,
      "Ġthousand": 6413,
      "Ġfear": 6414,
      "Ġraid": 6415,
      "Ġscreen": 6416,
      "Ġcotton": 6417,
      "Ġconcert": 6418,
      "Ġdance": 6419,
      "Ġregained": 6420,
      "iled": 6421,
      "Ġ2022": 6422,
      "Ġbattles": 6423,
      "Mar": 6424,
      "Ġopport": 6425,
      "79": 6426,
      "IN": 6427,
      "ĠFreder": 6428,
      "bec": 6429,
      "Ġcondition": 6430,
      "Ġmagazine": 6431,
      "Ä«": 6432,
      "Ġdefend": 6433,
      "ĠPhys": 6434,
      "Ġcycle": 6435,
      "Ġhour": 6436,
      "Ġsuccessfully": 6437,
      "Ġbought": 6438,
      "Ġtow": 6439,
      "Ġrein": 6440,
      "Ġhundreds": 6441,
      "ĠDig": 6442,
      "Ġlosses": 6443,
      "ĠNobel": 6444,
      "akers": 6445,
      "ĠNotes": 6446,
      "VHF": 6447,
      "thes": 6448,
      "Ġ1917": 6449,
      "Ġcars": 6450,
      "ĠSax": 6451,
      "Ġcouncil": 6452,
      "lahoma": 6453,
      "poses": 6454,
      "Ġtend": 6455,
      "UHF": 6456,
      "Ġvolume": 6457,
      "li": 6458,
      "Ġdaily": 6459,
      "rie": 6460,
      "Ġund": 6461,
      "Ġarmed": 6462,
      "Ġheard": 6463,
      "uous": 6464,
      "ishing": 6465,
      "ĠMexican": 6466,
      "ĠOw": 6467,
      "Ġlayer": 6468,
      "ockey": 6469,
      "rence": 6470,
      "Ġexecutive": 6471,
      "ĠCarr": 6472,
      "iques": 6473,
      "Ġsick": 6474,
      "Ġproved": 6475,
      "ĠRena": 6476,
      "Ġtitles": 6477,
      "Ġtells": 6478,
      "Ġdrin": 6479,
      "Ġnecessary": 6480,
      "ĠOp": 6481,
      "Ġvalley": 6482,
      "Ġeye": 6483,
      "organ": 6484,
      "ĠHot": 6485,
      "Ġfresh": 6486,
      "TER": 6487,
      "Ġ1969": 6488,
      "Ġdeveloping": 6489,
      "Ġpop": 6490,
      "Ġunique": 6491,
      "ĠKong": 6492,
      "ĠMarshall": 6493,
      "People": 6494,
      "top": 6495,
      "Ġdivers": 6496,
      "ĠNA": 6497,
      "ĠLuther": 6498,
      "ĠReed": 6499,
      "Ġopposite": 6500,
      "ĠOfficial": 6501,
      "ĠPictures": 6502,
      "Ġchosen": 6503,
      "ĠHanson": 6504,
      "ester": 6505,
      "ima": 6506,
      "Ġgods": 6507,
      "Pl": 6508,
      "Ġreserv": 6509,
      "itors": 6510,
      "antry": 6511,
      "hips": 6512,
      "Ġimmune": 6513,
      "Ġinitially": 6514,
      "EFA": 6515,
      "aly": 6516,
      "unity": 6517,
      "Ġdangerous": 6518,
      "Ġdecline": 6519,
      "Ġmetals": 6520,
      "tar": 6521,
      "awa": 6522,
      "ĠClin": 6523,
      "|-": 6524,
      "ĠRos": 6525,
      "ĠMarc": 6526,
      "Ġpassage": 6527,
      "Ġboot": 6528,
      "Ġdevice": 6529,
      "bie": 6530,
      "Ġmilk": 6531,
      "Europe": 6532,
      "luding": 6533,
      "Ġequipment": 6534,
      "ĠMoon": 6535,
      "osm": 6536,
      "Ġdepending": 6537,
      "ĠHay": 6538,
      "rying": 6539,
      "Ġsoil": 6540,
      "Ġclosely": 6541,
      "ĠLight": 6542,
      "ĠAsh": 6543,
      "Ġclasses": 6544,
      "Ġpark": 6545,
      "gie": 6546,
      "Ġrelative": 6547,
      "Ġcas": 6548,
      "ĠTu": 6549,
      "ader": 6550,
      "Ġarts": 6551,
      "ĠChap": 6552,
      "Ġarri": 6553,
      "Ġfans": 6554,
      "ĠCorn": 6555,
      "Ġagree": 6556,
      "irty": 6557,
      "ĠSar": 6558,
      "ĠNate": 6559,
      "enger": 6560,
      "iform": 6561,
      "Ġouter": 6562,
      "endar": 6563,
      "Ġ56": 6564,
      "vania": 6565,
      "Ġpermanent": 6566,
      "Ġmotion": 6567,
      "achus": 6568,
      "Ġreduce": 6569,
      "ĠDi": 6570,
      "ibbe": 6571,
      "pool": 6572,
      "Ġgravity": 6573,
      "ĠKu": 6574,
      "Ġexerc": 6575,
      "ĠEric": 6576,
      "Ġtack": 6577,
      "Ġdim": 6578,
      "ĠFire": 6579,
      "ĠAlf": 6580,
      "Ġinterceptions": 6581,
      "Ġelim": 6582,
      "ĠRoad": 6583,
      "incoln": 6584,
      "2001": 6585,
      "Ġidentified": 6586,
      "Ġtal": 6587,
      "Ġscript": 6588,
      "ĠFar": 6589,
      "aming": 6590,
      "ĠDavis": 6591,
      "Ġplate": 6592,
      "Ġnoted": 6593,
      "Ġcustom": 6594,
      "ĠVienna": 6595,
      "Ġcur": 6596,
      "ĠLin": 6597,
      "ĠSto": 6598,
      "hyl": 6599,
      "Ġmodels": 6600,
      "Ġbul": 6601,
      "Ġslave": 6602,
      "uum": 6603,
      "Sp": 6604,
      "TA": 6605,
      "Ġholds": 6606,
      "beck": 6607,
      "Ġsecondary": 6608,
      "Ġcontrast": 6609,
      "ĠDaw": 6610,
      "Ġdegrees": 6611,
      "âĶ": 6612,
      "ĠDer": 6613,
      "Man": 6614,
      "Ġut": 6615,
      "umed": 6616,
      "ĠVan": 6617,
      "Ġmeasured": 6618,
      "onna": 6619,
      "Ġ2023": 6620,
      "itable": 6621,
      "Ġexecuted": 6622,
      "ĠEver": 6623,
      "Mus": 6624,
      "ras": 6625,
      "Ġadj": 6626,
      "iology": 6627,
      "Ġprey": 6628,
      "ĠBroad": 6629,
      "\"),": 6630,
      "Ġ;": 6631,
      "iring": 6632,
      "Ġaffected": 6633,
      "Cl": 6634,
      "ses": 6635,
      "ĠJupiter": 6636,
      "Ġminority": 6637,
      "Ġdecades": 6638,
      "Ġsymbols": 6639,
      "Ġappar": 6640,
      "Ġextremely": 6641,
      "Ġeigh": 6642,
      "otes": 6643,
      "Ġcorrespond": 6644,
      "Ġhomes": 6645,
      "Ġtraff": 6646,
      "Ġshoot": 6647,
      "Ġopposed": 6648,
      "Ġ1964": 6649,
      "ibbean": 6650,
      "Ġbridge": 6651,
      "Ġhero": 6652,
      "transmissionU": 6653,
      "Ġreact": 6654,
      "Ġworship": 6655,
      "Ġcore": 6656,
      "ĠCount": 6657,
      "Ġdominated": 6658,
      "Ġ57": 6659,
      "prus": 6660,
      "Ġforward": 6661,
      "oncÃ©": 6662,
      "Ġstadium": 6663,
      "Ġlaunch": 6664,
      "ĠNov": 6665,
      "Ġdisp": 6666,
      "Ġmist": 6667,
      "sth": 6668,
      "Ġprefer": 6669,
      "ĠFestival": 6670,
      "come": 6671,
      "ulated": 6672,
      "Ġpictures": 6673,
      "Ġlots": 6674,
      "Ġgreatly": 6675,
      "ĠInstead": 6676,
      "Ġtempor": 6677,
      "ĠSpecial": 6678,
      "Ġcomposers": 6679,
      "Ġult": 6680,
      "iling": 6681,
      "ĠSol": 6682,
      "ĠArthur": 6683,
      "ĠBarb": 6684,
      "ĠUt": 6685,
      "zh": 6686,
      "Re": 6687,
      "ĠMov": 6688,
      "Ġsucceeded": 6689,
      "ictionary": 6690,
      "Ġwriters": 6691,
      "84": 6692,
      "prise": 6693,
      "ĠLewis": 6694,
      "ĠDaniel": 6695,
      "Ġsacked": 6696,
      "structed": 6697,
      "dam": 6698,
      "Ġnort": 6699,
      "ĠmastUHF": 6700,
      "ĠKe": 6701,
      "Ġnewspaper": 6702,
      "Ġdioxide": 6703,
      "ga": 6704,
      "apor": 6705,
      "Ġeffective": 6706,
      "2004": 6707,
      "ĠSummer": 6708,
      "ĠLove": 6709,
      "lem": 6710,
      "ĠEgyptian": 6711,
      "ĠJenn": 6712,
      "ounted": 6713,
      "roc": 6714,
      "Ġbull": 6715,
      "Ġexhib": 6716,
      "ĠOffice": 6717,
      "Ġsalt": 6718,
      "Ġexplain": 6719,
      "Ġruler": 6720,
      "Ġrob": 6721,
      "Ġgases": 6722,
      "Ġimportance": 6723,
      "itals": 6724,
      "Ġded": 6725,
      "Ġdiplom": 6726,
      "ĠCE": 6727,
      "Ġalcohol": 6728,
      "Ġmos": 6729,
      "ĠTam": 6730,
      "oca": 6731,
      "Ġemph": 6732,
      "Ġassass": 6733,
      "ĠPolit": 6734,
      "Com": 6735,
      "Ġatomic": 6736,
      "ĠStafford": 6737,
      "ĠKennedy": 6738,
      "ĠAth": 6739,
      "Ġ1966": 6740,
      "ĠKerry": 6741,
      "ampion": 6742,
      "Ð½": 6743,
      "Ġfloor": 6744,
      "ĠAmong": 6745,
      "jan": 6746,
      "Ġboys": 6747,
      "ĠJustice": 6748,
      "PA": 6749,
      "Ġpositions": 6750,
      "Ġhall": 6751,
      "aine": 6752,
      "Ġtrial": 6753,
      "ĠBetween": 6754,
      "Ġemotion": 6755,
      "Ġsurrounding": 6756,
      "Ġuser": 6757,
      "Ġvictim": 6758,
      "etts": 6759,
      "Ġgalax": 6760,
      "Ġalphabet": 6761,
      "Ġ:": 6762,
      "Ġtexts": 6763,
      "standing": 6764,
      "greg": 6765,
      "ĠDown": 6766,
      "ĠTal": 6767,
      "ocide": 6768,
      "endered": 6769,
      "Ġdiscover": 6770,
      "Ġstarts": 6771,
      "Ġendzone": 6772,
      "ĠArm": 6773,
      "ĠYale": 6774,
      "Ġft": 6775,
      "Ġcommunication": 6776,
      ".:": 6777,
      "ĠThough": 6778,
      "ocked": 6779,
      "ilding": 6780,
      "Ġbottom": 6781,
      "Ġdecade": 6782,
      "ĠCH": 6783,
      "Ã¡n": 6784,
      "Ġheadquarters": 6785,
      "ĠYears": 6786,
      "Ġengineering": 6787,
      "Ġeasier": 6788,
      "ora": 6789,
      "Ġrare": 6790,
      "ĠAh": 6791,
      "Ġdialect": 6792,
      "From": 6793,
      "Ġleadership": 6794,
      "ĠService": 6795,
      "Ġmeters": 6796,
      "Ġimplement": 6797,
      "Ġevolved": 6798,
      "Ġexperiment": 6799,
      "ĠAssembly": 6800,
      "Ġpurs": 6801,
      "Ġsched": 6802,
      "Ġ1949": 6803,
      "Ġroute": 6804,
      "ĠTest": 6805,
      "Ġmagnetic": 6806,
      "Ġspin": 6807,
      "Ġunderstanding": 6808,
      "Ġnewly": 6809,
      "Ġdoub": 6810,
      "ĠBoy": 6811,
      "Ġedition": 6812,
      "2010": 6813,
      "Ġwides": 6814,
      "Ġtiny": 6815,
      "ĠBuddhism": 6816,
      "Ġgender": 6817,
      "ĠAaron": 6818,
      "Ġactions": 6819,
      "including": 6820,
      "2005": 6821,
      "Ġshall": 6822,
      "Ġcircum": 6823,
      "elve": 6824,
      "Ġderived": 6825,
      "Ġ95": 6826,
      "ĠJacksonville": 6827,
      "ĠChe": 6828,
      "Ġkilom": 6829,
      "Ġsealed": 6830,
      "Ġincom": 6831,
      "Ġmusicians": 6832,
      "ĠSa": 6833,
      "Ã¼r": 6834,
      "ĠEarl": 6835,
      "Ġchampionship": 6836,
      "Ġprinciple": 6837,
      "poration": 6838,
      "Ġalliance": 6839,
      "APTER": 6840,
      "ruct": 6841,
      "arson": 6842,
      "ĠCyprus": 6843,
      "Ġmal": 6844,
      "key": 6845,
      "Ġvalues": 6846,
      "ĠFran": 6847,
      "han": 6848,
      "Ġformation": 6849,
      "ĠGreeks": 6850,
      "Ġquantum": 6851,
      "Ġbed": 6852,
      "Ġfeed": 6853,
      "oral": 6854,
      "Ġ1900": 6855,
      "Ġdominant": 6856,
      "ĠMars": 6857,
      "ĠUkraine": 6858,
      "oring": 6859,
      "orage": 6860,
      "Ġvirt": 6861,
      "Ġhappy": 6862,
      "irds": 6863,
      "Ġchemicals": 6864,
      "opulation": 6865,
      "Ġtheories": 6866,
      "ĠOh": 6867,
      "Ġoperation": 6868,
      "achusetts": 6869,
      "Ġ1961": 6870,
      "Ġsimpl": 6871,
      "Ġ1944": 6872,
      "ĠIll": 6873,
      "umer": 6874,
      "ĠJustin": 6875,
      "ging": 6876,
      "car": 6877,
      "ĠHun": 6878,
      "etball": 6879,
      "ĠMason": 6880,
      "ĠEle": 6881,
      "ĠResearch": 6882,
      "ĠOklahoma": 6883,
      "Ġvess": 6884,
      "alem": 6885,
      "ĠJersey": 6886,
      "ĠFound": 6887,
      "hyth": 6888,
      "ĠPC": 6889,
      "ĠPower": 6890,
      "opin": 6891,
      "eler": 6892,
      "ĠArist": 6893,
      "ĠAnne": 6894,
      "Ġapplications": 6895,
      "Ġdistingu": 6896,
      "mese": 6897,
      "inity": 6898,
      "Ġcapacity": 6899,
      "bus": 6900,
      "Ġpractices": 6901,
      "Ġfigures": 6902,
      "Ġemphas": 6903,
      "rial": 6904,
      "Ġintr": 6905,
      "Ġsteam": 6906,
      "Ġthinking": 6907,
      "Ġtropical": 6908,
      "Ġmachines": 6909,
      "ĠInf": 6910,
      "pread": 6911,
      "ĠPost": 6912,
      "ĠHaven": 6913,
      "ĠWalt": 6914,
      "ĠLincoln": 6915,
      "uranium": 6916,
      "onder": 6917,
      "Ġseat": 6918,
      "kicker": 6919,
      "hr": 6920,
      "Ġrecomm": 6921,
      "ĠMelbourne": 6922,
      "Ġlake": 6923,
      "2007": 6924,
      "Ġeffort": 6925,
      "ansk": 6926,
      "2008": 6927,
      "Ġ?": 6928,
      "real": 6929,
      "ĠAlaska": 6930,
      "while": 6931,
      "Ġyounger": 6932,
      "Ġperfect": 6933,
      "Ġfunctions": 6934,
      "Ap": 6935,
      "atar": 6936,
      "Ġearthquake": 6937,
      "Ġbaby": 6938,
      "Ġign": 6939,
      "Ġhistoric": 6940,
      "Ġsixth": 6941,
      "aka": 6942,
      "Ġtrail": 6943,
      "Ġtwenty": 6944,
      "ĠArmenia": 6945,
      "Ġfrequently": 6946,
      "owd": 6947,
      "ulty": 6948,
      "Ġexpensive": 6949,
      "Ġvacc": 6950,
      "Ġdrives": 6951,
      "Ġmedieval": 6952,
      "Ġbright": 6953,
      "Ġshell": 6954,
      "Ġmarched": 6955,
      "Ġillegal": 6956,
      "oto": 6957,
      "acks": 6958,
      "!\"": 6959,
      "Ã£": 6960,
      "Ġmess": 6961,
      "ĠSel": 6962,
      "Ġearned": 6963,
      "Ġautonom": 6964,
      "Ġtons": 6965,
      "Ġzero": 6966,
      "IS": 6967,
      "Ġadapt": 6968,
      "Ġmis": 6969,
      "Ġsuggest": 6970,
      "rons": 6971,
      "ulate": 6972,
      "ĠQing": 6973,
      "oen": 6974,
      "link": 6975,
      "Sc": 6976,
      "ĠHawai": 6977,
      "ĠHong": 6978,
      "ĠProf": 6979,
      "atieri": 6980,
      "Ġpros": 6981,
      "Ġsteel": 6982,
      "Ġchrom": 6983,
      "ĠHit": 6984,
      "ĠDrew": 6985,
      "ĠGer": 6986,
      "ashion": 6987,
      "ĠHo": 6988,
      "Ġinfr": 6989,
      "Ġ59": 6990,
      "ĠRomania": 6991,
      "Ġadministrative": 6992,
      "Ġcateg": 6993,
      "oint": 6994,
      "Ġsomew": 6995,
      "One": 6996,
      "emen": 6997,
      "oslav": 6998,
      "oly": 6999,
      "Ġsurvive": 7000,
      "Ġanalysis": 7001,
      "Ġnom": 7002,
      "uber": 7003,
      "Ġuranium": 7004,
      "2003": 7005,
      "aimed": 7006,
      "irmed": 7007,
      "ĠCommittee": 7008,
      "hat": 7009,
      "Ġphen": 7010,
      "Ġdirected": 7011,
      "kin": 7012,
      "ĠUl": 7013,
      "Ã³n": 7014,
      "zen": 7015,
      "Ġdrink": 7016,
      "Ġpersons": 7017,
      "itional": 7018,
      "olics": 7019,
      "To": 7020,
      "erb": 7021,
      "Ġsevent": 7022,
      "Ġpan": 7023,
      "Ġrestric": 7024,
      "ais": 7025,
      "ĠFurther": 7026,
      "Ġvo": 7027,
      "Ġoccasion": 7028,
      "chers": 7029,
      "Ġinterpret": 7030,
      "ja": 7031,
      "=\"": 7032,
      "icide": 7033,
      "ĠVinatieri": 7034,
      "Ġsoul": 7035,
      "ĠMassachusetts": 7036,
      "Ġcontinent": 7037,
      "Ġslavery": 7038,
      "Ġresiding": 7039,
      "ni": 7040,
      "wise": 7041,
      "ĠMun": 7042,
      "Ġallies": 7043,
      "Ġdialects": 7044,
      "Ġpolicies": 7045,
      "ĠRus": 7046,
      "Ġ1000": 7047,
      "Ġchoose": 7048,
      "ĠFamily": 7049,
      "ustries": 7050,
      "ĠBab": 7051,
      "Ġvit": 7052,
      "hemical": 7053,
      "otal": 7054,
      "Ġring": 7055,
      "ikh": 7056,
      "eor": 7057,
      "Ġspr": 7058,
      "rum": 7059,
      "Ġsites": 7060,
      "plete": 7061,
      "ĠBall": 7062,
      "Ġpig": 7063,
      "ĠColor": 7064,
      "Ġmathematics": 7065,
      "Ġcourts": 7066,
      "Ġwidespread": 7067,
      "omans": 7068,
      "Ġtrading": 7069,
      "Ġswim": 7070,
      "ÑĢ": 7071,
      "Ġaffect": 7072,
      "ĠGoth": 7073,
      "Ġremember": 7074,
      "ologist": 7075,
      "Ġexpedition": 7076,
      "vis": 7077,
      "ĠCros": 7078,
      "ĠHell": 7079,
      "Ġ1948": 7080,
      "Ġtraditions": 7081,
      "Ġdesert": 7082,
      "ĠLawrence": 7083,
      "elopment": 7084,
      "Ġcritical": 7085,
      "ĠCuba": 7086,
      "Ġpure": 7087,
      "Ġplacekicker": 7088,
      "%).": 7089,
      "Ġviolence": 7090,
      "Ġthick": 7091,
      "ĠProduc": 7092,
      "Ġterror": 7093,
      "Ġexperiments": 7094,
      "Ġwins": 7095,
      "ironas": 7096,
      "ployment": 7097,
      "stream": 7098,
      "Ġtrou": 7099,
      "2009": 7100,
      "Ġ1963": 7101,
      "enter": 7102,
      "ĠExamples": 7103,
      "ĠEncyclop": 7104,
      "olin": 7105,
      "Ġsulf": 7106,
      "John": 7107,
      "ĠTs": 7108,
      "Ġstaff": 7109,
      "Ġnit": 7110,
      "Ġrural": 7111,
      "Ġoccurs": 7112,
      "Ġx": 7113,
      "aser": 7114,
      "ĠMaced": 7115,
      "ften": 7116,
      "Ġ1941": 7117,
      "ĠMiller": 7118,
      "Ġorg": 7119,
      "aza": 7120,
      "Ġcolle": 7121,
      "Ġ1965": 7122,
      "ĠJean": 7123,
      "Ġsav": 7124,
      "fe": 7125,
      "ĠWomen": 7126,
      "ĠSky": 7127,
      "Ġrot": 7128,
      "Ġspot": 7129,
      "ĠCaribbean": 7130,
      "ĠRussell": 7131,
      "Ġroughly": 7132,
      "Ġteaching": 7133,
      "De": 7134,
      "amber": 7135,
      "ĠLis": 7136,
      "Ġsubsequently": 7137,
      "ĠConstantin": 7138,
      "Ġpil": 7139,
      "ĠMing": 7140,
      "ighter": 7141,
      "ĠThus": 7142,
      "ogle": 7143,
      "ĠĠĠĠĠĠĠĠĠĠĠĠĠĠĠĠ": 7144,
      "Ġconnection": 7145,
      "ĠBurmese": 7146,
      "zym": 7147,
      "Ġstores": 7148,
      "attan": 7149,
      "Ġsuff": 7150,
      "Ġvisible": 7151,
      "ĠEll": 7152,
      "Ġquestions": 7153,
      "Ġrebels": 7154,
      "ĠPeace": 7155,
      "ĠLibrary": 7156,
      "ectors": 7157,
      "Ġrailway": 7158,
      "His": 7159,
      "Ġowners": 7160,
      "avalry": 7161,
      "ifying": 7162,
      "udget": 7163,
      "2006": 7164,
      "Ġcampus": 7165,
      "Ġadults": 7166,
      "ĠĊĠĊ": 7167,
      "ĠEntertainment": 7168,
      "ilton": 7169,
      "ching": 7170,
      "ĠFlacco": 7171,
      "Ġstandards": 7172,
      "ĠSaud": 7173,
      "ĠVis": 7174,
      "Ġpup": 7175,
      "aris": 7176,
      "ĠBironas": 7177,
      "bra": 7178,
      "ĠDyn": 7179,
      "ĠBeyoncÃ©": 7180,
      "uis": 7181,
      "ĠDick": 7182,
      "Ġarrested": 7183,
      "ĠRadio": 7184,
      "anas": 7185,
      "ĠKas": 7186,
      "syl": 7187,
      "ĠHispanic": 7188,
      "Ġmental": 7189,
      "Ġspeaking": 7190,
      "Ġmanagement": 7191,
      "ĠGulf": 7192,
      "ĠDanish": 7193,
      "ĠKen": 7194,
      "Ġachieved": 7195,
      "Ġairport": 7196,
      "Ġdiet": 7197,
      "Ġ()": 7198,
      "Ġbiology": 7199,
      "Ġappears": 7200,
      "ining": 7201,
      "ĠPop": 7202,
      "ĠVinc": 7203,
      "Ã¦": 7204,
      "ousin": 7205,
      "law": 7206,
      "Ġwithdr": 7207,
      "Ġactual": 7208,
      "ËĲ": 7209,
      "ĠMarg": 7210,
      "Ġneighborhood": 7211,
      "Ġperiods": 7212,
      "Ġstruggle": 7213,
      "Ġabandon": 7214,
      "Ġofficer": 7215,
      "Ġconducted": 7216,
      "ema": 7217,
      "Ġdeficit": 7218,
      "Flag": 7219,
      "har": 7220,
      "Ġworth": 7221,
      "ĠEinstein": 7222,
      "ĠArgent": 7223,
      "Ġrub": 7224,
      "Ġmillions": 7225,
      "orph": 7226,
      "Ġpoison": 7227,
      "ĠMaur": 7228,
      "iffer": 7229,
      "Ġ1800": 7230,
      "ĠRussians": 7231,
      "Ġagriculture": 7232,
      "ĠCampbell": 7233,
      "Ġteacher": 7234,
      "ĠByzantine": 7235,
      "ĠFrederick": 7236,
      "Ġsa": 7237,
      "Ġtox": 7238,
      "Ġflows": 7239,
      "Ġcomposer": 7240,
      "á¹": 7241,
      "Ġmic": 7242,
      "Ġkings": 7243,
      "ĠSaturn": 7244,
      "ĠTen": 7245,
      "Ġexisted": 7246,
      "ĠBol": 7247,
      "ĠChad": 7248,
      "Most": 7249,
      "Ġ1939": 7250,
      "rupt": 7251,
      "Ġsought": 7252,
      "hire": 7253,
      "Ġsmallest": 7254,
      "tery": 7255,
      "Ġcalendar": 7256,
      "ĠEnd": 7257,
      "ultan": 7258,
      "ĠLev": 7259,
      "olling": 7260,
      "Ġbranches": 7261,
      "Ġchair": 7262,
      "Ġsafe": 7263,
      "ĠArts": 7264,
      "Ġjournal": 7265,
      "Ġindigenous": 7266,
      "ijing": 7267,
      "edd": 7268,
      "ĠSeb": 7269,
      "itionally": 7270,
      "Ġelectrical": 7271,
      "BM": 7272,
      "Ġce": 7273,
      "ĠLittle": 7274,
      "ĠExplorer": 7275,
      "dney": 7276,
      "do": 7277,
      "ĠCatholics": 7278,
      "ĠLen": 7279,
      "Ġcharged": 7280,
      "ĠWalter": 7281,
      "Ġnaval": 7282,
      "Ġphr": 7283,
      "ĠDawson": 7284,
      "Ġepisode": 7285,
      "ĠMes": 7286,
      "Ġprominent": 7287,
      "Ġburied": 7288,
      "Ġly": 7289,
      "stone": 7290,
      "term": 7291,
      "Ġadvance": 7292,
      "Ã£o": 7293,
      "Ġaccident": 7294,
      "Ġhitting": 7295,
      "ĠâĶ": 7296,
      "arians": 7297,
      "El": 7298,
      "Ġwine": 7299,
      "Ġcommitted": 7300,
      "Ġexperi": 7301,
      "Ġdetermined": 7302,
      "IFA": 7303,
      "Ġdat": 7304,
      "Ġplane": 7305,
      "ĠLithuania": 7306,
      "aders": 7307,
      "Ġprotest": 7308,
      "inate": 7309,
      "ĠFinn": 7310,
      "Ġcovers": 7311,
      "acon": 7312,
      "ĠMoore": 7313,
      "ti": 7314,
      "osev": 7315,
      "Ġsetting": 7316,
      "Ġbeliefs": 7317,
      "enburg": 7318,
      "ĠBir": 7319,
      "Ġends": 7320,
      "Ġsky": 7321,
      "ancing": 7322,
      "Ġdoor": 7323,
      "Ġcheck": 7324,
      "Ġdict": 7325,
      "istor": 7326,
      "ĠOttomans": 7327,
      "Ġprogramming": 7328,
      "mi": 7329,
      "Ġbegins": 7330,
      "Ġrenew": 7331,
      "asy": 7332,
      "ĠAbb": 7333,
      "Ġhole": 7334,
      "Ġcounties": 7335,
      "Ġopera": 7336,
      "Ġelectronic": 7337,
      "ĠTa": 7338,
      "Ġescape": 7339,
      "Ġconcentr": 7340,
      "heim": 7341,
      "Ġgall": 7342,
      "ĠBor": 7343,
      "ĠChief": 7344,
      "Ġfewer": 7345,
      "Ġpurposes": 7346,
      "ĠSoutheast": 7347,
      "Ġstrip": 7348,
      "unately": 7349,
      "ĠEdwards": 7350,
      "Ġregarded": 7351,
      "ums": 7352,
      "ĠThose": 7353,
      "oster": 7354,
      "Ġhooked": 7355,
      "ĠUniversal": 7356,
      "Ġstyles": 7357,
      "Ġreaching": 7358,
      "ania": 7359,
      "Ġviews": 7360,
      "ĠReport": 7361,
      "fam": 7362,
      "ĠNiger": 7363,
      "Ġclassification": 7364,
      "ĠPot": 7365,
      "rete": 7366,
      "ĠTurn": 7367,
      "Ġinspired": 7368,
      "ĠPun": 7369,
      "ĠKit": 7370,
      "shire": 7371,
      "Ġrenamed": 7372,
      "sylvania": 7373,
      "Ġdates": 7374,
      "Ã±": 7375,
      "Ġcoff": 7376,
      "anche": 7377,
      "orses": 7378,
      "Ġminute": 7379,
      "Ġadvert": 7380,
      "ĠEuropeans": 7381,
      "ĠSeries": 7382,
      "ĠEthiop": 7383,
      "Ġjoint": 7384,
      "portion": 7385,
      "ĠRenaissance": 7386,
      "Ġformat": 7387,
      "ĠClinton": 7388,
      "Ġunc": 7389,
      "Ġbelief": 7390,
      "Ġcornerback": 7391,
      "Ġwinner": 7392,
      "Ġfumbled": 7393,
      "aub": 7394,
      "Ġchain": 7395,
      "arl": 7396,
      "ĠAnglo": 7397,
      "Ġtranslation": 7398,
      "Ġmonarchy": 7399,
      "Ġcomponents": 7400,
      "lying": 7401,
      "Ġcommander": 7402,
      "Ġbanks": 7403,
      "udden": 7404,
      "ĠSebast": 7405,
      "Ġacquired": 7406,
      "Ġequival": 7407,
      "ira": 7408,
      "ĠOnce": 7409,
      "Pro": 7410,
      "ĠTok": 7411,
      "Ġdiam": 7412,
      "cha": 7413,
      "ilitary": 7414,
      "pson": 7415,
      "ĠUEFA": 7416,
      "ĠGeography": 7417,
      "ĠCommunity": 7418,
      "ĠCrosby": 7419,
      "ods": 7420,
      "Ġhistorians": 7421,
      "ĠNon": 7422,
      "Ġestablishment": 7423,
      "Ġconnecting": 7424,
      "ĠThird": 7425,
      "800": 7426,
      "enge": 7427,
      "Ġbeautiful": 7428,
      "largest": 7429,
      "room": 7430,
      "Ġcomment": 7431,
      "Ġeleph": 7432,
      "1990": 7433,
      "Ġtraffic": 7434,
      "ĠLeonard": 7435,
      "aked": 7436,
      "Ġanyone": 7437,
      "EC": 7438,
      "Ġfixed": 7439,
      "sey": 7440,
      "idden": 7441,
      "ifically": 7442,
      "Ġclassified": 7443,
      "Ġmassive": 7444,
      "Ġtechniques": 7445,
      "Ġsubsequent": 7446,
      "ĠNug": 7447,
      "Ġleads": 7448,
      "ĠKaeding": 7449,
      "mun": 7450,
      "Ġhop": 7451,
      "Ġcontemporary": 7452,
      "ĠAnth": 7453,
      "Ġsubstance": 7454,
      "ĠNav": 7455,
      "uerto": 7456,
      "ĠMot": 7457,
      "600": 7458,
      "Ġbear": 7459,
      "Ġvehicles": 7460,
      "ĠBull": 7461,
      "fish": 7462,
      "Ġtypical": 7463,
      "Ġflood": 7464,
      "ĠHon": 7465,
      "Ġtaxes": 7466,
      "ĠObama": 7467,
      "antic": 7468,
      "Ġpicked": 7469,
      "Ġcrimes": 7470,
      "Ġconquest": 7471,
      "Ġcrops": 7472,
      "Ġfled": 7473,
      "Ġorders": 7474,
      "Ġpreserv": 7475,
      "ĠPatrick": 7476,
      "Ġmigr": 7477,
      "lymouth": 7478,
      "aration": 7479,
      "hard": 7480,
      "istant": 7481,
      "Ġgone": 7482,
      "Ġisol": 7483,
      "Ġcrowd": 7484,
      "Ġ1962": 7485,
      "Ġphase": 7486,
      "Ġinfluential": 7487,
      "ĠHitler": 7488,
      "elson": 7489,
      "uins": 7490,
      "Ġlakes": 7491,
      "agen": 7492,
      "ĠJud": 7493,
      "ĠMaria": 7494,
      "ĠSpace": 7495,
      "Ġcab": 7496,
      "Ġsurvived": 7497,
      "Ġroots": 7498,
      "rophy": 7499,
      "ĠCoast": 7500,
      "ĠFoundation": 7501,
      "osevelt": 7502,
      "eton": 7503,
      "Ġ1953": 7504,
      "ĠSquare": 7505,
      "Ġengines": 7506,
      "Ġcouple": 7507,
      "arks": 7508,
      "Ġbeer": 7509,
      "Ġreference": 7510,
      "Ġ1922": 7511,
      "Ġbrothers": 7512,
      "Ġindustries": 7513,
      "Ġheavily": 7514,
      "sthma": 7515,
      "backer": 7516,
      "ĠMedia": 7517,
      "ĠTelevision": 7518,
      "ĠGh": 7519,
      "Ġdecide": 7520,
      "grad": 7521,
      "ĠScientists": 7522,
      "ĠCarson": 7523,
      "Ġpharm": 7524,
      "Ġlibrary": 7525,
      "raf": 7526,
      "2002": 7527,
      "ĠGi": 7528,
      "Ġneur": 7529,
      "after": 7530,
      "atically": 7531,
      "Ġdeclined": 7532,
      "engers": 7533,
      "ĠPlan": 7534,
      "ĠCathedral": 7535,
      "amental": 7536,
      "ĠRights": 7537,
      "ĠEst": 7538,
      "Ġ...": 7539,
      "hattan": 7540,
      "ĠBros": 7541,
      "Ġcontest": 7542,
      "ĠMare": 7543,
      "lishing": 7544,
      "Ġstable": 7545,
      "Ġglac": 7546,
      "lig": 7547,
      "ocks": 7548,
      "ĠAlexand": 7549,
      "European": 7550,
      "ĠAristot": 7551,
      "ĠOpen": 7552,
      "Ġtherm": 7553,
      "Ġsevere": 7554,
      "ĠAndre": 7555,
      "'m": 7556,
      "Ġmaster": 7557,
      "anskrit": 7558,
      "ez": 7559,
      "ĠAC": 7560,
      "Ġsed": 7561,
      "Ġcou": 7562,
      "Ġcontinues": 7563,
      "took": 7564,
      "ĠHeb": 7565,
      "Ġrestaur": 7566,
      "ĠAustrian": 7567,
      "ĠDoctor": 7568,
      "ĠConstantinople": 7569,
      "gu": 7570,
      "ĠLive": 7571,
      "SP": 7572,
      "isp": 7573,
      "Ġconsole": 7574,
      "Ġsignificantly": 7575,
      "Ġattrib": 7576,
      "ĠCross": 7577,
      "Ġexactly": 7578,
      "Ġcarries": 7579,
      "ĠEis": 7580,
      "Ġpresented": 7581,
      "Ġlingu": 7582,
      "iki": 7583,
      "Ġguard": 7584,
      "nie": 7585,
      "otte": 7586,
      "Ġburned": 7587,
      "Ġdelivered": 7588,
      "ĠNugent": 7589,
      "Ġteeth": 7590,
      "ito": 7591,
      "umes": 7592,
      "8212": 7593,
      "Ġfolk": 7594,
      "ĠRail": 7595,
      "Ġsemi": 7596,
      "Ġportion": 7597,
      "Ġeating": 7598,
      "Ġath": 7599,
      "senal": 7600,
      "orf": 7601,
      "Ġentirely": 7602,
      "ares": 7603,
      "ented": 7604,
      "Ġputting": 7605,
      "Ġoccupation": 7606,
      "irt": 7607,
      "Ġstatement": 7608,
      "ione": 7609,
      "idel": 7610,
      "Ġcastle": 7611,
      "Ġimmigrants": 7612,
      "yo": 7613,
      "ourney": 7614,
      "Ġdescend": 7615,
      "Pr": 7616,
      "ĠAllen": 7617,
      "Ġframe": 7618,
      "Ġreports": 7619,
      "Ġbask": 7620,
      "ĠMagn": 7621,
      "ĠChopin": 7622,
      "ĠPennsylvania": 7623,
      "Ġdisag": 7624,
      "eland": 7625,
      "ĠLyn": 7626,
      "Ġrid": 7627,
      "Ġvide": 7628,
      "Ġdram": 7629,
      "Ġtreated": 7630,
      "ĠMcNabb": 7631,
      "ĠDam": 7632,
      "class": 7633,
      "inea": 7634,
      "hess": 7635,
      "wiki": 7636,
      "Ġalive": 7637,
      "ĠLy": 7638,
      "Ð¾Ð": 7639,
      "luded": 7640,
      "ĠXX": 7641,
      "ells": 7642,
      "Ġsets": 7643,
      "Ġpet": 7644,
      "ĠStandard": 7645,
      "rosc": 7646,
      "Ġsupporters": 7647,
      "Ġshortest": 7648,
      "Ġforests": 7649,
      "verty": 7650,
      "Ġcomedy": 7651,
      "Ġperhaps": 7652,
      "father": 7653,
      "Ġ61": 7654,
      "Ġgradually": 7655,
      "Ġorient": 7656,
      "Ġfavour": 7657,
      "arge": 7658,
      "athan": 7659,
      "prising": 7660,
      "ĠOhio": 7661,
      "Ġhurt": 7662,
      "Ġ1919": 7663,
      "ursday": 7664,
      "aga": 7665,
      "Ġdollars": 7666,
      "ĠUpper": 7667,
      "agement": 7668,
      "ĠHome": 7669,
      "ĠThrough": 7670,
      "Ġsons": 7671,
      "Ġmixt": 7672,
      "Ġsurrounded": 7673,
      "olas": 7674,
      "Ġconsequ": 7675,
      "ĠAmericas": 7676,
      "ĠIndians": 7677,
      "Ġlegs": 7678,
      "ĠMean": 7679,
      "VD": 7680,
      "Ġgiant": 7681,
      "ĠTheatre": 7682,
      "Ġpoverty": 7683,
      "Ġda": 7684,
      "lan": 7685,
      "lywood": 7686,
      "Ġprotected": 7687,
      "ĠBeat": 7688,
      "German": 7689,
      "ĠAmaz": 7690,
      "Ġunknown": 7691,
      "ĠRoosevelt": 7692,
      "Ġgene": 7693,
      "ĠProgr": 7694,
      "Ġsentence": 7695,
      "kes": 7696,
      "sm": 7697,
      "zy": 7698,
      "Ġ1947": 7699,
      "Ġplatform": 7700,
      "ctic": 7701,
      "Ġpatterns": 7702,
      "Ġstret": 7703,
      "Ġpropos": 7704,
      "Ġmanufacturing": 7705,
      "ÑĤ": 7706,
      "Ġton": 7707,
      "Station": 7708,
      "Ġincreasingly": 7709,
      "Ġemerged": 7710,
      "Ġmarg": 7711,
      "ĠMoss": 7712,
      "Ġfrequency": 7713,
      "Ġseats": 7714,
      "Ġagricultural": 7715,
      "heastern": 7716,
      "urday": 7717,
      "Ġdemocracy": 7718,
      "amps": 7719,
      "Ġtrav": 7720,
      "Ġruling": 7721,
      "ĠDarwin": 7722,
      "Ġlinebacker": 7723,
      "Ġlaid": 7724,
      "presents": 7725,
      "miss": 7726,
      "ĠBrook": 7727,
      "Ġkid": 7728,
      "ĠVick": 7729,
      "Ġpartners": 7730,
      "Ġ99": 7731,
      "ĠBurma": 7732,
      "ĠBelgium": 7733,
      "gar": 7734,
      "Ġsand": 7735,
      "Ġinvolve": 7736,
      "ĠCas": 7737,
      "----": 7738,
      "aug": 7739,
      "Ġresear": 7740,
      "ĠDevelopment": 7741,
      "Ġmort": 7742,
      "emies": 7743,
      "Ġenemy": 7744,
      "afi": 7745,
      "Ġrequires": 7746,
      "Ġlung": 7747,
      "Ġopin": 7748,
      "Ġexisting": 7749,
      "Premier": 7750,
      "ĠThursday": 7751,
      "Ġimpr": 7752,
      "Ġsubjects": 7753,
      "ĠCommunist": 7754,
      "ĠGram": 7755,
      "ĠBeijing": 7756,
      "ifer": 7757,
      "ĠConvention": 7758,
      "oh": 7759,
      "alism": 7760,
      "ĠUSB": 7761,
      "ĠRelig": 7762,
      "Ġacademic": 7763,
      "bu": 7764,
      "Ġphotos": 7765,
      "ST": 7766,
      "Ġselling": 7767,
      "ĠNBA": 7768,
      "Ġclothes": 7769,
      "Ġdoctors": 7770,
      "anj": 7771,
      "Ġbudget": 7772,
      "osexual": 7773,
      "place": 7774,
      "Ġages": 7775,
      "ĠArabia": 7776,
      "osh": 7777,
      "Ġvast": 7778,
      "Ġinterested": 7779,
      "Ġguns": 7780,
      "ruption": 7781,
      "ĠSebastian": 7782,
      "Ġcopyright": 7783,
      "Ġdiagn": 7784,
      "ĠWild": 7785,
      "Ġsurrendered": 7786,
      "Ġrevealed": 7787,
      "Ġadding": 7788,
      "ĠProvince": 7789,
      "Ġplus": 7790,
      "Ġ63": 7791,
      "Ġrejected": 7792,
      "Ġmatches": 7793,
      "Ġlayers": 7794,
      "worth": 7795,
      "Go": 7796,
      "isher": 7797,
      "osaurs": 7798,
      "Ġchose": 7799,
      "Or": 7800,
      "unction": 7801,
      "ĠSyria": 7802,
      "Ġfactor": 7803,
      "Ġstronger": 7804,
      "ĠLongwell": 7805,
      "ĠSaudi": 7806,
      "Ġtiss": 7807,
      "Ġanthrop": 7808,
      "Ġmaximum": 7809,
      "ĠStone": 7810,
      "ĠRackers": 7811,
      "They": 7812,
      "Ġoffices": 7813,
      "Ġarchae": 7814,
      "Ġhonor": 7815,
      "romagn": 7816,
      "ride": 7817,
      "ĠSecurity": 7818,
      "Ġlies": 7819,
      "ĠFall": 7820,
      "Ġcrust": 7821,
      "arin": 7822,
      "Ġspar": 7823,
      "urally": 7824,
      "Ġsigns": 7825,
      "Ġpushed": 7826,
      "Ġforcing": 7827,
      "Ġ1914": 7828,
      "break": 7829,
      "Ġtwelve": 7830,
      "Ġdiverse": 7831,
      "Ġscene": 7832,
      "Ġconcluded": 7833,
      "ĠMercury": 7834,
      "Ġillness": 7835,
      "Ġprocesses": 7836,
      "Ġpenis": 7837,
      "ĠBa": 7838,
      "Ġsupposed": 7839,
      "Ġcasual": 7840,
      "Ġ74": 7841,
      "Ġaudio": 7842,
      "olve": 7843,
      "Ġ62": 7844,
      "Ġholes": 7845,
      "ĠPuerto": 7846,
      "ĠPeterson": 7847,
      "ĠHal": 7848,
      "Ġrulers": 7849,
      "ĠSwiss": 7850,
      "Ġtesting": 7851,
      "Ġplague": 7852,
      "Ġcollect": 7853,
      "ĠNam": 7854,
      "Ġowner": 7855,
      "eld": 7856,
      "urric": 7857,
      "ĠManhattan": 7858,
      "ĠCaes": 7859,
      "ĠLindell": 7860,
      "Ġ85": 7861,
      "Ġcombination": 7862,
      "vest": 7863,
      "tered": 7864,
      "Ġdebt": 7865,
      "Ġrar": 7866,
      "Ġ737": 7867,
      "ĠMichigan": 7868,
      "ĠConserv": 7869,
      "iverpool": 7870,
      "Ġsettlers": 7871,
      "ela": 7872,
      "Ġacting": 7873,
      "Ġcontinental": 7874,
      "ĠXbox": 7875,
      "Ġbrown": 7876,
      "but": 7877,
      "Ġchoice": 7878,
      "Ġdivisions": 7879,
      "ĠRam": 7880,
      "ceans": 7881,
      "minute": 7882,
      "ĠIndonesia": 7883,
      "Ġsubstant": 7884,
      "Ġwithdraw": 7885,
      "Ġready": 7886,
      "Ġrhyth": 7887,
      "ĠJohann": 7888,
      "Ġdiscip": 7889,
      "Ġwaste": 7890,
      "ccession": 7891,
      "Ġreactions": 7892,
      "AR": 7893,
      "Ġgirls": 7894,
      "elly": 7895,
      "Ġrepresents": 7896,
      "Ġproduces": 7897,
      "ĠKarl": 7898,
      "ĠNed": 7899,
      "ugoslav": 7900,
      "ĠSaturday": 7901,
      "Ġlinked": 7902,
      "Ġvice": 7903,
      "Ġorganism": 7904,
      "Ġvotes": 7905,
      "Ġalternative": 7906,
      "ucks": 7907,
      "ĠCroat": 7908,
      "Ġparticle": 7909,
      "Ġchalleng": 7910,
      "ĠWat": 7911,
      "2014": 7912,
      "Ġcharacteristics": 7913,
      "ĠPrincess": 7914,
      "ĠPhilippines": 7915,
      "ampton": 7916,
      "ĠShow": 7917,
      "ĠStudios": 7918,
      "Ġexperienced": 7919,
      "asm": 7920,
      "Ġisot": 7921,
      "apse": 7922,
      "ĠRobbie": 7923,
      "ĠFore": 7924,
      "ĠJam": 7925,
      "ounce": 7926,
      "ĠAntarctica": 7927,
      "uchy": 7928,
      "Ġdoctr": 7929,
      "ruction": 7930,
      "ĠGoogle": 7931,
      "Ġinduc": 7932,
      "Ġtab": 7933,
      "ĠCountry": 7934,
      "uris": 7935,
      "Ġstands": 7936,
      "Ġ1956": 7937,
      "ĠSydney": 7938,
      "ĠDonald": 7939,
      "Ġaccompan": 7940,
      "Ġaccused": 7941,
      "Ġax": 7942,
      "Ġshop": 7943,
      "Ġconfirmed": 7944,
      "ĠNep": 7945,
      "minster": 7946,
      "iro": 7947,
      "Ġroles": 7948,
      "ectic": 7949,
      "chen": 7950,
      "ĠChile": 7951,
      "Ġdepos": 7952,
      "You": 7953,
      "erals": 7954,
      "Ġlabour": 7955,
      "ĠBow": 7956,
      "ologies": 7957,
      "tes": 7958,
      "ĠBruce": 7959,
      "abad": 7960,
      "iciency": 7961,
      "Ġ78": 7962,
      "Ġmedium": 7963,
      "Ġsave": 7964,
      "ashed": 7965,
      "Ġindic": 7966,
      "Ġconcl": 7967,
      "Ġsort": 7968,
      "ailand": 7969,
      "ĠDemocr": 7970,
      "Ġproteins": 7971,
      "wa": 7972,
      "Ġfit": 7973,
      "Ġexists": 7974,
      "Ġforming": 7975,
      "ĠZh": 7976,
      "ĠMalays": 7977,
      "Ġcelebrated": 7978,
      "wikipedia": 7979,
      "ĠMarx": 7980,
      "Ġfertil": 7981,
      "Ġvacuum": 7982,
      "ĠBat": 7983,
      "Ġrepeated": 7984,
      "Ġwants": 7985,
      "usive": 7986,
      "Ġvillages": 7987,
      "otions": 7988,
      "onz": 7989,
      "Ġvoted": 7990,
      "Ġnoun": 7991,
      "Ġitems": 7992,
      "Ġ600": 7993,
      "Ġinterview": 7994,
      "Ġbehavi": 7995,
      "Ġmobile": 7996,
      "anny": 7997,
      "Ġcamps": 7998,
      "Ġfocused": 7999,
      "then": 8000,
      "Ġmaintained": 8001,
      "Ġapplication": 8002,
      "olute": 8003,
      "Ġsocieties": 8004,
      "ĠGuard": 8005,
      "OS": 8006,
      "ĠStalin": 8007,
      "Ġenzym": 8008,
      "byter": 8009,
      "Ġenvironmental": 8010,
      "ĠIndependence": 8011,
      "Ġbiological": 8012,
      "ĠPierre": 8013,
      "rogen": 8014,
      "ĠBal": 8015,
      "ifications": 8016,
      "ĠChen": 8017,
      "uten": 8018,
      "osed": 8019,
      "ĠHassel": 8020,
      "Ġdisput": 8021,
      "700": 8022,
      "Ġgarr": 8023,
      "Ġceremony": 8024,
      "teenth": 8025,
      "ĠQuran": 8026,
      "Ġseems": 8027,
      "ON": 8028,
      "Ġholid": 8029,
      "Ġapply": 8030,
      "Ġdebate": 8031,
      "riff": 8032,
      "ĠSaf": 8033,
      "Ġdisk": 8034,
      "Ġdivor": 8035,
      "Ġhabit": 8036,
      "ĠAnthony": 8037,
      "Ġdecor": 8038,
      "Ġwaters": 8039,
      "Ġformally": 8040,
      "Ġextensive": 8041,
      "ĠKyle": 8042,
      "Ġphenomen": 8043,
      "Ġclim": 8044,
      "ifferent": 8045,
      "Ġcommission": 8046,
      "Ġfarming": 8047,
      "ĠBad": 8048,
      "ĠSports": 8049,
      "ĠLower": 8050,
      "Ġprojects": 8051,
      "Ġabol": 8052,
      "ĠTop": 8053,
      "ĠIP": 8054,
      "ĠHarvard": 8055,
      "Af": 8056,
      "ĠPlymouth": 8057,
      "ĠNev": 8058,
      "Ġattended": 8059,
      "ĠFeely": 8060,
      "Ġwhereas": 8061,
      "ĠPalest": 8062,
      "Ġbusinesses": 8063,
      "cious": 8064,
      "icon": 8065,
      "ĠKim": 8066,
      "ĠReggie": 8067,
      "eff": 8068,
      "ĠSav": 8069,
      "idency": 8070,
      "Ġfounder": 8071,
      "Ġcoastal": 8072,
      "rising": 8073,
      "Ġfirm": 8074,
      "Ġstood": 8075,
      "ĠConfeder": 8076,
      "Ġ)": 8077,
      "Ġexplained": 8078,
      "Ġ66": 8079,
      "Ġkilometres": 8080,
      "Ġgenocide": 8081,
      "Ġcontributed": 8082,
      "Ġestimate": 8083,
      "ĠEli": 8084,
      "etics": 8085,
      "avia": 8086,
      "Ġ68": 8087,
      "Ġbrows": 8088,
      "Ġdescribes": 8089,
      "Ġ1959": 8090,
      "Ġpeas": 8091,
      "olith": 8092,
      "ĠTurks": 8093,
      "Ġrevolt": 8094,
      "ĠHasselbeck": 8095,
      "ĠRud": 8096,
      "Ġimag": 8097,
      "Ġpunish": 8098,
      "usalem": 8099,
      "ĠNorman": 8100,
      "uccess": 8101,
      "Ġnotably": 8102,
      "Ġbringing": 8103,
      "appe": 8104,
      "Ġbreaking": 8105,
      "Ġstrongly": 8106,
      "Ġratio": 8107,
      "ĠKr": 8108,
      "urricane": 8109,
      "oli": 8110,
      "Ġcareful": 8111,
      "Ġcharges": 8112,
      "RGB": 8113,
      "entially": 8114,
      "Ġtrip": 8115,
      "Ġdowntown": 8116,
      "Ġrings": 8117,
      "Ġneutral": 8118,
      "Ġsail": 8119,
      "Ġtelesc": 8120,
      "ogue": 8121,
      "Ġresident": 8122,
      "Ġimpl": 8123,
      "Ġsubstances": 8124,
      "Ġsatellite": 8125,
      "usted": 8126,
      "Ġpoetry": 8127,
      "ĠHa": 8128,
      "Ġevening": 8129,
      "Ġstorage": 8130,
      "Ġcrew": 8131,
      "owder": 8132,
      "Ġ1921": 8133,
      "ĠFIFA": 8134,
      "ĠBernard": 8135,
      "ĠFair": 8136,
      "gery": 8137,
      "hea": 8138,
      "alse": 8139,
      "2011": 8140,
      "alan": 8141,
      "stood": 8142,
      "ĠChi": 8143,
      "riers": 8144,
      "Air": 8145,
      "Ġhorses": 8146,
      "elo": 8147,
      "erek": 8148,
      "2013": 8149,
      "Ġselection": 8150,
      "ĠNelson": 8151,
      "Ġsolo": 8152,
      "Ġunus": 8153,
      "Ġepisodes": 8154,
      "ãĥ": 8155,
      "ĠConference": 8156,
      "ĠBengal": 8157,
      "ĠSpring": 8158,
      "Ġ93": 8159,
      "ixon": 8160,
      "Ġmoons": 8161,
      "ET": 8162,
      "Ġasthma": 8163,
      "Ġoption": 8164,
      "ĠPet": 8165,
      "Ġ1911": 8166,
      "Ġmerch": 8167,
      "ĠDo": 8168,
      "illery": 8169,
      "Ġopt": 8170,
      "Ġ1952": 8171,
      "ĠHard": 8172,
      "ĠYuan": 8173,
      "ĠReal": 8174,
      "Ġpopularity": 8175,
      "nex": 8176,
      "Ġtransportation": 8177,
      "Don": 8178,
      "Ġstanding": 8179,
      "dinand": 8180,
      "Ġreplace": 8181,
      "ĠBillboard": 8182,
      "ĠMadrid": 8183,
      "Ġconstitutional": 8184,
      "ĠiPod": 8185,
      "ayne": 8186,
      "ĠChannel": 8187,
      "ĠOrganization": 8188,
      "Ġrit": 8189,
      "Ġprinciples": 8190,
      "ĠYugoslav": 8191
    },
    "merges": [
      [
        "Ġ",
        "t"
      ],
      [
        "h",
        "e"
      ],
      [
        "i",
        "n"
      ],
      [
        "Ġ",
        "a"
      ],
      [
        "o",
        "n"
      ],
      [
        "e",
        "r"
      ],
      [
        "Ġt",
        "he"
      ],
      [
        "e",
        "s"
      ],
      [
        "a",
        "t"
      ],
      [
        "o",
        "r"
      ],
      [
        "Ġ",
        "\""
      ],
      [
        "a",
        "n"
      ],
      [
        "a",
        "r"
      ],
      [
        "e",
        "n"
      ],
      [
        "e",
        "d"
      ],
      [
        "Ġ",
        "w"
      ],
      [
        "Ġ",
        "s"
      ],
      [
        "Ġ",
        "c"
      ],
      [
        "Ġ",
        "o"
      ],
      [
        "i",
        "on"
      ],
      [
        "\"",
        ":"
      ],
      [
        "i",
        "t"
      ],
      [
        "i",
        "s"
      ],
      [
        "a",
        "l"
      ],
      [
        "r",
        "e"
      ],
      [
        "Ġ",
        "f"
      ],
      [
        "in",
        "g"
      ],
      [
        "Ġo",
        "f"
      ],
      [
        "Ġ",
        "in"
      ],
      [
        "Ġa",
        "n"
      ],
      [
        "Ġ",
        "p"
      ],
      [
        "Ġ",
        "b"
      ],
      [
        "Ġt",
        "o"
      ],
      [
        "a",
        "s"
      ],
      [
        "i",
        "c"
      ],
      [
        "Ġ",
        "m"
      ],
      [
        "Ġan",
        "d"
      ],
      [
        "Ġ",
        "d"
      ],
      [
        "o",
        "u"
      ],
      [
        "a",
        "m"
      ],
      [
        "e",
        "t"
      ],
      [
        "r",
        "i"
      ],
      [
        "o",
        "m"
      ],
      [
        "Ġ",
        "l"
      ],
      [
        "s",
        "t"
      ],
      [
        "Ġ",
        "h"
      ],
      [
        "Ġ",
        "T"
      ],
      [
        "en",
        "t"
      ],
      [
        "\"",
        ","
      ],
      [
        "t",
        "ion"
      ],
      [
        "{",
        "\""
      ],
      [
        "e",
        "l"
      ],
      [
        "i",
        "l"
      ],
      [
        "Ġ",
        "{\""
      ],
      [
        "Ġ",
        "S"
      ],
      [
        "o",
        "l"
      ],
      [
        "e",
        "c"
      ],
      [
        "Ġ",
        "1"
      ],
      [
        "Ġ",
        "A"
      ],
      [
        "er",
        "s"
      ],
      [
        "Ġ",
        "C"
      ],
      [
        "u",
        "r"
      ],
      [
        "Ġ",
        "n"
      ],
      [
        "Ġ",
        "e"
      ],
      [
        "Ġt",
        "h"
      ],
      [
        "d",
        "es"
      ],
      [
        "o",
        "w"
      ],
      [
        "Ġ",
        "g"
      ],
      [
        "p",
        "tion"
      ],
      [
        "c",
        "ri"
      ],
      [
        "at",
        "ion"
      ],
      [
        "cri",
        "ption"
      ],
      [
        "des",
        "cription"
      ],
      [
        "a",
        "c"
      ],
      [
        "u",
        "s"
      ],
      [
        "l",
        "e"
      ],
      [
        "a",
        "d"
      ],
      [
        "i",
        "m"
      ],
      [
        "u",
        "n"
      ],
      [
        "Ġf",
        "or"
      ],
      [
        "r",
        "o"
      ],
      [
        "Ġ",
        "on"
      ],
      [
        "Ġ",
        "is"
      ],
      [
        "Ġ",
        "B"
      ],
      [
        "i",
        "r"
      ],
      [
        "Ġ",
        "re"
      ],
      [
        "Ġ",
        "M"
      ],
      [
        "i",
        "d"
      ],
      [
        "Ġc",
        "on"
      ],
      [
        "Ġ",
        "I"
      ],
      [
        "p",
        "e"
      ],
      [
        "am",
        "e"
      ],
      [
        "ĠT",
        "he"
      ],
      [
        "t",
        "er"
      ],
      [
        "c",
        "h"
      ],
      [
        "t",
        "e"
      ],
      [
        "Ġ",
        "P"
      ],
      [
        "v",
        "e"
      ],
      [
        "}",
        "}"
      ],
      [
        "v",
        "er"
      ],
      [
        "o",
        "t"
      ],
      [
        "t",
        "y"
      ],
      [
        "l",
        "y"
      ],
      [
        "Ġw",
        "as"
      ],
      [
        "at",
        "e"
      ],
      [
        "it",
        "h"
      ],
      [
        "Ġ",
        "2"
      ],
      [
        "Ġ",
        "("
      ],
      [
        "a",
        "y"
      ],
      [
        "Ġ",
        "R"
      ],
      [
        "he",
        "r"
      ],
      [
        "Ġ",
        "r"
      ],
      [
        "x",
        "t"
      ],
      [
        "c",
        "e"
      ],
      [
        "i",
        "g"
      ],
      [
        "u",
        "t"
      ],
      [
        "u",
        "m"
      ],
      [
        "st",
        "r"
      ],
      [
        "Ġw",
        "ith"
      ],
      [
        "u",
        "l"
      ],
      [
        "ty",
        "pe"
      ],
      [
        "a",
        "g"
      ],
      [
        "Ġ",
        "H"
      ],
      [
        "ar",
        "d"
      ],
      [
        "Ġa",
        "s"
      ],
      [
        "t",
        "h"
      ],
      [
        "0",
        "0"
      ],
      [
        "Ġs",
        "t"
      ],
      [
        "o",
        "d"
      ],
      [
        "q",
        "u"
      ],
      [
        "o",
        "p"
      ],
      [
        "}",
        ","
      ],
      [
        "Ġ",
        "E"
      ],
      [
        "Ġ",
        "W"
      ],
      [
        "str",
        "ing"
      ],
      [
        "Ġ",
        "F"
      ],
      [
        "Ġb",
        "e"
      ],
      [
        "Ġ",
        "D"
      ],
      [
        "Ġ",
        "G"
      ],
      [
        "r",
        "om"
      ],
      [
        "Ġth",
        "at"
      ],
      [
        "or",
        "d"
      ],
      [
        "an",
        "d"
      ],
      [
        "Ġw",
        "h"
      ],
      [
        "o",
        "s"
      ],
      [
        "es",
        "s"
      ],
      [
        "ou",
        "n"
      ],
      [
        "Ġb",
        "y"
      ],
      [
        "o",
        "c"
      ],
      [
        "Ġ",
        "N"
      ],
      [
        "es",
        "t"
      ],
      [
        "Ġa",
        "l"
      ],
      [
        "Ġ",
        "L"
      ],
      [
        "Ġ",
        "or"
      ],
      [
        "p",
        "ar"
      ],
      [
        "a",
        "in"
      ],
      [
        "Ġa",
        "re"
      ],
      [
        "is",
        "t"
      ],
      [
        "Ġ",
        "J"
      ],
      [
        "e",
        "m"
      ],
      [
        "'",
        "s"
      ],
      [
        "n",
        "ame"
      ],
      [
        "te",
        "xt"
      ],
      [
        "et",
        "ers"
      ],
      [
        "Ġ",
        "it"
      ],
      [
        "Ġ1",
        "9"
      ],
      [
        "e",
        "ar"
      ],
      [
        "ĠI",
        "n"
      ],
      [
        "an",
        "s"
      ],
      [
        "al",
        "l"
      ],
      [
        "i",
        "v"
      ],
      [
        "Ġf",
        "rom"
      ],
      [
        "an",
        "g"
      ],
      [
        "\"",
        "}}"
      ],
      [
        "t",
        "s"
      ],
      [
        "Ġcon",
        "text"
      ],
      [
        "am",
        "eters"
      ],
      [
        "par",
        "ameters"
      ],
      [
        "it",
        "y"
      ],
      [
        "Ġc",
        "om"
      ],
      [
        "l",
        "d"
      ],
      [
        "Ġ",
        "he"
      ],
      [
        "Ġp",
        "ro"
      ],
      [
        "Ġa",
        "t"
      ],
      [
        "a",
        "b"
      ],
      [
        "g",
        "h"
      ],
      [
        "a",
        "k"
      ],
      [
        "a",
        "p"
      ],
      [
        "Ġ",
        "O"
      ],
      [
        "u",
        "p"
      ],
      [
        "i",
        "f"
      ],
      [
        "y",
        "ard"
      ],
      [
        "Ġd",
        "e"
      ],
      [
        "ow",
        "n"
      ],
      [
        "Ġ",
        "un"
      ],
      [
        "Ġ",
        "v"
      ],
      [
        "il",
        "l"
      ],
      [
        "i",
        "es"
      ],
      [
        "ic",
        "h"
      ],
      [
        "t",
        "o"
      ],
      [
        "Ġ",
        "k"
      ],
      [
        "a",
        "ve"
      ],
      [
        "Ġe",
        "x"
      ],
      [
        "is",
        "h"
      ],
      [
        "b",
        "er"
      ],
      [
        "Ġ",
        "qu"
      ],
      [
        "en",
        "d"
      ],
      [
        "i",
        "a"
      ],
      [
        "er",
        "e"
      ],
      [
        "c",
        "c"
      ],
      [
        "or",
        "e"
      ],
      [
        "Ġ",
        "U"
      ],
      [
        "Ġ",
        "'"
      ],
      [
        "ou",
        "r"
      ],
      [
        "Ġw",
        "ere"
      ],
      [
        "ec",
        "t"
      ],
      [
        "as",
        "s"
      ],
      [
        "i",
        "an"
      ],
      [
        "t",
        "her"
      ],
      [
        "\"}}",
        "},"
      ],
      [
        "Ġ",
        "3"
      ],
      [
        "ar",
        "t"
      ],
      [
        "e",
        "w"
      ],
      [
        "in",
        "e"
      ],
      [
        "Ġ",
        "K"
      ],
      [
        "ag",
        "e"
      ],
      [
        "Ġh",
        "ave"
      ],
      [
        "\"",
        "},"
      ],
      [
        "m",
        "ent"
      ],
      [
        "Ġg",
        "o"
      ],
      [
        "s",
        "e"
      ],
      [
        "u",
        "b"
      ],
      [
        "Ġp",
        "l"
      ],
      [
        "w",
        "e"
      ],
      [
        "ou",
        "gh"
      ],
      [
        "i",
        "al"
      ],
      [
        "on",
        "d"
      ],
      [
        "u",
        "ch"
      ],
      [
        "ac",
        "k"
      ],
      [
        "o",
        "st"
      ],
      [
        "o",
        "k"
      ],
      [
        "u",
        "d"
      ],
      [
        "on",
        "g"
      ],
      [
        "a",
        "v"
      ],
      [
        "an",
        "y"
      ],
      [
        "Ġ",
        "us"
      ],
      [
        "Ġl",
        "e"
      ],
      [
        "ig",
        "h"
      ],
      [
        "i",
        "ve"
      ],
      [
        "an",
        "t"
      ],
      [
        "ĠC",
        "h"
      ],
      [
        "om",
        "e"
      ],
      [
        "i",
        "p"
      ],
      [
        "Ġt",
        "im"
      ],
      [
        "u",
        "c"
      ],
      [
        "ar",
        "g"
      ],
      [
        "â",
        "Ģ"
      ],
      [
        "Ġ",
        "y"
      ],
      [
        "or",
        "m"
      ],
      [
        "ic",
        "al"
      ],
      [
        "el",
        "l"
      ],
      [
        "ar",
        "y"
      ],
      [
        "Ġc",
        "h"
      ],
      [
        "as",
        "ed"
      ],
      [
        "or",
        "t"
      ],
      [
        "Ġn",
        "ot"
      ],
      [
        "Ġs",
        "e"
      ],
      [
        "Ġthe",
        "ir"
      ],
      [
        "T",
        "he"
      ],
      [
        "or",
        "y"
      ],
      [
        "ir",
        "st"
      ],
      [
        "Ġt",
        "r"
      ],
      [
        "Ġh",
        "is"
      ],
      [
        "as",
        "t"
      ],
      [
        "he",
        "n"
      ],
      [
        "u",
        "re"
      ],
      [
        "Ġwh",
        "ich"
      ],
      [
        "at",
        "ed"
      ],
      [
        "p",
        "l"
      ],
      [
        "a",
        "il"
      ],
      [
        "Ġ",
        "4"
      ],
      [
        "W",
        "h"
      ],
      [
        "t",
        "r"
      ],
      [
        "oun",
        "d"
      ],
      [
        "u",
        "e"
      ],
      [
        "Ġf",
        "irst"
      ],
      [
        "ic",
        "k"
      ],
      [
        "p",
        "r"
      ],
      [
        "Ġ2",
        "0"
      ],
      [
        "d",
        "er"
      ],
      [
        "s",
        "o"
      ],
      [
        "ĠS",
        "t"
      ],
      [
        "Ġs",
        "h"
      ],
      [
        "Ġ",
        "en"
      ],
      [
        "o",
        "g"
      ],
      [
        "Ġa",
        "r"
      ],
      [
        "i",
        "z"
      ],
      [
        "ou",
        "ld"
      ],
      [
        "f",
        "orm"
      ],
      [
        "e",
        "op"
      ],
      [
        "Ġh",
        "ad"
      ],
      [
        "Ġ",
        "V"
      ],
      [
        "i",
        "e"
      ],
      [
        "id",
        "e"
      ],
      [
        "i",
        "el"
      ],
      [
        "ord",
        "ing"
      ],
      [
        "ur",
        "r"
      ],
      [
        "ou",
        "t"
      ],
      [
        "ou",
        "s"
      ],
      [
        "us",
        "e"
      ],
      [
        "i",
        "k"
      ],
      [
        "eop",
        "le"
      ],
      [
        "ĠB",
        "r"
      ],
      [
        "ĠT",
        "h"
      ],
      [
        "Ġp",
        "r"
      ],
      [
        "Ġw",
        "e"
      ],
      [
        "e",
        "p"
      ],
      [
        "cc",
        "ording"
      ],
      [
        "Ġb",
        "et"
      ],
      [
        "Ġa",
        "b"
      ],
      [
        "Ġ",
        "up"
      ],
      [
        "Ġal",
        "so"
      ],
      [
        "Ġ2",
        "00"
      ],
      [
        "Ġb",
        "ut"
      ],
      [
        "Ġs",
        "p"
      ],
      [
        "m",
        "er"
      ],
      [
        "Ġh",
        "as"
      ],
      [
        "Ġa",
        "g"
      ],
      [
        "Ġin",
        "c"
      ],
      [
        "iel",
        "d"
      ],
      [
        "f",
        "ter"
      ],
      [
        "Ġthe",
        "y"
      ],
      [
        "Ġt",
        "e"
      ],
      [
        "Ġm",
        "any"
      ],
      [
        "ec",
        "ond"
      ],
      [
        "f",
        "er"
      ],
      [
        "ar",
        "ter"
      ],
      [
        "i",
        "re"
      ],
      [
        "oc",
        "ation"
      ],
      [
        "at",
        "er"
      ],
      [
        "we",
        "en"
      ],
      [
        "ĠU",
        "n"
      ],
      [
        "en",
        "s"
      ],
      [
        "Ġw",
        "or"
      ],
      [
        "it",
        "ion"
      ],
      [
        "Ġb",
        "ec"
      ],
      [
        "l",
        "and"
      ],
      [
        "ic",
        "e"
      ],
      [
        "Ġc",
        "an"
      ],
      [
        "ĠI",
        "t"
      ],
      [
        "Ġg",
        "r"
      ],
      [
        "w",
        "o"
      ],
      [
        "igh",
        "t"
      ],
      [
        "Ġbet",
        "ween"
      ],
      [
        "Ġs",
        "c"
      ],
      [
        "B",
        "ased"
      ],
      [
        "Ġp",
        "eople"
      ],
      [
        "Ġo",
        "ther"
      ],
      [
        "o",
        "v"
      ],
      [
        ")",
        ","
      ],
      [
        "d",
        "own"
      ],
      [
        "p",
        "er"
      ],
      [
        "o",
        "ok"
      ],
      [
        "u",
        "st"
      ],
      [
        "Ġc",
        "l"
      ],
      [
        "Ġqu",
        "arter"
      ],
      [
        "ang",
        "u"
      ],
      [
        "at",
        "es"
      ],
      [
        "ac",
        "t"
      ],
      [
        "Ġp",
        "ass"
      ],
      [
        "Ġc",
        "oun"
      ],
      [
        "Ġtim",
        "e"
      ],
      [
        "A",
        "ccording"
      ],
      [
        "ent",
        "s"
      ],
      [
        "Ġl",
        "angu"
      ],
      [
        "al",
        "ly"
      ],
      [
        "c",
        "es"
      ],
      [
        "Ġal",
        "l"
      ],
      [
        "Ġf",
        "ield"
      ],
      [
        "n",
        "g"
      ],
      [
        "Ġr",
        "es"
      ],
      [
        "ess",
        "ion"
      ],
      [
        "f",
        "f"
      ],
      [
        "ad",
        "e"
      ],
      [
        "en",
        "ce"
      ],
      [
        "Ġy",
        "ear"
      ],
      [
        "Ġa",
        "d"
      ],
      [
        "er",
        "m"
      ],
      [
        "form",
        "ation"
      ],
      [
        "g",
        "et"
      ],
      [
        "urr",
        "ent"
      ],
      [
        "Wh",
        "at"
      ],
      [
        "ol",
        "l"
      ],
      [
        "od",
        "e"
      ],
      [
        "Ġde",
        "f"
      ],
      [
        "Ġon",
        "e"
      ],
      [
        "ac",
        "e"
      ],
      [
        "ear",
        "ch"
      ],
      [
        "âĢ",
        "ĵ"
      ],
      [
        "a",
        "w"
      ],
      [
        "Ġt",
        "wo"
      ],
      [
        "Ġin",
        "formation"
      ],
      [
        "re",
        "e"
      ],
      [
        "Ġgo",
        "al"
      ],
      [
        ")",
        "."
      ],
      [
        "Ġth",
        "is"
      ],
      [
        "Ġit",
        "s"
      ],
      [
        "Ġm",
        "e"
      ],
      [
        "ak",
        "e"
      ],
      [
        "Ġo",
        "ut"
      ],
      [
        "Ġ",
        "5"
      ],
      [
        "it",
        "ed"
      ],
      [
        "at",
        "h"
      ],
      [
        "Ġ1",
        "8"
      ],
      [
        "Ġp",
        "er"
      ],
      [
        "Ġp",
        "art"
      ],
      [
        "Ġ",
        "im"
      ],
      [
        "Ġm",
        "ore"
      ],
      [
        "Ġl",
        "ocation"
      ],
      [
        "Ġ20",
        "1"
      ],
      [
        "p",
        "ort"
      ],
      [
        "Ġto",
        "uch"
      ],
      [
        "v",
        "al"
      ],
      [
        "'",
        "\"}}},"
      ],
      [
        "at",
        "her"
      ],
      [
        "oc",
        "k"
      ],
      [
        "Ġd",
        "id"
      ],
      [
        "Ġs",
        "econd"
      ],
      [
        "Ġs",
        "y"
      ],
      [
        "c",
        "t"
      ],
      [
        "i",
        "b"
      ],
      [
        "Ġpro",
        "v"
      ],
      [
        "an",
        "ce"
      ],
      [
        "u",
        "g"
      ],
      [
        "Ġtouch",
        "down"
      ],
      [
        "in",
        "d"
      ],
      [
        "ul",
        "t"
      ],
      [
        "Ġwh",
        "o"
      ],
      [
        "1",
        "9"
      ],
      [
        "Ġc",
        "all"
      ],
      [
        "ig",
        "n"
      ],
      [
        "Ġn",
        "um"
      ],
      [
        "ac",
        "h"
      ],
      [
        "ation",
        "s"
      ],
      [
        "on",
        "e"
      ],
      [
        "Ġle",
        "ad"
      ],
      [
        "Ġd",
        "o"
      ],
      [
        "Ġre",
        "c"
      ],
      [
        "r",
        "y"
      ],
      [
        "Ġm",
        "ost"
      ],
      [
        "ur",
        "n"
      ],
      [
        "Ġw",
        "hen"
      ],
      [
        "l",
        "es"
      ],
      [
        "ĠF",
        "r"
      ],
      [
        "Ġcon",
        "t"
      ],
      [
        "Ġw",
        "ould"
      ],
      [
        "Ġn",
        "ame"
      ],
      [
        "Ġo",
        "ver"
      ],
      [
        "Ġn",
        "e"
      ],
      [
        "ĠH",
        "e"
      ],
      [
        "ver",
        "y"
      ],
      [
        "ter",
        "n"
      ],
      [
        "ing",
        "s"
      ],
      [
        "he",
        "d"
      ],
      [
        "Ġin",
        "to"
      ],
      [
        "|",
        ">"
      ],
      [
        "<",
        "|"
      ],
      [
        "ans",
        "l"
      ],
      [
        "Ġd",
        "is"
      ],
      [
        "am",
        "p"
      ],
      [
        "ol",
        "d"
      ],
      [
        "pr",
        "ession"
      ],
      [
        "r",
        "it"
      ],
      [
        "ĠA",
        "r"
      ],
      [
        "Ġpl",
        "ay"
      ],
      [
        "il",
        "e"
      ],
      [
        "Ġun",
        "it"
      ],
      [
        "g",
        "er"
      ],
      [
        "Ġ",
        "j"
      ],
      [
        "Ġ",
        "Y"
      ],
      [
        "Ġcom",
        "p"
      ],
      [
        "id",
        "ed"
      ],
      [
        "on",
        "s"
      ],
      [
        "un",
        "it"
      ],
      [
        "Ġ",
        "el"
      ],
      [
        "Ġcall",
        "ed"
      ],
      [
        "ate",
        "g"
      ],
      [
        "el",
        "y"
      ],
      [
        "Ġc",
        "urrent"
      ],
      [
        "Ġof",
        "f"
      ],
      [
        "l",
        "ish"
      ],
      [
        "Ġab",
        "out"
      ],
      [
        "al",
        "s"
      ],
      [
        "ĠA",
        "l"
      ],
      [
        "ĠA",
        "n"
      ],
      [
        "ik",
        "e"
      ],
      [
        "Ġa",
        "fter"
      ],
      [
        "Ġw",
        "ord"
      ],
      [
        "r",
        "ic"
      ],
      [
        "mer",
        "ic"
      ],
      [
        "ur",
        "ing"
      ],
      [
        "Ġus",
        "ed"
      ],
      [
        "tion",
        "s"
      ],
      [
        "ĠTh",
        "is"
      ],
      [
        "i",
        "ed"
      ],
      [
        "ansl",
        "ate"
      ],
      [
        "Ġ",
        "6"
      ],
      [
        "Ġinc",
        "l"
      ],
      [
        "n",
        "e"
      ],
      [
        "00",
        "0"
      ],
      [
        "Ġm",
        "ade"
      ],
      [
        "Ġth",
        "an"
      ],
      [
        "k",
        "s"
      ],
      [
        "Ġre",
        "m"
      ],
      [
        "o",
        "in"
      ],
      [
        "Ġlangu",
        "age"
      ],
      [
        "r",
        "a"
      ],
      [
        "Ġte",
        "xt"
      ],
      [
        "he",
        "re"
      ],
      [
        "G",
        "et"
      ],
      [
        "t",
        "ed"
      ],
      [
        "i",
        "ent"
      ],
      [
        "o",
        "b"
      ],
      [
        "re",
        "at"
      ],
      [
        "ateg",
        "ory"
      ],
      [
        "op",
        "ul"
      ],
      [
        "Ġc",
        "ent"
      ],
      [
        "2",
        "0"
      ],
      [
        "m",
        "p"
      ],
      [
        "it",
        "e"
      ],
      [
        "Ġ",
        "7"
      ],
      [
        "Ġg",
        "ame"
      ],
      [
        "Ġon",
        "ly"
      ],
      [
        "Ġbe",
        "en"
      ],
      [
        "e",
        "v"
      ],
      [
        "'",
        "t"
      ],
      [
        "h",
        "n"
      ],
      [
        "g",
        "e"
      ],
      [
        "or",
        "s"
      ],
      [
        "ion",
        "s"
      ],
      [
        "o",
        "y"
      ],
      [
        "Ġcom",
        "m"
      ],
      [
        "ation",
        "al"
      ],
      [
        "f",
        "t"
      ],
      [
        "Ġe",
        "v"
      ],
      [
        "d",
        "uc"
      ],
      [
        "e",
        "x"
      ],
      [
        "Ġthe",
        "re"
      ],
      [
        "m",
        "b"
      ],
      [
        "Ġp",
        "opul"
      ],
      [
        "Ġthe",
        "m"
      ],
[...]
