{
  "version": "1.0",
  "truncation": null,
  "padding": null,
  "added_tokens": [
    {
      "id": 0,
      "content": "<|pad|>",
      "single_word": false,
      "lstrip": false,
      "rstrip": false,
      "normalized": false,
      "special": true
    },
    {
      "id": 1,
      "content": "<|eos|>",
      "single_word": false,
      "lstrip": false,
      "rstrip": false,
      "normalized": false,
      "special": true
    },
    {
      "id": 2,
      "content": "<|context|>",
      "single_word": false,
      "lstrip": false,
      "rstrip": false,
      "normalized": false,
      "special": true
    },
    {
      "id": 3,
      "content": "<|user|>",
      "single_word": false,
      "lstrip": false,
      "rstrip": false,
      "normalized": false,
      "special": true
    },
    {
      "id": 4,
      "content": "<|assistant|>",
      "single_word": false,
      "lstrip": false,
      "rstrip": false,
      "normalized": false,
      "special": true
    },
    {
      "id": 5,
      "content": "<|refuse|>",
      "single_word": false,
      "lstrip": false,
      "rstrip": false,
      "normalized": false,
      "special": true
    }
  ],
  "normalizer": null,
  "pre_tokenizer": {
    "type": "ByteLevel",
    "add_prefix_space": false,
    "trim_offsets": true,
    "use_regex": true
  },
  "post_processor": null,
  "decoder": {
    "type": "ByteLevel",
    "add_prefix_space": true,
    "trim_offsets": true,
    "use_regex": true
  },
  "model": {
    "type": "BPE",
    "dropout": null,
    "unk_token": null,
    "continuing_subword_prefix": null,
    "end_of_word_suffix": null,
    "fuse_unk": false,
    "byte_fallback": false,
    "ignore_merges": false,
    "vocab": {
      "<|pad|>": 0,
      "<|eos|>": 1,
      "<|context|>": 2,
      "<|user|>": 3,
      "<|assistant|>": 4,
      "<|refuse|>": 5,
      "!": 6,
      "\"": 7,
      "#": 8,
      "$": 9,
      "%": 10,
      "&": 11,
      "'": 12,
      "(": 13,
      ")": 14,
      "*": 15,
      "+": 16,
      ",": 17,
      "-": 18,
      ".": 19,
      "/": 20,
      "0": 21,
      "1": 22,
      "2": 23,
      "3": 24,
      "4": 25,
      "5": 26,
      "6": 27,
      "7": 28,
      "8": 29,
      "9": 30,
      ":": 31,
      ";": 32,
      "<": 33,
      "=": 34,
      ">": 35,
      "?": 36,
      "@": 37,
      "A": 38,
      "B": 39,
      "C": 40,
      "D": 41,
      "E": 42,
      "F": 43,
      "G": 44,
      "H": 45,
      "I": 46,
      "J": 47,
      "K": 48,
      "L": 49,
      "M": 50,
      "N": 51,
      "O": 52,
      "P": 53,
      "Q": 54,
      "R": 55,
      "S": 56,
      "T": 57,
      "U": 58,
      "V": 59,
      "W": 60,
      "X": 61,
      "Y": 62,
      "Z": 63,
      "[": 64,
      "\\": 65,
      "]": 66,
      "^": 67,
      "_": 68,
      "`": 69,
      "a": 70,
      "b": 71,
      "c": 72,
      "d": 73,
      "e": 74,
      "f": 75,
      "g": 76,
      "h": 77,
      "i": 78,
      "j": 79,
      "k": 80,
      "l": 81,
      "m": 82,
      "n": 83,
      "o": 84,
      "p": 85,
      "q": 86,
      "r": 87,
      "s": 88,
      "t": 89,
      "u": 90,
      "v": 91,
      "w": 92,
      "x": 93,
      "y": 94,
      "z": 95,
      "{": 96,
      "|": 97,
      "}": 98,
      "~": 99,
      "¡": 100,
      "¢": 101,
      "£": 102,
      "¤": 103,
      "¥": 104,
      "¦": 105,
      "§": 106,
      "¨": 107,
      "©": 108,
      "ª": 109,
      "«": 110,
      "¬": 111,
      "®": 112,
      "¯": 113,
      "°": 114,
      "±": 115,
      "²": 116,
      "³": 117,
      "´": 118,
      "µ": 119,
      "¶": 120,
      "·": 121,
      "¸": 122,
      "¹": 123,
      "º": 124,
      "»": 125,
      "¼": 126,
      "½": 127,
      "¾": 128,
      "¿": 129,
      "Â": 130,
      "Ã": 131,
      "Ä": 132,
      "Å": 133,
      "Æ": 134,
      "Ç": 135,
      "È": 136,
      "É": 137,
      "Ê": 138,
      "Ë": 139,
      "Ì": 140,
      "Í": 141,
      "Î": 142,
      "Ï": 143,
      "Ð": 144,
      "Ñ": 145,
      "Ò": 146,
      "Ó": 147,
      "Ô": 148,
      "Õ": 149,
      "Ö": 150,
      "×": 151,
      "Ø": 152,
      "Ù": 153,
      "Ú": 154,
      "Û": 155,
      "Ü": 156,
      "Ý": 157,
      "Þ": 158,
      "ß": 159,
      "à": 160,
      "á": 161,
      "â": 162,
      "ã": 163,
      "ä": 164,
      "å": 165,
      "æ": 166,
      "ç": 167,
      "è": 168,
      "é": 169,
      "ê": 170,
      "ë": 171,
      "ì": 172,
      "í": 173,
      "î": 174,
      "ï": 175,
      "ð": 176,
      "Ċ": 177,
      "Ġ": 178,
      "Ģ": 179,
      "ģ": 180,
      "Ĥ": 181,
      "ĥ": 182,
      "Ħ": 183,
      "ħ": 184,
      "Ĩ": 185,
      "ĩ": 186,
      "Ī": 187,
      "ī": 188,
      "Ĭ": 189,
      "ĭ": 190,
      "Į": 191,
      "į": 192,
      "İ": 193,
      "ı": 194,
      "Ĳ": 195,
      "ĳ": 196,
      "Ĵ": 197,
      "ĵ": 198,
      "Ķ": 199,
      "ķ": 200,
      "ĸ": 201,
      "Ĺ": 202,
      "ĺ": 203,
      "Ļ": 204,
      "ļ": 205,
      "Ľ": 206,
      "ľ": 207,
      "Ŀ": 208,
      "ŀ": 209,
      "Ł": 210,
      "ł": 211,
      "Ń": 212,
      "Ġt": 213,
      "he": 214,
      "Ġa": 215,
      "in": 216,
      "Ġthe": 217,
      "on": 218,
      "er": 219,
      "re": 220,
      "at": 221,
      "ed": 222,
      "an": 223,
      "Ġo": 224,
      "Ġw": 225,
      "en": 226,
      "ar": 227,
      "or": 228,
      "Ġs": 229,
      "Ġc": 230,
      "es": 231,
      "it": 232,
      "is": 233,
      "al": 234,
      "Ġf": 235,
      "Ġin": 236,
      "Ġof": 237,
      "Ġan": 238,
      "Ġp": 239,
      "as": 240,
      "Ġto": 241,
      "Ġb": 242,
      "ing": 243,
      "ic": 244,
      "Ġand": 245,
      "ro": 246,
      "ion": 247,
      "Ġm": 248,
      "Ġd": 249,
      "ou": 250,
      "le": 251,
      "Ġh": 252,
      "ĠT": 253,
      "Ġ1": 254,
      "ĠS": 255,
      "ĠC": 256,
      "ĠA": 257,
      "el": 258,
      "ent": 259,
      "st": 260,
      "il": 261,
      "om": 262,
      "am": 263,
      "Ġth": 264,
      "Ġre": 265,
      "Ġl": 266,
      "Ġg": 267,
      "id": 268,
      "ĠB": 269,
      "ad": 270,
      "ac": 271,
      "ol": 272,
      "ĠM": 273,
      "ow": 274,
      "Ġn": 275,
      "us": 276,
      "Ġon": 277,
      "ter": 278,
      "Ġcon": 279,
      "ec": 280,
      "ir": 281,
      "ex": 282,
      "Ġ2": 283,
      "et": 284,
      "ĠI": 285,
      "ur": 286,
      "un": 287,
      "iv": 288,
      "ĠP": 289,
      "ation": 290,
      "ot": 291,
      "Ġwas": 292,
      "Ġfor": 293,
      "ĠR": 294,
      "ith": 295,
      "ĠThe": 296,
      "ly": 297,
      "im": 298,
      "ch": 299,
      "ard": 300,
      "ut": 301,
      "Ġis": 302,
      "Ġ(": 303,
      "ig": 304,
      "Ġwith": 305,
      "ers": 306,
      "ay": 307,
      "ĠH": 308,
      "Ġcont": 309,
      "Ġas": 310,
      "00": 311,
      "ce": 312,
      "ĠD": 313,
      "av": 314,
      "em": 315,
      "ĠW": 316,
      "ver": 317,
      "ĠF": 318,
      "ext": 319,
      "her": 320,
      "Ġst": 321,
      "ĠG": 322,
      "qu": 323,
      "est": 324,
      "ul": 325,
      "th": 326,
      "ĠL": 327,
      "ĠN": 328,
      "ĠE": 329,
      "Ġthat": 330,
      "ĠJ": 331,
      "and": 332,
      "os": 333,
      "op": 334,
      "Ġby": 335,
      "Ġbe": 336,
      "Ġwh": 337,
      "Ġcontext": 338,
      "ag": 339,
      "Ġr": 340,
      "Ġe": 341,
      "ain": 342,
      "Ġ19": 343,
      "Ġpro": 344,
      "ts": 345,
      "ate": 346,
      "Ġal": 347,
      "yard": 348,
      "rom": 349,
      "ri": 350,
      "'s": 351,
      "ĠIn": 352,
      "um": 353,
      "ct": 354,
      "ore": 355,
      "Ġfrom": 356,
      "Ġat": 357,
      "ist": 358,
      "ĠO": 359,
      "Ġit": 360,
      "Ġhe": 361,
      "gh": 362,
      "ld": 363,
      "od": 364,
      "Ġcom": 365,
      "ord": 366,
      "Ġqu": 367,
      "oun": 368,
      "ian": 369,
      "up": 370,
      "ap": 371,
      "cc": 372,
      "ave": 373,
      "Ġor": 374,
      "ity": 375,
      "ak": 376,
      "Ġen": 377,
      "ill": 378,
      "Ġare": 379,
      "ies": 380,
      "ere": 381,
      "if": 382,
      "Ġde": 383,
      "ame": 384,
      "all": 385,
      "ich": 386,
      "ab": 387,
      "Ġv": 388,
      "âĢ": 389,
      "Ġ\"": 390,
      "ass": 391,
      "Ġwere": 392,
      "res": 393,
      "ĠK": 394,
      "own": 395,
      "ear": 396,
      "Ġk": 397,
      "ĠU": 398,
      "ia": 399,
      "Ġhave": 400,
      "Ġ3": 401,
      "ack": 402,
      "art": 403,
      "Ġle": 404,
      "ber": 405,
      "igh": 406,
      "Ġgo": 407,
      "ew": 408,
      "ĠSt": 409,
      "uch": 410,
      "oc": 411,
      "ive": 412,
      "ĠCh": 413,
      "use": 414,
      "ess": 415,
      "ud": 416,
      "ort": 417,
      "ory": 418,
      "Ġ20": 419,
      "ant": 420,
      "ased": 421,
      "se": 422,
      "orm": 423,
      "Ġpl": 424,
      "irst": 425,
      "Ġun": 426,
      "our": 427,
      "Ġhis": 428,
      "ial": 429,
      "ish": 430,
      "ov": 431,
      "ost": 432,
      "ough": 433,
      "Ġ4": 434,
      "ast": 435,
      "any": 436,
      "Wh": 437,
      "ong": 438,
      "Ġtheir": 439,
      "ated": 440,
      "Ġfirst": 441,
      "ub": 442,
      "ment": 443,
      "Ġy": 444,
      "ell": 445,
      "Ġse": 446,
      "ther": 447,
      "ge": 448,
      "ond": 449,
      "Ġex": 450,
      "iel": 451,
      "ans": 452,
      "Ġch": 453,
      "ome": 454,
      "ary": 455,
      "Ġnot": 456,
      "arter": 457,
      "ĠV": 458,
      "ording": 459,
      "ie": 460,
      "ip": 461,
      "ield": 462,
      "Ġwhich": 463,
      "Ġ200": 464,
      "form": 465,
      "Ġprov": 466,
      "pt": 467,
      "Ġcomp": 468,
      "ccording": 469,
      "ions": 470,
      "ust": 471,
      "ect": 472,
      "Ġhad": 473,
      "âĢĵ": 474,
      "ure": 475,
      "hen": 476,
      "ick": 477,
      "ould": 478,
      "ical": 479,
      "Ġquarter": 480,
      "Ġtr": 481,
      "ok": 482,
      "Ġsp": 483,
      "ine": 484,
      "ight": 485,
      "og": 486,
      "ide": 487,
      "fter": 488,
      "Ġsh": 489,
      "end": 490,
      "Ġ201": 491,
      "Ġpass": 492,
      "According": 493,
      "ry": 494,
      "Ġfield": 495,
      "ens": 496,
      "so": 497,
      "Ġinc": 498,
      "Based": 499,
      "ff": 500,
      "ided": 501,
      "Ġsc": 502,
      "mer": 503,
      "Ġgoal": 504,
      "ous": 505,
      "ime": 506,
      "rit": 507,
      "age": 508,
      "der": 509,
      "out": 510,
      "are": 511,
      "'t": 512,
      "Ġbut": 513,
      "ire": 514,
      "ĠUn": 515,
      "Ġab": 516,
      "Ġmany": 517,
      "Ġres": 518,
      "),": 519,
      "Ġ5": 520,
      "down": 521,
      "ĠTh": 522,
      "ount": 523,
      "ue": 524,
      "Ġdon": 525,
      "ang": 526,
      "Ġtouch": 527,
      "ref": 528,
      "Ġar": 529,
      "pp": 530,
      "19": 531,
      "formation": 532,
      "ates": 533,
      "uc": 534,
      "Ġtouchdown": 535,
      "land": 536,
      "Ġint": 537,
      "aw": 538,
      "Ġag": 539,
      "The": 540,
      "ork": 541,
      "Ġinformation": 542,
      "Ġhas": 543,
      "sw": 544,
      "ep": 545,
      "Ġalso": 546,
      "iz": 547,
      "Ġenough": 548,
      "Ġcl": 549,
      "ik": 550,
      "Ġprovided": 551,
      "Ġper": 552,
      "Ġdid": 553,
      "Ġ18": 554,
      "What": 555,
      "ateg": 556,
      "per": 557,
      "Ġyear": 558,
      "ace": 559,
      "Ġus": 560,
      "wo": 561,
      "ren": 562,
      "Ġpe": 563,
      "fer": 564,
      "ater": 565,
      "Ġansw": 566,
      "Ġanswer": 567,
      "refuse": 568,
      "|>": 569,
      "<|": 570,
      "ally": 571,
      "ĠIt": 572,
      "Ġthey": 573,
      "Ġall": 574,
      "Ġlead": 575,
      "ence": 576,
      "ign": 577,
      "Ġthis": 578,
      "ail": 579,
      "ategory": 580,
      "les": 581,
      "ople": 582,
      "ree": 583,
      "Ġquest": 584,
      "Ġits": 585,
      "Ġbec": 586,
      "ade": 587,
      "Ġother": 588,
      "ra": 589,
      "Ġquestion": 590,
      "Ġro": 591,
      "Ġsec": 592,
      "ĠY": 593,
      "Ġ6": 594,
      "Ġone": 595,
      "Ġad": 596,
      "ited": 597,
      "ran": 598,
      "ult": 599,
      "und": 600,
      "ice": 601,
      "Ġwould": 602,
      "ĠAn": 603,
      "ey": 604,
      "ations": 605,
      "amp": 606,
      "Ġplay": 607,
      "Ġup": 608,
      "ound": 609,
      "ib": 610,
      "Ġwho": 611,
      "hed": 612,
      "erm": 613,
      ").": 614,
      "Ġover": 615,
      "ning": 616,
      "ely": 617,
      "Ġtwo": 618,
      "ug": 619,
      "ces": 620,
      "ĠHe": 621,
      "ake": 622,
      "Ġ7": 623,
      "Ġim": 624,
      "ile": 625,
      "Ġoff": 626,
      "ach": 627,
      "oll": 628,
      "wn": 629,
      "Ġgame": 630,
      "ican": 631,
      "ugh": 632,
      "Ġmore": 633,
      "old": 634,
      "tern": 635,
      "ĠAl": 636,
      "port": 637,
      "act": 638,
      "Ġout": 639,
      "Ġpart": 640,
      "Ġpeople": 641,
      "ition": 642,
      "Ġafter": 643,
      "ied": 644,
      "ting": 645,
      "oin": 646,
      "pl": 647,
      "ember": 648,
      "ĠAr": 649,
      "Ġrec": 650,
      "Ġwhen": 651,
      "ict": 652,
      "lud": 653,
      "als": 654,
      "we": 655,
      "Ġsecond": 656,
      "Ġj": 657,
      "Ġrun": 658,
      "ind": 659,
      "Ġcan": 660,
      "000": 661,
      "uring": 662,
      "oy": 663,
      "20": 664,
      "ron": 665,
      "rop": 666,
      "How": 667,
      "hn": 668,
      "ee": 669,
      "Ġinto": 670,
      "Ġdis": 671,
      "ason": 672,
      "ob": 673,
      "Ġdo": 674,
      "lect": 675,
      "ational": 676,
      "Ġte": 677,
      "ark": 678,
      "over": 679,
      "Category": 680,
      "Ġ8": 681,
      "Ġmost": 682,
      "ite": 683,
      "ents": 684,
      "ath": 685,
      "Ġtime": 686,
      "ĠTD": 687,
      "Ġbeen": 688,
      "Ġagain": 689,
      "Ġgro": 690,
      "erv": 691,
      "ĠRe": 692,
      "opul": 693,
      "Ġpr": 694,
      "ors": 695,
      "ever": 696,
      "ton": 697,
      "ted": 698,
      "ĠEn": 699,
      "Ġabout": 700,
      "Ġ199": 701,
      "orld": 702,
      "Ġinclud": 703,
      "Ġonly": 704,
      "ubl": 705,
      "Ġend": 706,
      "reat": 707,
      "urn": 708,
      "ft": 709,
      "Ġcent": 710,
      "here": 711,
      "ress": 712,
      "Ġthan": 713,
      "arg": 714,
      "son": 715,
      "att": 716,
      "eb": 717,
      "ĠAmer": 718,
      "Ġcomm": 719,
      "uct": 720,
      "oss": 721,
      "ĠNew": 722,
      "Ġkick": 723,
      "Ġpopul": 724,
      "ings": 725,
      "ivers": 726,
      "ance": 727,
      "Ġher": 728,
      "Ġbet": 729,
      "yards": 730,
      "ĠQ": 731,
      "Ġev": 732,
      "ose": 733,
      "ild": 734,
      "Ġatt": 735,
      "Ġ17": 736,
      "Ġear": 737,
      "Ġdef": 738,
      "Ġ10": 739,
      "ĠMar": 740,
      "Ġapp": 741,
      "gan": 742,
      "ince": 743,
      "Ġkn": 744,
      "vel": 745,
      "Ġ9": 746,
      "Ġscore": 747,
      "ward": 748,
      "Âł": 749,
      "Ġyears": 750,
      "Ġcount": 751,
      "Ġmade": 752,
      "Ġreg": 753,
      "ird": 754,
      "ween": 755,
      "ĠOn": 756,
      "able": 757,
      "Ġinter": 758,
      "ĠĊ": 759,
      "Ġyards": 760,
      "Ġret": 761,
      "ons": 762,
      "Ġfour": 763,
      "one": 764,
      "Ġcomple": 765,
      "Ġpre": 766,
      "aid": 767,
      "Ġ15": 768,
      "te": 769,
      "Ġme": 770,
      "Ġwin": 771,
      "ĠSe": 772,
      "ook": 773,
      "Ġthere": 774,
      "Ġback": 775,
      "Ġ-": 776,
      "Ġused": 777,
      "Ġ16": 778,
      "Ġwork": 779,
      "ĠThis": 780,
      "rough": 781,
      "Ġbetween": 782,
      "ĠJo": 783,
      "ĠAs": 784,
      "Ġthem": 785,
      "Ġcall": 786,
      "ism": 787,
      "Ġunder": 788,
      "ĠUnited": 789,
      "Ġnew": 790,
      "iss": 791,
      "ins": 792,
      "Ġdr": 793,
      "Ġmov": 794,
      "ĠStates": 795,
      "Ġrel": 796,
      "ase": 797,
      "ury": 798,
      "ollow": 799,
      "ics": 800,
      "Ġind": 801,
      "Ġsome": 802,
      "Ġget": 803,
      "In": 804,
      "orn": 805,
      "Ġform": 806,
      "Ġcons": 807,
      "orth": 808,
      "Ġcity": 809,
      "10": 810,
      "ks": 811,
      "Ġdec": 812,
      "outh": 813,
      "Ġsuch": 814,
      "ah": 815,
      "Ġsy": 816,
      "ood": 817,
      "ĠSp": 818,
      "ower": 819,
      "ĠEng": 820,
      "oth": 821,
      "ĠLe": 822,
      "ious": 823,
      "ool": 824,
      "âĢĶ": 825,
      "iver": 826,
      "very": 827,
      "ph": 828,
      "cept": 829,
      "Ġso": 830,
      "ike": 831,
      "ĠInd": 832,
      "olog": 833,
      "ese": 834,
      "Ġdes": 835,
      "ities": 836,
      "way": 837,
      "io": 838,
      "ĠCom": 839,
      "Ġ12": 840,
      "Ġact": 841,
      "ten": 842,
      "Ġ14": 843,
      "Ġhim": 844,
      "ident": 845,
      "Ġfound": 846,
      "Ġhal": 847,
      "ced": 848,
      "Ġrem": 849,
      "ision": 850,
      "owever": 851,
      "ock": 852,
      "uss": 853,
      "ener": 854,
      "aj": 855,
      "Ġduring": 856,
      "Ġshe": 857,
      "Ġsup": 858,
      "ĠWar": 859,
      "Ġwhat": 860,
      "Ġcalled": 861,
      "Ġstr": 862,
      "ral": 863,
      "led": 864,
      "Ġnum": 865,
      "Ġpol": 866,
      "Ġne": 867,
      "hy": 868,
      "Ġ0": 869,
      "ause": 870,
      "ames": 871,
      "Ġcap": 872,
      "Ġem": 873,
      "ĠFran": 874,
      "Ġcol": 875,
      "Ġfollow": 876,
      "other": 877,
      "Ġ198": 878,
      "Ġagainst": 879,
      "ual": 880,
      "Ġthird": 881,
      "rib": 882,
      "Ġacc": 883,
      "ution": 884,
      "iet": 885,
      "Ġseason": 886,
      "Ġfin": 887,
      "red": 888,
      "illion": 889,
      "ĠBrit": 890,
      "Ġthree": 891,
      "ric": 892,
      "Ġ13": 893,
      "ix": 894,
      "ific": 895,
      "ters": 896,
      "iam": 897,
      "ĠBr": 898,
      "Ġbl": 899,
      "Ġlong": 900,
      "ouse": 901,
      "ier": 902,
      "Ġpopulation": 903,
      "vern": 904,
      "ina": 905,
      "hip": 906,
      "lish": 907,
      "ĠGerm": 908,
      "ĠAfter": 909,
      "ĠJohn": 910,
      "Ġman": 911,
      "Ġdif": 912,
      "Ġthen": 913,
      "ern": 914,
      "18": 915,
      "duc": 916,
      "Ġgovern": 917,
      "pen": 918,
      "Ġwar": 919,
      "man": 920,
      "Ġthrough": 921,
      "ĠSh": 922,
      "Ġearly": 923,
      "uary": 924,
      "ublic": 925,
      "Ġmon": 926,
      "my": 927,
      "ve": 928,
      "Ġteam": 929,
      "ris": 930,
      "Ã©": 931,
      "ĠEu": 932,
      "fore": 933,
      "ĠAmerican": 934,
      "ale": 935,
      "Ġbecame": 936,
      "ists": 937,
      "round": 938,
      "Ġstart": 939,
      "stem": 940,
      "hes": 941,
      "ĠCol": 942,
      "ily": 943,
      "Ġsub": 944,
      "cent": 945,
      "ians": 946,
      "Ġam": 947,
      "ash": 948,
      "Ġinv": 949,
      "ĠThey": 950,
      "Ġpres": 951,
      "chool": 952,
      "Ġknown": 953,
      "Ġwhile": 954,
      "ĠIs": 955,
      "ĠCon": 956,
      "Ġfl": 957,
      "Ġhome": 958,
      "\".": 959,
      "rope": 960,
      "Ġwhere": 961,
      "ative": 962,
      "Ġgroup": 963,
      "ished": 964,
      "Ġsu": 965,
      "12": 966,
      "Ġfam": 967,
      "Ġset": 968,
      "Ġ197": 969,
      "aking": 970,
      "Ġresp": 971,
      "ots": 972,
      "yp": 973,
      "imes": 974,
      "ved": 975,
      "ating": 976,
      "Ġexp": 977,
      "ife": 978,
      "Ġbu": 979,
      "Ġlater": 980,
      "Ġmake": 981,
      "Ġgr": 982,
      "Ġstud": 983,
      "Ġac": 984,
      "iving": 985,
      "rew": 986,
      "ĠCar": 987,
      "Ġrece": 988,
      "az": 989,
      "ually": 990,
      "ĠEurope": 991,
      "Ġtook": 992,
      "Ġest": 993,
      "Ġelect": 994,
      "str": 995,
      "oman": 996,
      "Ġno": 997,
      "ĠBro": 998,
      "ays": 999,
      "Ġspec": 1000,
      "ĠâĢĵ": 1001,
      "ered": 1002,
      "ences": 1003,
      "Ġpoin": 1004,
      "Ġgot": 1005,
      "velop": 1006,
      "ĠPr": 1007,
      "Ġass": 1008,
      "ement": 1009,
      "back": 1010,
      "hil": 1011,
      "inc": 1012,
      "enn": 1013,
      "ium": 1014,
      "angu": 1015,
      "Ġkicker": 1016,
      "Ġ11": 1017,
      "ann": 1018,
      "iversity": 1019,
      "Ġworld": 1020,
      "ĠSc": 1021,
      "Ġany": 1022,
      "Ġhalf": 1023,
      "eth": 1024,
      "ĠAt": 1025,
      "Ġuse": 1026,
      "eek": 1027,
      "Ġstate": 1028,
      "Ġsystem": 1029,
      "eng": 1030,
      "Ġserv": 1031,
      "Ġmin": 1032,
      "Ġcentury": 1033,
      "Ġbefore": 1034,
      "ather": 1035,
      "ros": 1036,
      "ows": 1037,
      "Ġgovernment": 1038,
      "ĠZ": 1039,
      "Ġcontin": 1040,
      "Who": 1041,
      "Ġnumber": 1042,
      "ober": 1043,
      "Ġdiffer": 1044,
      "ars": 1045,
      "ures": 1046,
      "Ġsm": 1047,
      "Ġrep": 1048,
      "Ġincre": 1049,
      "gr": 1050,
      "ived": 1051,
      "200": 1052,
      "Ġmay": 1053,
      "Ġimp": 1054,
      "ĠPat": 1055,
      "Ġsur": 1056,
      "Ġsince": 1057,
      "Ġdown": 1058,
      "16": 1059,
      "usic": 1060,
      "Ġfourth": 1061,
      "ĠHowever": 1062,
      "14": 1063,
      "Ġwell": 1064,
      "ert": 1065,
      "fl": 1066,
      "50": 1067,
      "Ġ196": 1068,
      "13": 1069,
      "Ġmain": 1070,
      "its": 1071,
      "ages": 1072,
      "erson": 1073,
      "Ġfe": 1074,
      "ensus": 1075,
      "rol": 1076,
      "ient": 1077,
      "ular": 1078,
      "Ġlarg": 1079,
      "Ġco": 1080,
      "ets": 1081,
      "Ġmod": 1082,
      "ained": 1083,
      "ajor": 1084,
      "ĠKing": 1085,
      "Ġdevelop": 1086,
      "Ġreturn": 1087,
      "Ġhist": 1088,
      "ble": 1089,
      "Ġbeing": 1090,
      "17": 1091,
      "Ġwe": 1092,
      "ared": 1093,
      "une": 1094,
      "Ġtrans": 1095,
      "ried": 1096,
      "Ġloc": 1097,
      "Ġmillion": 1098,
      "Ġadd": 1099,
      "Ġthese": 1100,
      "Ġboth": 1101,
      "ailed": 1102,
      "Ġdist": 1103,
      "Ġlangu": 1104,
      "Ġsaid": 1105,
      "ĠEm": 1106,
      "anc": 1107,
      "air": 1108,
      "iod": 1109,
      "ty": 1110,
      "ized": 1111,
      "ise": 1112,
      "ural": 1113,
      "ful": 1114,
      "ven": 1115,
      "ĠDe": 1116,
      "ĠWorld": 1117,
      "til": 1118,
      "ĠBritish": 1119,
      "Ġcould": 1120,
      "ĠWh": 1121,
      "duct": 1122,
      "ne": 1123,
      "Ġwill": 1124,
      "Ġlast": 1125,
      "ĠOr": 1126,
      "Ġent": 1127,
      "ital": 1128,
      "ont": 1129,
      "ley": 1130,
      "ĠPro": 1131,
      "ke": 1132,
      "oot": 1133,
      "emb": 1134,
      "arge": 1135,
      "Ġname": 1136,
      "ately": 1137,
      "Ġown": 1138,
      "elf": 1139,
      "ense": 1140,
      "stit": 1141,
      "attle": 1142,
      "Ġext": 1143,
      "Ġbecause": 1144,
      "min": 1145,
      "Ġincluding": 1146,
      "ued": 1147,
      "rench": 1148,
      "ague": 1149,
      "row": 1150,
      "Ġsign": 1151,
      "ĠCl": 1152,
      "atch": 1153,
      "ĠFor": 1154,
      "15": 1155,
      "Ġran": 1156,
      "Ġrecord": 1157,
      "ants": 1158,
      "rap": 1159,
      "ĠSte": 1160,
      "Ġbegan": 1161,
      ".\"": 1162,
      "Ġhigh": 1163,
      "Ġlike": 1164,
      "Ġoffic": 1165,
      "ments": 1166,
      "ries": 1167,
      "ĠJan": 1168,
      "ĠYork": 1169,
      "Ġgener": 1170,
      "ax": 1171,
      "ature": 1172,
      "erg": 1173,
      "ĠGre": 1174,
      "tt": 1175,
      "ica": 1176,
      "ĠAd": 1177,
      "Ġbel": 1178,
      "rist": 1179,
      "ĠAust": 1180,
      "irect": 1181,
      "Ġcar": 1182,
      "Ġuntil": 1183,
      "ines": 1184,
      "Ġvery": 1185,
      "ai": 1186,
      "Ġmajor": 1187,
      "ĠMan": 1188,
      "eries": 1189,
      "Ġschool": 1190,
      "omin": 1191,
      "Ġbro": 1192,
      "wards": 1193,
      "Ġmil": 1194,
      "Ġperiod": 1195,
      "ll": 1196,
      "ĠFrench": 1197,
      "Ġsmall": 1198,
      "ĠMay": 1199,
      "Ġwrit": 1200,
      "ĠRuss": 1201,
      "ĠEnglish": 1202,
      "Ġmed": 1203,
      "ull": 1204,
      "els": 1205,
      "Ġ194": 1206,
      "Ġarea": 1207,
      "igin": 1208,
      "ĠPl": 1209,
      "ccess": 1210,
      "ink": 1211,
      "ially": 1212,
      "ĠNorth": 1213,
      "ives": 1214,
      "ains": 1215,
      "ĠBl": 1216,
      "ĠWith": 1217,
      "Ġpar": 1218,
      "\",": 1219,
      "Ġ24": 1220,
      "onom": 1221,
      "ĠAf": 1222,
      "ĠQB": 1223,
      "Ġ30": 1224,
      "the": 1225,
      "ĠII": 1226,
      "Ġgetting": 1227,
      "pr": 1228,
      "Ġ25": 1229,
      "Ġlaw": 1230,
      "Ġold": 1231,
      "Ġland": 1232,
      "Ġob": 1233,
      "Ġline": 1234,
      "ĠTr": 1235,
      "ĠPatri": 1236,
      "vent": 1237,
      "Ġhel": 1238,
      "Ġsame": 1239,
      "Ġdifferent": 1240,
      "ĠRep": 1241,
      "Ġcre": 1242,
      "ible": 1243,
      "Ġterm": 1244,
      "tal": 1245,
      "por": 1246,
      "Ġdoes": 1247,
      "Ġbr": 1248,
      "Ġpower": 1249,
      "Ġdep": 1250,
      "Ġart": 1251,
      "inn": 1252,
      "ĠPe": 1253,
      "Ġtop": 1254,
      "ject": 1255,
      "urch": 1256,
      "overed": 1257,
      "co": 1258,
      "Ġcountry": 1259,
      "af": 1260,
      "Ġeff": 1261,
      "Ġrele": 1262,
      "ĠWR": 1263,
      "ology": 1264,
      "Ġocc": 1265,
      "30": 1266,
      "Ġoften": 1267,
      "Ġsever": 1268,
      "Ġanother": 1269,
      "enc": 1270,
      "Ġloss": 1271,
      "ĠBrown": 1272,
      "ĠSouth": 1273,
      "ĠShe": 1274,
      "ger": 1275,
      "Ġmusic": 1276,
      "ĠPatriots": 1277,
      "ĠPol": 1278,
      "ief": 1279,
      "Ġleft": 1280,
      "Ġdisc": 1281,
      "ute": 1282,
      "Ġled": 1283,
      "day": 1284,
      "Ġopen": 1285,
      "Ġsl": 1286,
      "iew": 1287,
      "ony": 1288,
      "ĠDec": 1289,
      "Ġwent": 1290,
      "ically": 1291,
      "Ġdiv": 1292,
      "Ġmar": 1293,
      "Ġnear": 1294,
      "Ġeach": 1295,
      "ĠPar": 1296,
      "Ġed": 1297,
      "Ġmuch": 1298,
      "Ġtyp": 1299,
      "ĠUniversity": 1300,
      "ped": 1301,
      "Ġdeath": 1302,
      "ilm": 1303,
      "Ġhouse": 1304,
      "osed": 1305,
      "yn": 1306,
      "Ġ.": 1307,
      "ĠThere": 1308,
      "Ġaround": 1309,
      "ĠComm": 1310,
      "Ġchild": 1311,
      "ox": 1312,
      "ites": 1313,
      "Ġair": 1314,
      "Ġca": 1315,
      "Ġplace": 1316,
      "itt": 1317,
      "Ġposs": 1318,
      "ĠUS": 1319,
      "ĠĠ": 1320,
      "Ġlarge": 1321,
      "lev": 1322,
      "uel": 1323,
      "amed": 1324,
      "ects": 1325,
      "Ġcompleted": 1326,
      "ĠJu": 1327,
      "ears": 1328,
      "au": 1329,
      "Ġthough": 1330,
      "ĠNov": 1331,
      "Ġsing": 1332,
      "Ġorgan": 1333,
      "Ġaut": 1334,
      "Ġestab": 1335,
      "ĠBron": 1336,
      "vers": 1337,
      "Ġann": 1338,
      "Which": 1339,
      "ired": 1340,
      "Ġcame": 1341,
      "Ġ$": 1342,
      "Ġec": 1343,
      "ĠChrist": 1344,
      "ĠEd": 1345,
      "ĠGr": 1346,
      "cl": 1347,
      "ional": 1348,
      "ĠCity": 1349,
      "ĠGe": 1350,
      "ĠWest": 1351,
      "11": 1352,
      "ĠWill": 1353,
      "Ġtake": 1354,
      "Ġpolit": 1355,
      "ene": 1356,
      "Ġ2010": 1357,
      "Ġvar": 1358,
      "ĠOther": 1359,
      "ales": 1360,
      "Ġday": 1361,
      "Ġcontrol": 1362,
      "ross": 1363,
      "sh": 1364,
      "Ġ23": 1365,
      "Ġmet": 1366,
      "Ġ21": 1367,
      "ĠCan": 1368,
      "ush": 1369,
      "ptember": 1370,
      "apan": 1371,
      "ĠFrance": 1372,
      "sp": 1373,
      "Ġsuccess": 1374,
      "Ġfollowed": 1375,
      "ĠPhil": 1376,
      "ady": 1377,
      "Ġimport": 1378,
      "ĠCategory": 1379,
      "Ġpoints": 1380,
      "Ġhum": 1381,
      "ctober": 1382,
      "23": 1383,
      "by": 1384,
      "24": 1385,
      "Ġcr": 1386,
      "ternational": 1387,
      "ams": 1388,
      "ĠGerman": 1389,
      "ugust": 1390,
      "ĠMc": 1391,
      "ferences": 1392,
      "Ġalong": 1393,
      "Ġorigin": 1394,
      "Ġsim": 1395,
      "Ġtotal": 1396,
      "Ġscored": 1397,
      "ung": 1398,
      "Ġwon": 1399,
      "Ġnext": 1400,
      "itary": 1401,
      "Ġnow": 1402,
      "Ġdirect": 1403,
      "Ġlanguage": 1404,
      "gin": 1405,
      "Ġperson": 1406,
      "Ġjust": 1407,
      "olution": 1408,
      "ki": 1409,
      "Ġneed": 1410,
      "Ġlife": 1411,
      "eder": 1412,
      "Ġage": 1413,
      "wh": 1414,
      "Ġseveral": 1415,
      "ball": 1416,
      "side": 1417,
      "Ġshow": 1418,
      "ĠCensus": 1419,
      "Ġ22": 1420,
      "ister": 1421,
      "ĠBe": 1422,
      "ues": 1423,
      "dom": 1424,
      "Ġsupport": 1425,
      "ĠX": 1426,
      "ĠSeptember": 1427,
      "Ġseries": 1428,
      "Ġexamp": 1429,
      "199": 1430,
      "Ġter": 1431,
      "Ġchar": 1432,
      "ĠChar": 1433,
      "hem": 1434,
      "Ġattack": 1435,
      "aining": 1436,
      "ility": 1437,
      "duced": 1438,
      "Ġpercent": 1439,
      "ices": 1440,
      "cos": 1441,
      "ĠâĢĶ": 1442,
      "bur": 1443,
      "rem": 1444,
      "Ġmark": 1445,
      "ĠMarch": 1446,
      "ĠEngland": 1447,
      "to": 1448,
      "ĠSan": 1449,
      "uck": 1450,
      "px": 1451,
      "ret": 1452,
      "ograp": 1453,
      "ĠFl": 1454,
      "hest": 1455,
      "ham": 1456,
      "ĠCent": 1457,
      "ĠAnd": 1458,
      "Ġoper": 1459,
      "though": 1460,
      "pril": 1461,
      "ĠJune": 1462,
      "Ġpublic": 1463,
      "Ġ28": 1464,
      "ĠAugust": 1465,
      "aced": 1466,
      "Ġpartic": 1467,
      "Ġsoc": 1468,
      "ĠOctober": 1469,
      "Ġwide": 1470,
      "Ġtrad": 1471,
      "estern": 1472,
      "oard": 1473,
      "ner": 1474,
      "ĠReferences": 1475,
      "Ġmaking": 1476,
      "ler": 1477,
      "Ġcommon": 1478,
      "ĠJapan": 1479,
      "rent": 1480,
      "Ġlargest": 1481,
      "Ġbuild": 1482,
      "Ġhead": 1483,
      "Ġstarted": 1484,
      "alt": 1485,
      "Ġintercept": 1486,
      "22": 1487,
      "ĠAll": 1488,
      "Ġif": 1489,
      "Ġquarterback": 1490,
      "Ġ26": 1491,
      "ĠNational": 1492,
      "ebr": 1493,
      "used": 1494,
      "atic": 1495,
      "ĠJanuary": 1496,
      "Ġph": 1497,
      "ington": 1498,
      "ights": 1499,
      "ĠDecember": 1500,
      "ĠBroncos": 1501,
      "Ġeven": 1502,
      "Ġplayed": 1503,
      "Ġresult": 1504,
      "esp": 1505,
      "ole": 1506,
      "Ġdrive": 1507,
      "med": 1508,
      "Ġstill": 1509,
      "ĠRed": 1510,
      "ĠJuly": 1511,
      "ience": 1512,
      "Ġclass": 1513,
      "Ġweb": 1514,
      "Ġleg": 1515,
      "ĠSain": 1516,
      "Ġaver": 1517,
      "pire": 1518,
      "ĠBar": 1519,
      "com": 1520,
      "ĠRB": 1521,
      "ĠHis": 1522,
      "Ġcult": 1523,
      "Ġheld": 1524,
      "ected": 1525,
      "ĠItal": 1526,
      "embers": 1527,
      "Ġ195": 1528,
      "bum": 1529,
      "Ġkill": 1530,
      "Ġhig": 1531,
      "ured": 1532,
      "Ġcur": 1533,
      "Ġ2011": 1534,
      "Ġwater": 1535,
      "ĠApril": 1536,
      "ank": 1537,
      "Ġconsid": 1538,
      "Ġpun": 1539,
      "ms": 1540,
      "aged": 1541,
      "ĠPres": 1542,
      "ised": 1543,
      "Ġcommun": 1544,
      "Ġthose": 1545,
      "Ġattem": 1546,
      "ival": 1547,
      "ston": 1548,
      "Ġhistory": 1549,
      "orts": 1550,
      "ple": 1551,
      "Ġ'": 1552,
      "ove": 1553,
      "ĠHar": 1554,
      "Ġevery": 1555,
      "Ġwithin": 1556,
      "Ġcountries": 1557,
      "ĠNovember": 1558,
      "ĠEl": 1559,
      "ats": 1560,
      "ech": 1561,
      "Ġspe": 1562,
      "Ġ100": 1563,
      "ĠGu": 1564,
      "ody": 1565,
      "acter": 1566,
      "25": 1567,
      "Ġ2008": 1568,
      "Ġallow": 1569,
      "ĠSw": 1570,
      "ified": 1571,
      "ondon": 1572,
      "Ġfamily": 1573,
      "lands": 1574,
      "ĠRoman": 1575,
      "Ġreturned": 1576,
      "ĠBy": 1577,
      "ĠAm": 1578,
      "epend": 1579,
      "Ġref": 1580,
      "ively": 1581,
      "ones": 1582,
      "ended": 1583,
      "ths": 1584,
      "Ġ27": 1585,
      "ize": 1586,
      "ether": 1587,
      "alth": 1588,
      "ĠWilliam": 1589,
      "Ġinclude": 1590,
      "osition": 1591,
      "ĠMatt": 1592,
      "ases": 1593,
      "Ġmen": 1594,
      "Ġrepl": 1595,
      "Ġimportant": 1596,
      "Ġprot": 1597,
      "Ġ2007": 1598,
      "Ġrunning": 1599,
      "ories": 1600,
      "Ġeconom": 1601,
      "ourt": 1602,
      "ille": 1603,
      "Ġcontinued": 1604,
      "ĠLeague": 1605,
      "aim": 1606,
      "lin": 1607,
      ",\"": 1608,
      "Ġexample": 1609,
      "ĠSteel": 1610,
      "off": 1611,
      "oys": 1612,
      "Ġput": 1613,
      "ane": 1614,
      "Ġgames": 1615,
      "21": 1616,
      "Ġadv": 1617,
      "ĠCal": 1618,
      "Ġforces": 1619,
      "60": 1620,
      "nd": 1621,
      "aving": 1622,
      "aces": 1623,
      "Ġstand": 1624,
      "Ġgu": 1625,
      "Ġnational": 1626,
      "Ġcamp": 1627,
      "ney": 1628,
      "ivil": 1629,
      "ops": 1630,
      "Ġshort": 1631,
      "omet": 1632,
      "omen": 1633,
      "idd": 1634,
      "Ġ2012": 1635,
      "ĠWeek": 1636,
      "istr": 1637,
      "Ġ&": 1638,
      "echn": 1639,
      "less": 1640,
      "Ġarmy": 1641,
      "ebruary": 1642,
      "Ġaverage": 1643,
      "Ġmilitary": 1644,
      "Ġrelig": 1645,
      "ĠCount": 1646,
      "alk": 1647,
      "cess": 1648,
      "iven": 1649,
      "Ġway": 1650,
      "ĠSteelers": 1651,
      "iation": 1652,
      "Ġwebs": 1653,
      "Ġinfl": 1654,
      "Ġhow": 1655,
      "ange": 1656,
      "Ġmembers": 1657,
      "ling": 1658,
      "ĠLondon": 1659,
      "ĠEuropean": 1660,
      "Ġlate": 1661,
      "Ġrev": 1662,
      "Ġfive": 1663,
      "Ġturn": 1664,
      "ck": 1665,
      "Ġcompleting": 1666,
      "Ġword": 1667,
      "levision": 1668,
      "Ġrespond": 1669,
      "ĠAb": 1670,
      "aun": 1671,
      "par": 1672,
      "Ġball": 1673,
      "Ġfinal": 1674,
      "Ġreceiver": 1675,
      "sk": 1676,
      "Ġ2009": 1677,
      "Ġ40": 1678,
      "ills": 1679,
      "anish": 1680,
      "Ġgreat": 1681,
      "ĠDav": 1682,
      "Ġdied": 1683,
      "ission": 1684,
      "Ġnon": 1685,
      "Ġprovide": 1686,
      "ott": 1687,
      "reak": 1688,
      "inese": 1689,
      "ĠEar": 1690,
      "Ġopp": 1691,
      "ugg": 1692,
      "80": 1693,
      "itions": 1694,
      "ald": 1695,
      "Ġ,": 1696,
      "Ġdesign": 1697,
      "Ġ2006": 1698,
      "Ġtimes": 1699,
      "Ġbook": 1700,
      "Ġcare": 1701,
      "40": 1702,
      "rican": 1703,
      "Ġfilm": 1704,
      "Ġfle": 1705,
      "Ġz": 1706,
      "Ġchang": 1707,
      "Ġorder": 1708,
      "Ġ193": 1709,
      "Ġperform": 1710,
      "Ġevent": 1711,
      "Ġdesc": 1712,
      "Ġsix": 1713,
      "ĠCanad": 1714,
      "ĠGeor": 1715,
      "ootball": 1716,
      "When": 1717,
      "Ġgoals": 1718,
      "Un": 1719,
      "Ġdefe": 1720,
      "Ġformer": 1721,
      "Ġbecome": 1722,
      "hor": 1723,
      "Ġreb": 1724,
      "ĠEast": 1725,
      "Ġ49": 1726,
      "Ġaway": 1727,
      "ĠFebruary": 1728,
      "ĠAustral": 1729,
      "Ġsold": 1730,
      "Ġless": 1731,
      "Ġchildren": 1732,
      "70": 1733,
      "Ġrul": 1734,
      "ilt": 1735,
      "FC": 1736,
      "Ġnamed": 1737,
      "Ġgl": 1738,
      "Ġregion": 1739,
      "ode": 1740,
      "Ġarr": 1741,
      "resent": 1742,
      "ĠThese": 1743,
      "ides": 1744,
      "ization": 1745,
      "Ġpolitical": 1746,
      "Ġhap": 1747,
      "Ġfollowing": 1748,
      "Ġtown": 1749,
      "Ġweek": 1750,
      "ves": 1751,
      "Ġnorth": 1752,
      "Ġfew": 1753,
      "ĠChina": 1754,
      "ampions": 1755,
      "Ġamong": 1756,
      "ĠGermany": 1757,
      "Ġinst": 1758,
      "Ġgrow": 1759,
      "ĠBu": 1760,
      "duction": 1761,
      "arm": 1762,
      "ĠSome": 1763,
      "Ġ29": 1764,
      "Ġreleased": 1765,
      "ĠIndian": 1766,
      "Ġmodern": 1767,
      "Ġdem": 1768,
      "ĠRo": 1769,
      "Ġel": 1770,
      "urs": 1771,
      "ius": 1772,
      "ensive": 1773,
      "ness": 1774,
      "ands": 1775,
      "iter": 1776,
      "Ġstates": 1777,
      "Ġhelp": 1778,
      "ĠNe": 1779,
      "Ġyou": 1780,
      "ĠWhen": 1781,
      "ĠMin": 1782,
      "ĠChinese": 1783,
      "akes": 1784,
      "ference": 1785,
      "ĠEmpire": 1786,
      "ality": 1787,
      "rian": 1788,
      "Ġattempt": 1789,
      "que": 1790,
      "umb": 1791,
      "Ġincreased": 1792,
      "oint": 1793,
      "Ġtem": 1794,
      "Ġvict": 1795,
      "ĠBay": 1796,
      "Ġterrit": 1797,
      "Ġsouth": 1798,
      "astern": 1799,
      "ecut": 1800,
      "ope": 1801,
      "ched": 1802,
      "Ġgood": 1803,
      "Ġcapt": 1804,
      "oung": 1805,
      "ery": 1806,
      "Ġconn": 1807,
      "Ġdue": 1808,
      "ĠTex": 1809,
      "Ġcor": 1810,
      "ago": 1811,
      "struct": 1812,
      "ĠJack": 1813,
      "Ġ2000": 1814,
      "Ġ31": 1815,
      "ĠSup": 1816,
      "Ġrequ": 1817,
      "hold": 1818,
      "Ġvis": 1819,
      "Ġbased": 1820,
      "Ġinflu": 1821,
      "ĠTe": 1822,
      "Ġpopular": 1823,
      "ches": 1824,
      "Ġrest": 1825,
      "Ġcapital": 1826,
      "na": 1827,
      "ĠPort": 1828,
      "ĠBears": 1829,
      "ison": 1830,
      "ĠSm": 1831,
      "br": 1832,
      "Ġconc": 1833,
      "rest": 1834,
      "ule": 1835,
      "ection": 1836,
      "Ġ2013": 1837,
      "ĠLions": 1838,
      "utes": 1839,
      "hers": 1840,
      "Ġalbum": 1841,
      "Ġtro": 1842,
      "Ġmat": 1843,
      "Ġav": 1844,
      "ently": 1845,
      "riend": 1846,
      "aff": 1847,
      "earch": 1848,
      "Ġide": 1849,
      "yle": 1850,
      "amm": 1851,
      "ashington": 1852,
      "ĠEx": 1853,
      "ĠAmerica": 1854,
      "Ġprogr": 1855,
      "men": 1856,
      "ĠPart": 1857,
      "Ġeng": 1858,
      "Ġgroups": 1859,
      "line": 1860,
      "Ġke": 1861,
      "reed": 1862,
      "Ġsent": 1863,
      "work": 1864,
      "iber": 1865,
      "Ġ50": 1866,
      "aster": 1867,
      "hys": 1868,
      "ean": 1869,
      "Ġinf": 1870,
      "atin": 1871,
      "Ġhere": 1872,
      "ator": 1873,
      "ocr": 1874,
      "iety": 1875,
      "ama": 1876,
      "yan": 1877,
      "Ġequ": 1878,
      "ata": 1879,
      "Ġappro": 1880,
      "hern": 1881,
      "ession": 1882,
      "Ġusually": 1883,
      "Ġpresent": 1884,
      "aul": 1885,
      "Ġsong": 1886,
      "Ġbeh": 1887,
      "sc": 1888,
      "Ġanim": 1889,
      "Ġgen": 1890,
      "Ġfore": 1891,
      "Ġred": 1892,
      "Ġpo": 1893,
      "Ġofficial": 1894,
      "Ġexper": 1895,
      "Ã¡": 1896,
      "Ġfact": 1897,
      "ior": 1898,
      "ined": 1899,
      "oming": 1900,
      "ying": 1901,
      "Ġlost": 1902,
      "reek": 1903,
      "Ġhowever": 1904,
      "Ġwithout": 1905,
      "ĠIndia": 1906,
      "go": 1907,
      "ĠUnion": 1908,
      "ĠWashington": 1909,
      "Ġhuman": 1910,
      "vin": 1911,
      "ĠLou": 1912,
      "alc": 1913,
      "Ġ2014": 1914,
      "ĠMed": 1915,
      "ĠPal": 1916,
      "Ġstat": 1917,
      "Ġspecies": 1918,
      "acy": 1919,
      "Ġsett": 1920,
      "ency": 1921,
      "iron": 1922,
      "ĠMon": 1923,
      "ae": 1924,
      "ĠAng": 1925,
      "orthern": 1926,
      "Ġsee": 1927,
      "oviet": 1928,
      "ĠLa": 1929,
      "Ġaff": 1930,
      "ĠBur": 1931,
      "ĠRepublic": 1932,
      "Ġareas": 1933,
      "Ġcovered": 1934,
      "Ġfind": 1935,
      "oring": 1936,
      "Ġet": 1937,
      "ackers": 1938,
      "ĠOtt": 1939,
      "ĠPresident": 1940,
      "Ġprocess": 1941,
      "27": 1942,
      "Ġhit": 1943,
      "Ġbir": 1944,
      "Ġimpro": 1945,
      "rie": 1946,
      "Ch": 1947,
      "lished": 1948,
      "ĠKingdom": 1949,
      "Ġking": 1950,
      "Ġbas": 1951,
      "St": 1952,
      "Ġexpl": 1953,
      "Ġsk": 1954,
      "ĠHer": 1955,
      "Ġprof": 1956,
      "ĠOne": 1957,
      "Ġfell": 1958,
      "ĠEag": 1959,
      "Ġtelevision": 1960,
      "ĠSy": 1961,
      "ĠSec": 1962,
      "Ġtit": 1963,
      "let": 1964,
      "ract": 1965,
      "ergy": 1966,
      "ĠBeng": 1967,
      "Ġ2005": 1968,
      "de": 1969,
      "Ġpubl": 1970,
      "irc": 1971,
      "adium": 1972,
      "Ġcomb": 1973,
      "28": 1974,
      "Ġant": 1975,
      "urther": 1976,
      "Ġlook": 1977,
      "âĢĻ": 1978,
      "stitution": 1979,
      "Ġbus": 1980,
      "ilar": 1981,
      "Ġval": 1982,
      "Ġroad": 1983,
      "Ġusing": 1984,
      "most": 1985,
      "ĠHist": 1986,
      "ead": 1987,
      "29": 1988,
      "Ġdays": 1989,
      "Ġright": 1990,
      "thern": 1991,
      "..": 1992,
      "Ġcreated": 1993,
      "Ġ35": 1994,
      "Ġbest": 1995,
      "mp": 1996,
      "Ġvers": 1997,
      "Ġgiven": 1998,
      "26": 1999,
      "Ġdefense": 2000,
      "ounc": 2001,
      "Ġlevel": 2002,
      "aren": 2003,
      "outhern": 2004,
      "Ġwant": 2005,
      "ĠAss": 2006,
      "ĠCup": 2007,
      "ael": 2008,
      "ĠSoviet": 2009,
      "Ġarch": 2010,
      "aken": 2011,
      "itional": 2012,
      "uce": 2013,
      "augh": 2014,
      "Ġtouchdowns": 2015,
      "ĠDuring": 2016,
      "iddle": 2017,
      "Ġtried": 2018,
      "ĠChief": 2019,
      "ges": 2020,
      "lo": 2021,
      "ĠEagles": 2022,
      "Ġindepend": 2023,
      "Ġreport": 2024,
      "Ġshould": 2025,
      "iness": 2026,
      "Ġforce": 2027,
      "Ġlocal": 2028,
      "ze": 2029,
      "ĠAct": 2030,
      "Ġprev": 2031,
      "Ġsingle": 2032,
      "Ġbelie": 2033,
      "Ġpat": 2034,
      "Ġbuilt": 2035,
      "ĠMich": 2036,
      "iers": 2037,
      "int": 2038,
      "ached": 2039,
      "Ġanc": 2040,
      "Ġgave": 2041,
      "ĠSpanish": 2042,
      "ĠRaid": 2043,
      "reaty": 2044,
      "ote": 2045,
      "avy": 2046,
      "Ġliving": 2047,
      "ĠJew": 2048,
      "ĠJos": 2049,
      "gy": 2050,
      "ploy": 2051,
      "Ġproble": 2052,
      "Ġcurrent": 2053,
      "Ġaccur": 2054,
      "ederal": 2055,
      "Ġ2015": 2056,
      "Ġlight": 2057,
      "ĠChurch": 2058,
      "Ġmoved": 2059,
      "self": 2060,
      "ittle": 2061,
      "ford": 2062,
      "ĠTit": 2063,
      "Ġ190": 2064,
      "Ġestablished": 2065,
      "etro": 2066,
      "Ġconsidered": 2067,
      "artment": 2068,
      "Ġbegin": 2069,
      "ĠAir": 2070,
      "Ġclaim": 2071,
      "Ġfem": 2072,
      "ring": 2073,
      "ĠWhite": 2074,
      "198": 2075,
      "Ġtechn": 2076,
      "ĠSch": 2077,
      "Ġduel": 2078,
      "Ġindust": 2079,
      "lege": 2080,
      "Ġhousehold": 2081,
      "ĠBut": 2082,
      "Ġ2004": 2083,
      "olic": 2084,
      "Ġended": 2085,
      "ĠHol": 2086,
      "ometimes": 2087,
      "Ġtrav": 2088,
      "read": 2089,
      "Ġjoin": 2090,
      "Ġdel": 2091,
      "ĠCharles": 2092,
      "ĠCo": 2093,
      "ental": 2094,
      "ĠGreen": 2095,
      "ending": 2096,
      "Ġprim": 2097,
      "ĠBrowns": 2098,
      "ara": 2099,
      "ĠRiver": 2100,
      "ĠRet": 2101,
      "ĠJames": 2102,
      "Ġlist": 2103,
      "Ġbody": 2104,
      "ĠCounty": 2105,
      "isc": 2106,
      "Ġincluded": 2107,
      "ĠState": 2108,
      "uan": 2109,
      "Ġkilled": 2110,
      "amb": 2111,
      "ĠVik": 2112,
      "Where": 2113,
      "uk": 2114,
      "ĠRussian": 2115,
      "Ġhistor": 2116,
      "ĠÂ": 2117,
      "Ġauthor": 2118,
      "Ġ45": 2119,
      "Ġdest": 2120,
      "Ġwebsites": 2121,
      "Ġlow": 2122,
      "ander": 2123,
      "90": 2124,
      "ps": 2125,
      "Ġ33": 2126,
      "Ġborn": 2127,
      "Ġcome": 2128,
      "Ġhost": 2129,
      "Ġeduc": 2130,
      "ĠThom": 2131,
      "ĠLouis": 2132,
      "osp": 2133,
      "Ġneeded": 2134,
      "Ġpoint": 2135,
      "ĠCow": 2136,
      "itz": 2137,
      "Ġlive": 2138,
      "Ġteams": 2139,
      "ardin": 2140,
      "ampionship": 2141,
      "Ġprom": 2142,
      "Ġdro": 2143,
      "ĠComp": 2144,
      "omb": 2145,
      "oyal": 2146,
      "iants": 2147,
      "II": 2148,
      "itation": 2149,
      "Ġer": 2150,
      "Ġview": 2151,
      "ĠRaiders": 2152,
      "ĠColts": 2153,
      "urb": 2154,
      "Ġdeveloped": 2155,
      "ivid": 2156,
      "ico": 2157,
      "Ġcrit": 2158,
      "Ġcompany": 2159,
      "oon": 2160,
      "ĠRav": 2161,
      "lam": 2162,
      "ĠAle": 2163,
      "lim": 2164,
      "Ġins": 2165,
      "Ġpost": 2166,
      "Ġhand": 2167,
      "ĠCath": 2168,
      "Ġstrong": 2169,
      "Ġiss": 2170,
      "idge": 2171,
      "ĠGreat": 2172,
      "lement": 2173,
      "Ġproduc": 2174,
      "ĠDavid": 2175,
      "Ġhold": 2176,
      "ĠGreek": 2177,
      "ither": 2178,
      "ogn": 2179,
      "icago": 2180,
      "Ġgeneral": 2181,
      "overn": 2182,
      "ological": 2183,
      "gen": 2184,
      "ours": 2185,
      "Ġship": 2186,
      "ouncil": 2187,
      "United": 2188,
      "Ġbig": 2189,
      "Ġplan": 2190,
      "Ġdescrib": 2191,
      "Ġspecial": 2192,
      "Ġparticular": 2193,
      "Ġ34": 2194,
      "ĠHen": 2195,
      "ĠPark": 2196,
      "Ġresponded": 2197,
      "Ġfather": 2198,
      "Ġsocial": 2199,
      "Ġlim": 2200,
      "Ġsqu": 2201,
      "time": 2202,
      "Ġsol": 2203,
      "ĠHouse": 2204,
      "Ġcharacter": 2205,
      "ĠNo": 2206,
      "75": 2207,
      "ĠReg": 2208,
      "ĠChristian": 2209,
      "head": 2210,
      "Ġeffect": 2211,
      "Ġconf": 2212,
      "ĠBengals": 2213,
      "ĠArmy": 2214,
      "ĠInternational": 2215,
      "ked": 2216,
      "Ġcompet": 2217,
      "Ġtog": 2218,
      "ounced": 2219,
      "ĠCr": 2220,
      "ĠĠĠĠ": 2221,
      "rd": 2222,
      "ĠAfrican": 2223,
      "Ġtogether": 2224,
      "Ġknow": 2225,
      "Ġpain": 2226,
      "ĠTur": 2227,
      "iated": 2228,
      "Ġable": 2229,
      "eneral": 2230,
      "Ġkicked": 2231,
      "Ġparts": 2232,
      "Ġmean": 2233,
      "arch": 2234,
      "ances": 2235,
      "Ġmy": 2236,
      "ĠBC": 2237,
      "rote": 2238,
      "Ġson": 2239,
      "Ġtopic": 2240,
      "ĠJets": 2241,
      "Ġcivil": 2242,
      "Ġplayers": 2243,
      "Ġpresident": 2244,
      "reen": 2245,
      "Ġrepresent": 2246,
      "Ġrad": 2247,
      "33": 2248,
      "Ġforced": 2249,
      "ĠAtl": 2250,
      "ĠRace": 2251,
      "eg": 2252,
      "boys": 2253,
      "Ġdevelopment": 2254,
      "Ġsimilar": 2255,
      "ĠBattle": 2256,
      "ĠQue": 2257,
      "Ġwid": 2258,
      "Ġmust": 2259,
      "ĠDem": 2260,
      "Ġaccurately": 2261,
      "Ġtroops": 2262,
      "atural": 2263,
      "apt": 2264,
      "ĠChicago": 2265,
      "ĠBen": 2266,
      "Ġexist": 2267,
      "ĠJackson": 2268,
      "ana": 2269,
      "Ġtype": 2270,
      "osing": 2271,
      "Ġmatch": 2272,
      "ering": 2273,
      "for": 2274,
      "imate": 2275,
      "ĠJohnson": 2276,
      "Ġthought": 2277,
      "Ġ38": 2278,
      "ona": 2279,
      "Ġreceived": 2280,
      "burg": 2281,
      "Ġsuccessful": 2282,
      "ett": 2283,
      "ertain": 2284,
      "ards": 2285,
      "ought": 2286,
      "aign": 2287,
      "ribut": 2288,
      "Ġenergy": 2289,
      "Ġclose": 2290,
      "ĠDr": 2291,
      "Ġsepar": 2292,
      "utch": 2293,
      "ĠFranc": 2294,
      "ĠCarol": 2295,
      "ĠPer": 2296,
      "ĠMus": 2297,
      "ĠCharg": 2298,
      "lear": 2299,
      "ĠCowboys": 2300,
      "agn": 2301,
      "ria": 2302,
      "Th": 2303,
      "Ġwomen": 2304,
      "Ã¼": 2305,
      "Ġplays": 2306,
      "ĠRavens": 2307,
      "Ġothers": 2308,
      "Ġwrote": 2309,
      "Ġ32": 2310,
      "Ġdivision": 2311,
      "45": 2312,
      "raft": 2313,
      "Ġyet": 2314,
      "esc": 2315,
      "ape": 2316,
      "ĠParty": 2317,
      "of": 2318,
      "Ġfriend": 2319,
      "Ġtw": 2320,
      "ftime": 2321,
      "Ġcell": 2322,
      "Ġcareer": 2323,
      "Ġsay": 2324,
      "ĠGl": 2325,
      "Ġinvol": 2326,
      "Ġ|": 2327,
      "hel": 2328,
      "An": 2329,
      "Ġhalftime": 2330,
      "ction": 2331,
      "Ġcop": 2332,
      "Ġgive": 2333,
      "Ġsn": 2334,
      "Ġpract": 2335,
      "ĠManning": 2336,
      "ideo": 2337,
      "Ġmeans": 2338,
      "Ġident": 2339,
      "Ġplayer": 2340,
      "Ġthrew": 2341,
      "ĠGiants": 2342,
      "35": 2343,
      "Ġhappen": 2344,
      "ront": 2345,
      "ĠPackers": 2346,
      "aur": 2347,
      "ests": 2348,
      "owski": 2349,
      "Ġhaving": 2350,
      "Ġmass": 2351,
      "etwork": 2352,
      "rees": 2353,
      "ĠChargers": 2354,
      "Ġep": 2355,
      "ators": 2356,
      "Ġdev": 2357,
      "ĠSu": 2358,
      "ĠSchool": 2359,
      "Ġfurther": 2360,
      "Ġvictory": 2361,
      "Ġfight": 2362,
      "Amer": 2363,
      "udd": 2364,
      "Ġnight": 2365,
      "ĠâĢ": 2366,
      "ha": 2367,
      "arn": 2368,
      "ĠBritain": 2369,
      "Ġfall": 2370,
      "Ġvol": 2371,
      "Ġmovie": 2372,
      "ĠVikings": 2373,
      "Ġsw": 2374,
      "Ġactiv": 2375,
      "FL": 2376,
      "Ġlocated": 2377,
      "rica": 2378,
      "Ġfailed": 2379,
      "Ġalthough": 2380,
      "ĠRom": 2381,
      "ĠTom": 2382,
      "Ġport": 2383,
      "ways": 2384,
      "Ġpasses": 2385,
      "ification": 2386,
      "ma": 2387,
      "Ġisland": 2388,
      "ention": 2389,
      "ĠRev": 2390,
      "Ġintro": 2391,
      "Ġprop": 2392,
      "Ġestablish": 2393,
      "Ġfun": 2394,
      "Ġnever": 2395,
      "Ġleast": 2396,
      "ĠRober": 2397,
      "Ġdeb": 2398,
      "ville": 2399,
      "yl": 2400,
      "Ġposition": 2401,
      "Ġcounty": 2402,
      "Ġclub": 2403,
      "ably": 2404,
      "Ġ2001": 2405,
      "ored": 2406,
      "ĠSam": 2407,
      "ades": 2408,
      "Ġrate": 2409,
      "ĠSmith": 2410,
      "ĠStadium": 2411,
      "Ġformed": 2412,
      "Ġphys": 2413,
      "ination": 2414,
      "Ġprevious": 2415,
      "ĠGeorge": 2416,
      "ĠAtlant": 2417,
      "ids": 2418,
      "Ġservice": 2419,
      "Ġhard": 2420,
      "ĠChiefs": 2421,
      "ĠRich": 2422,
      "Ġside": 2423,
      "Ġbattle": 2424,
      "Ġmember": 2425,
      "Ġ2016": 2426,
      "Ġfar": 2427,
      "ificant": 2428,
      "ĠMany": 2429,
      "Ġvarious": 2430,
      "istan": 2431,
      "Ġlet": 2432,
      "ĠPhilip": 2433,
      "ĠGod": 2434,
      "Ġearl": 2435,
      "stant": 2436,
      "Ġschools": 2437,
      "ĠAlex": 2438,
      "Ġfood": 2439,
      "Ġ2003": 2440,
      "ĠFin": 2441,
      "Ġ36": 2442,
      "roy": 2443,
      "Ġresid": 2444,
      "Ġblack": 2445,
      "ĠCor": 2446,
      "app": 2447,
      "ece": 2448,
      "iol": 2449,
      "Ġindivid": 2450,
      "aves": 2451,
      "ka": 2452,
      "Ġren": 2453,
      "asing": 2454,
      "Ġpen": 2455,
      "ĠAustralia": 2456,
      "Ġrefer": 2457,
      "Ġparty": 2458,
      "Ġstop": 2459,
      "ography": 2460,
      "Ġcities": 2461,
      "osop": 2462,
      "Ġinterception": 2463,
      "ĠBlack": 2464,
      ".,": 2465,
      "Ġappl": 2466,
      "Ġallowed": 2467,
      "Ġfull": 2468,
      "sel": 2469,
      "ĠHenry": 2470,
      "Ġdomin": 2471,
      "ript": 2472,
      "ĠArab": 2473,
      "Ġpublished": 2474,
      "ailing": 2475,
      "gypt": 2476,
      "Ġwhite": 2477,
      "ĠLatin": 2478,
      "ĠMex": 2479,
      "olph": 2480,
      "ements": 2481,
      "Ġstudents": 2482,
      "Ġadded": 2483,
      "Ġlab": 2484,
      "Ġcensus": 2485,
      "Ġwritten": 2486,
      "uter": 2487,
      "Ġoccur": 2488,
      "Ġfree": 2489,
      "bert": 2490,
      "mit": 2491,
      "ĠSaint": 2492,
      "Ġrole": 2493,
      "ugu": 2494,
      "ĠRedsk": 2495,
      "Ġboard": 2496,
      "ĠAmeric": 2497,
      "Ġ1990": 2498,
      "aries": 2499,
      "Ġsignificant": 2500,
      "ĠMo": 2501,
      "ministr": 2502,
      "ĠIr": 2503,
      "ĠRedskins": 2504,
      "Ġstudy": 2505,
      "On": 2506,
      "Ġmid": 2507,
      "liam": 2508,
      "Ġfamous": 2509,
      "Ġsour": 2510,
      "34": 2511,
      "val": 2512,
      "ested": 2513,
      "Ġmot": 2514,
      "ummer": 2515,
      "win": 2516,
      "BC": 2517,
      "ĠPh": 2518,
      "ĠTE": 2519,
      "aper": 2520,
      "ĠAfrica": 2521,
      "Ġbord": 2522,
      "ĠTexans": 2523,
      "Ġhighest": 2524,
      "ster": 2525,
      "ĠMichael": 2526,
      "ĠGovern": 2527,
      "Ġcampaign": 2528,
      "emy": 2529,
      "Ġoriginal": 2530,
      "ictor": 2531,
      "Ġfootball": 2532,
      "ecutive": 2533,
      "ĠKore": 2534,
      "Ġchange": 2535,
      "ĠBills": 2536,
      "Ġflew": 2537,
      "Ġsometimes": 2538,
      "reet": 2539,
      "Ġthings": 2540,
      "ĠThomas": 2541,
      "ĠJapanese": 2542,
      "ĠRussia": 2543,
      "ij": 2544,
      "Ġmother": 2545,
      "Ġacross": 2546,
      "ĠSoc": 2547,
      "--": 2548,
      "Ġhigher": 2549,
      "Ġcollect": 2550,
      "useum": 2551,
      "ĠRob": 2552,
      "Ġ37": 2553,
      "American": 2554,
      "ĠDen": 2555,
      "Ġsuff": 2556,
      "istic": 2557,
      "Ġmater": 2558,
      "Ġtravel": 2559,
      "awks": 2560,
      "Ġpri": 2561,
      "ĠIsland": 2562,
      "lav": 2563,
      "ĠMac": 2564,
      "ĠFrancis": 2565,
      "ÃŃ": 2566,
      "Ġread": 2567,
      "Ġhous": 2568,
      "Ġremaining": 2569,
      "Ġinternational": 2570,
      "ys": 2571,
      "ĠKh": 2572,
      "Ġbillion": 2573,
      "Ġwest": 2574,
      "Ġpriv": 2575,
      "Ġrule": 2576,
      "ilies": 2577,
      "ĠGeneral": 2578,
      "Ġreal": 2579,
      "ĠQu": 2580,
      "Ġbuilding": 2581,
      "Ġmult": 2582,
      "peror": 2583,
      "Ġpunt": 2584,
      "Ġcut": 2585,
      "liament": 2586,
      "ĠGrand": 2587,
      "Ġterritory": 2588,
      "ĠFirst": 2589,
      "Ġsaw": 2590,
      "ĠOttoman": 2591,
      "Ġrecogn": 2592,
      "ential": 2593,
      "yr": 2594,
      "rought": 2595,
      "65": 2596,
      "ĠHistory": 2597,
      "Ġground": 2598,
      "Ã³": 2599,
      "Ġ2002": 2600,
      "Ġinit": 2601,
      "%)": 2602,
      "Ġscient": 2603,
      "eff": 2604,
      "Ġlonger": 2605,
      "ĠWestern": 2606,
      "Ġlanguages": 2607,
      "cy": 2608,
      "ino": 2609,
      "Ġinj": 2610,
      "ĠCarolina": 2611,
      "Ġmiss": 2612,
      "ĠDutch": 2613,
      "64": 2614,
      "Ġcirc": 2615,
      "Ġtri": 2616,
      "pan": 2617,
      "ĠDie": 2618,
      "otes": 2619,
      "Ġtrailed": 2620,
      "ĠTo": 2621,
      "Ġphil": 2622,
      "Ġmeet": 2623,
      "Ġtemper": 2624,
      "63": 2625,
      "Ġyoung": 2626,
      "Ġstri": 2627,
      "reland": 2628,
      "Ġfr": 2629,
      "ĠVal": 2630,
      "Al": 2631,
      "Ġstruct": 2632,
      "lymp": 2633,
      "Ġseen": 2634,
      "ĠRyan": 2635,
      "197": 2636,
      "Ġimm": 2637,
      "Ġcond": 2638,
      "ĠHou": 2639,
      "ula": 2640,
      "Ġestim": 2641,
      "Ġreached": 2642,
      "Ġproduced": 2643,
      "Ġdi": 2644,
      "Ġmonths": 2645,
      "Ġcaused": 2646,
      "Ġkind": 2647,
      "Ġrelations": 2648,
      "99": 2649,
      "Ġlittle": 2650,
      "ĠCatholic": 2651,
      "ayed": 2652,
      "ĠItalian": 2653,
      "Ġonce": 2654,
      "Ġvon": 2655,
      "ecially": 2656,
      "ĠOff": 2657,
      "Ġtoo": 2658,
      "incip": 2659,
      "ena": 2660,
      "ĠMost": 2661,
      "Ġsaf": 2662,
      "Ġalmost": 2663,
      "ĠRec": 2664,
      "ĠDiv": 2665,
      "ged": 2666,
      "van": 2667,
      "uf": 2668,
      "urning": 2669,
      "igr": 2670,
      "Ġproper": 2671,
      "ĠRoyal": 2672,
      "well": 2673,
      "ĠEgypt": 2674,
      "Ġmanaged": 2675,
      "ĠPaul": 2676,
      "ication": 2677,
      "Ġ44": 2678,
      "ensity": 2679,
      "ĠSaints": 2680,
      "Ġsurv": 2681,
      "sequ": 2682,
      "berg": 2683,
      "mb": 2684,
      "field": 2685,
      "Ġpred": 2686,
      "As": 2687,
      "eh": 2688,
      "Ġreligious": 2689,
      "km": 2690,
      "Ġincrease": 2691,
      "Ġcourt": 2692,
      "ethod": 2693,
      "ĠIslam": 2694,
      "Ġste": 2695,
      "Ġpolic": 2696,
      "especially": 2697,
      "etroit": 2698,
      "Ġoccup": 2699,
      "atures": 2700,
      "allas": 2701,
      "ĠMor": 2702,
      "Ġrace": 2703,
      "Ġassoc": 2704,
      "ĠRes": 2705,
      "Ġbusiness": 2706,
      "ota": 2707,
      "Ġappear": 2708,
      "37": 2709,
      "Ġdefeated": 2710,
      "38": 2711,
      "ĠApp": 2712,
      "bor": 2713,
      "iforn": 2714,
      "Ġrock": 2715,
      "ĠParis": 2716,
      "Ġaccording": 2717,
      "Ġpress": 2718,
      "ĠCong": 2719,
      "ĠIreland": 2720,
      "arian": 2721,
      "Ġconstruct": 2722,
      "Ġgoing": 2723,
      "Ġtaken": 2724,
      "Ġmount": 2725,
      "Ġpossession": 2726,
      "Ġannounced": 2727,
      "Ġtitle": 2728,
      "FA": 2729,
      "ĠRams": 2730,
      "ĠVictor": 2731,
      "atter": 2732,
      "Ġcommand": 2733,
      "Ġhouseholds": 2734,
      "Ġeast": 2735,
      "ĠAward": 2736,
      "ĠCanada": 2737,
      "ĠHouston": 2738,
      "Ġscoring": 2739,
      "ynast": 2740,
      "ansas": 2741,
      "ware": 2742,
      "Ġworks": 2743,
      "Ar": 2744,
      "ĠMont": 2745,
      "ĠMad": 2746,
      "owers": 2747,
      "Ġproduction": 2748,
      "Ġ60": 2749,
      "Ġhimself": 2750,
      "ĠCardin": 2751,
      "Ġcolon": 2752,
      "con": 2753,
      "Ġcoast": 2754,
      "Ġfac": 2755,
      "ĠBel": 2756,
      "stand": 2757,
      "ĠAg": 2758,
      "ograph": 2759,
      "ĠItaly": 2760,
      "eck": 2761,
      "Ġthroughout": 2762,
      "Ġconvers": 2763,
      "Ġthink": 2764,
      "itect": 2765,
      "Ġmaterial": 2766,
      "etic": 2767,
      "ĠDon": 2768,
      "Ġmoney": 2769,
      "Ġbi": 2770,
      "Ġeconomic": 2771,
      "Ġreason": 2772,
      "Ġliter": 2773,
      "ĠMal": 2774,
      "48": 2775,
      "ifornia": 2776,
      "Ġbroad": 2777,
      "ĠFalc": 2778,
      "ĠDallas": 2779,
      "ude": 2780,
      "ĠNor": 2781,
      "Ġband": 2782,
      "ĠIm": 2783,
      "ranch": 2784,
      "Ġ48": 2785,
      "cast": 2786,
      "andon": 2787,
      "Ġphilosop": 2788,
      "ĠDetroit": 2789,
      "ele": 2790,
      "ĠDolph": 2791,
      "Ġeducation": 2792,
      "Ġfounded": 2793,
      "oice": 2794,
      "Ġthrow": 2795,
      "Ġenc": 2796,
      "ĠRobert": 2797,
      "itive": 2798,
      "Ġeither": 2799,
      "Ġbehind": 2800,
      "enced": 2801,
      "Ġcase": 2802,
      "oul": 2803,
      "ĠAsia": 2804,
      "point": 2805,
      "Ġbrother": 2806,
      "Ġterms": 2807,
      "Ġ39": 2808,
      "fic": 2809,
      "Ġcost": 2810,
      "Ġstyle": 2811,
      "ĠDan": 2812,
      "Ġdecl": 2813,
      "Ġcentral": 2814,
      "Ġcompared": 2815,
      "Ġseven": 2816,
      "ument": 2817,
      "ĠRel": 2818,
      "Ġarg": 2819,
      "Ġstar": 2820,
      "Ġlongest": 2821,
      "Ġculture": 2822,
      "olk": 2823,
      "Ġbrought": 2824,
      "ceed": 2825,
      "Ġ41": 2826,
      "Ġappe": 2827,
      "Ġdet": 2828,
      "ĠCalifornia": 2829,
      "ĠMart": 2830,
      "adel": 2831,
      "oms": 2832,
      "ĠPri": 2833,
      "agu": 2834,
      "ĠOlymp": 2835,
      "Ġmarket": 2836,
      "ĠMary": 2837,
      "ĠSwed": 2838,
      "ols": 2839,
      "erc": 2840,
      "iles": 2841,
      "Ġkeep": 2842,
      "ĠTitans": 2843,
      "Ġespecially": 2844,
      "irl": 2845,
      "100": 2846,
      "ocratic": 2847,
      "Ġlower": 2848,
      "burgh": 2849,
      "ĠArt": 2850,
      "Ġengine": 2851,
      "Ġeight": 2852,
      "ety": 2853,
      "ĠAccording": 2854,
      "Ġnatural": 2855,
      "ĠJones": 2856,
      "Ġsit": 2857,
      "Ġ65": 2858,
      "year": 2859,
      "ĠAc": 2860,
      "Ġsize": 2861,
      "ĠCentral": 2862,
      "Ġavail": 2863,
      "Ġmarried": 2864,
      "ya": 2865,
      "ĠChampionship": 2866,
      "erb": 2867,
      "Ġleading": 2868,
      "Ġminutes": 2869,
      "selves": 2870,
      "ĠWil": 2871,
      "ĠFalcons": 2872,
      "imately": 2873,
      "Ġthemselves": 2874,
      "Ġ1980": 2875,
      "Ġsouthern": 2876,
      "ĠBrady": 2877,
      "Ġunivers": 2878,
      "Ġ--": 2879,
      "ĠDiego": 2880,
      "ression": 2881,
      "Ġlaun": 2882,
      "ushing": 2883,
      "ĠDep": 2884,
      "ĠDolphins": 2885,
      "ream": 2886,
      "Ġmeas": 2887,
      "ĠMuslim": 2888,
      "ĠCollege": 2889,
      "Ġremained": 2890,
      "icle": 2891,
      "rick": 2892,
      "ĠFort": 2893,
      "Ġele": 2894,
      "aps": 2895,
      "Ġemploy": 2896,
      "Ġaddition": 2897,
      "umble": 2898,
      "su": 2899,
      "Ġsoldiers": 2900,
      "ĠWe": 2901,
      "36": 2902,
      "Ġrights": 2903,
      "Ġra": 2904,
      "Ġsystems": 2905,
      "Ġfire": 2906,
      "Ġresearch": 2907,
      "Ġten": 2908,
      "Ġconfl": 2909,
      "ĠHigh": 2910,
      "Ġ47": 2911,
      "Ġprofess": 2912,
      "Ġ80": 2913,
      "asion": 2914,
      "ĠKn": 2915,
      "ĠCourt": 2916,
      "47": 2917,
      "Ġevents": 2918,
      "ores": 2919,
      "uses": 2920,
      "ĠNFL": 2921,
      "Ġpay": 2922,
      "Ġfre": 2923,
      "Ġfamilies": 2924,
      "Ġsound": 2925,
      "ĠBo": 2926,
      "ords": 2927,
      "rown": 2928,
      "reg": 2929,
      "ĠCouncil": 2930,
      "ĠLaw": 2931,
      "Ã¶": 2932,
      "kn": 2933,
      "ĠAmericans": 2934,
      "ĠVir": 2935,
      "Ġtext": 2936,
      "ĠFre": 2937,
      "Ġ42": 2938,
      "Ġ1970": 2939,
      "Ġtight": 2940,
      "inal": 2941,
      "Ġelection": 2942,
      "ĠTer": 2943,
      "Ġoutside": 2944,
      "Ġspok": 2945,
      "Ġneg": 2946,
      "Ġhealth": 2947,
      "aval": 2948,
      "Ġzone": 2949,
      "Ġtrade": 2950,
      "iqu": 2951,
      "ida": 2952,
      "iff": 2953,
      "tr": 2954,
      "ĠJason": 2955,
      "ĠDel": 2956,
      "Ġnorthern": 2957,
      "Ġgiving": 2958,
      "Ġopened": 2959,
      "be": 2960,
      "ĠTurk": 2961,
      "unic": 2962,
      "ym": 2963,
      "95": 2964,
      "82": 2965,
      "Ġsex": 2966,
      "ĠBest": 2967,
      "Ġnetwork": 2968,
      "Ġpassed": 2969,
      "ĠFrom": 2970,
      "iction": 2971,
      "Ġquick": 2972,
      "Ġdata": 2973,
      "Ġopening": 2974,
      "66": 2975,
      "ĠSen": 2976,
      "ky": 2977,
      "Ġfav": 2978,
      "Ġsquare": 2979,
      "Ġwind": 2980,
      "Ġwhe": 2981,
      "ĠJust": 2982,
      "Ġstation": 2983,
      "Ġbeginning": 2984,
      "Ġgrowth": 2985,
      "Ġmove": 2986,
      "Ġ43": 2987,
      "ĠIII": 2988,
      "not": 2989,
      "raz": 2990,
      "bour": 2991,
      "ĠKansas": 2992,
      "ibr": 2993,
      "uries": 2994,
      "Ġpast": 2995,
      "lis": 2996,
      "Ġunits": 2997,
      "ults": 2998,
      "abit": 2999,
      "adelph": 3000,
      "ĠSpain": 3001,
      "bers": 3002,
      "iami": 3003,
      "Ġleaders": 3004,
      "raight": 3005,
      "ising": 3006,
      "ĠSing": 3007,
      "Ġriver": 3008,
      "44": 3009,
      "aine": 3010,
      "Ġoffer": 3011,
      "ari": 3012,
      "Ġlik": 3013,
      "vert": 3014,
      "ourn": 3015,
      "Ġmethod": 3016,
      "ĠEarth": 3017,
      "adelphia": 3018,
      "ati": 3019,
      "Ġstandard": 3020,
      "jects": 3021,
      "ĠAFC": 3022,
      "ĠSuper": 3023,
      "ĠIf": 3024,
      "Ġever": 3025,
      "ĠAnt": 3026,
      "Ġmor": 3027,
      "mon": 3028,
      "Ġtheory": 3029,
      "Ġrather": 3030,
      "ĠPac": 3031,
      "Ġdise": 3032,
      "Ġcertain": 3033,
      "ception": 3034,
      "Ġregular": 3035,
      "chie": 3036,
      "Ġviol": 3037,
      "ĠDu": 3038,
      "olit": 3039,
      "arily": 3040,
      "ĠPit": 3041,
      "Ġincludes": 3042,
      "Ġuniversity": 3043,
      "ply": 3044,
      "Ġlived": 3045,
      "Ġblood": 3046,
      "Ġsigned": 3047,
      "Ġ46": 3048,
      "Ġsugg": 3049,
      "ĠIrish": 3050,
      "Coming": 3051,
      "Ġtoday": 3052,
      "ĠPant": 3053,
      "ĠRod": 3054,
      "Ġgenerally": 3055,
      "Ġrespect": 3056,
      "ĠKe": 3057,
      "ĠPeter": 3058,
      "Ġreported": 3059,
      "Ġcit": 3060,
      "ĠSeah": 3061,
      "55": 3062,
      "Ġpur": 3063,
      "ĠCardinals": 3064,
      "arr": 3065,
      "Ġmajority": 3066,
      "Ġ[": 3067,
      "rel": 3068,
      "Ġcour": 3069,
      "Ġbreak": 3070,
      "=\"": 3071,
      "omes": 3072,
      "Ġ1999": 3073,
      "Ġleader": 3074,
      "Ġspeak": 3075,
      "Ġge": 3076,
      "Ġrac": 3077,
      "rael": 3078,
      "Ġsom": 3079,
      "Ġdensity": 3080,
      "Ġchanged": 3081,
      "ĠRichard": 3082,
      "ynasty": 3083,
      "atory": 3084,
      "born": 3085,
      "Ġchurch": 3086,
      "berger": 3087,
      "Ġpossible": 3088,
      "Ġrange": 3089,
      "adu": 3090,
      "Ġoffice": 3091,
      "ĠSant": 3092,
      "Ġeventually": 3093,
      "west": 3094,
      "Ġpers": 3095,
      "aut": 3096,
      "with": 3097,
      "ĠBer": 3098,
      "ĠÃ": 3099,
      "Ġfederal": 3100,
      "ĠPeople": 3101,
      "39": 3102,
      "Ġinstead": 3103,
      "Ġversion": 3104,
      "pro": 3105,
      "ĠArmen": 3106,
      "tain": 3107,
      "Ġwinning": 3108,
      "ĠUK": 3109,
      "perial": 3110,
      "oping": 3111,
      "ĠMike": 3112,
      "ĠQueen": 3113,
      "Ġentire": 3114,
      "Ġmovement": 3115,
      "&#": 3116,
      "Ġitself": 3117,
      "Ġavailable": 3118,
      "Ġblock": 3119,
      "Ġvideo": 3120,
      "like": 3121,
      "idence": 3122,
      "Ġsea": 3123,
      "Ġclos": 3124,
      "Ġadministr": 3125,
      "ĠSeahawks": 3126,
      "Ġrecorded": 3127,
      "ique": 3128,
      "abb": 3129,
      "Ġnailed": 3130,
      "aled": 3131,
      "49": 3132,
      "Ġupon": 3133,
      "Ġdam": 3134,
      "Ġbo": 3135,
      "67": 3136,
      "ĠMount": 3137,
      "Ġarchitect": 3138,
      "Ġaccept": 3139,
      "viron": 3140,
      "Ġprincip": 3141,
      "ĠPhiladelphia": 3142,
      "Ġcoll": 3143,
      "Ġhappened": 3144,
      "Ġworking": 3145,
      "ĠPlay": 3146,
      "ĠWilliams": 3147,
      "ĠJer": 3148,
      "elling": 3149,
      "Ġservices": 3150,
      "NA": 3151,
      "eph": 3152,
      "serv": 3153,
      "Ġfumble": 3154,
      "ĠMiami": 3155,
      "ĠBalt": 3156,
      "Ġpeace": 3157,
      "pe": 3158,
      "Ġcenter": 3159,
      "Ġimproved": 3160,
      "85": 3161,
      "61": 3162,
      "Ġconversion": 3163,
      "69": 3164,
      "Ġhelped": 3165,
      "yd": 3166,
      "ĠWhile": 3167,
      "Ġtreat": 3168,
      "31": 3169,
      "Ġcases": 3170,
      "Ġmight": 3171,
      "part": 3172,
      "Ġ2017": 3173,
      "Ġchem": 3174,
      "Ġlarger": 3175,
      "ĠHall": 3176,
      "hi": 3177,
      "uit": 3178,
      "Did": 3179,
      "oes": 3180,
      "ires": 3181,
      "ux": 3182,
      "Ġestimated": 3183,
      "ĠProt": 3184,
      "board": 3185,
      "Ġcause": 3186,
      "Ġspread": 3187,
      "Ġcompan": 3188,
      "Ġreach": 3189,
      "Ġolder": 3190,
      "ĠDivision": 3191,
      "Ġtax": 3192,
      "Ġabove": 3193,
      "Ġanimals": 3194,
      "ĠSal": 3195,
      "Ġtrib": 3196,
      "ĠTreaty": 3197,
      "erous": 3198,
      "Ġdestroy": 3199,
      "ability": 3200,
      "Ġprison": 3201,
      "Ġwanted": 3202,
      "Ġforms": 3203,
      "Ġconqu": 3204,
      "roup": 3205,
      "Äģ": 3206,
      "Ĺı": 3207,
      "Ġ187": 3208,
      "Ġstory": 3209,
      "Ġcolor": 3210,
      "Ġchanges": 3211,
      "ground": 3212,
      "sy": 3213,
      "87": 3214,
      "Ġincreasing": 3215,
      "bon": 3216,
      "Ġbetter": 3217,
      "Ġethn": 3218,
      "Ã¨": 3219,
      "urt": 3220,
      "ĠAlthough": 3221,
      "iest": 3222,
      "Ġ1998": 3223,
      "pped": 3224,
      "Ġpos": 3225,
      "Ġprevent": 3226,
      "ĠMe": 3227,
      "Ġvill": 3228,
      "medi": 3229,
      "reme": 3230,
      "Ġcross": 3231,
      "âĹı": 3232,
      "Ġinh": 3233,
      "Ġprovince": 3234,
      "Ġpolice": 3235,
      "ounter": 3236,
      "Ġwords": 3237,
      "ss": 3238,
      "Ġproblems": 3239,
      "face": 3240,
      "Ġinfluence": 3241,
      "lor": 3242,
      "Ġhun": 3243,
      "Ġjob": 3244,
      "Ġnation": 3245,
      "Ġtest": 3246,
      "ĠAsian": 3247,
      "Ġfront": 3248,
      "ector": 3249,
      "heast": 3250,
      "Ġdecided": 3251,
      "atives": 3252,
      "Ġarm": 3253,
      "ĠField": 3254,
      "Ġfinally": 3255,
      "ĠNFC": 3256,
      "Ġprivate": 3257,
      "ĠCenter": 3258,
      "Ġwife": 3259,
      "ĠCast": 3260,
      "ĠMiddle": 3261,
      "cean": 3262,
      "ĠSim": 3263,
      "%),": 3264,
      "add": 3265,
      "Ġsoon": 3266,
      "ump": 3267,
      "Ġjoined": 3268,
      "ĠCle": 3269,
      "cle": 3270,
      "32": 3271,
      "Ġcatch": 3272,
      "89": 3273,
      "oo": 3274,
      "ollowing": 3275,
      "Ġplant": 3276,
      "After": 3277,
      "Ġlosing": 3278,
      "che": 3279,
      "Ġfund": 3280,
      "Ġcaptured": 3281,
      "pts": 3282,
      "Ġworked": 3283,
      "ught": 3284,
      "ĠTwo": 3285,
      "Ġscience": 3286,
      "Ġnumbers": 3287,
      "Ġbirth": 3288,
      "stitut": 3289,
      "Ġinvest": 3290,
      "ĠCongress": 3291,
      "Ġmanag": 3292,
      "Ġsays": 3293,
      "Ġsch": 3294,
      "ĠFrank": 3295,
      "hood": 3296,
      "Ġserved": 3297,
      "59": 3298,
      "Ġvisit": 3299,
      "ĠBow": 3300,
      "ĠSun": 3301,
      "Ġeas": 3302,
      "Ġ1997": 3303,
      "uments": 3304,
      "what": 3305,
      "play": 3306,
      "Ġmostly": 3307,
      "ĠPanthers": 3308,
      "ror": 3309,
      "ĠYou": 3310,
      "Ġaward": 3311,
      "Ġintroduced": 3312,
      "Ġpot": 3313,
      "Ġoffense": 3314,
      "isl": 3315,
      "Ġrespons": 3316,
      "oted": 3317,
      "ĠChris": 3318,
      "Ġmonth": 3319,
      "Ġtied": 3320,
      "ĠRh": 3321,
      "Ġaction": 3322,
      "Ġmus": 3323,
      "rison": 3324,
      "iding": 3325,
      "ĠAngel": 3326,
      "ĠFlor": 3327,
      "Ġindustry": 3328,
      "Ġtraditional": 3329,
      "ĠGold": 3330,
      "Ġi": 3331,
      "Ġalways": 3332,
      "Ġdeg": 3333,
      "Ġmix": 3334,
      "Ġforeign": 3335,
      "iment": 3336,
      "ĠAv": 3337,
      "Ġfeature": 3338,
      "Ġ/": 3339,
      "Ġprogram": 3340,
      "ta": 3341,
      "ancial": 3342,
      "Ġadop": 3343,
      "odes": 3344,
      "ĠHill": 3345,
      "Ġsack": 3346,
      "ficult": 3347,
      "500": 3348,
      "Ġfoc": 3349,
      "ĠAri": 3350,
      "Ġbird": 3351,
      "ĠMinister": 3352,
      "ĠMcC": 3353,
      "Ġdeter": 3354,
      "Ġdig": 3355,
      "aughter": 3356,
      "68": 3357,
      "Ġbirths": 3358,
      "Ġconduct": 3359,
      "Ġelected": 3360,
      "Ġminor": 3361,
      "Ġsat": 3362,
      "ĠLab": 3363,
      "lisberger": 3364,
      "ĠMil": 3365,
      "Ġtaking": 3366,
      "Ġyes": 3367,
      "Ġstrugg": 3368,
      "ĠMark": 3369,
      "ĠYear": 3370,
      "Ġrail": 3371,
      "wood": 3372,
      "ĠJeff": 3373,
      "ĠDar": 3374,
      "ĠTenn": 3375,
      "Ġdifficult": 3376,
      "ilities": 3377,
      "ethlisberger": 3378,
      "Ġturned": 3379,
      "ĠCamp": 3380,
      "tsburgh": 3381,
      "Ġancest": 3382,
      "ĠIsrael": 3383,
      "ĠRoethlisberger": 3384,
      "ĠPolish": 3385,
      "Ġrook": 3386,
      "Ġplants": 3387,
      "ĠAfterwards": 3388,
      "Ġcommer": 3389,
      "Ġcy": 3390,
      ".[": 3391,
      "ĠMy": 3392,
      "ened": 3393,
      "Ġder": 3394,
      "ĠScot": 3395,
      "Ġneigh": 3396,
      "Ġsafety": 3397,
      "rial": 3398,
      "Ġreplaced": 3399,
      "ĠMexico": 3400,
      "ait": 3401,
      "omm": 3402,
      "irm": 3403,
      "ishing": 3404,
      "42": 3405,
      "CA": 3406,
      "57": 3407,
      "ĠOl": 3408,
      "ingu": 3409,
      "Ġmeaning": 3410,
      "Ġcat": 3411,
      "ament": 3412,
      "ĠWind": 3413,
      "Ġrushing": 3414,
      "62": 3415,
      "ĠScott": 3416,
      "gress": 3417,
      "Ġkey": 3418,
      "vironment": 3419,
      "Ġpul": 3420,
      "Ġtie": 3421,
      "ĠArch": 3422,
      "ĠMusic": 3423,
      "Ġrookie": 3424,
      "Ġsite": 3425,
      "Ġbuildings": 3426,
      "ĠCam": 3427,
      "uguese": 3428,
      "ĠLater": 3429,
      "ĠCat": 3430,
      "Ġmodel": 3431,
      "Ġindependent": 3432,
      "ned": 3433,
      "Ġwhose": 3434,
      "rid": 3435,
      "Ġsmaller": 3436,
      "ĠSea": 3437,
      "Ġwestern": 3438,
      "ĠBul": 3439,
      "Ġachie": 3440,
      "ĠRevolution": 3441,
      "ĠFrancisco": 3442,
      "ĠMr": 3443,
      "Ġfemale": 3444,
      "ĠPoland": 3445,
      "Ġcommunity": 3446,
      "ĠBill": 3447,
      "Ġnailing": 3448,
      "rieved": 3449,
      "Ġ1996": 3450,
      "ĠGo": 3451,
      "Ġlo": 3452,
      "Ġtold": 3453,
      "elled": 3454,
      "ĠPittsburgh": 3455,
      "ume": 3456,
      "160": 3457,
      "Ġdeep": 3458,
      "ufact": 3459,
      "Ġamount": 3460,
      "game": 3461,
      "Ġdescribed": 3462,
      "ein": 3463,
      "citation": 3464,
      "Ġkm": 3465,
      "Ġnearly": 3466,
      "Ġcover": 3467,
      "Ġconsist": 3468,
      "aded": 3469,
      "Ġ1960": 3470,
      "raham": 3471,
      "ners": 3472,
      "ĠMuseum": 3473,
      "HL": 3474,
      "Ġtour": 3475,
      "Ġaccess": 3476,
      "Ġ1991": 3477,
      "alled": 3478,
      "Ġdeaths": 3479,
      "olis": 3480,
      "ĠPacific": 3481,
      "Ġintern": 3482,
      "ĠEastern": 3483,
      "Ġmakes": 3484,
      "Ġanswered": 3485,
      "estic": 3486,
      "isions": 3487,
      "Ġdone": 3488,
      "Ġquickly": 3489,
      "urity": 3490,
      "oph": 3491,
      "istance": 3492,
      "NN": 3493,
      "ĠVictoria": 3494,
      "ready": 3495,
      "Ġsil": 3496,
      "Ġspace": 3497,
      "ĠSince": 3498,
      "ĠIts": 3499,
      "Ġcaught": 3500,
      "ĠTor": 3501,
      "Ġanal": 3502,
      "Ġ70": 3503,
      "41": 3504,
      "rup": 3505,
      "âĢĶâĢĶ": 3506,
      "hol": 3507,
      "onn": 3508,
      "ĠThen": 3509,
      "Ġdate": 3510,
      "Ġlay": 3511,
      "ĠPress": 3512,
      "ĠCompany": 3513,
      "Ġche": 3514,
      "Ġfif": 3515,
      "Ġintercepted": 3516,
      "Ġdou": 3517,
      "Ġclosed": 3518,
      "Ġcitiz": 3519,
      "Ġraces": 3520,
      "king": 3521,
      "Ġden": 3522,
      "ĠSeattle": 3523,
      "Ġfig": 3524,
      "Ġabs": 3525,
      "Ġpages": 3526,
      "ĠCommun": 3527,
      "ĠÂ°": 3528,
      "Ġcou": 3529,
      "Ġmag": 3530,
      "Ġjud": 3531,
      "ving": 3532,
      "Ġfort": 3533,
      "Ġbar": 3534,
      "Ġbomb": 3535,
      "Ġparticularly": 3536,
      "Ġincome": 3537,
      "stitute": 3538,
      "anks": 3539,
      "Ġborder": 3540,
      "Ġreligion": 3541,
      "\")": 3542,
      "ĠEmperor": 3543,
      "rict": 3544,
      "Ġdog": 3545,
      "Ġdoct": 3546,
      "ĠAssoc": 3547,
      "alo": 3548,
      "Ġtypes": 3549,
      "essee": 3550,
      "craft": 3551,
      "Ġparen": 3552,
      "anded": 3553,
      "Ġrain": 3554,
      "Ġmem": 3555,
      "Ġphot": 3556,
      "ecess": 3557,
      "98": 3558,
      "kowski": 3559,
      "Ġshows": 3560,
      "icial": 3561,
      "leg": 3562,
      "ano": 3563,
      "Ġregard": 3564,
      "Ġfrequ": 3565,
      "Ġdom": 3566,
      "istics": 3567,
      "ublican": 3568,
      "ecause": 3569,
      "Ġcompanies": 3570,
      "ĠJews": 3571,
      "ify": 3572,
      "ĠJoe": 3573,
      "wide": 3574,
      "ĠCanadian": 3575,
      "ĠParliament": 3576,
      "Ġdepartment": 3577,
      "onic": 3578,
      "ĠLos": 3579,
      "Ġ1995": 3580,
      "Ġox": 3581,
      "Ġdisp": 3582,
      "ĠPrince": 3583,
      "uz": 3584,
      "Ġancient": 3585,
      "Ġnorm": 3586,
      "Ġhon": 3587,
      "Ġgold": 3588,
      "acters": 3589,
      "Ġethnic": 3590,
      "ulf": 3591,
      "Ġ1994": 3592,
      "Is": 3593,
      "oor": 3594,
      "Ġreturning": 3595,
      "uals": 3596,
      "Ġeconomy": 3597,
      "07": 3598,
      "Ġbooks": 3599,
      "uge": 3600,
      "Ġsoft": 3601,
      "iance": 3602,
      "Ġthreat": 3603,
      "duce": 3604,
      "46": 3605,
      "inct": 3606,
      "elt": 3607,
      "Ġappeared": 3608,
      "Ġround": 3609,
      "Ġmovies": 3610,
      "Ġconflict": 3611,
      "ĠTennessee": 3612,
      "Ġschol": 3613,
      "Ġdrove": 3614,
      "ĠMinn": 3615,
      "Ġser": 3616,
      "Ġparticip": 3617,
      "ĠWars": 3618,
      "icro": 3619,
      "Ġselect": 3620,
      "aven": 3621,
      "Ġalready": 3622,
      "ĠDay": 3623,
      "It": 3624,
      "orial": 3625,
      "Ġrelease": 3626,
      "Ġstraight": 3627,
      "ends": 3628,
      "ressed": 3629,
      "airs": 3630,
      "Ġrelationship": 3631,
      "ĠThat": 3632,
      "Ġdistrict": 3633,
      "Ġeastern": 3634,
      "âĢĿ": 3635,
      "ĠSund": 3636,
      "ĠOld": 3637,
      "echan": 3638,
      "ĠPortuguese": 3639,
      "la": 3640,
      "Ġcast": 3641,
      "ĠLong": 3642,
      "ĠBell": 3643,
      "Ġaud": 3644,
      "58": 3645,
      "emic": 3646,
      "Ġprimary": 3647,
      "ken": 3648,
      "Ġuses": 3649,
      "ask": 3650,
      "ĠOb": 3651,
      "Ġoil": 3652,
      "ĠVirgin": 3653,
      "Ġcombined": 3654,
      "Ġ1992": 3655,
      "ĠFootball": 3656,
      "Ġearlier": 3657,
      "43": 3658,
      "edy": 3659,
      "uture": 3660,
      "ximately": 3661,
      "istrict": 3662,
      "Ġgun": 3663,
      "Ġwhom": 3664,
      "imore": 3665,
      "obal": 3666,
      "Ġstarting": 3667,
      "ĠStud": 3668,
      "Ġself": 3669,
      "Ġvir": 3670,
      "remier": 3671,
      "ĠEdward": 3672,
      "Ġtransl": 3673,
      "ibet": 3674,
      "Ġplaying": 3675,
      "Ġremain": 3676,
      "Ġelectric": 3677,
      "ada": 3678,
      "Ġdivided": 3679,
      "ĠAk": 3680,
      "cial": 3681,
      "Ġleague": 3682,
      "esota": 3683,
      "ĠJay": 3684,
      "97": 3685,
      "Ġlot": 3686,
      "Ġhot": 3687,
      "ĠBudd": 3688,
      "ĠSecond": 3689,
      "ĠGeorg": 3690,
      "ios": 3691,
      "hib": 3692,
      "ER": 3693,
      "ĠFe": 3694,
      "Ġsongs": 3695,
      "ĠMel": 3696,
      "ounds": 3697,
      "Ġcomplex": 3698,
      "anned": 3699,
      "Ġpick": 3700,
      "ications": 3701,
      "rich": 3702,
      "ems": 3703,
      "ĠInter": 3704,
      "Ġobject": 3705,
      "Ġ(\"": 3706,
      "Ġlegal": 3707,
      "Ġsymb": 3708,
      "olf": 3709,
      "ĠHan": 3710,
      "Ġ2018": 3711,
      "Ġreact": 3712,
      "Ġrecent": 3713,
      "ras": 3714,
      "ĠGar": 3715,
      "reement": 3716,
      "ledge": 3717,
      "Ġdesigned": 3718,
      "Ġidea": 3719,
      "zona": 3720,
      "Ġrally": 3721,
      "ĠSo": 3722,
      "ĠSom": 3723,
      "Ġmach": 3724,
      "ali": 3725,
      "Ġkept": 3726,
      "Ġlaws": 3727,
      "elebr": 3728,
      "alty": 3729,
      "Ġdynasty": 3730,
      "Ġbelieved": 3731,
      "Ġill": 3732,
      "ĠMinnesota": 3733,
      "Ġtowards": 3734,
      "Ġrelated": 3735,
      "ulation": 3736,
      "ĠCivil": 3737,
      "ĠJewish": 3738,
      "ĠTV": 3739,
      "Ġproblem": 3740,
      "Ġentered": 3741,
      "ĠBook": 3742,
      "ĠRivers": 3743,
      "Ġcenturies": 3744,
      "Ġmanufact": 3745,
      "ĠAwards": 3746,
      "ĠĠĠĠĠĠĠĠ": 3747,
      "ĠEv": 3748,
      "Ġcultural": 3749,
      "bit": 3750,
      "56": 3751,
      "Ġobserv": 3752,
      "mar": 3753,
      "ĠMore": 3754,
      "undred": 3755,
      "onse": 3756,
      "Ġgre": 3757,
      "ĠHam": 3758,
      "gers": 3759,
      "Ġreplied": 3760,
      "ĠCut": 3761,
      "Ġstreak": 3762,
      "ĠCont": 3763,
      "Ġemerg": 3764,
      "hew": 3765,
      "Ġaccount": 3766,
      "ĠFlorida": 3767,
      "Ġconnected": 3768,
      "aker": 3769,
      "Ġplaces": 3770,
      "urban": 3771,
      "Ġâ": 3772,
      "ĠDenver": 3773,
      "ĠSl": 3774,
      "ĠMass": 3775,
      "Ġtemperature": 3776,
      "ropical": 3777,
      "Ġinstr": 3778,
      "Ġrival": 3779,
      "known": 3780,
      "thing": 3781,
      "igned": 3782,
      "ĠStreet": 3783,
      "Ġconstruction": 3784,
      "Ġnames": 3785,
      "Ġthous": 3786,
      "dr": 3787,
      "ĠIran": 3788,
      "88": 3789,
      "Ġconnect": 3790,
      "Ġmedia": 3791,
      "ĠRome": 3792,
      "Ġface": 3793,
      "Ġsupported": 3794,
      "Ġ75": 3795,
      "ricult": 3796,
      "Ġey": 3797,
      "ES": 3798,
      "unicip": 3799,
      "ĠPak": 3800,
      "Ġexc": 3801,
      "band": 3802,
      "Ġhours": 3803,
      "ĠArizona": 3804,
      "Ġbring": 3805,
      "Ġregions": 3806,
      "Ġcharacters": 3807,
      "ĠEarly": 3808,
      "ĠOak": 3809,
      "ĠNorthern": 3810,
      "Ġgrant": 3811,
      "Ġfriends": 3812,
      "ev": 3813,
      "Ġgrand": 3814,
      "ties": 3815,
      "oston": 3816,
      "Ġlearn": 3817,
      "mark": 3818,
      "Ġtradition": 3819,
      "ĠGame": 3820,
      "nam": 3821,
      "Ġbur": 3822,
      ");": 3823,
      "Ġimmedi": 3824,
      "ĠJosh": 3825,
      "Ġdoc": 3826,
      "ĠVin": 3827,
      "Ġ90": 3828,
      "ĠMiss": 3829,
      "itch": 3830,
      "Åį": 3831,
      "ĠTrans": 3832,
      "ength": 3833,
      "Ġpoor": 3834,
      "iences": 3835,
      "ĠScotland": 3836,
      "cel": 3837,
      "ĠBaltimore": 3838,
      "TV": 3839,
      "ube": 3840,
      "Ġseconds": 3841,
      "ournal": 3842,
      "Ġfinished": 3843,
      "Ġepis": 3844,
      "eeks": 3845,
      "Ġsubsequ": 3846,
      "Ġdrug": 3847,
      "riage": 3848,
      "Ġdefin": 3849,
      "Ġcomputer": 3850,
      "sen": 3851,
      "ĠNight": 3852,
      "Ġradio": 3853,
      "Ġesc": 3854,
      "Ġdeclared": 3855,
      "Ġcontr": 3856,
      "Ġinvolved": 3857,
      "%,": 3858,
      "Ġruled": 3859,
      "Ġtreaty": 3860,
      "Ġrequired": 3861,
      "ĠAcad": 3862,
      "ĠBrandon": 3863,
      "Ġ||": 3864,
      "Ġsubject": 3865,
      "Ġdisease": 3866,
      "Ġago": 3867,
      "Ġcannot": 3868,
      "|-": 3869,
      "ption": 3870,
      "rying": 3871,
      "Ġpercentage": 3872,
      "Ġour": 3873,
      "54": 3874,
      "Ġprofessional": 3875,
      "Ġclimate": 3876,
      "Ġcritic": 3877,
      "awn": 3878,
      "Ġasked": 3879,
      "Ġrecovered": 3880,
      "Ġinterest": 3881,
      "There": 3882,
      "Ġclear": 3883,
      "era": 3884,
      "Ġpi": 3885,
      "Ġnomin": 3886,
      "Ġcomplet": 3887,
      "Ġaircraft": 3888,
      "ĠAustralian": 3889,
      "53": 3890,
      "Ġcreat": 3891,
      "ĠNot": 3892,
      "ĠLiber": 3893,
      "uman": 3894,
      "AT": 3895,
      "Ġcells": 3896,
      "Â²": 3897,
      "Ġindic": 3898,
      "Ġstruck": 3899,
      "Ġmiddle": 3900,
      "Ġpolicy": 3901,
      "Ġinside": 3902,
      "Ġdaughter": 3903,
      "Ġdial": 3904,
      "Ġdefeat": 3905,
      "ĠTibet": 3906,
      "Ġrap": 3907,
      "ĠDistrict": 3908,
      "ĠPers": 3909,
      "ender": 3910,
      "ething": 3911,
      "Ġperformance": 3912,
      "Ġships": 3913,
      "Ġassociated": 3914,
      "51": 3915,
      "olitan": 3916,
      "Ġconsider": 3917,
      "who": 3918,
      "ĠUnder": 3919,
      "ĠJac": 3920,
      "Ġstatus": 3921,
      "Ġspeed": 3922,
      "Ġ51": 3923,
      "ram": 3924,
      "ĠMod": 3925,
      "09": 3926,
      "uran": 3927,
      "Ġfinancial": 3928,
      "Ġindependence": 3929,
      "ita": 3930,
      "ĠNick": 3931,
      "Ġsitu": 3932,
      "Ġinvasion": 3933,
      "ĠTony": 3934,
      "Ġsource": 3935,
      "za": 3936,
      "icted": 3937,
      "oved": 3938,
      "alls": 3939,
      "ping": 3940,
      "ĠElect": 3941,
      "sych": 3942,
      "atively": 3943,
      "Ġroy": 3944,
      "Ġofficially": 3945,
      "BA": 3946,
      "Ġheart": 3947,
      "ĠNap": 3948,
      "ĠConf": 3949,
      "ĠTexas": 3950,
      "Ġlines": 3951,
      "ĠâĢľ": 3952,
      "anced": 3953,
      "unk": 3954,
      "eal": 3955,
      "ributed": 3956,
      "Ġsurround": 3957,
      "Ġbelow": 3958,
      "Ġthus": 3959,
      "Ġcelebr": 3960,
      "kins": 3961,
      "light": 3962,
      "hester": 3963,
      "osa": 3964,
      "Ġcounter": 3965,
      "asc": 3966,
      "Ġcitizens": 3967,
      "based": 3968,
      "Ġcomplete": 3969,
      "ockey": 3970,
      "ĠAssociation": 3971,
      "Ġattempted": 3972,
      "Ġfeel": 3973,
      "ĠTheir": 3974,
      "Ġ1993": 3975,
      "Ġgas": 3976,
      "ointed": 3977,
      "ĠTim": 3978,
      "ĠDemocratic": 3979,
      "ĠHung": 3980,
      "Ġcand": 3981,
      "Ġ52": 3982,
      "Ġindividual": 3983,
      "Ġheavy": 3984,
      "ĠBuff": 3985,
      "ĠPruss": 3986,
      "Ġmainly": 3987,
      "ĠDepartment": 3988,
      "Ġweeks": 3989,
      "ĠSunday": 3990,
      "ĠMong": 3991,
      "ĠAtlanta": 3992,
      "Ġagreed": 3993,
      "apolis": 3994,
      "ww": 3995,
      "ĠAnton": 3996,
      "ĠMarsh": 3997,
      "ola": 3998,
      "razil": 3999,
      "Ġannual": 4000,
      "Ġislands": 4001,
      "Ġpark": 4002,
      "ĠYes": 4003,
      "Ġtransport": 4004,
      "usp": 4005,
      "Ġresponse": 4006,
      "ng": 4007,
      "oe": 4008,
      "Ġdeal": 4009,
      "ĠGreece": 4010,
      "Ġpurp": 4011,
      "Ġproject": 4012,
      "erve": 4013,
      "Ġwhether": 4014,
      "rim": 4015,
      "ĠMill": 4016,
      "Ġwriting": 4017,
      "Ġacqu": 4018,
      "Ġreferred": 4019,
      "He": 4020,
      "83": 4021,
      "ĠDis": 4022,
      "96": 4023,
      "ampa": 4024,
      "Ġactive": 4025,
      "Ġgirl": 4026,
      "Ġarrived": 4027,
      "ĠGal": 4028,
      "Ġbre": 4029,
      "Ġwebsite": 4030,
      "oid": 4031,
      "ĠCutler": 4032,
      "Ġenvironment": 4033,
      "Ġcommonly": 4034,
      "Ġevidence": 4035,
      "Ġseparate": 4036,
      "Ġbene": 4037,
      "vention": 4038,
      "ĠCharl": 4039,
      "ĠKorea": 4040,
      "Ġcreate": 4041,
      "otal": 4042,
      "ray": 4043,
      "right": 4044,
      "Ġnine": 4045,
      "Ġ1989": 4046,
      "Ġprob": 4047,
      "Ġbelieve": 4048,
      "ĠAlso": 4049,
      "Ġmarked": 4050,
      "03": 4051,
      "Ġfemales": 4052,
      "Ġfought": 4053,
      "ĠBecause": 4054,
      "Ġworkers": 4055,
      "Ġelectron": 4056,
      "ani": 4057,
      "Ġ1950": 4058,
      "Ġtell": 4059,
      "ĠVen": 4060,
      "Ġoccurred": 4061,
      "ibility": 4062,
      "ĠAz": 4063,
      "Ġnov": 4064,
      "Ġcorn": 4065,
      "Why": 4066,
      "Ġfuture": 4067,
      "illa": 4068,
      "ĠBry": 4069,
      "Ġ64": 4070,
      "Ġwood": 4071,
      "ushed": 4072,
      "Ġlimited": 4073,
      "urg": 4074,
      "overs": 4075,
      "ĠCB": 4076,
      "no": 4077,
      "Ġcommercial": 4078,
      "Ġsurface": 4079,
      "SA": 4080,
      "Ġpersonal": 4081,
      "ĠPakistan": 4082,
      "77": 4083,
      "arrow": 4084,
      "odox": 4085,
      "Ġwhole": 4086,
      "aring": 4087,
      "Ġtraveled": 4088,
      "ĠMag": 4089,
      "01": 4090,
      "Ġracial": 4091,
      "ĠSir": 4092,
      "ĠAngeles": 4093,
      "orse": 4094,
      "ĠJul": 4095,
      "standing": 4096,
      "Ġmechan": 4097,
      "umn": 4098,
      "reng": 4099,
      "Ġpref": 4100,
      "Ġdiscovered": 4101,
      "ĠRomo": 4102,
      "pris": 4103,
      "Ġdead": 4104,
      "ĠMartin": 4105,
      "ĠFilm": 4106,
      "Ġgrew": 4107,
      "ĠKa": 4108,
      "ittee": 4109,
      "aria": 4110,
      "ĠSat": 4111,
      "ĠMet": 4112,
      "lying": 4113,
      "Ġhook": 4114,
      "bell": 4115,
      "Ġera": 4116,
      "52": 4117,
      "Ġmom": 4118,
      "ĠJoseph": 4119,
      "Ġmultip": 4120,
      "Ġcal": 4121,
      "ĠMa": 4122,
      "Ġpaper": 4123,
      "Ġmales": 4124,
      "Ġoriginally": 4125,
      "gl": 4126,
      "Ġsyn": 4127,
      "Ġresidents": 4128,
      "Ġvia": 4129,
      "Ġpulled": 4130,
      "Ġapproximately": 4131,
      "Ġconver": 4132,
      "Ġlegisl": 4133,
      "Ġlaunched": 4134,
      "Ġbase": 4135,
      "inated": 4136,
      "Ġwidely": 4137,
      "Ġrebound": 4138,
      "ĠBoston": 4139,
      "oper": 4140,
      "ĠGreg": 4141,
      "Ġlack": 4142,
      "Ġgreen": 4143,
      "icles": 4144,
      "retary": 4145,
      "Ġnuc": 4146,
      "iger": 4147,
      "Ġsomething": 4148,
      "eter": 4149,
      "veland": 4150,
      "enth": 4151,
      "istry": 4152,
      "ibrary": 4153,
      "ault": 4154,
      "ĠRelated": 4155,
      "Ġprior": 4156,
      "94": 4157,
      "ĠSur": 4158,
      "Ġchemical": 4159,
      "Ġwoman": 4160,
      "ĠDef": 4161,
      "ĠCub": 4162,
      "Ġfeatures": 4163,
      "ĠAtlantic": 4164,
      "ĠProtest": 4165,
      "Ġhundred": 4166,
      "Ġconstitution": 4167,
      "quarter": 4168,
      "Ġcomes": 4169,
      "ishop": 4170,
      "olved": 4171,
      "Ġmiles": 4172,
      "ension": 4173,
      "ĠGraham": 4174,
      "war": 4175,
      "Ġinhabit": 4176,
      "DP": 4177,
      "Ġresulted": 4178,
      "||": 4179,
      "92": 4180,
      "Sh": 4181,
      "Ġcust": 4182,
      "Ġoffensive": 4183,
      "Ġscoreless": 4184,
      "Ġstructure": 4185,
      "eed": 4186,
      "ails": 4187,
      "For": 4188,
      "ĠCinc": 4189,
      "Ġbroke": 4190,
      "Ġhapp": 4191,
      "New": 4192,
      "ĠFollowing": 4193,
      "ĠLee": 4194,
      "93": 4195,
      "Ġla": 4196,
      "ĠJes": 4197,
      "Ġslow": 4198,
      "Ġconsecutive": 4199,
      "Ġprotect": 4200,
      "ĠAnother": 4201,
      "ift": 4202,
      "Ġtrack": 4203,
      "ĠDuke": 4204,
      "Ġice": 4205,
      "Ġqual": 4206,
      "ĠGroup": 4207,
      "Ġproduce": 4208,
      "Ġpowers": 4209,
      "thodox": 4210,
      "ĠJagu": 4211,
      "inary": 4212,
      "ĠBre": 4213,
      "ĠWall": 4214,
      "ĠOver": 4215,
      "view": 4216,
      "porary": 4217,
      "ĠForm": 4218,
      "assel": 4219,
      "och": 4220,
      "andy": 4221,
      "leans": 4222,
      "ĠMer": 4223,
      "Ġsummer": 4224,
      "Ġattacks": 4225,
      "Ġdestroyed": 4226,
      "ĠCleveland": 4227,
      "At": 4228,
      "put": 4229,
      "itor": 4230,
      "ĠOf": 4231,
      "Ġearth": 4232,
      "Ġadvant": 4233,
      "abeth": 4234,
      "ĠAustria": 4235,
      "Ġlevels": 4236,
      "ospital": 4237,
      "ini": 4238,
      "isms": 4239,
      "Ġattacked": 4240,
      "Ġtowns": 4241,
      "Ġclaimed": 4242,
      "Ġstage": 4243,
      "Ġvoc": 4244,
      "ĠClass": 4245,
      "ĠCons": 4246,
      "ĠFer": 4247,
      "Ġoldest": 4248,
      "Ġideas": 4249,
      "ribution": 4250,
      "innati": 4251,
      "Ġsociety": 4252,
      "Ġmale": 4253,
      "overy": 4254,
      "ĠGen": 4255,
      "ruct": 4256,
      "Ġop": 4257,
      "ĠEr": 4258,
      "2010": 4259,
      "onia": 4260,
      "Ġstreng": 4261,
      "Ġbecoming": 4262,
      "08": 4263,
      "ĠSociety": 4264,
      "ĠRock": 4265,
      "Ġalone": 4266,
      "Ġmur": 4267,
      "Ġvote": 4268,
      "Ġextended": 4269,
      "Ġris": 4270,
      "Ġanti": 4271,
      "usion": 4272,
      "ĠBas": 4273,
      "Ġ53": 4274,
      "%.": 4275,
      "ĠCap": 4276,
      "ĠPen": 4277,
      "Ġexcept": 4278,
      "Ġbad": 4279,
      "Ġyard": 4280,
      "Ġpenalty": 4281,
      "ils": 4282,
      "ports": 4283,
      "91": 4284,
      "dered": 4285,
      "onc": 4286,
      "ĠNative": 4287,
      "ĠOakland": 4288,
      "ming": 4289,
      "ĠWin": 4290,
      "Ġnews": 4291,
      "iot": 4292,
      "ĠTod": 4293,
      "Ġproduct": 4294,
      "oud": 4295,
      "kr": 4296,
      "ĠMos": 4297,
      "):": 4298,
      "Ġorganization": 4299,
      "Ġstudies": 4300,
      "Ġgained": 4301,
      "ĠYoung": 4302,
      "2000": 4303,
      "Jo": 4304,
      "ropolitan": 4305,
      "ĠServ": 4306,
      "Ã¤": 4307,
      "Ġcommit": 4308,
      "Ġtalk": 4309,
      "using": 4310,
      "ipp": 4311,
      "Ġplayoff": 4312,
      "ĠBoth": 4313,
      "Ġcompos": 4314,
      "espite": 4315,
      "rants": 4316,
      "Ġhumans": 4317,
      "iege": 4318,
      "ĠCincinnati": 4319,
      "ĠConstitution": 4320,
      "ĠBucc": 4321,
      "ĠPope": 4322,
      "annel": 4323,
      "Ġkingdom": 4324,
      "Ġperformed": 4325,
      "ĠBrazil": 4326,
      "ero": 4327,
      "ĠCro": 4328,
      "Hoping": 4329,
      "Ġblue": 4330,
      "Ġhousing": 4331,
      "ias": 4332,
      "ny": 4333,
      "Ġstayed": 4334,
      "ĠVol": 4335,
      "Ġcapac": 4336,
      "Ġcoin": 4337,
      "Ġpressure": 4338,
      "itude": 4339,
      "Ġ2020": 4340,
      "ĠTampa": 4341,
      "Ġshown": 4342,
      "ĠAnn": 4343,
      "ĠGovernment": 4344,
      "ĠBet": 4345,
      "ĠJaguars": 4346,
      "onents": 4347,
      "lers": 4348,
      "Ġstorm": 4349,
      "Ġgod": 4350,
      "Ġspecific": 4351,
      "estival": 4352,
      "ĠBuccane": 4353,
      "ĠHans": 4354,
      "iations": 4355,
      "icient": 4356,
      "gg": 4357,
      "iant": 4358,
      "Ġpassing": 4359,
      "Ġdirectly": 4360,
      "Ġemb": 4361,
      "aph": 4362,
      "refore": 4363,
      "Ġplaced": 4364,
      "06": 4365,
      "azine": 4366,
      "Ġteach": 4367,
      "02": 4368,
      "Ġconv": 4369,
      "Ġremains": 4370,
      "This": 4371,
      "Ġ+": 4372,
      "ĠJim": 4373,
      "Ġroyal": 4374,
      "Ġfast": 4375,
      "ented": 4376,
      "conference": 4377,
      "Ġnature": 4378,
      "Ġterritories": 4379,
      "ĠFederal": 4380,
      "Ġsports": 4381,
      "which": 4382,
      "ĠFore": 4383,
      "ounts": 4384,
      "ĠBern": 4385,
      "Ġvalue": 4386,
      "ĠNations": 4387,
      "Ġleave": 4388,
      "tic": 4389,
      "ĠViet": 4390,
      "Â°": 4391,
      "Ġarrest": 4392,
      "ĠInstitute": 4393,
      "Ġconcern": 4394,
      "AP": 4395,
      "Ġconcept": 4396,
      "Ġbeat": 4397,
      "Ġbehav": 4398,
      "Ġfavor": 4399,
      "Ġnob": 4400,
      "Ġinhabitants": 4401,
      "ĠBowl": 4402,
      "mission": 4403,
      "ĠBuddh": 4404,
      "eding": 4405,
      "Ġwalk": 4406,
      "Ġvac": 4407,
      "Ġindividuals": 4408,
      "rence": 4409,
      "Ġruns": 4410,
      "ĠProv": 4411,
      "ĠBuffalo": 4412,
      "Ġelements": 4413,
      "Ġdropped": 4414,
      "onent": 4415,
      "Ġgreater": 4416,
      "ĠRay": 4417,
      "how": 4418,
      "Ġappointed": 4419,
      "venue": 4420,
      "Ġranked": 4421,
      "ithuan": 4422,
      "ca": 4423,
      "zech": 4424,
      "Ġsuffered": 4425,
      "inces": 4426,
      "Ġexch": 4427,
      "verse": 4428,
      "ĠIslamic": 4429,
      "Ġlargely": 4430,
      "mond": 4431,
      "Ġlog": 4432,
      "Ġrespectively": 4433,
      "Ġ#": 4434,
      "embly": 4435,
      "etherlands": 4436,
      "uth": 4437,
      "ĠLord": 4438,
      "Ġseasons": 4439,
      "arl": 4440,
      "uff": 4441,
      "panic": 4442,
      "Ġsusp": 4443,
      "ĠAdd": 4444,
      "ĠBos": 4445,
      "Ġlikely": 4446,
      "Ġresults": 4447,
      "ĠMond": 4448,
      "Ġhus": 4449,
      "Ġrecords": 4450,
      "ĠSa": 4451,
      "ĠHind": 4452,
      "Ġmer": 4453,
      "stein": 4454,
      "ceeded": 4455,
      "ĠLife": 4456,
      "Ġhom": 4457,
      "Ġcontract": 4458,
      "Ġagricult": 4459,
      "Ġparents": 4460,
      "ortun": 4461,
      "ĠBuccaneers": 4462,
      "Ġ:": 4463,
      "oma": 4464,
      "Ġshowed": 4465,
      "ĠOrleans": 4466,
      "Ġconditions": 4467,
      "Ġhyd": 4468,
      "Ġparties": 4469,
      "ĠCommon": 4470,
      "Ġ500": 4471,
      "Ġweap": 4472,
      "05": 4473,
      "pir": 4474,
      "ĠAlexander": 4475,
      "ĠIslands": 4476,
      "enna": 4477,
      "Ġreform": 4478,
      "ĠUnivers": 4479,
      "izations": 4480,
      "Ġfinding": 4481,
      "ĠIndianapolis": 4482,
      "Ġcandid": 4483,
      "Ġurban": 4484,
      "Was": 4485,
      "ĠGovernor": 4486,
      "ĠTeam": 4487,
      "olec": 4488,
      "Ġfarm": 4489,
      "ĠAp": 4490,
      "Ġbelong": 4491,
      "81": 4492,
      "ĠPrime": 4493,
      "Ġbirds": 4494,
      "Ġ1920": 4495,
      "rone": 4496,
      "ili": 4497,
      "imum": 4498,
      "omp": 4499,
      "ĠLeg": 4500,
      "Ġcontinu": 4501,
      "Ġfighting": 4502,
      "ĠFav": 4503,
      "Ġ1988": 4504,
      "ĠMu": 4505,
      "84": 4506,
      "ĠHow": 4507,
      "ĠLu": 4508,
      "ĠUN": 4509,
      "Ġagreement": 4510,
      "Ġconsum": 4511,
      "CNN": 4512,
      "Ġcentre": 4513,
      "ĠMur": 4514,
      "edia": 4515,
      "Ġreview": 4516,
      "ĠBush": 4517,
      "Ġadopted": 4518,
      "urrican": 4519,
      "ĠMat": 4520,
      "Ġpractice": 4521,
      "century": 4522,
      "Ġforest": 4523,
      "ĠLand": 4524,
      "Ġdecision": 4525,
      "Ġprec": 4526,
      "ado": 4527,
      "Ġshare": 4528,
      "Ġkickoff": 4529,
      "ĠSouthern": 4530,
      "Ġmonarch": 4531,
      "icit": 4532,
      "Ġnarrow": 4533,
      "Ġdoll": 4534,
      "ĠDal": 4535,
      "Ġmatter": 4536,
      "ĠNorm": 4537,
      "86": 4538,
      "Ġlives": 4539,
      "Ġnecess": 4540,
      "Ġphilosophy": 4541,
      "ĠGames": 4542,
      "ĠWood": 4543,
      "ĠCa": 4544,
      "rey": 4545,
      "Ġmigr": 4546,
      "Ġarchitecture": 4547,
      "Ġonto": 4548,
      "Ġrules": 4549,
      "Ġbacter": 4550,
      "ĠLake": 4551,
      "Ġkil": 4552,
      "Ġclock": 4553,
      "ersey": 4554,
      "ĠStaff": 4555,
      ".)": 4556,
      "ura": 4557,
      "town": 4558,
      "Ġdefensive": 4559,
      "Ġcoach": 4560,
      "Ġcontinue": 4561,
      "ĠTri": 4562,
      "shire": 4563,
      "ders": 4564,
      "ua": 4565,
      "Ġoperations": 4566,
      "Ġattract": 4567,
      "ĠDes": 4568,
      "Ġsuper": 4569,
      "ĠFam": 4570,
      "Ġyour": 4571,
      "orpor": 4572,
      "illy": 4573,
      "stitutions": 4574,
      "ĠVirginia": 4575,
      "Ġhol": 4576,
      "ĠThree": 4577,
      "Ġscientific": 4578,
      "ĠSol": 4579,
      "ĠOlympic": 4580,
      "Ġnewsp": 4581,
      "centr": 4582,
      "mad": 4583,
      "itar": 4584,
      "ĠLind": 4585,
      "Ġcharg": 4586,
      "ĠAD": 4587,
      "iana": 4588,
      "omer": 4589,
      "Ġmedical": 4590,
      "ivity": 4591,
      "ĠRodgers": 4592,
      "outheast": 4593,
      "Ġsources": 4594,
      "Ġmagn": 4595,
      "Ġdiss": 4596,
      "Ġtechnology": 4597,
      "ĠTimes": 4598,
      "ĠJon": 4599,
      "ĠSteve": 4600,
      "ella": 4601,
      "Ġeat": 4602,
      "Ġaltern": 4603,
      "Ġmeant": 4604,
      "ading": 4605,
      "Ġ?": 4606,
      "Ġrat": 4607,
      "ĠBulg": 4608,
      "Ġscholars": 4609,
      "Ġsun": 4610,
      "urches": 4611,
      "Ġfranch": 4612,
      "Ġlength": 4613,
      "ĠKer": 4614,
      "Ġcompetition": 4615,
      "ellow": 4616,
      "ala": 4617,
      "igen": 4618,
      "ĠOcean": 4619,
      "rupt": 4620,
      "ĠDo": 4621,
      "US": 4622,
      "aily": 4623,
      "onstr": 4624,
      "Ġnative": 4625,
      "mitted": 4626,
      "Ġmile": 4627,
      "izing": 4628,
      "ĠAcademy": 4629,
      "Ġpp": 4630,
      "Ġhusband": 4631,
      "otion": 4632,
      "ription": 4633,
      "ĠRad": 4634,
      "ĠGall": 4635,
      "agon": 4636,
      "Ġtypically": 4637,
      "Ġmetal": 4638,
      "road": 4639,
      "Ġ55": 4640,
      "ĠSystem": 4641,
      "ĠNetherlands": 4642,
      "icker": 4643,
      "Ġadvantage": 4644,
      "ĠMah": 4645,
      "aches": 4646,
      "Ġcoming": 4647,
      "ĠAlbert": 4648,
      "Ġmill": 4649,
      "Ġevolution": 4650,
      "Ġtrue": 4651,
      "Ġcorner": 4652,
      "Ġfail": 4653,
      ".\".": 4654,
      "ĠFB": 4655,
      "And": 4656,
      "ĠIV": 4657,
      "ĠÂ£": 4658,
      "Ġstudent": 4659,
      "Ġrevolution": 4660,
      "ĠSweden": 4661,
      "Ġdomestic": 4662,
      "Ġmoving": 4663,
      "unt": 4664,
      "force": 4665,
      "Ġphysical": 4666,
      "Ġtarg": 4667,
      "ĠStep": 4668,
      "04": 4669,
      "Ġflag": 4670,
      "ĠOs": 4671,
      "ĠRepublican": 4672,
      "isation": 4673,
      "col": 4674,
      "Ġ=": 4675,
      "Ġliber": 4676,
      "Ġsum": 4677,
      "Ġauthority": 4678,
      "va": 4679,
      "Ġang": 4680,
      "zone": 4681,
      "Ġinsp": 4682,
      "Ġdeliver": 4683,
      "ois": 4684,
      "ĠAlb": 4685,
      "Ġfleet": 4686,
      "izabeth": 4687,
      "Ġahead": 4688,
      "Ġ2019": 4689,
      "Ġtransfer": 4690,
      "Ġstated": 4691,
      "Ġbeg": 4692,
      "Ġsurren": 4693,
      "Ġsoftware": 4694,
      "Ġsem": 4695,
      "ees": 4696,
      "Ġsexual": 4697,
      "atre": 4698,
      "anged": 4699,
      "Ġcurrently": 4700,
      "olt": 4701,
      "Ġ54": 4702,
      "ĠFI": 4703,
      "ounded": 4704,
      "Ġbank": 4705,
      "ayne": 4706,
      "Ġprimarily": 4707,
      "ĠPrater": 4708,
      "ĠJud": 4709,
      "ĠIntern": 4710,
      "ĠCzech": 4711,
      "Ġreign": 4712,
      "Ġconcentr": 4713,
      "Ġstrateg": 4714,
      "Ġdiscuss": 4715,
      "cher": 4716,
      "Ġmeeting": 4717,
      "ĠWal": 4718,
      "ĠAut": 4719,
      "Ġletter": 4720,
      "Ġchief": 4721,
      "Ġ1984": 4722,
      "Ġmand": 4723,
      "azi": 4724,
      "ĠJesus": 4725,
      "Ġmaint": 4726,
      "Ġglass": 4727,
      "ĠVietnam": 4728,
      "ĠMonday": 4729,
      "Ġbatt": 4730,
      "Ġresulting": 4731,
      "Ġmountain": 4732,
      "Ġwear": 4733,
      "Ġissue": 4734,
      "throp": 4735,
      "ĠWindows": 4736,
      "Ġsnap": 4737,
      "bs": 4738,
      "Ġmission": 4739,
      "Ġprime": 4740,
      "Ġestablishments": 4741,
      "ĠBrees": 4742,
      "ĠEc": 4743,
      "Ġovertime": 4744,
      "Ġknowledge": 4745,
      "Ġcourse": 4746,
      "Ġpal": 4747,
      "ĠOrder": 4748,
      "aron": 4749,
      "Ġsequ": 4750,
      "itzer": 4751,
      "fall": 4752,
      "ulated": 4753,
      "Ġanimal": 4754,
      "Ġcollege": 4755,
      "ĠClub": 4756,
      "Ġuniversities": 4757,
      "Ġways": 4758,
      "met": 4759,
      "Ġdie": 4760,
      "Ġhistorical": 4761,
      "ansion": 4762,
      "Ġshot": 4763,
      "Ġchall": 4764,
      "icated": 4765,
      "me": 4766,
      "Ġspir": 4767,
      "Ġlink": 4768,
      "Ġ1918": 4769,
      "Ġsuc": 4770,
      "teen": 4771,
      "ĠBey": 4772,
      "erman": 4773,
      "wan": 4774,
      "pper": 4775,
      "Ġlands": 4776,
      "ĠSupreme": 4777,
      "Ġrequire": 4778,
      "Ġrise": 4779,
      "...": 4780,
      "acts": 4781,
      "Ġearliest": 4782,
      "ĠTime": 4783,
      "iled": 4784,
      "Ġraised": 4785,
      "Ġkicking": 4786,
      "Ġrebell": 4787,
      "illed": 4788,
      "Ġspl": 4789,
      "icine": 4790,
      "antry": 4791,
      "Ġproducts": 4792,
      "Ġpreviously": 4793,
      "ĠBrian": 4794,
      "Ġast": 4795,
      "Ġimmediately": 4796,
      "Ġtakes": 4797,
      "ĠTay": 4798,
      "Ġdesp": 4799,
      "iano": 4800,
      "Ġdidn": 4801,
      "Ġdegree": 4802,
      "Ġstopped": 4803,
      "Ġthrowing": 4804,
      "Ġrapid": 4805,
      "ĠDomin": 4806,
      "ĠPey": 4807,
      "ĠBrad": 4808,
      "cont": 4809,
      "Ġspoken": 4810,
      "Ġdetermin": 4811,
      "Ġroom": 4812,
      "ares": 4813,
      "amin": 4814,
      "ĠGould": 4815,
      "ĠNews": 4816,
      "Ġgradu": 4817,
      "ĠHel": 4818,
      "isham": 4819,
      "ĠSil": 4820,
      "Ġoccupied": 4821,
      "gest": 4822,
      "mir": 4823,
      "ĠOx": 4824,
      "ek": 4825,
      "oration": 4826,
      "Ġ1986": 4827,
      "ĠJacob": 4828,
      "Ġnegot": 4829,
      "Ġvillage": 4830,
      "Ġvo": 4831,
      "Mar": 4832,
      "western": 4833,
      "Ġspent": 4834,
      "Ġprograms": 4835,
      "ules": 4836,
      "Ġcontains": 4837,
      "Ġfranchise": 4838,
      "ictures": 4839,
      "ĠColumb": 4840,
      "reedom": 4841,
      "hemat": 4842,
      "Ġdemonstr": 4843,
      "acher": 4844,
      "rea": 4845,
      "ĠMov": 4846,
      "73": 4847,
      "During": 4848,
      "eback": 4849,
      "Ġnumerous": 4850,
      "Ġhighly": 4851,
      "ĠSong": 4852,
      "Ã³n": 4853,
      "Ġboy": 4854,
      "Ġassist": 4855,
      "oz": 4856,
      "ĠInc": 4857,
      "Ġexecut": 4858,
      "ygen": 4859,
      "ii": 4860,
      "rad": 4861,
      "ĠRetrieved": 4862,
      "ĠOrthodox": 4863,
      "ĠPalmer": 4864,
      "ĠSocial": 4865,
      "Ġ300": 4866,
      "Ġtry": 4867,
      "ipl": 4868,
      "Ġexperience": 4869,
      "Ġliterature": 4870,
      "ellig": 4871,
      "Ġmusical": 4872,
      "ĠDou": 4873,
      "acing": 4874,
      "ĠApple": 4875,
      "risis": 4876,
      "Ġstations": 4877,
      "à¸": 4878,
      "Se": 4879,
      "ĠAntonio": 4880,
      "Ġcred": 4881,
      "Ġprogramm": 4882,
      "Ġsomeone": 4883,
      "Ġgovernor": 4884,
      "Ġbroadcast": 4885,
      "ampion": 4886,
      "Ġelse": 4887,
      "ources": 4888,
      "ĠSerb": 4889,
      "Ġdamage": 4890,
      "Ġresponsible": 4891,
      "ĠDirect": 4892,
      "Ġcomeback": 4893,
      "Ġordered": 4894,
      "ĠTw": 4895,
      "Ġpath": 4896,
      "Ġgain": 4897,
      "ĠSqu": 4898,
      "ĠFavre": 4899,
      "ĠRos": 4900,
      "ĠÐ": 4901,
      "Ġunit": 4902,
      "//": 4903,
      "Ġcarried": 4904,
      "Ġcontain": 4905,
      "Ġawarded": 4906,
      "Ġdistinct": 4907,
      "ugal": 4908,
      "Ġtre": 4909,
      "isters": 4910,
      "akh": 4911,
      "ĠPre": 4912,
      "ĠTown": 4913,
      "iny": 4914,
      "ĠGermans": 4915,
      "ĠUr": 4916,
      "ĠHon": 4917,
      "ĠElizabeth": 4918,
      "Ġfunction": 4919,
      "Ġ1979": 4920,
      "Ġcommunities": 4921,
      "Ġsettle": 4922,
      "Ġreduced": 4923,
      "ĠEp": 4924,
      "iga": 4925,
      "Ġpainting": 4926,
      "Ġens": 4927,
      "ĠWales": 4928,
      "luding": 4929,
      "rogen": 4930,
      "ato": 4931,
      "aya": 4932,
      "Ġcer": 4933,
      "ĠOut": 4934,
      "Ġdefined": 4935,
      "ĠKevin": 4936,
      "aging": 4937,
      "ĠBank": 4938,
      "Ġess": 4939,
      "aters": 4940,
      "Ġinterconference": 4941,
      "Ġsens": 4942,
      "state": 4943,
      "Ġrecording": 4944,
      "inet": 4945,
      "Ġdebut": 4946,
      "ĠUkr": 4947,
      "Ġpossess": 4948,
      "Ġactivity": 4949,
      "Ġserious": 4950,
      "ĠKenn": 4951,
      "opes": 4952,
      "aped": 4953,
      "ĠPeyton": 4954,
      "Ġhar": 4955,
      "Ġcode": 4956,
      "ĠFour": 4957,
      "Ġwrest": 4958,
      "ĠOk": 4959,
      "acco": 4960,
      "Ġprobably": 4961,
      "eds": 4962,
      "Ġhands": 4963,
      "raq": 4964,
      "Ġdraw": 4965,
      "Ġworldwide": 4966,
      "ĠSand": 4967,
      "ĠGost": 4968,
      "ĠHa": 4969,
      "Ġglobal": 4970,
      "Ġseem": 4971,
      "Ġbul": 4972,
      "ĠKorean": 4973,
      "asts": 4974,
      "ables": 4975,
      "://": 4976,
      "Ġpsych": 4977,
      "Sc": 4978,
      "rell": 4979,
      "Ġ120": 4980,
      "Ġdecre": 4981,
      "Ġvariety": 4982,
      "ĠEnter": 4983,
      "Ġhouses": 4984,
      "ĠBryant": 4985,
      "Ġartists": 4986,
      "ien": 4987,
      "Ġcho": 4988,
      "ĠMen": 4989,
      "Ġcontrolled": 4990,
      "Ġproposed": 4991,
      "Ġsettled": 4992,
      "Ġmolec": 4993,
      "ĠCommission": 4994,
      "anj": 4995,
      "ĠForce": 4996,
      "71": 4997,
      "ĠList": 4998,
      "Ġmissed": 4999,
      "ĠAdam": 5000,
      "ancy": 5001,
      "ĠDespite": 5002,
      "ĠJord": 5003,
      "Ġbye": 5004,
      "igation": 5005,
      "hens": 5006,
      "Ġ1985": 5007,
      "Ġgrowing": 5008,
      "ĠCur": 5009,
      "Sp": 5010,
      "enh": 5011,
      "astic": 5012,
      "ĠHoly": 5013,
      "ederation": 5014,
      "Ġdoing": 5015,
      "Ġcharge": 5016,
      "Ġgranted": 5017,
      "Ġ1982": 5018,
      "Ġfifth": 5019,
      "ĠSeries": 5020,
      "ĠPenn": 5021,
      "Ġflight": 5022,
      "Ġextra": 5023,
      "Ġstore": 5024,
      "otton": 5025,
      "Ġwars": 5026,
      "Ġwinter": 5027,
      "Ġancestry": 5028,
      "Ġmedian": 5029,
      "Ġofficers": 5030,
      "ĠNapole": 5031,
      "Ġmunicip": 5032,
      "Ġfeet": 5033,
      "Ġempire": 5034,
      "ker": 5035,
      "Ġdrew": 5036,
      "Ġsiege": 5037,
      "ĠChe": 5038,
      "Ġlatter": 5039,
      "Ġsal": 5040,
      "Ġult": 5041,
      "Ġalbums": 5042,
      "Ġregional": 5043,
      "winning": 5044,
      "Ġnovel": 5045,
      "ening": 5046,
      "rus": 5047,
      "ĠSpec": 5048,
      "Ġrelatively": 5049,
      "Ġ1940": 5050,
      "rovers": 5051,
      "Ġleaving": 5052,
      "oral": 5053,
      "itness": 5054,
      "iate": 5055,
      "ĠSuisham": 5056,
      "Ġadministration": 5057,
      "ĠGostkowski": 5058,
      "ĠColl": 5059,
      "Ġissues": 5060,
      "ĠScottish": 5061,
      "ĠLew": 5062,
      "Ġpattern": 5063,
      "Ġsupp": 5064,
      "Ġap": 5065,
      "Ġowned": 5066,
      "ĠIraq": 5067,
      "ĠPublic": 5068,
      "ĠAlbum": 5069,
      "Ġdark": 5070,
      "Ġproperty": 5071,
      "iang": 5072,
      "Ġexped": 5073,
      "Ġpotential": 5074,
      "Ġrare": 5075,
      "ED": 5076,
      "Ġ1987": 5077,
      "Ġstrike": 5078,
      "Ġlove": 5079,
      "unn": 5080,
      "EFA": 5081,
      "Go": 5082,
      "ĠFitz": 5083,
      "Ġtable": 5084,
      "aith": 5085,
      "ients": 5086,
      "ĠWW": 5087,
      "ĠStr": 5088,
      "Ġeffects": 5089,
      "ĠHistor": 5090,
      "Cl": 5091,
      "ises": 5092,
      "Ġmess": 5093,
      "ĠBob": 5094,
      "iform": 5095,
      "AR": 5096,
      "ËĪ": 5097,
      "Ġallowing": 5098,
      "Ġindustrial": 5099,
      "where": 5100,
      "Ġnations": 5101,
      "IN": 5102,
      "ĠValley": 5103,
      "Ġbrain": 5104,
      "bridge": 5105,
      "ĠBig": 5106,
      "umber": 5107,
      "ĠTaylor": 5108,
      "encies": 5109,
      "Ġbit": 5110,
      "Ġtree": 5111,
      "Ġcompl": 5112,
      "ĠImperial": 5113,
      "Ġrow": 5114,
      "resp": 5115,
      "ĠConstant": 5116,
      "SP": 5117,
      "iy": 5118,
      "Ġaccepted": 5119,
      "rect": 5120,
      "ih": 5121,
      "Ġrematch": 5122,
      "ĠWilson": 5123,
      "Ġ1976": 5124,
      "enty": 5125,
      "Ġaccom": 5126,
      "ĠMatthew": 5127,
      "ĠProtestant": 5128,
      "Ġaim": 5129,
      "ĠPremier": 5130,
      "Ġburn": 5131,
      "den": 5132,
      "ĠRecords": 5133,
      "cer": 5134,
      "oses": 5135,
      "awa": 5136,
      "Ġarticle": 5137,
      "ricts": 5138,
      "Ġpurch": 5139,
      "Ġelim": 5140,
      "Ġreceiving": 5141,
      "Ġadditional": 5142,
      "agan": 5143,
      "ĠHot": 5144,
      "ĠAirport": 5145,
      "get": 5146,
      "ĠCD": 5147,
      "Ġinterp": 5148,
      "Ġscientists": 5149,
      "Ġreject": 5150,
      "Ġdespite": 5151,
      "can": 5152,
      "ĠAndrew": 5153,
      "tar": 5154,
      "Ġinfluenced": 5155,
      "Ġoverall": 5156,
      "Ġofficials": 5157,
      "Ġsen": 5158,
      "Ġsales": 5159,
      "endo": 5160,
      "ĠSecretary": 5161,
      "Ġexpected": 5162,
      "ĠInternet": 5163,
      "ager": 5164,
      "Ġsinger": 5165,
      "ĠNHL": 5166,
      "Ġability": 5167,
      "Ġdirector": 5168,
      "ĠConn": 5169,
      "Ġmorning": 5170,
      "Ġinjury": 5171,
      "ĠMcN": 5172,
      "72": 5173,
      "hing": 5174,
      "Ġfilms": 5175,
      "Ġtraining": 5176,
      "ĠWarner": 5177,
      "Ġlooked": 5178,
      "Ġ1945": 5179,
      "76": 5180,
      "ĠKhan": 5181,
      "asser": 5182,
      "Ġdu": 5183,
      "rief": 5184,
      "urricane": 5185,
      "ocks": 5186,
      "ĠNob": 5187,
      "ĠArmenian": 5188,
      "Ġ150": 5189,
      "Ġfish": 5190,
      "ĠNavy": 5191,
      "ĠStar": 5192,
      "Ġcauses": 5193,
      "fit": 5194,
      "org": 5195,
      "ously": 5196,
      "Ġpowerful": 5197,
      "Ã§": 5198,
      "Ġ56": 5199,
      "Ġencour": 5200,
      "Ġpack": 5201,
      "300": 5202,
      "Ġsector": 5203,
      "bl": 5204,
      "mouth": 5205,
      "Ġdifference": 5206,
      "ĠTurkish": 5207,
      "Ġpoll": 5208,
      "ician": 5209,
      "yarder": 5210,
      "Ġbelief": 5211,
      "Ġconserv": 5212,
      "Ġactors": 5213,
      "Man": 5214,
      "Ġsense": 5215,
      "Pe": 5216,
      "ĠSub": 5217,
      "Ġelev": 5218,
      "Ġacad": 5219,
      "ĠEston": 5220,
      "nes": 5221,
      "Ġmention": 5222,
      "ĠCarl": 5223,
      "Ġrefused": 5224,
      "Ġprin": 5225,
      "Ġmotor": 5226,
      "ikowski": 5227,
      "ador": 5228,
      "With": 5229,
      "Ġ1930": 5230,
      "Ġactivities": 5231,
      "Ġmultiple": 5232,
      "Ġegg": 5233,
      "Ġcouncil": 5234,
      "Ġchurches": 5235,
      "Ġsister": 5236,
      "Ġsettlement": 5237,
      "Ġwild": 5238,
      "Ġ1983": 5239,
      "Ġappearance": 5240,
      "Ġdivisional": 5241,
      "ĠIndepend": 5242,
      "Ġ1981": 5243,
      "Ġtor": 5244,
      "ĠBBC": 5245,
      "ĠWomen": 5246,
      "?\"": 5247,
      "emporary": 5248,
      "Ġrecognized": 5249,
      "Ġexpansion": 5250,
      "ĠPortugal": 5251,
      "Ġtwice": 5252,
      "Ġcollection": 5253,
      "Ġintended": 5254,
      "Ġstay": 5255,
      "Ġperman": 5256,
      "Ġmemory": 5257,
      "ĠDaw": 5258,
      "ĠSlav": 5259,
      "Ġpaid": 5260,
      "ĠLove": 5261,
      "Ġgar": 5262,
      "ĠHy": 5263,
      "ĠFolk": 5264,
      "ĠShaun": 5265,
      "Ġplanned": 5266,
      "Ġattempts": 5267,
      "Ġsecurity": 5268,
      "heim": 5269,
      "ĠStan": 5270,
      "ĠJanikowski": 5271,
      "Ġmoment": 5272,
      "Ġreve": 5273,
      "Ġminister": 5274,
      "leep": 5275,
      "ĠAth": 5276,
      "ĠBa": 5277,
      "Ð°": 5278,
      "aint": 5279,
      "ĠAkers": 5280,
      "Ġsides": 5281,
      "ĠMid": 5282,
      "Ġlooking": 5283,
      "ylvan": 5284,
      "Ġbound": 5285,
      "iced": 5286,
      "Ġunc": 5287,
      "ĠStephen": 5288,
      "Ġmarriage": 5289,
      "Ġissued": 5290,
      "orter": 5291,
      "Ġpromin": 5292,
      "uty": 5293,
      "gu": 5294,
      "ype": 5295,
      "Ġfumb": 5296,
      "mas": 5297,
      "lined": 5298,
      "odies": 5299,
      "obile": 5300,
      "Ġending": 5301,
      "Ġinstitutions": 5302,
      "ads": 5303,
      "ĠMem": 5304,
      "Ġsupply": 5305,
      "ĠUs": 5306,
      "Ġheat": 5307,
      "ĠScience": 5308,
      "Ġnotable": 5309,
      "eign": 5310,
      "oke": 5311,
      "more": 5312,
      "uther": 5313,
      "Ġshut": 5314,
      "ieval": 5315,
      "Ġelections": 5316,
      "bourne": 5317,
      "wealth": 5318,
      "Ġbox": 5319,
      "ef": 5320,
      "Ġraid": 5321,
      "Ġactually": 5322,
      "ieri": 5323,
      "Ġpeak": 5324,
      "ysis": 5325,
      "Ġmeasure": 5326,
      "Ġwrite": 5327,
      "ĠUp": 5328,
      "ĠEach": 5329,
      "Ġarms": 5330,
      "Ġmi": 5331,
      "now": 5332,
      "igrants": 5333,
      "Ġtele": 5334,
      "Ġformal": 5335,
      "Ġveh": 5336,
      "ĠPrize": 5337,
      "Ġserve": 5338,
      "bro": 5339,
      "Ġincorpor": 5340,
      "Ġdirection": 5341,
      "Ġequip": 5342,
      "ĠLithuan": 5343,
      "74": 5344,
      "ĠEduc": 5345,
      "Ġrecently": 5346,
      "App": 5347,
      "Ġprogress": 5348,
      "Ġbiggest": 5349,
      "Ġpresence": 5350,
      "bie": 5351,
      "ographic": 5352,
      "Ġoffered": 5353,
      "ĠSenate": 5354,
      "writ": 5355,
      "icture": 5356,
      "Ġlocation": 5357,
      "Ġcontent": 5358,
      "Ġconstant": 5359,
      "ĠGeorgia": 5360,
      "ivals": 5361,
      "Ġstep": 5362,
      "Ġwor": 5363,
      "aska": 5364,
      "ĠDig": 5365,
      "ĠSwedish": 5366,
      "onian": 5367,
      "ĠPan": 5368,
      "ĠLeon": 5369,
      "ondiss": 5370,
      "ĠZeal": 5371,
      "Ġbal": 5372,
      "Ġresistance": 5373,
      "hedral": 5374,
      "Ġmakeup": 5375,
      "ĠWhat": 5376,
      "een": 5377,
      "anda": 5378,
      "Ġcarbon": 5379,
      "Ġlosses": 5380,
      "ĠAnderson": 5381,
      "suing": 5382,
      "ĠOper": 5383,
      "ĠTy": 5384,
      "ĠCommittee": 5385,
      "Ġopt": 5386,
      "Ġensuing": 5387,
      "da": 5388,
      "gie": 5389,
      "real": 5390,
      "ĠHu": 5391,
      "Ġcontrovers": 5392,
      "Ġquant": 5393,
      "Ġbasis": 5394,
      "Ġapplied": 5395,
      "Ġchampionship": 5396,
      "Ġclassical": 5397,
      "Ġconverted": 5398,
      "orough": 5399,
      "Ġdigital": 5400,
      "ici": 5401,
      "ĠZealand": 5402,
      "TER": 5403,
      "ĠMongol": 5404,
      "Ġlif": 5405,
      "Ġadvanced": 5406,
      "Ġmachine": 5407,
      "ĠMax": 5408,
      "Ġreasons": 5409,
      "Ġinterceptions": 5410,
      "ips": 5411,
      "formed": 5412,
      "Ġcrisis": 5413,
      "Ġdouble": 5414,
      "Ġwealth": 5415,
      "Le": 5416,
      "eces": 5417,
      "Ġcompletely": 5418,
      "gent": 5419,
      "ĠEven": 5420,
      "Ġ57": 5421,
      "ĠOw": 5422,
      "Ġlimit": 5423,
      "Ġlabor": 5424,
      "Ġrein": 5425,
      "Ġrough": 5426,
      "Ġoxygen": 5427,
      "bed": 5428,
      "Ġreflect": 5429,
      "CH": 5430,
      "ĠSanta": 5431,
      "Ġcopper": 5432,
      "ĠBerlin": 5433,
      "Ġmind": 5434,
      "ĠSer": 5435,
      "2008": 5436,
      "ĠRhine": 5437,
      "icians": 5438,
      "Ġsecret": 5439,
      "Ġsnow": 5440,
      "Ġnuclear": 5441,
      "Ġinjured": 5442,
      "Ġfix": 5443,
      "ĠMajor": 5444,
      "ĠNic": 5445,
      "range": 5446,
      "2007": 5447,
      "CO": 5448,
      "ĠPrinc": 5449,
      "ĠJr": 5450,
      "III": 5451,
      "Ġ1971": 5452,
      "rier": 5453,
      "Ġrestr": 5454,
      "Ġ1978": 5455,
      "2006": 5456,
      "Ġcold": 5457,
      "Ġsimple": 5458,
      "Can": 5459,
      "han": 5460,
      "Ġprefer": 5461,
      "Ġinn": 5462,
      "Ġcapture": 5463,
      "ÅĤ": 5464,
      "Ġheadquarter": 5465,
      "Ġ1972": 5466,
      "ĠBefore": 5467,
      "ĠHanson": 5468,
      "ĠÂł": 5469,
      "ĪĴ": 5470,
      "Ġsituation": 5471,
      "arry": 5472,
      "itage": 5473,
      "everal": 5474,
      "ĠDaniel": 5475,
      "Ġfeatured": 5476,
      "Ġclubs": 5477,
      "Ġthrone": 5478,
      "ĠJersey": 5479,
      "Ġblocked": 5480,
      "Ġimperial": 5481,
      "ĠPhilipp": 5482,
      "arden": 5483,
      "Ġcreation": 5484,
      "itzerland": 5485,
      "ĠNate": 5486,
      "Ġsimply": 5487,
      "ĠAbout": 5488,
      "Ġhosted": 5489,
      "ĠLewis": 5490,
      "Ġbasic": 5491,
      "pass": 5492,
      "ĠTem": 5493,
      "ĠMason": 5494,
      "ĠÅ": 5495,
      "ĠHaw": 5496,
      "Ġequal": 5497,
      "set": 5498,
      "luded": 5499,
      "gal": 5500,
      "ĠCH": 5501,
      "Ġswe": 5502,
      "Ġapproach": 5503,
      "pton": 5504,
      "ima": 5505,
      "icks": 5506,
      "Ġtreatment": 5507,
      "oncÃ©": 5508,
      "istered": 5509,
      "comm": 5510,
      "Ġfunct": 5511,
      "hips": 5512,
      "ghan": 5513,
      "ĠVi": 5514,
      "Ġregained": 5515,
      "ĠGDP": 5516,
      "Ġpoet": 5517,
      "Ġnormal": 5518,
      "Ġpurpose": 5519,
      "79": 5520,
      "ĠCyp": 5521,
      "Ġproducer": 5522,
      "ĠCorn": 5523,
      "Ġ1974": 5524,
      "Ġgoes": 5525,
      "Ġpresidential": 5526,
      "house": 5527,
      "ully": 5528,
      "Ġspeech": 5529,
      "overeign": 5530,
      "Ġeyes": 5531,
      "oa": 5532,
      "Ġcomposed": 5533,
      "Ġpasseng": 5534,
      "Ġdocument": 5535,
      "fect": 5536,
      "Ġheav": 5537,
      "ĠDavis": 5538,
      "rical": 5539,
      "uters": 5540,
      "ĠCare": 5541,
      "ĠTour": 5542,
      "rising": 5543,
      "intendo": 5544,
      "SR": 5545,
      "Ġartist": 5546,
      "avalry": 5547,
      "ĠMarshall": 5548,
      "Ġsplit": 5549,
      "Ġcle": 5550,
      "sur": 5551,
      "oles": 5552,
      "Ġ400": 5553,
      "Ġrecover": 5554,
      "ĠFIFA": 5555,
      "igenous": 5556,
      "Ġtherefore": 5557,
      "etts": 5558,
      "ĠFox": 5559,
      "Ġtrying": 5560,
      "ĠBi": 5561,
      "clus": 5562,
      "Ġmut": 5563,
      "Ġupper": 5564,
      "Ġconsists": 5565,
      "78": 5566,
      "Ġstudied": 5567,
      "Ġple": 5568,
      "ĠOrgan": 5569,
      "din": 5570,
      "Ġinitially": 5571,
      "Ġthousands": 5572,
      "ĠRoad": 5573,
      "Ġtack": 5574,
      "Ġdang": 5575,
      "achus": 5576,
      "ĠUSA": 5577,
      "Ġrates": 5578,
      "Ġoperating": 5579,
      "ider": 5580,
      "CC": 5581,
      "eral": 5582,
      "ĠWarsaw": 5583,
      "Ġsymbol": 5584,
      "2005": 5585,
      "ching": 5586,
      "Ġsuppl": 5587,
      "Ġiron": 5588,
      "ĠWeb": 5589,
      "ĠRog": 5590,
      "Ġremoved": 5591,
      "Ġorganizations": 5592,
      "Ġbranch": 5593,
      "equ": 5594,
      "Ġattention": 5595,
      "ylvania": 5596,
      "ĠFreder": 5597,
      "Ġcolonial": 5598,
      "Ġ1967": 5599,
      "Ġpull": 5600,
      "ĠStafford": 5601,
      "Ġlic": 5602,
      "ĠAsh": 5603,
      "Ġver": 5604,
      "ĠAge": 5605,
      "Ġsym": 5606,
      "Ġguitar": 5607,
      "ĠRail": 5608,
      "iring": 5609,
      "ĠReport": 5610,
      "li": 5611,
      "Ġlin": 5612,
      "ulate": 5613,
      "Ġprovinces": 5614,
      "Ġfoot": 5615,
      "Ġexhib": 5616,
      "Ġpopulations": 5617,
      "ĠOxford": 5618,
      "idents": 5619,
      "rac": 5620,
      "imal": 5621,
      "Ind": 5622,
      "osis": 5623,
      "Ġauthorities": 5624,
      "Ġmixed": 5625,
      "ĠHuman": 5626,
      "Ġweapons": 5627,
      "Ġattend": 5628,
      "Ġcrime": 5629,
      "Ġallows": 5630,
      "ĠBlue": 5631,
      "ĠLawrence": 5632,
      "ĠTechn": 5633,
      "Ġmagazine": 5634,
      "Ġsetting": 5635,
      "Ġtarget": 5636,
      "ĠMarc": 5637,
      "ĠDisney": 5638,
      "ĠCommonwealth": 5639,
      "ĠHay": 5640,
      "Ġdistance": 5641,
      "Ġtribes": 5642,
      "Ġdefinition": 5643,
      "inson": 5644,
      "ĠId": 5645,
      "ĠFree": 5646,
      "Ġexpanded": 5647,
      "uj": 5648,
      "IA": 5649,
      "Ġmaterials": 5650,
      "igan": 5651,
      "Ġrepe": 5652,
      "ez": 5653,
      "Ġvoice": 5654,
      "2009": 5655,
      "Ġdepart": 5656,
      "lines": 5657,
      "oples": 5658,
      "Ġwhy": 5659,
      "Ġparliament": 5660,
      "ora": 5661,
      "Ġdistribution": 5662,
      "Ġrebellion": 5663,
      "Ġexamples": 5664,
      "Ġprisoners": 5665,
      "Ġ1968": 5666,
      "uls": 5667,
      "Ġquality": 5668,
      "Ġ1975": 5669,
      "Ġgrad": 5670,
      "Ġthing": 5671,
      "insula": 5672,
      "Ġorganized": 5673,
      "Ġfocus": 5674,
      "John": 5675,
      "raf": 5676,
      "Ġelement": 5677,
      "Ġreceive": 5678,
      "ĠDev": 5679,
      "Ġefforts": 5680,
      "Ġexecutive": 5681,
      "Ġ59": 5682,
      "ette": 5683,
      "ĠNorway": 5684,
      "PA": 5685,
      "Ġ1977": 5686,
      "ĠReed": 5687,
      "Ġslight": 5688,
      "ĠJustice": 5689,
      "lah": 5690,
      "Ġcas": 5691,
      "ĠVer": 5692,
      "ĠSk": 5693,
      "Ã¡n": 5694,
      "ĠJacksonville": 5695,
      "Ġfelt": 5696,
      "Ġimpact": 5697,
      "ĠToday": 5698,
      "Eng": 5699,
      "Ġepisode": 5700,
      "ĠAaron": 5701,
      "Ġsection": 5702,
      "Ġplans": 5703,
      "alle": 5704,
      "ĠPet": 5705,
      "ĠLib": 5706,
      "ĠHaven": 5707,
      "eman": 5708,
      "Ġseat": 5709,
      "Ġtrain": 5710,
      "ĠInt": 5711,
      "Ġletters": 5712,
      "Ġinitial": 5713,
      "ibly": 5714,
      "Ġgreatest": 5715,
      "greg": 5716,
      "ga": 5717,
      "aver": 5718,
      "ĠCop": 5719,
      "ĠStand": 5720,
      "rev": 5721,
      "Ġendzone": 5722,
      "RA": 5723,
      "Ġfaced": 5724,
      "ĠOffice": 5725,
      "arent": 5726,
      "ĠGood": 5727,
      "usc": 5728,
      "Ġonline": 5729,
      "Ġunable": 5730,
      "By": 5731,
      "bury": 5732,
      "apers": 5733,
      "Ġcerem": 5734,
      "Jan": 5735,
      "rance": 5736,
      "ĠSummer": 5737,
      "ĠTop": 5738,
      "Ġexchange": 5739,
      "pat": 5740,
      "ĠDer": 5741,
      "Ġcarry": 5742,
      "Ġ1973": 5743,
      "ĠNapoleon": 5744,
      "ĠHart": 5745,
      "Ġobjects": 5746,
      "Ġchance": 5747,
      "ĠMiller": 5748,
      "ĠLuc": 5749,
      "inction": 5750,
      "ĠSwitzerland": 5751,
      "umed": 5752,
      "Ġimprove": 5753,
      "Ġargued": 5754,
      "Ġmethods": 5755,
      "vement": 5756,
      "respond": 5757,
      "2011": 5758,
      "ID": 5759,
      "Pro": 5760,
      "cing": 5761,
      "Ġaid": 5762,
      "ĠFestival": 5763,
      "Ġrepresented": 5764,
      "Ġprovides": 5765,
      "apore": 5766,
      "Ġ1917": 5767,
      "Ġlisted": 5768,
      ".:": 5769,
      "Ġpositions": 5770,
      "othing": 5771,
      "ibb": 5772,
      "ĠChild": 5773,
      "action": 5774,
      "ĠJordan": 5775,
      "ao": 5776,
      "pect": 5777,
      "Ġopportun": 5778,
      "APTER": 5779,
      "ĠDNA": 5780,
      "ques": 5781,
      "Ġcrown": 5782,
      "Ġtoward": 5783,
      "ĠHarv": 5784,
      "under": 5785,
      "ĠYale": 5786,
      "ĠBus": 5787,
      "Ġamb": 5788,
      "Ġmathemat": 5789,
      "edd": 5790,
      "Ġ1969": 5791,
      "ĠTam": 5792,
      "tainment": 5793,
      "beck": 5794,
      "ĠCampbell": 5795,
      "Ġstudio": 5796,
      "ĠBelg": 5797,
      "Ġnearby": 5798,
      "Ġholding": 5799,
      "ĠNotes": 5800,
      "Ġstrength": 5801,
      "ecution": 5802,
      "Äĩ": 5803,
      "ĠModern": 5804,
      "zant": 5805,
      "hev": 5806,
      "ĠVI": 5807,
      "Ġopposition": 5808,
      "phas": 5809,
      "ologists": 5810,
      "Ġautom": 5811,
      "Ġdevices": 5812,
      "ĠMuslims": 5813,
      "Ġsaying": 5814,
      "het": 5815,
      "Ġnoted": 5816,
      "Ġcotton": 5817,
      "ĠAnc": 5818,
      "ĠDrew": 5819,
      "Ġslaves": 5820,
      "Ġsuggest": 5821,
      "mese": 5822,
      "Ġgives": 5823,
      "Ġinte": 5824,
      "Ġlear": 5825,
      "kicker": 5826,
      "Ġdefend": 5827,
      "Ġwriter": 5828,
      "Ġstructures": 5829,
      "Ġidentity": 5830,
      "irmed": 5831,
      "ĠMountains": 5832,
      "GB": 5833,
      "ĠCarr": 5834,
      "hammad": 5835,
      "Ġunion": 5836,
      "Ġenter": 5837,
      "ĠPalace": 5838,
      "inger": 5839,
      "orship": 5840,
      "ĠJustin": 5841,
      "Ġrivers": 5842,
      "Ġpositive": 5843,
      "ĠWork": 5844,
      "ĠGolden": 5845,
      "400": 5846,
      "ader": 5847,
      "ĠChristianity": 5848,
      "achusetts": 5849,
      "ĠCros": 5850,
      "Ġnick": 5851,
      "atieri": 5852,
      "ifying": 5853,
      "Ġsealed": 5854,
      "Ġsuccessfully": 5855,
      "ĠPier": 5856,
      "osh": 5857,
      "ĠPu": 5858,
      "ĠAssembly": 5859,
      "ĠMicro": 5860,
      "Ġcontrast": 5861,
      "Or": 5862,
      "ections": 5863,
      "Ã±": 5864,
      "ounger": 5865,
      "Ġenj": 5866,
      "Ġgovernments": 5867,
      "ĠInf": 5868,
      "Total": 5869,
      "box": 5870,
      "othes": 5871,
      "Ġscale": 5872,
      "Ġmuseum": 5873,
      "Ġidentified": 5874,
      "Ġtropical": 5875,
      "Ġhunting": 5876,
      "thur": 5877,
      "ĠCastle": 5878,
      "Ġfoss": 5879,
      "ogen": 5880,
      "From": 5881,
      "aris": 5882,
      "Ġhuge": 5883,
      "ĠHispanic": 5884,
      "Ġfigure": 5885,
      "aby": 5886,
      "Ġcampus": 5887,
      "Pr": 5888,
      "ayer": 5889,
      "ĠFound": 5890,
      "oren": 5891,
      "ĠOh": 5892,
      "Ġclaims": 5893,
      "Ġflow": 5894,
      "ĠEducation": 5895,
      "Ð¾": 5896,
      "see": 5897,
      "Ġcoal": 5898,
      "Ġdirected": 5899,
      "ĠMexican": 5900,
      "ĠVinatieri": 5901,
      "Ġlearning": 5902,
      "Ġir": 5903,
      "Ġarmies": 5904,
      "Ġreserv": 5905,
      "Ġdominated": 5906,
      "We": 5907,
      "Ġbrief": 5908,
      "ĠBang": 5909,
      "anchester": 5910,
      "Ġdistricts": 5911,
      "Ġresiding": 5912,
      "Ġvs": 5913,
      "ĠLi": 5914,
      "ĠStat": 5915,
      "ĠIll": 5916,
      "Ġquite": 5917,
      "Ġtrail": 5918,
      "Ġantib": 5919,
      "ĠSar": 5920,
      "Ġrang": 5921,
      "Ġprotection": 5922,
      "ĠFord": 5923,
      "Ġextrem": 5924,
      "Ġcloser": 5925,
      "Ġjobs": 5926,
      "iro": 5927,
      "Ġavoid": 5928,
      "Ġexpedition": 5929,
      "Ġbott": 5930,
      "Ġdecline": 5931,
      "ĠHun": 5932,
      "izes": 5933,
      "ĠByzant": 5934,
      "Ġcopies": 5935,
      "ĠAlf": 5936,
      "zh": 5937,
      "Ġdance": 5938,
      "Ġroute": 5939,
      "ĠChristians": 5940,
      "aught": 5941,
      "ĠTurkey": 5942,
      "ĠBeyoncÃ©": 5943,
      "athan": 5944,
      "Ġfields": 5945,
      "Ġexistence": 5946,
      "alities": 5947,
      "ais": 5948,
      "ironas": 5949,
      "ĠPrussia": 5950,
      "ĠAh": 5951,
      "Ġtitles": 5952,
      "lahoma": 5953,
      "Ġresources": 5954,
      "Ġneighbor": 5955,
      "fess": 5956,
      "ĠSeb": 5957,
      "Ġsport": 5958,
      "soft": 5959,
      "Ġcalc": 5960,
      "Ġsacked": 5961,
      "ĠBull": 5962,
      "eston": 5963,
      "ĠEntertainment": 5964,
      "alf": 5965,
      "oting": 5966,
      "Ġarmed": 5967,
      "Ġspoke": 5968,
      "Ġsucceeded": 5969,
      "anguage": 5970,
      "Ġleadership": 5971,
      "Ġplacekicker": 5972,
      "ĠDawson": 5973,
      "Ġwins": 5974,
      "Ġalliance": 5975,
      "ĠEst": 5976,
      "ĠResearch": 5977,
      "Ġinternal": 5978,
      "Ġboot": 5979,
      "Ġhospital": 5980,
      "Ġsecondary": 5981,
      "ĠPop": 5982,
      "Ġsearch": 5983,
      "Ġstars": 5984,
      "Ġbecomes": 5985,
      "ĠBurmese": 5986,
      "Ġbill": 5987,
      "Ġstories": 5988,
      "iplom": 5989,
      "ishes": 5990,
      "2014": 5991,
      "Ġ1966": 5992,
      "Ġones": 5993,
      "Ġscreen": 5994,
      "Ġmetropolitan": 5995,
      "ĠNintendo": 5996,
      "Ġsched": 5997,
      "imb": 5998,
      "Ġspring": 5999,
      "onna": 6000,
      "resh": 6001,
      "ĠUt": 6002,
      "Ġpage": 6003,
      "ĠDeath": 6004,
      "Ġsovereign": 6005,
      "ĠKas": 6006,
      "ĠChart": 6007,
      "Ġbattles": 6008,
      "isted": 6009,
      "Ġdistingu": 6010,
      "Ġbands": 6011,
      "Ġsilver": 6012,
      "Ġft": 6013,
      "ĠDown": 6014,
      "ĠAfghan": 6015,
      "ĠSax": 6016,
      "ĠEric": 6017,
      "ST": 6018,
      "ĠBironas": 6019,
      "ternal": 6020,
      "rine": 6021,
      "poration": 6022,
      "Ġoperation": 6023,
      "cycl": 6024,
      "aly": 6025,
      "2012": 6026,
      "ĠCross": 6027,
      "Ġearned": 6028,
      "Ġdecade": 6029,
      "ĠFlacco": 6030,
      "Ġcoup": 6031,
      "ĠColumbia": 6032,
      "Ġrot": 6033,
      "abs": 6034,
      "Ġmarched": 6035,
      "Ġreally": 6036,
      "Ġnewspaper": 6037,
      "ĠKerry": 6038,
      "ĠCarson": 6039,
      "Ġsuggested": 6040,
      "ĠMassachusetts": 6041,
      "Ġofficer": 6042,
      "ĠĠĠĠĠĠĠĠĠĠĠĠĠĠĠĠ": 6043,
      "olin": 6044,
      "uro": 6045,
      "2004": 6046,
      "Ġlowest": 6047,
      "Ġmerg": 6048,
      "ounder": 6049,
      "ĠMare": 6050,
      "Ġbes": 6051,
      "Ġlasted": 6052,
      "spe": 6053,
      "Ġ1964": 6054,
      "Ġdoub": 6055,
      "haps": 6056,
      "oln": 6057,
      "ieties": 6058,
      "Ġweather": 6059,
      "osen": 6060,
      "Ġ58": 6061,
      "Ġconquered": 6062,
      "Ġbey": 6063,
      "ĠPersian": 6064,
      "ĠOlympics": 6065,
      "Ġsubsequently": 6066,
      "Ġanything": 6067,
      "ĠFA": 6068,
      "ĠMelbourne": 6069,
      "Ġ1963": 6070,
      "iments": 6071,
      "elligence": 6072,
      "ĠMP": 6073,
      "Ġvisited": 6074,
      "Ġpurs": 6075,
      "opin": 6076,
      "arct": 6077,
      "Ġspirit": 6078,
      "ims": 6079,
      "ĠOpen": 6080,
      "Ġemperor": 6081,
      "Ġweight": 6082,
      "Ġreception": 6083,
      "ds": 6084,
      "Ġminority": 6085,
      "fe": 6086,
      "ĠMoore": 6087,
      "Ġjournal": 6088,
      "ĠZh": 6089,
      "ĠSav": 6090,
      "Ġbacteria": 6091,
      "Ġprep": 6092,
      "ĠDi": 6093,
      "ĠPost": 6094,
      "Ġreading": 6095,
      "Be": 6096,
      "Ġtrees": 6097,
      "Ġrose": 6098,
      "Ġimplement": 6099,
      "ĠSingapore": 6100,
      "pson": 6101,
      "Ġmountains": 6102,
      "etball": 6103,
      "Ġinstruments": 6104,
      "Ġnort": 6105,
      "Ġexact": 6106,
      "inner": 6107,
      "Ġcorrespond": 6108,
      "Ġsuppor": 6109,
      "gor": 6110,
      "ĠJen": 6111,
      "onald": 6112,
      "ania": 6113,
      "Ġstadium": 6114,
      "Ġdecades": 6115,
      "Ġfailure": 6116,
      "ĠSebast": 6117,
      "All": 6118,
      "iable": 6119,
      "Ġconducted": 6120,
      "ĠPC": 6121,
      "Ġ78": 6122,
      "Ġenemy": 6123,
      "ĠEconom": 6124,
      "Ġmatches": 6125,
      "iques": 6126,
      "Ġpieces": 6127,
      "alia": 6128,
      "usal": 6129,
      "ÉĻ": 6130,
      "econd": 6131,
      "rog": 6132,
      "ĠVan": 6133,
      "ĠiP": 6134,
      "Ġrank": 6135,
      "Ġstreet": 6136,
      "Ġbridge": 6137,
      "ĠCalvin": 6138,
      "Ġbeyond": 6139,
      "Ġmax": 6140,
      "ainian": 6141,
      "acks": 6142,
      "Ġadj": 6143,
      "Ġsell": 6144,
      "ĠTai": 6145,
      "ĠRaj": 6146,
      "ĠEdwards": 6147,
      "ĠOfficial": 6148,
      "ĠService": 6149,
      "ĠFrederick": 6150,
      "stone": 6151,
      "Ġcolonies": 6152,
      "Ġcontact": 6153,
      "ĠAnglo": 6154,
      "hann": 6155,
      "Ġpeoples": 6156,
      "ĠHungary": 6157,
      "Ġprice": 6158,
      "icts": 6159,
      "Ġ68": 6160,
      "uins": 6161,
      "ĠEth": 6162,
      "Ġedition": 6163,
      "Ġshoot": 6164,
      "hess": 6165,
      "Ġeasily": 6166,
      "ĠAnth": 6167,
      "elle": 6168,
      "Ġdeficit": 6169,
      "Ġeffort": 6170,
      "oslav": 6171,
      "aimed": 6172,
      "Ġfair": 6173,
      "ĠFr": 6174,
      "Ġchart": 6175,
      "Ġrisk": 6176,
      "itors": 6177,
      "ĠDam": 6178,
      "oyd": 6179,
      "aling": 6180,
      "ira": 6181,
      "struction": 6182,
      "Ġeffective": 6183,
      "ĠCrosby": 6184,
      "ĠTower": 6185,
      "Ġdescribe": 6186,
      "organ": 6187,
      "ĠPower": 6188,
      "Ġcontribut": 6189,
      "cles": 6190,
      "Ġclasses": 6191,
      "Bl": 6192,
      "Ã¢": 6193,
      "Ġimage": 6194,
      "ĠCult": 6195,
      "Ġ1961": 6196,
      "Ġtraff": 6197,
      "pet": 6198,
      "Ġ;": 6199,
      "Ġtall": 6200,
      "Ġwithdr": 6201,
      "Ġinvaded": 6202,
      "uda": 6203,
      "Ġ1965": 6204,
      "Ġrebels": 6205,
      "2001": 6206,
      "Ġkilling": 6207,
      "incoln": 6208,
      "erto": 6209,
      "ĠIS": 6210,
      "Ġcourts": 6211,
      "Ġstaff": 6212,
      "Ġabandon": 6213,
      "Ġvalley": 6214,
      "Ġnothing": 6215,
      "Ġ74": 6216,
      "Ġcolony": 6217,
      "Ġbroken": 6218,
      "Ġnecessary": 6219,
      "ĠPenns": 6220,
      "Ġhyp": 6221,
      "Ġformation": 6222,
      "Ġut": 6223,
      "Ġopposed": 6224,
      "Ġfaith": 6225,
      "Ġ1944": 6226,
      "chest": 6227,
      "Ġdrop": 6228,
      "ĠPopul": 6229,
      "Ġcontest": 6230,
      "Ġdisapp": 6231,
      "oven": 6232,
      "Ġversions": 6233,
      "Ġexecuted": 6234,
      "Living": 6235,
      "Ġdry": 6236,
      "anche": 6237,
      "Ġbehavior": 6238,
      "ĠSeveral": 6239,
      "Pl": 6240,
      "Ġemphas": 6241,
      "Ġsurpris": 6242,
      "Ġhooked": 6243,
      "ĠThough": 6244,
      "Ġenjoy": 6245,
      "BM": 6246,
      "including": 6247,
      "Ġvotes": 6248,
      "Ġuniform": 6249,
      "Ġ63": 6250,
      "Ġacts": 6251,
      "Ġcornerback": 6252,
      "book": 6253,
      "ustr": 6254,
      "Ġsolar": 6255,
      "Ġcompar": 6256,
      "Ġcolle": 6257,
      "sole": 6258,
      "nings": 6259,
      "ĠQing": 6260,
      "Ġdifferences": 6261,
      "Ġpermanent": 6262,
      "Ġ2021": 6263,
      "Ġnaval": 6264,
      "Ġfumbled": 6265,
      "aga": 6266,
      "backer": 6267,
      "ĠKaeding": 6268,
      "ĠOklahoma": 6269,
      "Ġcool": 6270,
      "2002": 6271,
      "ilding": 6272,
      "Ġrefers": 6273,
      "Ġimportance": 6274,
      "ĠRang": 6275,
      "ĠMaria": 6276,
      "ĠKar": 6277,
      "Ġdispl": 6278,
      "Ġemot": 6279,
      "gn": 6280,
      "Ġnewly": 6281,
      "Ġvary": 6282,
      "ava": 6283,
      "Ġcomment": 6284,
      "espread": 6285,
      "aub": 6286,
      "Ġsend": 6287,
      "Ġmamm": 6288,
      "ĠMaur": 6289,
      "ĠChap": 6290,
      "2003": 6291,
      "Ġactions": 6292,
      "ĠEll": 6293,
      "exual": 6294,
      "ĠEarl": 6295,
      "ĠEU": 6296,
      "ĠMic": 6297,
      "ester": 6298,
      "ĠAustrian": 6299,
      "Ġpersons": 6300,
      "Ġapart": 6301,
      "Ġsurrounding": 6302,
      "!\"": 6303,
      "avel": 6304,
      "ĠHealth": 6305,
      "ĠEgyptian": 6306,
      "mosp": 6307,
      "elect": 6308,
      "hat": 6309,
      "Ġ95": 6310,
      "January": 6311,
      "Ġded": 6312,
      "Ġdepend": 6313,
      "cow": 6314,
      "onz": 6315,
      "ĠArm": 6316,
      "Ġairport": 6317,
      "uten": 6318,
      "Ġtemperatures": 6319,
      "2013": 6320,
      "Ġcustom": 6321,
      "also": 6322,
      "Ġpron": 6323,
      "ĠAC": 6324,
      "udi": 6325,
      "while": 6326,
      "Ġmaintain": 6327,
      "People": 6328,
      "Ġfully": 6329,
      "ĠCas": 6330,
      "Ġ1941": 6331,
      "bec": 6332,
      "Ġforward": 6333,
      "Ġadministrative": 6334,
      "ĠChad": 6335,
      "'.": 6336,
      "Ġdrink": 6337,
      "Ġpros": 6338,
      "Ġ62": 6339,
      "ictions": 6340,
      "Ġ85": 6341,
      "Å¡": 6342,
      "ĠLine": 6343,
      "ĠLibrary": 6344,
      "Ġrich": 6345,
      "Ġarrondiss": 6346,
      "atinum": 6347,
      "Ġmanager": 6348,
      "Ġregul": 6349,
      "iginal": 6350,
      "Ġrailway": 6351,
      "ĠNow": 6352,
      "Ġadvance": 6353,
      "ĠDemocr": 6354,
      "ĠMing": 6355,
      "Ġ()": 6356,
      "Ġpolitics": 6357,
      "rophy": 6358,
      "come": 6359,
      "Ġsought": 6360,
      "Ġheard": 6361,
      "Ġlose": 6362,
      "Ġcommander": 6363,
      "Ġmovements": 6364,
      "ĠDonald": 6365,
      "ĠUniversal": 6366,
      "Ġille": 6367,
      "ugent": 6368,
      "Ġusers": 6369,
      "obe": 6370,
      "Ġunderstand": 6371,
      "plete": 6372,
      "Ġshortest": 6373,
      "Ġpair": 6374,
      "Ġprominent": 6375,
      "Ġtal": 6376,
      "ĠAges": 6377,
      "ĠPrix": 6378,
      "ĠFurther": 6379,
      "ĠClin": 6380,
      "Ġaffected": 6381,
      "ĠSum": 6382,
      "Ġbodies": 6383,
      "Ġproved": 6384,
      "ranean": 6385,
      "\").": 6386,
      "Ġsubsequent": 6387,
      "%).": 6388,
      "ĠOnly": 6389,
      "ĠBroad": 6390,
      "Ġequipment": 6391,
      "Ġarrested": 6392,
      "Ġhitting": 6393,
      "Ġtaught": 6394,
      "ĠNugent": 6395,
      "ĠArmenia": 6396,
      "Ġdrugs": 6397,
      "pur": 6398,
      "such": 6399,
      "Ġdiplom": 6400,
      "Ġstre": 6401,
      "Ġcritical": 6402,
      "Ġdaily": 6403,
      "antic": 6404,
      "larg": 6405,
      "Ġ61": 6406,
      "stead": 6407,
      "Ġprem": 6408,
      "ĠConference": 6409,
      "occ": 6410,
      "velopment": 6411,
      "ĠPatrick": 6412,
      "Ġ1948": 6413,
      "Ġ1949": 6414,
      "Ġdeveloping": 6415,
      "ymn": 6416,
      "ĠNed": 6417,
      "Ġsatell": 6418,
      "venth": 6419,
      "ĠWater": 6420,
      "Ġmarg": 6421,
      "ĠFle": 6422,
      "Ġaddress": 6423,
      "Ġderived": 6424,
      "Ġfigures": 6425,
      "Ġplat": 6426,
      "Ġrelative": 6427,
      "Ġgeneration": 6428,
      "His": 6429,
      "Ġactor": 6430,
      "ĠVick": 6431,
      "ĠPennsylvania": 6432,
      "Ðµ": 6433,
      "ĠTelevision": 6434,
      "8212": 6435,
      "ĠCroat": 6436,
      "Ġprote": 6437,
      "Ġmurder": 6438,
      "elly": 6439,
      "ĠUEFA": 6440,
      "Ġtend": 6441,
      "Ġsixth": 6442,
      "ba": 6443,
      "Ġneut": 6444,
      "Ġflu": 6445,
      "Ġ1939": 6446,
      "Ġinstance": 6447,
      "\"),": 6448,
      "oster": 6449,
      "Ġwatch": 6450,
      "Ġtrial": 6451,
      "ĠShow": 6452,
      "Ġdivers": 6453,
      "ĠClark": 6454,
      "ĠWat": 6455,
      "Ä«": 6456,
      "ĠGri": 6457,
      "Ġspect": 6458,
      "enses": 6459,
      "Ġwidespread": 6460,
      "Ġapplications": 6461,
      "ĠMcNabb": 6462,
      "Ġbought": 6463,
      "ĠSel": 6464,
      "1990": 6465,
      "Ġtourn": 6466,
      "ĠPun": 6467,
      "Ġetc": 6468,
      "Ġvirt": 6469,
      "rah": 6470,
      "Ġachieved": 6471,
      "Ġrenew": 6472,
      "Ġcrow": 6473,
      "Ġspot": 6474,
      "ĠConserv": 6475,
      "ni": 6476,
      "ĠTal": 6477,
      "ĠAntarct": 6478,
      "ĠLyn": 6479,
      "ellen": 6480,
      "ru": 6481,
      "Ġcontemporary": 6482,
      "ĠLight": 6483,
      "ĠNBA": 6484,
      "ĠKong": 6485,
      "Ġcapacity": 6486,
      "adesh": 6487,
      "Ġfreedom": 6488,
      "ilton": 6489,
      "Ġyounger": 6490,
      "Ġharm": 6491,
      "ĠYears": 6492,
      "Ġnegative": 6493,
      "ĠLittle": 6494,
      "Ġheadquarters": 6495,
      "icy": 6496,
      "ĠAst": 6497,
      "ĠBal": 6498,
      "Ġchosen": 6499,
      "iterranean": 6500,
      "omans": 6501,
      "ĠFred": 6502,
      "ĠObama": 6503,
      "Ġpicked": 6504,
      "itable": 6505,
      "Ġreduce": 6506,
      "ĠSebastian": 6507,
      "enter": 6508,
      "ĠBillboard": 6509,
      "ĠBah": 6510,
      "Ġ73": 6511,
      "Ġcrop": 6512,
      "Ġrecept": 6513,
      "ĠMicrosoft": 6514,
      "Ġsac": 6515,
      "Ġestablishment": 6516,
      "ĠTs": 6517,
      "Ġchampion": 6518,
      "ĠDenmark": 6519,
      "Ġgets": 6520,
      "ĠAmong": 6521,
      "eball": 6522,
      "miss": 6523,
      "ĠRam": 6524,
      "To": 6525,
      "ĠBarb": 6526,
      "Ġhistoric": 6527,
      "ĠHarry": 6528,
      "ĠArts": 6529,
      "Ġpresented": 6530,
      "ja": 6531,
      "rif": 6532,
      "Ġneeds": 6533,
      "Ġorganisms": 6534,
      "ila": 6535,
      "uted": 6536,
      "ĠLincoln": 6537,
      "aka": 6538,
      "Ġfrequently": 6539,
      "ĠIb": 6540,
      "ashion": 6541,
      "Ġcreating": 6542,
      "ĠProvince": 6543,
      "ĠAndre": 6544,
      "Ġknew": 6545,
      "ployment": 6546,
      "cyclop": 6547,
      "ĠCapt": 6548,
      "called": 6549,
      "Ġdominant": 6550,
      "omy": 6551,
      "Ġformat": 6552,
      "Ġfil": 6553,
      "Ġhour": 6554,
      "EC": 6555,
      "run": 6556,
      "Ġpan": 6557,
      "ĠMoscow": 6558,
      "Ġcausing": 6559,
      "ĠHome": 6560,
      "ultan": 6561,
      "ĠFinland": 6562,
      "Ġmanagement": 6563,
      "Ġearthqu": 6564,
      "ifications": 6565,
      "Ġconnecting": 6566,
      "ĠUl": 6567,
      "Ġhonor": 6568,
      "Goals": 6569,
      "Ġwriters": 6570,
      "Ġdogs": 6571,
      "ĠConstantin": 6572,
      "Ġfeat": 6573,
      "Ġlinebacker": 6574,
      "Ġplanet": 6575,
      "ĠRackers": 6576,
      "ĠSiam": 6577,
      "ocked": 6578,
      "ĠâĢ¢": 6579,
      "Ġcart": 6580,
      "Ġslightly": 6581,
      "ĠKit": 6582,
      "TA": 6583,
      "Ġgenetic": 6584,
      "Ġmentioned": 6585,
      "ĠMot": 6586,
      "ĠRobbie": 6587,
      "Ġsleep": 6588,
      "Ġcam": 6589,
      "Ġdriving": 6590,
      "Ġautonom": 6591,
      "ĠArgent": 6592,
      "Ġwinner": 6593,
      "azz": 6594,
      "Ġdemand": 6595,
      "Ġlingu": 6596,
      "Ġx": 6597,
      "isher": 6598,
      "Ġacquired": 6599,
      "Ġtow": 6600,
      "à¤": 6601,
      "Ġshared": 6602,
      "Ġshape": 6603,
      "ighth": 6604,
      "ologist": 6605,
      "Ġintegr": 6606,
      "fully": 6607,
      "No": 6608,
      "ĠLongwell": 6609,
      "Ġsteam": 6610,
      "ĠPeterson": 6611,
      "De": 6612,
      "Ġalt": 6613,
      "ĠChopin": 6614,
      "ĠÎ": 6615,
      "ĠJean": 6616,
      "ĠThurs": 6617,
      "Ġexperi": 6618,
      "Ġvide": 6619,
      "Ġwalls": 6620,
      "Ġcry": 6621,
      "uranium": 6622,
      "ĠBetween": 6623,
      "present": 6624,
      "ĠOhio": 6625,
      "adian": 6626,
      "ĠTurn": 6627,
      "ĠNav": 6628,
      "ĠJam": 6629,
      "Ġ82": 6630,
      "ĠLindell": 6631,
      "agement": 6632,
      "Ġarts": 6633,
      "Ġcorrect": 6634,
      "ĠLatino": 6635,
      "Ġmilit": 6636,
      "Ġseparated": 6637,
      "ON": 6638,
      "Ġtons": 6639,
      "irty": 6640,
      "Ġ2022": 6641,
      "Ġweak": 6642,
      "Ġroughly": 6643,
      "Some": 6644,
      "Ġpil": 6645,
      "Ġexerc": 6646,
      "Ġallies": 6647,
      "ĠCoast": 6648,
      "Ġmaster": 6649,
      "Ġfloor": 6650,
      "Ġspeakers": 6651,
      "die": 6652,
      "Ġvan": 6653,
      "ĠFoundation": 6654,
      "ye": 6655,
      "roc": 6656,
      "ĠLady": 6657,
      "ĠColor": 6658,
      "ĠRussians": 6659,
      "ĠAnthony": 6660,
      "Ġstruggle": 6661,
      "ĠWalter": 6662,
      "ĠFar": 6663,
      "reeks": 6664,
      "Ġconfirmed": 6665,
      "oh": 6666,
      "orate": 6667,
      "ĠAllen": 6668,
      "Ġcateg": 6669,
      "Ġsubs": 6670,
      "wise": 6671,
      "ĠManchester": 6672,
      "ĠWrest": 6673,
      "ĠNetwork": 6674,
      "ĠSky": 6675,
      "Ġ1962": 6676,
      "ĠLuther": 6677,
      "Ġgoods": 6678,
      "order": 6679,
      "Ġskin": 6680,
      "Ġpolicies": 6681,
      "inate": 6682,
      "Ġterror": 6683,
      "onder": 6684,
      "600": 6685,
      "Ġpop": 6686,
      "Ġlabel": 6687,
      "Ġrob": 6688,
      "Ġmodels": 6689,
      "ovak": 6690,
      "Ġneighborhood": 6691,
      "ĠXX": 6692,
      "eless": 6693,
      "Ġund": 6694,
      "Ġabb": 6695,
      "ĠBurma": 6696,
      "Ġanalysis": 6697,
      "Ð¸": 6698,
      "Ġuranium": 6699,
      "iful": 6700,
      "Ġacademic": 6701,
      "ĠCyprus": 6702,
      "Ġwarm": 6703,
      "issance": 6704,
      "ducing": 6705,
      "Ġprey": 6706,
      "Ġ1919": 6707,
      "uis": 6708,
      "ĠCE": 6709,
      "Ġ69": 6710,
      "span": 6711,
      "ĠMediterranean": 6712,
      "Ġdegrees": 6713,
      "long": 6714,
      "Ġfans": 6715,
      "Ġgreatly": 6716,
      "Ã¼r": 6717,
      "Ġclosely": 6718,
      "Ġdetermined": 6719,
      "ĠFire": 6720,
      "Ġwall": 6721,
      "Ġreaching": 6722,
      "byter": 6723,
      "ĠHindu": 6724,
      "Ġadult": 6725,
      "Ġcultures": 6726,
      "ĠOttomans": 6727,
      "Ġchair": 6728,
      "Apps": 6729,
      "onto": 6730,
      "Ġatmosp": 6731,
      "ĠMoss": 6732,
      "Ġstores": 6733,
      "Ġfactors": 6734,
      "Ġ66": 6735,
      "rong": 6736,
      "iting": 6737,
      "Ġeasy": 6738,
      "ging": 6739,
      "key": 6740,
      "ĠAbb": 6741,
      "ĠBure": 6742,
      "Ġsignificantly": 6743,
      "orage": 6744,
      "Ġboys": 6745,
      "Ġdeclined": 6746,
      "from": 6747,
      "break": 6748,
      "Ġhy": 6749,
      "ighter": 6750,
      "ĠSpecial": 6751,
      "English": 6752,
      "ĠMain": 6753,
      "Ġcasual": 6754,
      "Ġunique": 6755,
      "ĠThus": 6756,
      "worth": 6757,
      "ĠRena": 6758,
      "abad": 6759,
      "AppsGoals": 6760,
      "Ġscript": 6761,
      "Ġhair": 6762,
      "Ġpractices": 6763,
      "ĠCollins": 6764,
      "Ġdates": 6765,
      "ĠMir": 6766,
      "ĠBrook": 6767,
      "ĠNiger": 6768,
      "ĠCambridge": 6769,
      "Ġvert": 6770,
      "Ġrural": 6771,
      "illery": 6772,
      "Ġring": 6773,
      "ĠLabor": 6774,
      "150": 6775,
      "life": 6776,
      "ĠAlaska": 6777,
      "AN": 6778,
      "Ġconnection": 6779,
      "aus": 6780,
      "afi": 6781,
      "Ġmort": 6782,
      "ĠVienna": 6783,
      "Ġincreasingly": 6784,
      "Ġbeaut": 6785,
      "www": 6786,
      "Ex": 6787,
      "ËĲ": 6788,
      "Ġlat": 6789,
      "ĠKent": 6790,
      "ensions": 6791,
      "Ġregarded": 6792,
      "Ġdevice": 6793,
      "Tr": 6794,
      "ĠHard": 6795,
      "Ġmedicine": 6796,
      "pool": 6797,
      "ĠMand": 6798,
      "ĠStation": 6799,
      "yles": 6800,
      "udget": 6801,
      "Ġrenamed": 6802,
      "ione": 6803,
      "Ġshowing": 6804,
      "Ġdialect": 6805,
      "atab": 6806,
      "ĠThursday": 6807,
      "ĠHassel": 6808,
      "osaur": 6809,
      "eld": 6810,
      "Ġhero": 6811,
      "Ġreports": 6812,
      "ancing": 6813,
      "Ġthousand": 6814,
      "chers": 6815,
      "jan": 6816,
      "ĠMarg": 6817,
      "Ġactual": 6818,
      "nel": 6819,
      "amples": 6820,
      "Ġbreed": 6821,
      "Ġabsor": 6822,
      "ĠAncient": 6823,
      "ĠDisc": 6824,
      "Ġ1956": 6825,
      "Ġinsects": 6826,
      "cks": 6827,
      "Ġanthrop": 6828,
      "ĠLike": 6829,
      "Ġ89": 6830,
      "Ġpreserv": 6831,
      "Ġstandards": 6832,
      "Ġeggs": 6833,
      "wa": 6834,
      "bo": 6835,
      "inals": 6836,
      "ĠWWE": 6837,
      "Ġalco": 6838,
      "Ġ72": 6839,
      "Ġsolid": 6840,
      "One": 6841,
      "Ġproport": 6842,
      "Ġminute": 6843,
      "ĠLoc": 6844,
      "Ġguns": 6845,
      "ĠFeely": 6846,
      "IV": 6847,
      "ĠBoy": 6848,
      "Ġbuy": 6849,
      "Ġign": 6850,
      "Ġexpand": 6851,
      "enge": 6852,
      "Ġcommunication": 6853,
      "ĠCatal": 6854,
      "ĠDick": 6855,
      "ĠAlbums": 6856,
      "anas": 6857,
      "oto": 6858,
      "Ġdim": 6859,
      "ĠPictures": 6860,
      "ĠIndians": 6861,
      "ĠChristmas": 6862,
      "ĠConfeder": 6863,
      "ĠMuhammad": 6864,
      "Ġaccident": 6865,
      "Ġmedieval": 6866,
      "ĠBilly": 6867,
      "ĠNobel": 6868,
      "ĠBridge": 6869,
      "Ġcommitted": 6870,
      "Ġphen": 6871,
      "Ġisol": 6872,
      "ĠPrincess": 6873,
      "Ġapparent": 6874,
      "Ġteaching": 6875,
      "mat": 6876,
      "ĠMas": 6877,
      "elve": 6878,
      "ĠKyle": 6879,
      "ĠReggie": 6880,
      "Ġhorse": 6881,
      "ĠTu": 6882,
      "Ġoccupation": 6883,
      "Ġprinciple": 6884,
      "ĠJun": 6885,
      "Ġslave": 6886,
      "igration": 6887,
      "á¹": 6888,
      "ĠDell": 6889,
      "Ġappears": 6890,
      "Ġinterview": 6891,
      "Ġcondition": 6892,
      "ĠHasselbeck": 6893,
      "Ġhor": 6894,
      "Ġpiece": 6895,
      "gar": 6896,
      "htt": 6897,
      "ĠRus": 6898,
      "Ġconcluded": 6899,
      "Ġcars": 6900,
      "ĠSher": 6901,
      "Ġguard": 6902,
      "vis": 6903,
      "ito": 6904,
      "ĠJournal": 6905,
      "Ġliqu": 6906,
      "Ġ1914": 6907,
      "ĠPlayer": 6908,
      "Ġproperties": 6909,
      "Ġchalleng": 6910,
      "Ġruler": 6911,
      "ĠBack": 6912,
      "uris": 6913,
      "Ġastron": 6914,
      "water": 6915,
      "yt": 6916,
      "Ġhockey": 6917,
      "ĠMaced": 6918,
      "Ġtwenty": 6919,
      "ĠHo": 6920,
      "Ġmouth": 6921,
      "Ġhomes": 6922,
      "elson": 6923,
      "ĠConstantinople": 6924,
      "Ġmicro": 6925,
      "Ġlaunch": 6926,
      "law": 6927,
      "ĠAvenue": 6928,
      "Ġincom": 6929,
      "Ġreaction": 6930,
      "abet": 6931,
      "ucks": 6932,
      "Ġbackground": 6933,
      "Ġexpress": 6934,
      "Ġcrim": 6935,
      "ĠTa": 6936,
      "ĠThird": 6937,
      "ĠTen": 6938,
      "Ġconquest": 6939,
      "rient": 6940,
      "Ġ2023": 6941,
      "Ġcancer": 6942,
      "Ġholds": 6943,
      "Ġpharm": 6944,
      "ĠBible": 6945,
      "ĠNon": 6946,
      "ĠMun": 6947,
      "ĠAdrian": 6948,
      "Ġmanufacturing": 6949,
      "Ġconce": 6950,
      "ĠGonz": 6951,
      "Ġwithdraw": 6952,
      "Ġce": 6953,
      "Ġrevealed": 6954,
      "aders": 6955,
      "ĠNazi": 6956,
      "Ġaffect": 6957,
      "Ġyellow": 6958,
      "Ġinfluential": 6959,
      "ko": 6960,
      "eget": 6961,
      "ĠRadio": 6962,
      "Ã´": 6963,
      "amber": 6964,
      "rows": 6965,
      "ĠAlexand": 6966,
      "chestra": 6967,
      "à¦": 6968,
      "ĠHong": 6969,
      "Ġstone": 6970,
      "Ġjoint": 6971,
      "ĠEli": 6972,
      "Ġdelivered": 6973,
      "Ġfled": 6974,
      "Ġsubstant": 6975,
      "Rep": 6976,
      "ĠNasser": 6977,
      "ĠCentre": 6978,
      "ĠSatur": 6979,
      "Ġinterpret": 6980,
      "Ġmis": 6981,
      "ĠSix": 6982,
      "ĠIndones": 6983,
      "mann": 6984,
      "Ġlaid": 6985,
      "Ġmaintained": 6986,
      "Ġemerged": 6987,
      "Ġleaves": 6988,
      "Ge": 6989,
      "ĠLes": 6990,
      "Ġindigenous": 6991,
      "ĠEis": 6992,
      "Ġengineering": 6993,
      "Ġ1922": 6994,
      "speaking": 6995,
      "Ġocean": 6996,
      "ellect": 6997,
      "Ġowners": 6998,
      "Ġsites": 6999,
      "endar": 7000,
      "Ġ79": 7001,
      "overty": 7002,
      "zen": 7003,
      "Ġwave": 7004,
      "Ġrejected": 7005,
      "'m": 7006,
      "cha": 7007,
      "Ġadapt": 7008,
      "Ġsubst": 7009,
      "ĠOrton": 7010,
      "then": 7011,
      "Ġcard": 7012,
      "ĠLive": 7013,
      "iÄĩ": 7014,
      "icide": 7015,
      "Ġforcing": 7016,
      "Ġcomputers": 7017,
      "Ø§": 7018,
      "ĠGuard": 7019,
      "ĠTaiwan": 7020,
      "ĠEnd": 7021,
      "aza": 7022,
      "Ġmist": 7023,
      "Ġ1900": 7024,
      "Ġ77": 7025,
      "oured": 7026,
      "ĠTerrit": 7027,
      "ĠLis": 7028,
      "erek": 7029,
      "ĠChampions": 7030,
      "Ġsurvey": 7031,
      "unte": 7032,
      "ugar": 7033,
      "Ġretrieved": 7034,
      "Ġseats": 7035,
      "2015": 7036,
      "Ġunderstanding": 7037,
      "Ġinfr": 7038,
      "Ġlearned": 7039,
      "Ġdestruct": 7040,
      "Ġlabour": 7041,
      "rain": 7042,
      "kin": 7043,
      "arks": 7044,
      "Ġclothing": 7045,
      "Ġshall": 7046,
      "ĠArthur": 7047,
      "ĠByzantine": 7048,
      "rm": 7049,
      "Ġunsu": 7050,
      "ĠAtt": 7051,
      "Ġbass": 7052,
      "ĠMontreal": 7053,
      "outs": 7054,
      "celona": 7055,
      "ijing": 7056,
      "istor": 7057,
      "ĠBurke": 7058,
      "ĠArabic": 7059,
      "Ġcandidate": 7060,
      "ĠPeace": 7061,
      "Ġvalues": 7062,
      "Ġtraffic": 7063,
      "Ġ1942": 7064,
      "Ġsure": 7065,
      "otte": 7066,
      "Ġcommission": 7067,
      "ĠPo": 7068,
      "ĠNewton": 7069,
      "Ġmotion": 7070,
      "Ġextremely": 7071,
      "ĠCountry": 7072,
      "Ġexclus": 7073,
      "fam": 7074,
      "Ġformally": 7075,
      "Ġrestaur": 7076,
      "Ġteacher": 7077,
      "ĠEuro": 7078,
      "Ġagricultural": 7079,
      "Ġburied": 7080,
      "Ġheavily": 7081,
      "ĠAfghanistan": 7082,
      "ET": 7083,
      "ĠKasay": 7084,
      "iens": 7085,
      "ĠGulf": 7086,
      "akers": 7087,
      "Ġdoor": 7088,
      "enburg": 7089,
      "mine": 7090,
      "Ġatom": 7091,
      "ĠGi": 7092,
      "Ġcarries": 7093,
      "ĠRussell": 7094,
      "1998": 7095,
      "Ġinvestig": 7096,
      "Ġcrew": 7097,
      "itals": 7098,
      "Ġtrading": 7099,
      "ĠSchaub": 7100,
      "stream": 7101,
      "season": 7102,
      "ansk": 7103,
      "Ġkinds": 7104,
      "ĠAdministr": 7105,
      "ĠBuddhism": 7106,
      "Ġrevolt": 7107,
      "lymouth": 7108,
      "ĠDanish": 7109,
      "Ġresident": 7110,
      "Ġrefuge": 7111,
      "Ġthin": 7112,
      "Ġhabit": 7113,
      "Ġconsequ": 7114,
      "ocide": 7115,
      "ĠMcG": 7116,
      "Ġnut": 7117,
      "ĠFair": 7118,
      "Ġrecomm": 7119,
      "ĠProfess": 7120,
      "OR": 7121,
      "ĠBall": 7122,
      "ĠIN": 7123,
      "Ġ93": 7124,
      "press": 7125,
      "Ġwounded": 7126,
      "Ġdollars": 7127,
      "Ġpet": 7128,
      "Ġcontributed": 7129,
      "Ġevolved": 7130,
      "ĠSports": 7131,
      "ĠBoard": 7132,
      "unch": 7133,
      "Ġepisodes": 7134,
      "Ġgradually": 7135,
      "ĠMaster": 7136,
      "Ġbrothers": 7137,
      "Ġwinners": 7138,
      "Ġaccused": 7139,
      "Ġmaximum": 7140,
      "ĠBrett": 7141,
      "Ġsupporters": 7142,
      "ĠTok": 7143,
      "Ġnotes": 7144,
      "ikh": 7145,
      "ĠHarvard": 7146,
      "iley": 7147,
      "ĠFBI": 7148,
      "term": 7149,
      "Ġphase": 7150,
      "dy": 7151,
      "ĠRoy": 7152,
      "ums": 7153,
      "Ġapplication": 7154,
      "ingham": 7155,
      "ĠHear": 7156,
      "ĠGreeks": 7157,
      "Ġattended": 7158,
      "ela": 7159,
      "ĠWalk": 7160,
      "umin": 7161,
      "Ġcompounds": 7162,
      "Ġfresh": 7163,
      "ĠGer": 7164,
      "Ġopin": 7165,
      "emen": 7166,
      "Ġinvented": 7167,
      "ĠAbd": 7168,
      "avery": 7169,
      "ĠGoth": 7170,
      "Ġfat": 7171,
      "ĠWild": 7172,
      "Ġpra": 7173,
      "ĠBishop": 7174,
      "ĠWard": 7175,
      "Ġsevere": 7176,
      "Ġtexts": 7177,
      "Ġclean": 7178,
      "AS": 7179,
      "icket": 7180,
      "Ġinspired": 7181,
      "Te": 7182,
      "ĠDevelopment": 7183,
      "ibbean": 7184,
      "Ġhop": 7185,
      "ĠKu": 7186,
      "ĠUpper": 7187,
      "ika": 7188,
      "Ġextensive": 7189,
      "Ġportion": 7190,
      "ĠBad": 7191,
      "ĠCassel": 7192,
      "Ġuprising": 7193,
      "ĠClinton": 7194,
      "ĠLarry": 7195,
      "ĠRights": 7196,
      "ĠNam": 7197,
      "iki": 7198,
      "Ġborders": 7199,
      "Ġpossessions": 7200,
      "ĠPass": 7201,
      "ĠVill": 7202,
      "Ġnickn": 7203,
      "Ġ99": 7204,
      "fort": 7205,
      "May": 7206,
      "Ġ71": 7207,
      "Ġdiscovery": 7208,
      "enne": 7209,
      "ĠNeil": 7210,
      "ĠSoutheast": 7211,
      "Ġincorporated": 7212,
      "Ġ67": 7213,
      "Ġfunctions": 7214,
      "Ġvess": 7215,
      "ynam": 7216,
      "Ġagree": 7217,
      "Ġpiano": 7218,
      "Premier": 7219,
      "Ġretired": 7220,
      "top": 7221,
      "Ġalle": 7222,
      "Ġban": 7223,
      "AL": 7224,
      "assic": 7225,
      "after": 7226,
      "Ġvast": 7227,
      "uble": 7228,
      "ĠSeason": 7229,
      "ĠCharleston": 7230,
      "Ġpup": 7231,
      "ĠMean": 7232,
      "Ġcomponents": 7233,
      "Ġflood": 7234,
      "Ġviolence": 7235,
      "ĠWallace": 7236,
      "Ġscene": 7237,
      "ĠPolit": 7238,
      "Ġath": 7239,
      "ĠForces": 7240,
      "Eu": 7241,
      "dam": 7242,
      "ĠNin": 7243,
      "Ġsurrendered": 7244,
      "Ġplate": 7245,
      "Ġzinc": 7246,
      "National": 7247,
      "Ġbask": 7248,
      "Ġgrown": 7249,
      "Ġoccurs": 7250,
      "ĠBCE": 7251,
      "iop": 7252,
      "aved": 7253,
      "roll": 7254,
      "Ġsomew": 7255,
      "800": 7256,
      "Ġcounties": 7257,
      "ĠMrs": 7258,
      "ifically": 7259,
      "Ġimpl": 7260,
      "Ġconcert": 7261,
      "Ġcycle": 7262,
      "heastern": 7263,
      "ĠBh": 7264,
      "olics": 7265,
      "Ġ1958": 7266,
      "ĠSquare": 7267,
      "Ġdivisions": 7268,
      "Ġfewer": 7269,
      "Ġperiods": 7270,
      "Ġ1947": 7271,
      "Ġemployed": 7272,
      "Ġlake": 7273,
      "Ġheight": 7274,
      "Ġchannel": 7275,
      "Ġprogramming": 7276,
      "OS": 7277,
      "Ġassass": 7278,
      "orf": 7279,
      "room": 7280,
      "Ġsole": 7281,
      "ĠSecurity": 7282,
      "Ġmel": 7283,
      "ugoslav": 7284,
      "Ġexisting": 7285,
      "ĠNedney": 7286,
      "120": 7287,
      "Ġideal": 7288,
      "Ġequival": 7289,
      "ĠCommunity": 7290,
      "',": 7291,
      "Ġfuel": 7292,
      "ĠBureau": 7293,
      "ĠReal": 7294,
      "hyth": 7295,
      "Ġgraph": 7296,
      "Ġagriculture": 7297,
      "Ġinher": 7298,
      "low": 7299,
      "sey": 7300,
      "ocracy": 7301,
      "Ġcab": 7302,
      "riers": 7303,
      "Ġcomedy": 7304,
      "chen": 7305,
      "Ġcouple": 7306,
      "Ġexpect": 7307,
      "Ġstatement": 7308,
      "Ġcul": 7309,
      "ĠTest": 7310,
      "Ġcombat": 7311,
      "ĠSaturday": 7312,
      "Ġbringing": 7313,
      "itionally": 7314,
      "Ġ1955": 7315,
      "ĠGirl": 7316,
      "ĠLabour": 7317,
      "Ġstood": 7318,
      "Ġdrives": 7319,
      "Ġ1953": 7320,
      "ĠMichigan": 7321,
      "Ġcore": 7322,
      "ĠBuck": 7323,
      "power": 7324,
      "ĠDoct": 7325,
      "Ġchap": 7326,
      "Ġexperienced": 7327,
      "ouri": 7328,
      "ĠEver": 7329,
      "Ġstruggled": 7330,
      "ĠQuran": 7331,
      "Ġreference": 7332,
      "Ġlibrary": 7333,
      "Ġmap": 7334,
      "ieuten": 7335,
      "ĠPolice": 7336,
      "Ġcasualties": 7337,
      "Station": 7338,
      "ĠCorps": 7339,
      "osite": 7340,
      "Ġhappy": 7341,
      "Ġsust": 7342,
      "ĠSaf": 7343,
      "ĠCy": 7344,
      "related": 7345,
      "Ġopera": 7346,
      "rin": 7347,
      "ĠKen": 7348,
      "Ġtheore": 7349,
      "bes": 7350,
      "ynes": 7351,
      "Ġfacilities": 7352,
      "Ġheaded": 7353,
      "700": 7354,
      "rec": 7355,
      "Ġbed": 7356,
      "Ġacid": 7357,
      "ante": 7358,
      "rena": 7359,
      "ĠHead": 7360,
      "Ġroles": 7361,
      "rett": 7362,
      "Ġpoverty": 7363,
      "olas": 7364,
      "illing": 7365,
      "ĠChannel": 7366,
      "ĠWinter": 7367,
      "ĠGh": 7368,
      "Ġ84": 7369,
      "Ġdialects": 7370,
      "amps": 7371,
      "Ġnormally": 7372,
      "Ġdebt": 7373,
      "IS": 7374,
      "She": 7375,
      "ĠArea": 7376,
      "ova": 7377,
      "inent": 7378,
      "Ġ1911": 7379,
      "ĠVar": 7380,
      "Ġdefence": 7381,
      "ĠCathedral": 7382,
      "ĠElam": 7383,
      "1999": 7384,
      "Ġdram": 7385,
      "Ġimmune": 7386,
      "Ñģ": 7387,
      "ĠKr": 7388,
      "Ġfirm": 7389,
      "icer": 7390,
      "udden": 7391,
      "Ġnor": 7392,
      "Ġmic": 7393,
      "Ġfeed": 7394,
      "Ġaudio": 7395,
      "Ġworth": 7396,
      "aration": 7397,
      "ĠCrown": 7398,
      "stan": 7399,
      "ĠSwiss": 7400,
      "dney": 7401,
      "Ġexperiment": 7402,
      "holder": 7403,
      "ĠFamily": 7404,
      "Ġplatform": 7405,
      "weight": 7406,
      "Ġ1952": 7407,
      "erts": 7408,
      "ĠDerek": 7409,
      "Ġdepending": 7410,
      "Ġdiseases": 7411,
      "ĠDarwin": 7412,
      "Col": 7413,
      "otic": 7414,
      "anton": 7415,
      "Ġstanding": 7416,
      "Ġpartners": 7417,
      "Ġelectricity": 7418,
      "Ġnote": 7419,
      "Ġdisplay": 7420,
      "ĠFinn": 7421,
      "ĠCarp": 7422,
      "Ġexisted": 7423,
      "ĠPhilippines": 7424,
      "Tube": 7425,
      "Ġdesert": 7426,
      "cia": 7427,
      "uly": 7428,
      "Ġcontinues": 7429,
      "ĠTheatre": 7430,
      "Ġdenomin": 7431,
      "yer": 7432,
      "Ġ1921": 7433,
      "Ġevening": 7434,
      "ĠPresbyter": 7435,
      "Ġalternative": 7436,
      "Ġnotably": 7437,
      "Ġmassive": 7438,
      "Ġkilomet": 7439,
      "Ġgone": 7440,
      "Ġ1912": 7441,
      "Ġresear": 7442,
      "Ġunsuccess": 7443,
      "Ġawards": 7444,
      "Ġartillery": 7445,
      "ĠBarcelona": 7446,
      "ĠLin": 7447,
      "ĠIndust": 7448,
      "Aust": 7449,
      "oen": 7450,
      "ĠLiv": 7451,
      "ĠLuck": 7452,
      "irds": 7453,
      "ĠMedal": 7454,
      "ĠCaptain": 7455,
      "igg": 7456,
      "ĠPierre": 7457,
      "Ġsons": 7458,
      "ĠPuerto": 7459,
      "don": 7460,
      "ĠNelson": 7461,
      "Ġdescend": 7462,
      "Ġpromoted": 7463,
      "ĠCorporation": 7464,
      "ĠAli": 7465,
      "Ġbright": 7466,
      "Ġphysics": 7467,
      "Ġ83": 7468,
      "iling": 7469,
      "Ġ81": 7470,
      "Ġgenes": 7471,
      "ells": 7472,
      "Ġacting": 7473,
      "Ġruling": 7474,
      "Ġgirls": 7475,
      "Ġdin": 7476,
      "ocol": 7477,
      "Ġprojects": 7478,
      "Ġleads": 7479,
      "Ġcharged": 7480,
      "gment": 7481,
      "inem": 7482,
      "ĠFrid": 7483,
      "Ġabol": 7484,
      "ĠJane": 7485,
      "Ġcurren": 7486,
      "iat": 7487,
      "Ġcompris": 7488,
      "rait": 7489,
      "Ġflat": 7490,
      "Ġserving": 7491,
      "usted": 7492,
      "aming": 7493,
      "thes": 7494,
      "Ġconsc": 7495,
      "ÑĢ": 7496,
      "agh": 7497,
      "ĠThrough": 7498,
      "ĠBeijing": 7499,
      "Ġneighb": 7500,
      "1996": 7501,
      "ĠCab": 7502,
      "Ġcolors": 7503,
      "Ġ1959": 7504,
      "Ġburned": 7505,
      "ĠAff": 7506,
      "iary": 7507,
      "ĠFriend": 7508,
      "ĠJuan": 7509,
      "Ġviews": 7510,
      "uits": 7511,
      "Ġconference": 7512,
      "ĠDave": 7513,
      "ĠYuan": 7514,
      "encing": 7515,
      "Ġselected": 7516,
      "Ġshop": 7517,
      "Ġ1943": 7518,
      "Ġsingles": 7519,
      "Ġenvironmental": 7520,
      "tario": 7521,
      "mes": 7522,
      "Ġstarts": 7523,
      "ĠDelhi": 7524,
      "Ġresc": 7525,
      "Ġaged": 7526,
      "ĠPlan": 7527,
      "Ġputting": 7528,
      "Ġgal": 7529,
      "Ġcoastal": 7530,
      "Ġwrong": 7531,
      "dinand": 7532,
      "bu": 7533,
      "Ġrapidly": 7534,
      "ĠLim": 7535,
      "Ġslowly": 7536,
      "Ġsemi": 7537,
      "ĠVis": 7538,
      "Ġuniverse": 7539,
      "Ġbudget": 7540,
      "orph": 7541,
      "ĠLower": 7542,
      "roph": 7543,
      "Ġhistorians": 7544,
      "patrick": 7545,
      "Ġowner": 7546,
      "ĠAustin": 7547,
      "Ġselection": 7548,
      "senal": 7549,
      "1980": 7550,
      "ennis": 7551,
      "Ġhydrogen": 7552,
      "entially": 7553,
      "ĠMemorial": 7554,
      "Ġtells": 7555,
      "was": 7556,
      "acre": 7557,
      "ĠHD": 7558,
      "ĠHockey": 7559,
      "Ġveget": 7560,
      "Ġperhaps": 7561,
      "Ġimmigrants": 7562,
      "gel": 7563,
      "inity": 7564,
      "ĠPlymouth": 7565,
      "ĠSyria": 7566,
      "Ġfocused": 7567,
      "ourney": 7568,
      "ĠAnne": 7569,
      "Ġkings": 7570,
      "Ġoffices": 7571,
      "yright": 7572,
      "atically": 7573,
      "ĠLas": 7574,
      "Ġclassified": 7575,
      "Ġvoted": 7576,
      "eller": 7577,
      "Ġfactor": 7578,
      "Ġhundreds": 7579,
      "arv": 7580,
      "Ġtheories": 7581,
      "Ġentirely": 7582,
      "ĠLeb": 7583,
      "Ġ2024": 7584,
      "ĠEvery": 7585,
      "ropri": 7586,
      "Ġglac": 7587,
      "Ġ92": 7588,
      "ĠShah": 7589,
      "eyn": 7590,
      "ĠSydney": 7591,
      "ns": 7592,
      "orrow": 7593,
      "Ġprocl": 7594,
      "Ġdating": 7595,
      "ĠYugoslav": 7596,
      "hatt": 7597,
      "Ġpicture": 7598,
      "amental": 7599,
      "ounce": 7600,
      "ĠTibetan": 7601,
      "asy": 7602,
      "ĠGro": 7603,
      "ĠSony": 7604,
      "Ġsuccessor": 7605,
      "ĠLo": 7606,
      "but": 7607,
      "apes": 7608,
      "Ġnorthwest": 7609,
      "ĠCamb": 7610,
      "Ġrivalry": 7611,
      "ruption": 7612,
      "VD": 7613,
      "uration": 7614,
      "Ġexpensive": 7615,
      "Ġhope": 7616,
      "Ġextent": 7617,
      "Ġsettlers": 7618,
      "Ġuser": 7619,
      "ĠCatholics": 7620,
      "ĠPot": 7621,
      "ista": 7622,
      "Ġaccompan": 7623,
      "Ġtechniques": 7624,
      "Ġ1000": 7625,
      "Ġchoice": 7626,
      "ipe": 7627,
      "ĠToronto": 7628,
      "ĠCirc": 7629,
      "Ġobt": 7630,
      "Ġbegins": 7631,
      "ĠHit": 7632,
      "Ġhors": 7633,
      "Ġpopularity": 7634,
      "Ġapproved": 7635,
      "Ġviewed": 7636,
      "ĠUkraine": 7637,
      "Ġmusicians": 7638,
      "ĠSic": 7639,
      "uchy": 7640,
      "Ġhelps": 7641,
      "Ġ76": 7642,
      "ĠIranian": 7643,
      "wich": 7644,
      "ĠAndy": 7645,
      "Ġfounder": 7646,
      "hered": 7647,
      "Ġsenior": 7648,
      "Ġspeaking": 7649,
      "ĠRomans": 7650,
      "vant": 7651,
      "ampton": 7652,
      "ĠCBS": 7653,
      "Fran": 7654,
      "Ġspons": 7655,
      "Ġ1954": 7656,
      "Ġ1957": 7657,
      "Europe": 7658,
      "icate": 7659,
      "Ġoutput": 7660,
      "Ġrequires": 7661,
      "etime": 7662,
      "Ġpropos": 7663,
      "Ãº": 7664,
      "ĠVenet": 7665,
      "Ġ...": 7666,
      "ĠRegion": 7667,
      "German": 7668,
      "Ġindustries": 7669,
      "Ġconstructed": 7670,
      "ĠChen": 7671,
      "ĠBerm": 7672,
      "ĠBapt": 7673,
      "ogue": 7674,
      "ĠComing": 7675,
      "Ġanimated": 7676,
      "ĠDun": 7677,
      "Å«": 7678,
      "Ġwait": 7679,
      "Ġstyles": 7680,
      "Ġintellect": 7681,
      "ĠStandard": 7682,
      "Ġpure": 7683,
      "ĠMalays": 7684,
      "Ġratio": 7685,
      "Ġcharacteristics": 7686,
      "lon": 7687,
      "Ġreligions": 7688,
      "ĠBon": 7689,
      "Ġtypical": 7690,
      "Ġcircum": 7691,
      "Ġprecip": 7692,
      "Ġquestions": 7693,
      "ĠBruce": 7694,
      "asions": 7695,
      "odge": 7696,
      "Ġfinish": 7697,
      "Ġgene": 7698,
      "Ð½": 7699,
      "lyn": 7700,
      "Ġplane": 7701,
      "ĠAmaz": 7702,
      "Ġcastle": 7703,
      "Ġcook": 7704,
      "ĠKim": 7705,
      "Ġsubjects": 7706,
      "class": 7707,
      "ĠBarber": 7708,
      "Ġvolume": 7709,
      "ĠHal": 7710,
      "Ġopposite": 7711,
      "ĠFerdinand": 7712,
      "La": 7713,
      "Ġinstitution": 7714,
      "ĠGates": 7715,
      "ronic": 7716,
      "eler": 7717,
      "Ġunknown": 7718,
      "iology": 7719,
      "ĠCour": 7720,
      "iciency": 7721,
      "Ġ250": 7722,
      "Ġorders": 7723,
      "Ġoperated": 7724,
      "lywood": 7725,
      "2016": 7726,
      "Ġillegal": 7727,
      "If": 7728,
      "idel": 7729,
      "Ġvillages": 7730,
      "Does": 7731,
      "Ġfly": 7732,
      "1997": 7733,
      "Ġfashion": 7734,
      "ĠTomlin": 7735,
      "Ġframe": 7736,
      "ĠGram": 7737,
      "kes": 7738,
      "Ġtournament": 7739,
      "imming": 7740,
      "aret": 7741,
      "Ġ1946": 7742,
      "Ġmerch": 7743,
      "Ġrepeated": 7744,
      "arant": 7745,
      "place": 7746,
      "ĠConvention": 7747,
      "Ġcritics": 7748,
      "Ġprinciples": 7749,
      "Ġplayoffs": 7750,
      "BS": 7751,
      "IC": 7752,
      "Ġuseful": 7753,
      "mand": 7754,
      "Ġchain": 7755,
      "Ġgall": 7756,
      "ĠStanley": 7757,
      "Trying": 7758,
      "Ġcrimes": 7759,
      "Ġearthquake": 7760,
      "umes": 7761,
      "Ġperfect": 7762,
      "Ġ96": 7763,
      "sky": 7764,
      "Ġcovers": 7765,
      "center": 7766,
      "Ġflows": 7767,
      "Ġsurvived": 7768,
      "ĠLED": 7769,
      "osure": 7770,
      "ĠOnce": 7771,
      "Ġemployees": 7772,
      "ĠBat": 7773,
      "Ġchose": 7774,
      "Ġinteract": 7775,
      "ĠCaribbean": 7776,
      "Ġdowntown": 7777,
      "Ġ1936": 7778,
      "Ġdebate": 7779,
      "0000": 7780,
      "ĠLate": 7781,
      "Ġunem": 7782,
      "ĠSteven": 7783,
      "ĠBalk": 7784,
      "ĠMes": 7785,
      "Ġeffectively": 7786,
      "ĠCareer": 7787,
      "Ġmm": 7788,
      "ocated": 7789,
      "Ġremember": 7790,
      "Ġextend": 7791,
      "ieutenant": 7792,
      "isf": 7793,
      "Ġ88": 7794,
      "iously": 7795,
      "Ġrepro": 7796,
      "allel": 7797,
      "ranches": 7798,
      "Ġultimately": 7799,
      "Ġnortheast": 7800,
      "Ġliterary": 7801,
      "Brit": 7802,
      "ĠStover": 7803,
      "Ġproviding": 7804,
      "ollo": 7805,
      "ĠBrother": 7806,
      "Ġtren": 7807,
      "inth": 7808,
      "Ġoverse": 7809,
      "ĠBab": 7810,
      "Ġstock": 7811,
      "ĠLiberal": 7812,
      "\"|": 7813,
      "Ġhear": 7814,
      "Ġregistered": 7815,
      "Following": 7816,
      "lad": 7817,
      "aud": 7818,
      "Ġceremony": 7819,
      "fare": 7820,
      "arp": 7821,
      "Ġbond": 7822,
      "estab": 7823,
      "Ġcolumn": 7824,
      "ĠRun": 7825,
      "ĠInstead": 7826,
      "Ġ97": 7827,
      "ĠLen": 7828,
      "hard": 7829,
      "ĠGab": 7830,
      "Ġalive": 7831,
      "Ġstatistics": 7832,
      "Ġwhereas": 7833,
      "ĠYouTube": 7834,
      "ĠForeign": 7835,
      "ĠAlfred": 7836,
      "Ġbeer": 7837,
      "Ġanyone": 7838,
      "Ġnet": 7839,
      "ĠOntario": 7840,
      "idden": 7841,
      "Ġtesting": 7842,
      "Ġcalendar": 7843,
      "ĠHawai": 7844,
      "ti": 7845,
      "urd": 7846,
      "Ġinvent": 7847,
      "ĠGreater": 7848,
      "anskrit": 7849,
      "ĠKy": 7850,
      "ĠEstonia": 7851,
      "Ġtorch": 7852,
      "Ġoperate": 7853,
      "rete": 7854,
      "ĠPhys": 7855,
      "Ġcontained": 7856,
      "Ġ86": 7857,
      "ĠAdams": 7858,
      "ĠLy": 7859,
      "AC": 7860,
      "hr": 7861,
      "ĠRice": 7862,
      "ptune": 7863,
      "Ġeveryone": 7864,
      "Ġdoctor": 7865,
      "ĠNorman": 7866,
      "Ġoccasion": 7867,
      "Ġconstitutional": 7868,
      "ĠTre": 7869,
      "ĠMario": 7870,
      "Ġtraditions": 7871,
      "Ġdocuments": 7872,
      "Ġready": 7873,
      "Ġtransferred": 7874,
      "Ġages": 7875,
      "Ġplanning": 7876,
      "atched": 7877,
      "Ġsets": 7878,
      "Ġrocks": 7879,
      "Ġpeas": 7880,
      "Ġschem": 7881,
      "Ġdiet": 7882,
      "Ġmedal": 7883,
      "inois": 7884,
      "ĠWay": 7885,
      "Ġchanging": 7886,
      "Ġvisible": 7887,
      "imon": 7888,
      "Ġstorage": 7889,
      "Ġtwelve": 7890,
      "Ġalcohol": 7891,
      "uled": 7892,
      "ĠHoward": 7893,
      "ĠTro": 7894,
      "Ġphon": 7895,
      "Ġarrang": 7896,
      "uing": 7897,
      "Ġinstrument": 7898,
      "Ġalph": 7899,
      "Ġgrass": 7900,
      "Ġassociation": 7901,
      "Ġ1910": 7902,
      "Ġpoly": 7903,
      "Ġtransition": 7904,
      "Ġcycl": 7905,
      "Ġescape": 7906,
      "acement": 7907,
      "Ġprevented": 7908,
      "Ġdedicated": 7909,
      "je": 7910,
      "Ab": 7911,
      "Ġord": 7912,
      "Ġconsole": 7913,
      "ĠMedia": 7914,
      "unc": 7915,
      "ĠDue": 7916,
      "ĠGron": 7917,
      "umped": 7918,
      "jab": 7919,
      "Ġcampaigns": 7920,
      "Ġsounds": 7921,
      "Ġliberal": 7922,
      "Ġproced": 7923,
      "aux": 7924,
      "Ġsupposed": 7925,
      "Many": 7926,
      "Ġsand": 7927,
      "Ġpig": 7928,
      "Ġfixed": 7929,
      "Ġslavery": 7930,
      "Ġengines": 7931,
      "Ġbottom": 7932,
      "uum": 7933,
      "Ġregarding": 7934,
      "Ġcrowd": 7935,
      "Ġfert": 7936,
      "igins": 7937,
      "ĠGallery": 7938,
      "Ġtraded": 7939,
      "Ġmandolin": 7940,
      "ĠSab": 7941,
      "ĠRem": 7942,
      "Ġanten": 7943,
      "Ġlies": 7944,
      "angel": 7945,
      "Ã£": 7946,
      "inental": 7947,
      "Ġprepar": 7948,
      "orer": 7949,
      "Ġannex": 7950,
      "erbai": 7951,
      "oli": 7952,
      "eded": 7953,
      "ĠArn": 7954,
      "Ġretook": 7955,
      "Ad": 7956,
      "asa": 7957,
      "Ġfeaturing": 7958,
      "isode": 7959,
      "Ġbanks": 7960,
      "Ġunp": 7961,
      "Ġseems": 7962,
      "Ġcombination": 7963,
      "Sing": 7964,
      "hyl": 7965,
      "Ġturnover": 7966,
      "Com": 7967,
      "ĠNa": 7968,
      "SC": 7969,
      "ĠSud": 7970,
      "ographical": 7971,
      "Ġtranslation": 7972,
      "Ġkilometres": 7973,
      "ĠFriday": 7974,
      "Ġbenef": 7975,
      "Ġhappens": 7976,
      "Am": 7977,
      "First": 7978,
      "ashed": 7979,
      "uties": 7980,
      "aki": 7981,
      "Ġfoundation": 7982,
      "Ġsimpl": 7983,
      "ĠBol": 7984,
      "scale": 7985,
      "uv": 7986,
      "ĠClay": 7987,
      "ĠPalest": 7988,
      "Ġprincipal": 7989,
      "Ġselling": 7990,
      "Ġitems": 7991,
      "ĠRepresent": 7992,
      "ĠTurner": 7993,
      "kh": 7994,
      "ĠKings": 7995,
      "Ġadults": 7996,
      "asha": 7997,
      "yo": 7998,
      "minute": 7999,
      "ĠFitzpatrick": 8000,
      "Ġexception": 8001,
      "ĠForest": 8002,
      "illes": 8003,
      "Ġliquid": 8004,
      "Ã©s": 8005,
      "addafi": 8006,
      "Ġconstit": 8007,
      "ologies": 8008,
      "iac": 8009,
      "achers": 8010,
      "ĠRoss": 8011,
      "Ġconsisting": 8012,
      "Gu": 8013,
      "2017": 8014,
      "Ġelectrical": 8015,
      "enhower": 8016,
      "ĠBulgarian": 8017,
      "Ġworst": 8018,
      "ĠSpring": 8019,
      "Ġpalace": 8020,
      "ĠSometimes": 8021,
      "ods": 8022,
      "ource": 8023,
      "ĠProgr": 8024,
      "Ġsurrender": 8025,
      "tion": 8026,
      "Ġsave": 8027,
      "Ġcontinent": 8028,
      "Ġorbit": 8029,
      "Ġcomposer": 8030,
      "Ġsed": 8031,
      "Ġstret": 8032,
      "icut": 8033,
      "osm": 8034,
      "You": 8035,
      "Ġprotest": 8036,
      "Ġculmin": 8037,
      "apse": 8038,
      "âĢĵâĢĵ": 8039,
      "Ġmeasures": 8040,
      "IT": 8041,
      "Ġroll": 8042,
      "arians": 8043,
      "Ġlit": 8044,
      "ĠPerson": 8045,
      "ĠMaurice": 8046,
      "ĠPubl": 8047,
      "Ġvolt": 8048,
      "ture": 8049,
      "Ġcruc": 8050,
      "ĠXbox": 8051,
      "1995": 8052,
      "Ġsick": 8053,
      "ĠSi": 8054,
      "Ġpushed": 8055,
      "Ġmeat": 8056,
      "ĠColon": 8057,
      "ĠCrime": 8058,
      "Ġcheck": 8059,
      "Ã©e": 8060,
      "ĠCarney": 8061,
      "Ġtransportation": 8062,
      "nest": 8063,
      "oding": 8064,
      "ĠShan": 8065,
      "Ġprocesses": 8066,
      "Ġcommanded": 8067,
      "iller": 8068,
      "Ġseal": 8069,
      "anny": 8070,
      "Ġconsisted": 8071,
      "ĠMissouri": 8072,
      "uber": 8073,
      "ivate": 8074,
      "ĠTomlinson": 8075,
      "lets": 8076,
      "zo": 8077,
      "Ġactress": 8078,
      "Ġdiverse": 8079,
      "rand": 8080,
      "Ġfired": 8081,
      "Ġserves": 8082,
      "ĠPlayStation": 8083,
      "Ġsan": 8084,
      "acle": 8085,
      "gradu": 8086,
      "ĠTurks": 8087,
      "ĠOwens": 8088,
      "ĠColorado": 8089,
      "110": 8090,
      "ielberg": 8091,
      "Ġdrama": 8092,
      "Ġaudience": 8093,
      "usalem": 8094,
      "West": 8095,
      "Ġgross": 8096,
      "ĠBernard": 8097,
      "ĠKennedy": 8098,
      "South": 8099,
      "Ġsignal": 8100,
      "aked": 8101,
      "bal": 8102,
      "ĠArist": 8103,
      "Ġmammals": 8104,
      "lig": 8105,
      "Ġsort": 8106,
      "ĠEncyclop": 8107,
      "irt": 8108,
      "ĠKaz": 8109,
      "ĠStory": 8110,
      "Ġeducational": 8111,
      "Ġintroduction": 8112,
      "Ġvocals": 8113,
      "ĠName": 8114,
      "ĠMerc": 8115,
      "ovan": 8116,
      "ĠAllied": 8117,
      "eland": 8118,
      "antly": 8119,
      "ĠMadrid": 8120,
      "ructure": 8121,
      "Ġadvent": 8122,
      "Ġmolecules": 8123,
      "Ġclassification": 8124,
      "Japan": 8125,
      "una": 8126,
      "endment": 8127,
      "Ġvehicles": 8128,
      "ĠWrestling": 8129,
      "Ġhooking": 8130,
      "Ġagency": 8131,
      "Ġsecure": 8132,
      "Ġpreced": 8133,
      "ĠQuebec": 8134,
      "Ġsatellite": 8135,
      "Ġstrongly": 8136,
      "Ġlinked": 8137,
      "Ġda": 8138,
      "hattan": 8139,
      "Ġsoutheast": 8140,
      "uts": 8141,
      "ĠBusiness": 8142,
      "ĠAmericas": 8143,
      "Ġcategory": 8144,
      "anese": 8145,
      "aro": 8146,
      "Ġpassengers": 8147,
      "Ġconvent": 8148,
      "Ġcharges": 8149,
      "Ġincomplete": 8150,
      "rech": 8151,
      "Ġ1934": 8152,
      "ĠSpace": 8153,
      "Ġachieve": 8154,
      "ĠLithuania": 8155,
      "Ġwrap": 8156,
      "ĠInv": 8157,
      "Ġadvert": 8158,
      "Ġalongside": 8159,
      "Ġphenomen": 8160,
      "Ġcavalry": 8161,
      "ĠFG": 8162,
      "ĠIsa": 8163,
      "ĠConc": 8164,
      "Ġdowns": 8165,
      "Ġ1951": 8166,
      "ĠTamil": 8167,
      "atabase": 8168,
      "aug": 8169,
      "rig": 8170,
      "Ġbow": 8171,
      "Ġ*": 8172,
      "Ġexam": 8173,
      "apping": 8174,
      "Ġbreaking": 8175,
      "Ã©n": 8176,
      "Ġtechnical": 8177,
      "ĠTele": 8178,
      "Ġathlet": 8179,
      "alin": 8180,
      "Ġexternal": 8181,
      "Ġneither": 8182,
      "going": 8183,
      "Ġnegotiations": 8184,
      "Ġdangerous": 8185,
      "Ġequivalent": 8186,
      "Dec": 8187,
      "ski": 8188,
      "iph": 8189,
      "Ġphr": 8190,
      "Ġprotected": 8191
    },
    "merges": [
      [
        "Ġ",
        "t"
      ],
      [
        "h",
        "e"
      ],
      [
        "Ġ",
        "a"
      ],
      [
        "i",
        "n"
      ],
      [
        "Ġt",
        "he"
      ],
      [
        "o",
        "n"
      ],
      [
        "e",
        "r"
      ],
      [
        "r",
        "e"
      ],
      [
        "a",
        "t"
      ],
      [
        "e",
        "d"
      ],
      [
        "a",
        "n"
      ],
      [
        "Ġ",
        "o"
      ],
      [
        "Ġ",
        "w"
      ],
      [
        "e",
        "n"
      ],
      [
        "a",
        "r"
      ],
      [
        "o",
        "r"
      ],
      [
        "Ġ",
        "s"
      ],
      [
        "Ġ",
        "c"
      ],
      [
        "e",
        "s"
      ],
      [
        "i",
        "t"
      ],
      [
        "i",
        "s"
      ],
      [
        "a",
        "l"
      ],
      [
        "Ġ",
        "f"
      ],
      [
        "Ġ",
        "in"
      ],
      [
        "Ġo",
        "f"
      ],
      [
        "Ġa",
        "n"
      ],
      [
        "Ġ",
        "p"
      ],
      [
        "a",
        "s"
      ],
      [
        "Ġt",
        "o"
      ],
      [
        "Ġ",
        "b"
      ],
      [
        "in",
        "g"
      ],
      [
        "i",
        "c"
      ],
      [
        "Ġan",
        "d"
      ],
      [
        "r",
        "o"
      ],
      [
        "i",
        "on"
      ],
      [
        "Ġ",
        "m"
      ],
      [
        "Ġ",
        "d"
      ],
      [
        "o",
        "u"
      ],
      [
        "l",
        "e"
      ],
      [
        "Ġ",
        "h"
      ],
      [
        "Ġ",
        "T"
      ],
      [
        "Ġ",
        "1"
      ],
      [
        "Ġ",
        "S"
      ],
      [
        "Ġ",
        "C"
      ],
      [
        "Ġ",
        "A"
      ],
      [
        "e",
        "l"
      ],
      [
        "en",
        "t"
      ],
      [
        "s",
        "t"
      ],
      [
        "i",
        "l"
      ],
      [
        "o",
        "m"
      ],
      [
        "a",
        "m"
      ],
      [
        "Ġt",
        "h"
      ],
      [
        "Ġ",
        "re"
      ],
      [
        "Ġ",
        "l"
      ],
      [
        "Ġ",
        "g"
      ],
      [
        "i",
        "d"
      ],
      [
        "Ġ",
        "B"
      ],
      [
        "a",
        "d"
      ],
      [
        "a",
        "c"
      ],
      [
        "o",
        "l"
      ],
      [
        "Ġ",
        "M"
      ],
      [
        "o",
        "w"
      ],
      [
        "Ġ",
        "n"
      ],
      [
        "u",
        "s"
      ],
      [
        "Ġ",
        "on"
      ],
      [
        "t",
        "er"
      ],
      [
        "Ġc",
        "on"
      ],
      [
        "e",
        "c"
      ],
      [
        "i",
        "r"
      ],
      [
        "e",
        "x"
      ],
      [
        "Ġ",
        "2"
      ],
      [
        "e",
        "t"
      ],
      [
        "Ġ",
        "I"
      ],
      [
        "u",
        "r"
      ],
      [
        "u",
        "n"
      ],
      [
        "i",
        "v"
      ],
      [
        "Ġ",
        "P"
      ],
      [
        "at",
        "ion"
      ],
      [
        "o",
        "t"
      ],
      [
        "Ġw",
        "as"
      ],
      [
        "Ġf",
        "or"
      ],
      [
        "Ġ",
        "R"
      ],
      [
        "it",
        "h"
      ],
      [
        "ĠT",
        "he"
      ],
      [
        "l",
        "y"
      ],
      [
        "i",
        "m"
      ],
      [
        "c",
        "h"
      ],
      [
        "ar",
        "d"
      ],
      [
        "u",
        "t"
      ],
      [
        "Ġ",
        "is"
      ],
      [
        "Ġ",
        "("
      ],
      [
        "i",
        "g"
      ],
      [
        "Ġw",
        "ith"
      ],
      [
        "er",
        "s"
      ],
      [
        "a",
        "y"
      ],
      [
        "Ġ",
        "H"
      ],
      [
        "Ġcon",
        "t"
      ],
      [
        "Ġa",
        "s"
      ],
      [
        "0",
        "0"
      ],
      [
        "c",
        "e"
      ],
      [
        "Ġ",
        "D"
      ],
      [
        "a",
        "v"
      ],
      [
        "e",
        "m"
      ],
      [
        "Ġ",
        "W"
      ],
      [
        "v",
        "er"
      ],
      [
        "Ġ",
        "F"
      ],
      [
        "ex",
        "t"
      ],
      [
        "he",
        "r"
      ],
      [
        "Ġs",
        "t"
      ],
      [
        "Ġ",
        "G"
      ],
      [
        "q",
        "u"
      ],
      [
        "es",
        "t"
      ],
      [
        "u",
        "l"
      ],
      [
        "t",
        "h"
      ],
      [
        "Ġ",
        "L"
      ],
      [
        "Ġ",
        "N"
      ],
      [
        "Ġ",
        "E"
      ],
      [
        "Ġth",
        "at"
      ],
      [
        "Ġ",
        "J"
      ],
      [
        "an",
        "d"
      ],
      [
        "o",
        "s"
      ],
      [
        "o",
        "p"
      ],
      [
        "Ġb",
        "y"
      ],
      [
        "Ġb",
        "e"
      ],
      [
        "Ġw",
        "h"
      ],
      [
        "Ġcont",
        "ext"
      ],
      [
        "a",
        "g"
      ],
      [
        "Ġ",
        "r"
      ],
      [
        "Ġ",
        "e"
      ],
      [
        "a",
        "in"
      ],
      [
        "Ġ1",
        "9"
      ],
      [
        "Ġp",
        "ro"
      ],
      [
        "t",
        "s"
      ],
      [
        "at",
        "e"
      ],
      [
        "Ġa",
        "l"
      ],
      [
        "y",
        "ard"
      ],
      [
        "ro",
        "m"
      ],
      [
        "r",
        "i"
      ],
      [
        "'",
        "s"
      ],
      [
        "ĠI",
        "n"
      ],
      [
        "u",
        "m"
      ],
      [
        "c",
        "t"
      ],
      [
        "o",
        "re"
      ],
      [
        "Ġf",
        "rom"
      ],
      [
        "Ġa",
        "t"
      ],
      [
        "is",
        "t"
      ],
      [
        "Ġ",
        "O"
      ],
      [
        "Ġ",
        "it"
      ],
      [
        "Ġ",
        "he"
      ],
      [
        "g",
        "h"
      ],
      [
        "l",
        "d"
      ],
      [
        "o",
        "d"
      ],
      [
        "Ġc",
        "om"
      ],
      [
        "or",
        "d"
      ],
      [
        "Ġ",
        "qu"
      ],
      [
        "ou",
        "n"
      ],
      [
        "i",
        "an"
      ],
      [
        "u",
        "p"
      ],
      [
        "a",
        "p"
      ],
      [
        "c",
        "c"
      ],
      [
        "av",
        "e"
      ],
      [
        "Ġo",
        "r"
      ],
      [
        "it",
        "y"
      ],
      [
        "a",
        "k"
      ],
      [
        "Ġ",
        "en"
      ],
      [
        "il",
        "l"
      ],
      [
        "Ġa",
        "re"
      ],
      [
        "i",
        "es"
      ],
      [
        "er",
        "e"
      ],
      [
        "i",
        "f"
      ],
      [
        "Ġd",
        "e"
      ],
      [
        "am",
        "e"
      ],
      [
        "al",
        "l"
      ],
      [
        "ic",
        "h"
      ],
      [
        "a",
        "b"
      ],
      [
        "Ġ",
        "v"
      ],
      [
        "â",
        "Ģ"
      ],
      [
        "Ġ",
        "\""
      ],
      [
        "as",
        "s"
      ],
      [
        "Ġw",
        "ere"
      ],
      [
        "re",
        "s"
      ],
      [
        "Ġ",
        "K"
      ],
      [
        "ow",
        "n"
      ],
      [
        "e",
        "ar"
      ],
      [
        "Ġ",
        "k"
      ],
      [
        "Ġ",
        "U"
      ],
      [
        "i",
        "a"
      ],
      [
        "Ġh",
        "ave"
      ],
      [
        "Ġ",
        "3"
      ],
      [
        "ac",
        "k"
      ],
      [
        "ar",
        "t"
      ],
      [
        "Ġ",
        "le"
      ],
      [
        "b",
        "er"
      ],
      [
        "ig",
        "h"
      ],
      [
        "Ġg",
        "o"
      ],
      [
        "e",
        "w"
      ],
      [
        "ĠS",
        "t"
      ],
      [
        "u",
        "ch"
      ],
      [
        "o",
        "c"
      ],
      [
        "iv",
        "e"
      ],
      [
        "ĠC",
        "h"
      ],
      [
        "us",
        "e"
      ],
      [
        "es",
        "s"
      ],
      [
        "u",
        "d"
      ],
      [
        "or",
        "t"
      ],
      [
        "or",
        "y"
      ],
      [
        "Ġ2",
        "0"
      ],
      [
        "an",
        "t"
      ],
      [
        "as",
        "ed"
      ],
      [
        "s",
        "e"
      ],
      [
        "or",
        "m"
      ],
      [
        "Ġp",
        "l"
      ],
      [
        "ir",
        "st"
      ],
      [
        "Ġ",
        "un"
      ],
      [
        "ou",
        "r"
      ],
      [
        "Ġh",
        "is"
      ],
      [
        "i",
        "al"
      ],
      [
        "is",
        "h"
      ],
      [
        "o",
        "v"
      ],
      [
        "o",
        "st"
      ],
      [
        "ou",
        "gh"
      ],
      [
        "Ġ",
        "4"
      ],
      [
        "as",
        "t"
      ],
      [
        "an",
        "y"
      ],
      [
        "W",
        "h"
      ],
      [
        "on",
        "g"
      ],
      [
        "Ġthe",
        "ir"
      ],
      [
        "at",
        "ed"
      ],
      [
        "Ġf",
        "irst"
      ],
      [
        "u",
        "b"
      ],
      [
        "m",
        "ent"
      ],
      [
        "Ġ",
        "y"
      ],
      [
        "el",
        "l"
      ],
      [
        "Ġs",
        "e"
      ],
      [
        "t",
        "her"
      ],
      [
        "g",
        "e"
      ],
      [
        "on",
        "d"
      ],
      [
        "Ġ",
        "ex"
      ],
      [
        "i",
        "el"
      ],
      [
        "an",
        "s"
      ],
      [
        "Ġc",
        "h"
      ],
      [
        "om",
        "e"
      ],
      [
        "ar",
        "y"
      ],
      [
        "Ġn",
        "ot"
      ],
      [
        "ar",
        "ter"
      ],
      [
        "Ġ",
        "V"
      ],
      [
        "ord",
        "ing"
      ],
      [
        "i",
        "e"
      ],
      [
        "i",
        "p"
      ],
      [
        "iel",
        "d"
      ],
      [
        "Ġwh",
        "ich"
      ],
      [
        "Ġ2",
        "00"
      ],
      [
        "f",
        "orm"
      ],
      [
        "Ġpro",
        "v"
      ],
      [
        "p",
        "t"
      ],
      [
        "Ġcom",
        "p"
      ],
      [
        "cc",
        "ording"
      ],
      [
        "ion",
        "s"
      ],
      [
        "u",
        "st"
      ],
      [
        "ec",
        "t"
      ],
      [
        "Ġh",
        "ad"
      ],
      [
        "âĢ",
        "ĵ"
      ],
      [
        "u",
        "re"
      ],
      [
        "he",
        "n"
      ],
      [
        "ic",
        "k"
      ],
      [
        "ou",
        "ld"
      ],
      [
        "ic",
        "al"
      ],
      [
        "Ġqu",
        "arter"
      ],
      [
        "Ġt",
        "r"
      ],
      [
        "o",
        "k"
      ],
      [
        "Ġs",
        "p"
      ],
      [
        "in",
        "e"
      ],
      [
        "igh",
        "t"
      ],
      [
        "o",
        "g"
      ],
      [
        "id",
        "e"
      ],
      [
        "f",
        "ter"
      ],
      [
        "Ġs",
        "h"
      ],
      [
        "en",
        "d"
      ],
      [
        "Ġ20",
        "1"
      ],
      [
        "Ġp",
        "ass"
      ],
      [
        "A",
        "ccording"
      ],
      [
        "r",
        "y"
      ],
      [
        "Ġf",
        "ield"
      ],
      [
        "en",
        "s"
      ],
      [
        "s",
        "o"
      ],
      [
        "Ġin",
        "c"
      ],
      [
        "B",
        "ased"
      ],
      [
        "f",
        "f"
      ],
      [
        "id",
        "ed"
      ],
      [
        "Ġs",
        "c"
      ],
      [
        "m",
        "er"
      ],
      [
        "Ġgo",
        "al"
      ],
      [
        "ou",
        "s"
      ],
      [
        "im",
        "e"
      ],
      [
        "r",
        "it"
      ],
      [
        "ag",
        "e"
      ],
      [
        "d",
        "er"
      ],
      [
        "ou",
        "t"
      ],
      [
        "a",
        "re"
      ],
      [
        "'",
        "t"
      ],
      [
        "Ġb",
        "ut"
      ],
      [
        "i",
        "re"
      ],
      [
        "ĠU",
        "n"
      ],
      [
        "Ġa",
        "b"
      ],
      [
        "Ġm",
        "any"
      ],
      [
        "Ġre",
        "s"
      ],
      [
        ")",
        ","
      ],
      [
        "Ġ",
        "5"
      ],
      [
        "d",
        "own"
      ],
      [
        "ĠT",
        "h"
      ],
      [
        "oun",
        "t"
      ],
      [
        "u",
        "e"
      ],
      [
        "Ġd",
        "on"
      ],
      [
        "an",
        "g"
      ],
      [
        "Ġto",
        "uch"
      ],
      [
        "re",
        "f"
      ],
      [
        "Ġa",
        "r"
      ],
      [
        "p",
        "p"
      ],
      [
        "1",
        "9"
      ],
      [
        "form",
        "ation"
      ],
      [
        "at",
        "es"
      ],
      [
        "u",
        "c"
      ],
      [
        "Ġtouch",
        "down"
      ],
      [
        "l",
        "and"
      ],
      [
        "Ġin",
        "t"
      ],
      [
        "a",
        "w"
      ],
      [
        "Ġa",
        "g"
      ],
      [
        "T",
        "he"
      ],
      [
        "or",
        "k"
      ],
      [
        "Ġin",
        "formation"
      ],
      [
        "Ġh",
        "as"
      ],
      [
        "s",
        "w"
      ],
      [
        "e",
        "p"
      ],
      [
        "Ġal",
        "so"
      ],
      [
        "i",
        "z"
      ],
      [
        "Ġen",
        "ough"
      ],
      [
        "Ġc",
        "l"
      ],
      [
        "i",
        "k"
      ],
      [
        "Ġprov",
        "ided"
      ],
      [
        "Ġp",
        "er"
      ],
      [
        "Ġd",
        "id"
      ],
      [
        "Ġ1",
        "8"
      ],
      [
        "Wh",
        "at"
      ],
      [
        "ate",
        "g"
      ],
      [
        "p",
        "er"
      ],
      [
        "Ġy",
        "ear"
      ],
      [
        "ac",
        "e"
      ],
      [
        "Ġ",
        "us"
      ],
      [
        "w",
        "o"
      ],
      [
        "re",
        "n"
      ],
      [
        "Ġp",
        "e"
      ],
      [
        "f",
        "er"
      ],
      [
        "at",
        "er"
      ],
      [
        "Ġan",
        "sw"
      ],
      [
        "Ġansw",
        "er"
      ],
      [
        "ref",
        "use"
      ],
      [
        "|",
        ">"
      ],
      [
        "<",
        "|"
      ],
      [
        "al",
        "ly"
      ],
      [
        "ĠI",
        "t"
      ],
      [
        "Ġthe",
        "y"
      ],
      [
        "Ġal",
        "l"
      ],
      [
        "Ġle",
        "ad"
      ],
      [
        "en",
        "ce"
      ],
      [
        "ig",
        "n"
      ],
      [
        "Ġth",
        "is"
      ],
      [
        "a",
        "il"
      ],
      [
        "ateg",
        "ory"
      ],
      [
        "l",
        "es"
      ],
      [
        "op",
        "le"
      ],
      [
        "re",
        "e"
      ],
      [
        "Ġqu",
        "est"
      ],
      [
        "Ġit",
        "s"
      ],
      [
        "Ġb",
        "ec"
      ],
      [
        "ad",
        "e"
      ],
      [
        "Ġo",
        "ther"
      ],
      [
        "r",
        "a"
      ],
      [
        "Ġquest",
        "ion"
      ],
      [
        "Ġ",
        "ro"
      ],
      [
        "Ġs",
        "ec"
      ],
      [
        "Ġ",
        "Y"
      ],
      [
        "Ġ",
        "6"
      ],
      [
        "Ġon",
        "e"
      ],
      [
        "Ġa",
        "d"
      ],
      [
        "it",
        "ed"
      ],
      [
        "r",
        "an"
      ],
      [
        "ul",
        "t"
      ],
      [
        "un",
        "d"
      ],
      [
        "ic",
        "e"
      ],
      [
        "Ġw",
        "ould"
      ],
      [
        "ĠA",
        "n"
      ],
      [
        "e",
        "y"
      ],
      [
        "ation",
        "s"
      ],
      [
        "am",
        "p"
      ],
      [
        "Ġpl",
        "ay"
      ],
      [
        "Ġ",
        "up"
      ],
      [
        "oun",
        "d"
      ],
      [
        "i",
        "b"
      ],
      [
        "Ġwh",
        "o"
      ],
      [
        "he",
        "d"
      ],
      [
        "er",
        "m"
      ],
      [
        ")",
        "."
      ],
      [
        "Ġo",
        "ver"
      ],
      [
        "n",
        "ing"
      ],
      [
        "el",
        "y"
      ],
      [
        "Ġt",
        "wo"
      ],
      [
        "u",
        "g"
      ],
      [
        "c",
        "es"
      ],
      [
        "ĠH",
        "e"
      ],
      [
        "ak",
        "e"
      ],
      [
        "Ġ",
        "7"
      ],
      [
        "Ġ",
        "im"
      ],
      [
        "i",
        "le"
      ],
      [
        "Ġof",
        "f"
      ],
      [
        "ac",
        "h"
      ],
      [
        "ol",
        "l"
      ],
      [
        "w",
        "n"
      ],
      [
        "Ġg",
        "ame"
      ],
      [
        "ic",
        "an"
      ],
      [
        "u",
        "gh"
      ],
      [
        "Ġm",
        "ore"
      ],
      [
        "ol",
        "d"
      ],
      [
        "ter",
        "n"
      ],
      [
        "ĠA",
        "l"
      ],
      [
        "p",
        "ort"
      ],
      [
        "ac",
        "t"
      ],
      [
        "Ġo",
        "ut"
      ],
      [
        "Ġp",
        "art"
      ],
      [
        "Ġpe",
        "ople"
      ],
      [
        "it",
        "ion"
      ],
      [
        "Ġa",
        "fter"
      ],
      [
        "i",
        "ed"
      ],
      [
        "t",
        "ing"
      ],
      [
        "o",
        "in"
      ],
      [
        "p",
        "l"
      ],
      [
        "em",
        "ber"
      ],
      [
        "ĠA",
        "r"
      ],
      [
        "Ġre",
        "c"
      ],
      [
        "Ġw",
        "hen"
      ],
      [
        "ic",
        "t"
      ],
      [
        "l",
        "ud"
      ],
      [
        "al",
        "s"
      ],
      [
        "w",
        "e"
      ],
      [
        "Ġsec",
        "ond"
      ],
      [
        "Ġ",
        "j"
      ],
      [
        "Ġr",
        "un"
      ],
      [
        "in",
        "d"
      ],
      [
        "Ġc",
        "an"
      ],
      [
        "00",
        "0"
      ],
      [
        "ur",
        "ing"
      ],
      [
        "o",
        "y"
      ],
      [
        "2",
        "0"
      ],
      [
        "r",
        "on"
      ],
      [
        "ro",
        "p"
      ],
      [
        "H",
        "ow"
      ],
      [
        "h",
        "n"
      ],
      [
        "e",
        "e"
      ],
      [
        "Ġint",
        "o"
      ],
      [
        "Ġd",
        "is"
      ],
      [
        "as",
        "on"
      ],
      [
        "o",
        "b"
      ],
      [
        "Ġd",
        "o"
      ],
      [
        "le",
        "ct"
      ],
      [
        "ation",
        "al"
      ],
      [
        "Ġt",
        "e"
      ],
      [
        "ar",
        "k"
      ],
      [
        "o",
        "ver"
      ],
      [
        "C",
        "ategory"
      ],
      [
        "Ġ",
        "8"
      ],
      [
        "Ġm",
        "ost"
      ],
      [
        "it",
        "e"
      ],
      [
        "ent",
        "s"
      ],
      [
        "at",
        "h"
      ],
      [
        "Ġt",
        "ime"
      ],
      [
        "ĠT",
        "D"
      ],
      [
        "Ġbe",
        "en"
      ],
      [
        "Ġag",
        "ain"
      ],
      [
        "Ġg",
        "ro"
      ],
      [
        "er",
        "v"
      ],
      [
        "ĠR",
        "e"
      ],
      [
        "op",
        "ul"
      ],
      [
        "Ġp",
        "r"
      ],
      [
        "or",
        "s"
      ],
      [
        "e",
        "ver"
      ],
      [
        "t",
        "on"
      ],
      [
        "t",
        "ed"
      ],
      [
        "ĠE",
        "n"
      ],
      [
        "Ġab",
        "out"
      ],
      [
        "Ġ19",
        "9"
      ],
      [
        "or",
        "ld"
      ],
      [
        "Ġinc",
        "lud"
      ],
      [
        "Ġon",
        "ly"
      ],
      [
        "ub",
        "l"
      ],
      [
        "Ġen",
        "d"
      ],
      [
        "re",
        "at"
      ],
      [
        "ur",
        "n"
      ],
      [
        "f",
        "t"
      ],
      [
        "Ġc",
        "ent"
      ],
      [
        "he",
        "re"
      ],
      [
        "res",
        "s"
      ],
      [
        "Ġth",
        "an"
      ],
      [
        "ar",
        "g"
      ],
      [
        "s",
        "on"
      ],
      [
        "at",
        "t"
      ],
      [
        "e",
        "b"
      ],
      [
        "ĠA",
        "mer"
      ],
      [
        "Ġcom",
        "m"
      ],
      [
        "u",
        "ct"
      ],
      [
        "os",
        "s"
      ],
      [
        "ĠN",
        "ew"
      ],
      [
        "Ġk",
        "ick"
      ],
      [
        "Ġp",
        "opul"
      ],
      [
        "ing",
        "s"
      ],
      [
        "iv",
        "ers"
      ],
      [
        "an",
        "ce"
      ],
      [
        "Ġ",
        "her"
      ],
      [
        "Ġb",
        "et"
      ],
      [
        "yard",
        "s"
      ],
      [
        "Ġ",
        "Q"
      ],
      [
        "Ġe",
        "v"
      ],
      [
        "os",
        "e"
      ],
      [
        "il",
        "d"
      ],
      [
        "Ġat",
        "t"
      ],
      [
        "Ġ1",
        "7"
      ],
      [
        "Ġe",
        "ar"
      ],
      [
        "Ġde",
        "f"
      ],
      [
        "Ġ1",
        "0"
      ],
      [
        "ĠM",
        "ar"
      ],
      [
        "Ġa",
        "pp"
      ],
      [
        "g",
        "an"
      ],
      [
        "in",
        "ce"
      ],
      [
        "Ġk",
        "n"
      ],
      [
        "v",
        "el"
      ],
      [
        "Ġ",
        "9"
      ],
      [
        "Ġsc",
        "ore"
      ],
      [
        "w",
        "ard"
      ],
      [
        "Â",
        "ł"
      ],
      [
        "Ġyear",
        "s"
      ],
      [
        "Ġc",
        "ount"
      ],
      [
        "Ġm",
        "ade"
      ],
      [
        "Ġre",
        "g"
      ],
      [
        "ir",
        "d"
      ],
      [
        "we",
        "en"
      ],
      [
        "ĠO",
        "n"
      ],
      [
        "ab",
        "le"
      ],
      [
        "Ġin",
        "ter"
      ],
      [
        "Ġ",
        "Ċ"
      ],
      [
        "Ġ",
        "yards"
      ],
      [
        "Ġre",
        "t"
      ],
      [
        "on",
        "s"
      ],
      [
        "Ġf",
        "our"
      ],
      [
        "on",
        "e"
      ],
      [
        "Ġcomp",
        "le"
      ],
      [
        "Ġp",
        "re"
      ],
      [
        "a",
        "id"
      ],
      [
        "Ġ1",
        "5"
      ],
      [
        "t",
        "e"
      ],
      [
        "Ġm",
        "e"
      ],
      [
        "Ġw",
        "in"
      ],
      [
        "ĠS",
        "e"
      ],
      [
        "o",
        "ok"
      ],
      [
        "Ġthe",
        "re"
      ],
      [
        "Ġb",
        "ack"
      ],
      [
        "Ġ",
        "-"
      ],
      [
        "Ġus",
        "ed"
      ],
      [
        "Ġ1",
        "6"
      ],
      [
        "Ġw",
        "ork"
      ],
      [
        "ĠTh",
        "is"
      ],
      [
        "ro",
        "ugh"
      ],
      [
        "Ġbet",
        "ween"
      ],
      [
[...]
