{
  "version": "1.0",
  "truncation": null,
  "padding": null,
  "added_tokens": [
    {
      "id": 0,
      "content": "<|pad|>",
      "single_word": false,
      "lstrip": false,
      "rstrip": false,
      "normalized": false,
      "special": true
    },
    {
      "id": 1,
      "content": "<|eos|>",
      "single_word": false,
      "lstrip": false,
      "rstrip": false,
      "normalized": false,
      "special": true
    },
    {
      "id": 2,
      "content": "<|context|>",
      "single_word": false,
      "lstrip": false,
      "rstrip": false,
      "normalized": false,
      "special": true
    },
    {
      "id": 3,
      "content": "<|tools|>",
      "single_word": false,
      "lstrip": false,
      "rstrip": false,
      "normalized": false,
      "special": true
    },
    {
      "id": 4,
      "content": "<|user|>",
      "single_word": false,
      "lstrip": false,
      "rstrip": false,
      "normalized": false,
      "special": true
    },
    {
      "id": 5,
      "content": "<|assistant|>",
      "single_word": false,
      "lstrip": false,
      "rstrip": false,
      "normalized": false,
      "special": true
    },
    {
      "id": 6,
      "content": "<|tool_call|>",
      "single_word": false,
      "lstrip": false,
      "rstrip": false,
      "normalized": false,
      "special": true
    },
    {
      "id": 7,
      "content": "<|source|>",
      "single_word": false,
      "lstrip": false,
      "rstrip": false,
      "normalized": false,
      "special": true
    },
    {
      "id": 8,
      "content": "<|refuse|>",
      "single_word": false,
      "lstrip": false,
      "rstrip": false,
      "normalized": false,
      "special": true
    }
  ],
  "normalizer": null,
  "pre_tokenizer": {
    "type": "ByteLevel",
    "add_prefix_space": false,
    "trim_offsets": true,
    "use_regex": true
  },
  "post_processor": null,
  "decoder": {
    "type": "ByteLevel",
    "add_prefix_space": true,
    "trim_offsets": true,
    "use_regex": true
  },
  "model": {
    "type": "BPE",
    "dropout": null,
    "unk_token": null,
    "continuing_subword_prefix": null,
    "end_of_word_suffix": null,
    "fuse_unk": false,
    "byte_fallback": false,
    "ignore_merges": false,
    "vocab": {
      "<|pad|>": 0,
      "<|eos|>": 1,
      "<|context|>": 2,
      "<|tools|>": 3,
      "<|user|>": 4,
      "<|assistant|>": 5,
      "<|tool_call|>": 6,
      "<|source|>": 7,
      "<|refuse|>": 8,
      "!": 9,
      "\"": 10,
      "#": 11,
      "$": 12,
      "%": 13,
      "&": 14,
      "'": 15,
      "(": 16,
      ")": 17,
      "*": 18,
      "+": 19,
      ",": 20,
      "-": 21,
      ".": 22,
      "/": 23,
      "0": 24,
      "1": 25,
      "2": 26,
      "3": 27,
      "4": 28,
      "5": 29,
      "6": 30,
      "7": 31,
      "8": 32,
      "9": 33,
      ":": 34,
      ";": 35,
      "<": 36,
      "=": 37,
      ">": 38,
      "?": 39,
      "@": 40,
      "A": 41,
      "B": 42,
      "C": 43,
      "D": 44,
      "E": 45,
      "F": 46,
      "G": 47,
      "H": 48,
      "I": 49,
      "J": 50,
      "K": 51,
      "L": 52,
      "M": 53,
      "N": 54,
      "O": 55,
      "P": 56,
      "Q": 57,
      "R": 58,
      "S": 59,
      "T": 60,
      "U": 61,
      "V": 62,
      "W": 63,
      "X": 64,
      "Y": 65,
      "Z": 66,
      "[": 67,
      "\\": 68,
      "]": 69,
      "^": 70,
      "_": 71,
      "`": 72,
      "a": 73,
      "b": 74,
      "c": 75,
      "d": 76,
      "e": 77,
      "f": 78,
      "g": 79,
      "h": 80,
      "i": 81,
      "j": 82,
      "k": 83,
      "l": 84,
      "m": 85,
      "n": 86,
      "o": 87,
      "p": 88,
      "q": 89,
      "r": 90,
      "s": 91,
      "t": 92,
      "u": 93,
      "v": 94,
      "w": 95,
      "x": 96,
      "y": 97,
      "z": 98,
      "{": 99,
      "|": 100,
      "}": 101,
      "~": 102,
      "¡": 103,
      "¢": 104,
      "£": 105,
      "¤": 106,
      "¥": 107,
      "¦": 108,
      "§": 109,
      "¨": 110,
      "©": 111,
      "ª": 112,
      "«": 113,
      "¬": 114,
      "®": 115,
      "¯": 116,
      "°": 117,
      "±": 118,
      "²": 119,
      "³": 120,
      "´": 121,
      "µ": 122,
      "¶": 123,
      "·": 124,
      "¸": 125,
      "¹": 126,
      "º": 127,
      "»": 128,
      "¼": 129,
      "½": 130,
      "¾": 131,
      "¿": 132,
      "Â": 133,
      "Ã": 134,
      "Ä": 135,
      "Å": 136,
      "Æ": 137,
      "Ç": 138,
      "È": 139,
      "É": 140,
      "Ê": 141,
      "Ë": 142,
      "Ì": 143,
      "Í": 144,
      "Î": 145,
      "Ï": 146,
      "Ð": 147,
      "Ñ": 148,
      "Ò": 149,
      "Ó": 150,
      "Ô": 151,
      "Õ": 152,
      "Ö": 153,
      "×": 154,
      "Ø": 155,
      "Ù": 156,
      "Ú": 157,
      "Û": 158,
      "Ü": 159,
      "à": 160,
      "á": 161,
      "â": 162,
      "ã": 163,
      "ä": 164,
      "å": 165,
      "æ": 166,
      "ç": 167,
      "è": 168,
      "é": 169,
      "ê": 170,
      "ë": 171,
      "ì": 172,
      "í": 173,
      "ï": 174,
      "ð": 175,
      "Ċ": 176,
      "Ġ": 177,
      "Ģ": 178,
      "ģ": 179,
      "Ĥ": 180,
      "ĥ": 181,
      "Ħ": 182,
      "ħ": 183,
      "Ĩ": 184,
      "ĩ": 185,
      "Ī": 186,
      "ī": 187,
      "Ĭ": 188,
      "ĭ": 189,
      "Į": 190,
      "į": 191,
      "İ": 192,
      "ı": 193,
      "Ĳ": 194,
      "ĳ": 195,
      "Ĵ": 196,
      "ĵ": 197,
      "Ķ": 198,
      "ķ": 199,
      "ĸ": 200,
      "Ĺ": 201,
      "ĺ": 202,
      "Ļ": 203,
      "ļ": 204,
      "Ľ": 205,
      "ľ": 206,
      "Ŀ": 207,
      "ŀ": 208,
      "Ł": 209,
      "ł": 210,
      "Ń": 211,
      "Ġt": 212,
      "he": 213,
      "in": 214,
      "Ġa": 215,
      "Ġthe": 216,
      "on": 217,
      "er": 218,
      "re": 219,
      "ar": 220,
      "at": 221,
      "ed": 222,
      "Ġo": 223,
      "an": 224,
      "Ġw": 225,
      "en": 226,
      "Ġc": 227,
      "Ġs": 228,
      "es": 229,
      "or": 230,
      "it": 231,
      "Ġf": 232,
      "Ġp": 233,
      "al": 234,
      "Ġin": 235,
      "Ġto": 236,
      "ing": 237,
      "is": 238,
      "Ġof": 239,
      "Ġan": 240,
      "as": 241,
      "ion": 242,
      "ou": 243,
      "Ġb": 244,
      "ic": 245,
      "Ġand": 246,
      "Ġm": 247,
      "Ġd": 248,
      "Ġ\"": 249,
      "om": 250,
      "le": 251,
      "Ġ1": 252,
      "Ġh": 253,
      "ĠT": 254,
      "st": 255,
      "am": 256,
      "ce": 257,
      "el": 258,
      "et": 259,
      "ent": 260,
      "\":": 261,
      "Ġl": 262,
      "ow": 263,
      "Ġg": 264,
      "ri": 265,
      "Ġre": 266,
      "ĠS": 267,
      "Ġth": 268,
      "ĠC": 269,
      "il": 270,
      "ra": 271,
      "ex": 272,
      "ĠA": 273,
      "ol": 274,
      "Ġcon": 275,
      "Ġon": 276,
      "ter": 277,
      "ch": 278,
      "Ġn": 279,
      "ro": 280,
      "ag": 281,
      "ĠB": 282,
      "ir": 283,
      "id": 284,
      "ver": 285,
      "un": 286,
      "ard": 287,
      "ad": 288,
      "Ġfor": 289,
      "ur": 290,
      "ith": 291,
      "ation": 292,
      "ec": 293,
      "us": 294,
      "tion": 295,
      "ĠM": 296,
      "im": 297,
      "ĠI": 298,
      "ly": 299,
      "Ġwith": 300,
      "our": 301,
      "ve": 302,
      "ot": 303,
      "Ġ2": 304,
      "Ġwas": 305,
      "ers": 306,
      "ĠThe": 307,
      "Ġcont": 308,
      "ext": 309,
      "ĠP": 310,
      "Ġe": 311,
      "ĠR": 312,
      "Ġas": 313,
      "qu": 314,
      "Ġis": 315,
      "ut": 316,
      "yard": 317,
      "ac": 318,
      "ay": 319,
      "gh": 320,
      "\",": 321,
      "Ġpar": 322,
      "ph": 323,
      "her": 324,
      "ul": 325,
      "Ġst": 326,
      "{\"": 327,
      "Ġ(": 328,
      "th": 329,
      "ĠW": 330,
      "ame": 331,
      "Ġcontext": 332,
      "Ġ{\"": 333,
      "ource": 334,
      "Ġby": 335,
      "os": 336,
      "Ġwh": 337,
      "ĠD": 338,
      "rom": 339,
      "ĠF": 340,
      "Ġthat": 341,
      "Ġbe": 342,
      "ĠH": 343,
      "ord": 344,
      "00": 345,
      "ĠG": 346,
      "and": 347,
      "ts": 348,
      "Ġ[": 349,
      "ĠE": 350,
      "op": 351,
      "source": 352,
      "ĠJ": 353,
      "ate": 354,
      "raph": 355,
      "oun": 356,
      "ption": 357,
      "ĠN": 358,
      "own": 359,
      "agraph": 360,
      "Ġparagraph": 361,
      "esc": 362,
      "ĠL": 363,
      "Ġal": 364,
      "Ġqu": 365,
      "ore": 366,
      "'s": 367,
      "um": 368,
      "ain": 369,
      "ĠIn": 370,
      "escri": 371,
      "pe": 372,
      "Ġit": 373,
      "Ġcom": 374,
      "Ġfrom": 375,
      "em": 376,
      "escription": 377,
      "description": 378,
      "Ġat": 379,
      "cc": 380,
      "est": 381,
      "ld": 382,
      "Ġr": 383,
      "ass": 384,
      "Ġpro": 385,
      "ity": 386,
      "Ġgo": 387,
      "ty": 388,
      "ian": 389,
      "uch": 390,
      "Ġor": 391,
      "ist": 392,
      "ere": 393,
      "Ġde": 394,
      "Ġare": 395,
      "od": 396,
      "ak": 397,
      "Ġle": 398,
      "Ġhe": 399,
      "Ġk": 400,
      "se": 401,
      "Ġfi": 402,
      "res": 403,
      "Ġwere": 404,
      "Ġun": 405,
      "Ġ19": 406,
      "Ġ3": 407,
      "oc": 408,
      "all": 409,
      "ich": 410,
      "ack": 411,
      "iv": 412,
      "up": 413,
      "ĠO": 414,
      "ill": 415,
      "ig": 416,
      "Ġen": 417,
      "ted": 418,
      "}}": 419,
      "ab": 420,
      "ased": 421,
      "ies": 422,
      "if": 423,
      "ear": 424,
      "arter": 425,
      "Ġv": 426,
      "ans": 427,
      "Ġha": 428,
      "eld": 429,
      "ang": 430,
      "str": 431,
      "ond": 432,
      "Ġquarter": 433,
      "Ġex": 434,
      "irst": 435,
      "ish": 436,
      "Ġtheir": 437,
      "ment": 438,
      "Ġ4": 439,
      "ough": 440,
      "ew": 441,
      "Ġfirst": 442,
      "ia": 443,
      "Wh": 444,
      "ĠU": 445,
      "ording": 446,
      "ĠSt": 447,
      "ber": 448,
      "ess": 449,
      "ĠCh": 450,
      "ud": 451,
      "ccording": 452,
      "Ġfield": 453,
      "Ġpass": 454,
      "Ġpl": 455,
      "ther": 456,
      "ct": 457,
      "ĠK": 458,
      "down": 459,
      "Ġhave": 460,
      "ial": 461,
      "ap": 462,
      "type": 463,
      "Ġgoal": 464,
      "ost": 465,
      "Ġy": 466,
      "any": 467,
      "ick": 468,
      "Ġse": 469,
      "igh": 470,
      "Ġcomp": 471,
      "According": 472,
      "ive": 473,
      "ome": 474,
      "Based": 475,
      "ated": 476,
      "Ġtouch": 477,
      "ong": 478,
      "ant": 479,
      "ould": 480,
      "Ġtouchdown": 481,
      "ine": 482,
      "Ġhis": 483,
      "},": 484,
      "Ġwhich": 485,
      "Ġsc": 486,
      "ell": 487,
      "to": 488,
      "ub": 489,
      "par": 490,
      "ren": 491,
      "ical": 492,
      "ast": 493,
      "ok": 494,
      "ure": 495,
      "ound": 496,
      "use": 497,
      "ens": 498,
      "Ġag": 499,
      "hen": 500,
      "ort": 501,
      "string": 502,
      "age": 503,
      "Ġhad": 504,
      "orm": 505,
      "Ġch": 506,
      "Ġnot": 507,
      "arg": 508,
      "ie": 509,
      "we": 510,
      "uc": 511,
      "Ġinc": 512,
      "eters": 513,
      "fter": 514,
      "av": 515,
      "Ġsec": 516,
      "Ġtim": 517,
      "Ġ20": 518,
      "ĠBr": 519,
      "ting": 520,
      "Ġar": 521,
      "ary": 522,
      "ue": 523,
      "Ġbut": 524,
      "Ġlead": 525,
      "ip": 526,
      "name": 527,
      "ence": 528,
      "The": 529,
      "ous": 530,
      "Ġsh": 531,
      "so": 532,
      "end": 533,
      "ĠV": 534,
      "ide": 535,
      "ff": 536,
      "Ġmany": 537,
      "ry": 538,
      "Ġres": 539,
      "Ġsp": 540,
      "der": 541,
      "),": 542,
      "What": 543,
      "Ġinf": 544,
      "og": 545,
      "ameters": 546,
      "parameters": 547,
      "mer": 548,
      "Ġper": 549,
      "âĢ": 550,
      "Ġcl": 551,
      "out": 552,
      "Ġup": 553,
      "Ġgame": 554,
      "ep": 555,
      "ater": 556,
      "Ġ5": 557,
      "ition": 558,
      "ates": 559,
      "ik": 560,
      "Ġsecond": 561,
      "Ġwould": 562,
      "\"}}": 563,
      "ust": 564,
      "red": 565,
      "land": 566,
      "per": 567,
      "ĠTh": 568,
      "pl": 569,
      "ally": 570,
      "iz": 571,
      "Ġdid": 572,
      "low": 573,
      "wo": 574,
      "iver": 575,
      "Ġab": 576,
      "ree": 577,
      "Ġalso": 578,
      "ress": 579,
      "Ġoff": 580,
      "ning": 581,
      "Ġ200": 582,
      "Ġus": 583,
      "ount": 584,
      "ĠTD": 585,
      "Ġhas": 586,
      "Ġyear": 587,
      "Ġrun": 588,
      "Ġits": 589,
      "Ġdef": 590,
      "ĠUn": 591,
      "Ġthey": 592,
      "Ġover": 593,
      "Ġpe": 594,
      "Ġwor": 595,
      "ight": 596,
      "ace": 597,
      "Ġad": 598,
      "Ġother": 599,
      "Ġwe": 600,
      "Ġbet": 601,
      "Ġkick": 602,
      "ory": 603,
      "Ġprov": 604,
      "Ġim": 605,
      "ople": 606,
      "Ġout": 607,
      "Ġ'": 608,
      "Ġone": 609,
      "aw": 610,
      "ake": 611,
      "Ġtwo": 612,
      "ween": 613,
      "ations": 614,
      "Ġ18": 615,
      "ited": 616,
      "ect": 617,
      "ance": 618,
      "pp": 619,
      "hed": 620,
      "Ġthis": 621,
      "Ġmore": 622,
      "Ġwhen": 623,
      "Ġ6": 624,
      "Ġtime": 625,
      "ile": 626,
      "Ġ201": 627,
      "Ġinter": 628,
      "yards": 629,
      "Ġbec": 630,
      "erm": 631,
      "Ġbetween": 632,
      "Ġtra": 633,
      "Ġwho": 634,
      "\"}}},": 635,
      "oin": 636,
      "Ġscore": 637,
      "ng": 638,
      "ign": 639,
      "Ġplay": 640,
      "Ġgr": 641,
      "ided": 642,
      "rans": 643,
      "ov": 644,
      "Ġrec": 645,
      "ormation": 646,
      "ug": 647,
      "angu": 648,
      "ely": 649,
      "Ġinto": 650,
      "How": 651,
      "les": 652,
      "Ġall": 653,
      "Ġpeople": 654,
      "ib": 655,
      "als": 656,
      "fer": 657,
      ").": 658,
      "ade": 659,
      "Ġyards": 660,
      "ice": 661,
      "Ġagain": 662,
      "old": 663,
      "lud": 664,
      "Ġinformation": 665,
      "Ġafter": 666,
      "Ġlangu": 667,
      "Ġme": 668,
      "Ġend": 669,
      "Ġ7": 670,
      "ason": 671,
      "Ġev": 672,
      "ail": 673,
      "'t": 674,
      "ions": 675,
      "ult": 676,
      "ces": 677,
      "Ġte": 678,
      "ied": 679,
      "wer": 680,
      "Ġcan": 681,
      "Ġcomple": 682,
      "ind": 683,
      "ach": 684,
      "one": 685,
      "Ġra": 686,
      "Ġpop": 687,
      "ire": 688,
      "vel": 689,
      "oss": 690,
      "ever": 691,
      "uring": 692,
      "Ġonly": 693,
      "oy": 694,
      "Ġdis": 695,
      "te": 696,
      "amp": 697,
      "000": 698,
      "urn": 699,
      "Ġmost": 700,
      "Ġj": 701,
      "ĠY": 702,
      "ĠQ": 703,
      "Ġans": 704,
      "Ġexp": 705,
      "Ġdo": 706,
      "ĠIt": 707,
      "ath": 708,
      "ton": 709,
      "ks": 710,
      "Ġanswer": 711,
      "ird": 712,
      "Ġro": 713,
      "Ġpopul": 714,
      "Ġear": 715,
      "ents": 716,
      "\"},": 717,
      "Ġfour": 718,
      "ft": 719,
      "rent": 720,
      "Ġcount": 721,
      "ric": 722,
      "Ġthan": 723,
      "Ġpart": 724,
      "Ġinclud": 725,
      "ose": 726,
      "Ġcent": 727,
      "over": 728,
      "att": 729,
      "ins": 730,
      "Ġbeen": 731,
      "here": 732,
      "Ġback": 733,
      "ĠAn": 734,
      "ite": 735,
      "reat": 736,
      "Ġcomm": 737,
      "ref": 738,
      "ings": 739,
      "estion": 740,
      "Ġget": 741,
      "|>": 742,
      "<|": 743,
      "Ġwin": 744,
      "ob": 745,
      "Ġdon": 746,
      "Ġatt": 747,
      "ge": 748,
      "Ġenough": 749,
      "are": 750,
      "Ġ8": 751,
      "Ġquestion": 752,
      "ons": 753,
      "ĠAl": 754,
      "Ġprovided": 755,
      "Ġreg": 756,
      "ook": 757,
      "Ġret": 758,
      "Ġnum": 759,
      "âĢĵ": 760,
      "rit": 761,
      "Ġhal": 762,
      "meric": 763,
      "ather": 764,
      "Ġ10": 765,
      "gan": 766,
      "ollow": 767,
      "tern": 768,
      "Ġmade": 769,
      "Ġunder": 770,
      "ĠMar": 771,
      "Ġloc": 772,
      "lic": 773,
      "ational": 774,
      "ince": 775,
      "Ġ17": 776,
      "Ġimp": 777,
      "Ġyears": 778,
      "ne": 779,
      "urrent": 780,
      "Ġthere": 781,
      "Ġ9": 782,
      "Ġlarg": 783,
      "ĠNew": 784,
      "Ġthr": 785,
      "able": 786,
      "lish": 787,
      "ĠAmeric": 788,
      "Ġthird": 789,
      "duc": 790,
      "son": 791,
      "Ġunit": 792,
      "ors": 793,
      "refuse": 794,
      "Ġrel": 795,
      "ike": 796,
      "aid": 797,
      "Ġabout": 798,
      "Ġcons": 799,
      "Ġsuch": 800,
      "ran": 801,
      "ĠAr": 802,
      "Ġform": 803,
      "ism": 804,
      "Ġkn": 805,
      "Ġthem": 806,
      "Ġ15": 807,
      "Ġind": 808,
      "Ġused": 809,
      "Ġcall": 810,
      "erv": 811,
      "Ġele": 812,
      "Ġ16": 813,
      "Ġsome": 814,
      "Ġcity": 815,
      "owever": 816,
      "Ġnew": 817,
      "ĠJo": 818,
      "Ġlanguage": 819,
      "ek": 820,
      "hn": 821,
      "ury": 822,
      "Ġpre": 823,
      "ase": 824,
      "Ġfound": 825,
      "ĠThis": 826,
      "led": 827,
      "Ġsy": 828,
      "ĠEng": 829,
      "ransl": 830,
      "very": 831,
      "Ġfollow": 832,
      "back": 833,
      "Ġdec": 834,
      "pt": 835,
      "ression": 836,
      "ild": 837,
      "ĠStates": 838,
      "Ġrem": 839,
      "Ġkicker": 840,
      "Ġrece": 841,
      "ĠĊ": 842,
      "Ġstar": 843,
      "ution": 844,
      "Ġso": 845,
      "ivers": 846,
      "get": 847,
      "unit": 848,
      "ious": 849,
      "ction": 850,
      "ced": 851,
      "Ġ14": 852,
      "ese": 853,
      "day": 854,
      "Ġcol": 855,
      "Ġpopulation": 856,
      "Ġri": 857,
      "ĠAs": 858,
      "Ġher": 859,
      "Ġwhat": 860,
      "Ġne": 861,
      "In": 862,
      "Ġagainst": 863,
      "val": 864,
      "Ġearly": 865,
      "ots": 866,
      "oth": 867,
      "ark": 868,
      "Ġ12": 869,
      "ĠUnited": 870,
      "Ġpol": 871,
      "Ġcap": 872,
      "Ġfin": 873,
      "ward": 874,
      "olog": 875,
      "Ġword": 876,
      "Ġseason": 877,
      "Ġhome": 878,
      "ten": 879,
      "ics": 880,
      "illion": 881,
      "ris": 882,
      "ĠAfter": 883,
      "ĠInd": 884,
      "ower": 885,
      "por": 886,
      "Ġstr": 887,
      "Ġsup": 888,
      "Ġresp": 889,
      "Ġgot": 890,
      "uss": 891,
      "uro": 892,
      "way": 893,
      "ove": 894,
      "iss": 895,
      "ood": 896,
      "ranslate": 897,
      "Ġthree": 898,
      "Ġlong": 899,
      "Ġcalled": 900,
      "ams": 901,
      "outh": 902,
      "wn": 903,
      "orth": 904,
      "ĠHe": 905,
      "Ġduring": 906,
      "ific": 907,
      "ener": 908,
      "Ġhalf": 909,
      "Ġfourth": 910,
      "oup": 911,
      "other": 912,
      "ities": 913,
      "ĠLe": 914,
      "ger": 915,
      "ublic": 916,
      "ĠRe": 917,
      "aking": 918,
      "Ġph": 919,
      "vern": 920,
      "ĠDe": 921,
      "Ġwhile": 922,
      "stem": 923,
      "Ġtook": 924,
      "ool": 925,
      "Ġ13": 926,
      "Ġmake": 927,
      "ah": 928,
      "ensus": 929,
      "Ġthen": 930,
      "Ġwar": 931,
      "Ġdif": 932,
      "ĠPat": 933,
      "aj": 934,
      "Ġthrough": 935,
      "Âł": 936,
      "ages": 937,
      "act": 938,
      "Ġman": 939,
      "pan": 940,
      "ĠCol": 941,
      "ĠWar": 942,
      "Ġgovern": 943,
      "Ġsub": 944,
      "iet": 945,
      "gin": 946,
      "de": 947,
      "'\"}}},": 948,
      "Ġwork": 949,
      "ĠBrit": 950,
      "Ġpoin": 951,
      "ries": 952,
      "Ġcurrent": 953,
      "rew": 954,
      "ual": 955,
      "19": 956,
      "ĠOn": 957,
      "Ġem": 958,
      "ved": 959,
      "ouse": 960,
      "hem": 961,
      "Ġam": 962,
      "ists": 963,
      "rim": 964,
      "ĠEuro": 965,
      "ause": 966,
      "Ġhim": 967,
      "Ġac": 968,
      "Ġincre": 969,
      "Ġinv": 970,
      "Ġ199": 971,
      "ĠCom": 972,
      "Ġbl": 973,
      "ident": 974,
      "Ġmat": 975,
      "ĠJohn": 976,
      "ork": 977,
      "tim": 978,
      "ght": 979,
      "Ġset": 980,
      "fore": 981,
      "ered": 982,
      "Ġname": 983,
      "ĠSe": 984,
      "ative": 985,
      "ock": 986,
      "Ġwhere": 987,
      "ery": 988,
      "Ġdri": 989,
      "Ġsu": 990,
      "dition": 991,
      "ern": 992,
      "ames": 993,
      "ians": 994,
      "ĠEurope": 995,
      "lis": 996,
      "Ġstate": 997,
      "ĠQB": 998,
      "ĠGerm": 999,
      "ating": 1000,
      "Ġcontin": 1001,
      "ually": 1002,
      "ey": 1003,
      "Ġreturn": 1004,
      "Ġdown": 1005,
      "ina": 1006,
      "Ġshe": 1007,
      "Ġno": 1008,
      "ense": 1009,
      "Ġworld": 1010,
      "ĠHowever": 1011,
      "inc": 1012,
      "Ġany": 1013,
      "ĠPatri": 1014,
      "ets": 1015,
      "Ġlater": 1016,
      "ble": 1017,
      "ron": 1018,
      "Ġpres": 1019,
      "Ġsent": 1020,
      "hing": 1021,
      "ision": 1022,
      "sk": 1023,
      "con": 1024,
      "Who": 1025,
      "Ġuse": 1026,
      "Ġbu": 1027,
      "ium": 1028,
      "Ġstud": 1029,
      "ĠWR": 1030,
      "velop": 1031,
      "Ġgetting": 1032,
      "Ġsystem": 1033,
      "port": 1034,
      "ient": 1035,
      "ĠPatriots": 1036,
      "ily": 1037,
      "Ġmin": 1038,
      "Ġday": 1039,
      "io": 1040,
      "hes": 1041,
      "ale": 1042,
      "vers": 1043,
      "ier": 1044,
      "au": 1045,
      "Ġass": 1046,
      "Ġsince": 1047,
      "ix": 1048,
      "Ġbecame": 1049,
      "Ġest": 1050,
      "arch": 1051,
      "ĠSte": 1052,
      "ĠCar": 1053,
      "ict": 1054,
      "ments": 1055,
      "Ġspec": 1056,
      "onc": 1057,
      "Ġcentury": 1058,
      "iam": 1059,
      "Ġ-": 1060,
      "Ġgroup": 1061,
      "Ġ11": 1062,
      "oman": 1063,
      "Ġlike": 1064,
      "my": 1065,
      "Ġdiffer": 1066,
      "Ġfam": 1067,
      "vert": 1068,
      "Ġnumber": 1069,
      "ĠIs": 1070,
      "ular": 1071,
      "chool": 1072,
      "cent": 1073,
      "rad": 1074,
      "Ġ0": 1075,
      "hip": 1076,
      "Ġknown": 1077,
      "Ġsur": 1078,
      "Ġtri": 1079,
      "Ġbefore": 1080,
      "Ġmillion": 1081,
      "ĠAmerican": 1082,
      "earch": 1083,
      "Ġmet": 1084,
      "iod": 1085,
      "\".": 1086,
      "iving": 1087,
      "man": 1088,
      "alc": 1089,
      "ters": 1090,
      "Ġthese": 1091,
      "rol": 1092,
      "ĠWith": 1093,
      "ros": 1094,
      "Ġmay": 1095,
      "Ġdevelop": 1096,
      "ven": 1097,
      "from": 1098,
      "ccess": 1099,
      "lang": 1100,
      "ued": 1101,
      "Ġsm": 1102,
      "Ġmod": 1103,
      "uate": 1104,
      "Ġwell": 1105,
      "Ġloss": 1106,
      "ĠBrown": 1107,
      "ĠWe": 1108,
      "eng": 1109,
      "Ġcompleted": 1110,
      "Ġapp": 1111,
      "ajor": 1112,
      "Ġboth": 1113,
      "ĠPh": 1114,
      "Ġremain": 1115,
      "Ġext": 1116,
      "Ġgovernment": 1117,
      "abel": 1118,
      "Ġhist": 1119,
      "arget": 1120,
      "Ġcar": 1121,
      "Ġop": 1122,
      "Ġact": 1123,
      "word": 1124,
      "Ġlocation": 1125,
      "Ġmain": 1126,
      "ized": 1127,
      "Ġline": 1128,
      "ĠSh": 1129,
      "Ġap": 1130,
      "ĠCensus": 1131,
      "Ġmon": 1132,
      "ĠThey": 1133,
      "la": 1134,
      "ys": 1135,
      "10": 1136,
      "Ġscored": 1137,
      "gy": 1138,
      "Ġown": 1139,
      "Ġincluding": 1140,
      "panish": 1141,
      "Ġperiod": 1142,
      "ĠFor": 1143,
      "ural": 1144,
      "orn": 1145,
      "Ġbeing": 1146,
      "ful": 1147,
      "Ġcould": 1148,
      "ĠAt": 1149,
      "ru": 1150,
      "til": 1151,
      "uration": 1152,
      "Ġbegan": 1153,
      "attle": 1154,
      "ures": 1155,
      "ought": 1156,
      "Ġent": 1157,
      "rench": 1158,
      "Ġfe": 1159,
      "ĠMan": 1160,
      "Ġrecord": 1161,
      "Ġmem": 1162,
      "Ġob": 1163,
      "Ġexpression": 1164,
      "ĠEnglish": 1165,
      "Ġint": 1166,
      "cy": 1167,
      "ĠWh": 1168,
      "ĠCon": 1169,
      "Ġdist": 1170,
      "ĠPar": 1171,
      "onom": 1172,
      "Ġfollowed": 1173,
      "tain": 1174,
      "Ġco": 1175,
      "20": 1176,
      "Ġmajor": 1177,
      "Ġhigh": 1178,
      "ife": 1179,
      "form": 1180,
      "Ġdes": 1181,
      "ital": 1182,
      "ially": 1183,
      "Ġcountry": 1184,
      "ĠSc": 1185,
      "ĠĠ": 1186,
      "Ġlast": 1187,
      "Ġquarterback": 1188,
      "ars": 1189,
      "ants": 1190,
      "Ġserv": 1191,
      "ĠEm": 1192,
      "ise": 1193,
      "Ġinterce": 1194,
      "Ġgener": 1195,
      "Ġsaid": 1196,
      "Ġwater": 1197,
      "Ġ24": 1198,
      "bers": 1199,
      "Ġfl": 1200,
      "Ġdoes": 1201,
      "Get": 1202,
      "Ġsign": 1203,
      "ĠRuss": 1204,
      "Ġmil": 1205,
      "ĠBronc": 1206,
      "ĠBritish": 1207,
      "stit": 1208,
      "gr": 1209,
      "Ġtimer": 1210,
      "Search": 1211,
      "Source": 1212,
      "Ġproduc": 1213,
      "Target": 1214,
      "'\"},": 1215,
      "Ġ25": 1216,
      "Ġwill": 1217,
      "Ġanother": 1218,
      "ĠRB": 1219,
      "ĠBroncos": 1220,
      "Ġposs": 1221,
      "Ġdrive": 1222,
      "Ġoffic": 1223,
      "Ġteam": 1224,
      "Ġled": 1225,
      "Ġwide": 1226,
      "ailed": 1227,
      "iversity": 1228,
      "ator": 1229,
      "âĢĶ": 1230,
      "ĠAf": 1231,
      "ĠFrench": 1232,
      "Ġhouse": 1233,
      "ange": 1234,
      "ke": 1235,
      "enn": 1236,
      "Ġrep": 1237,
      "Ġbel": 1238,
      ".\"": 1239,
      "ĠKing": 1240,
      "Ġval": 1241,
      "ave": 1242,
      "elf": 1243,
      "Ġpoints": 1244,
      "ief": 1245,
      "erson": 1246,
      "mber": 1247,
      "Ġlaw": 1248,
      "Ġhel": 1249,
      "Ġbecause": 1250,
      "Ġ198": 1251,
      "und": 1252,
      "Ġsmall": 1253,
      "oot": 1254,
      "uel": 1255,
      "Ġty": 1256,
      "Ġdiv": 1257,
      "tal": 1258,
      "Ġuntil": 1259,
      "Ġdifferent": 1260,
      "Ġmed": 1261,
      "Ġpower": 1262,
      "Ġeff": 1263,
      "ĠZ": 1264,
      "ically": 1265,
      "ature": 1266,
      "ible": 1267,
      "thern": 1268,
      "ept": 1269,
      "Ġocc": 1270,
      "Ġwent": 1271,
      "Ġopen": 1272,
      "Ġtake": 1273,
      "Ġold": 1274,
      "Ġschool": 1275,
      "the": 1276,
      "ears": 1277,
      "omin": 1278,
      "Ġcame": 1279,
      "Ġterm": 1280,
      "Ġvery": 1281,
      "Ġsame": 1282,
      "Ġdefin": 1283,
      "Ġtrans": 1284,
      "az": 1285,
      "ĠNorth": 1286,
      "Ġ21": 1287,
      "Ġmuch": 1288,
      "Ġland": 1289,
      "ĠSteel": 1290,
      "ĠOr": 1291,
      "Ġleft": 1292,
      "ĠPol": 1293,
      "ected": 1294,
      "Ġmaking": 1295,
      "Ġpun": 1296,
      "Ġage": 1297,
      "Ġ197": 1298,
      "Ġdisc": 1299,
      "Ġacc": 1300,
      "Ġec": 1301,
      "ime": 1302,
      "ĠSteelers": 1303,
      "rist": 1304,
      "ann": 1305,
      "Ġ30": 1306,
      "Ġoften": 1307,
      "Ġbro": 1308,
      "ects": 1309,
      "ull": 1310,
      "ral": 1311,
      "ĠSp": 1312,
      "Ġran": 1313,
      "Ġnext": 1314,
      "Ġcompleting": 1315,
      "Ġaround": 1316,
      "Ġlanguages": 1317,
      "wh": 1318,
      "ology": 1319,
      "inn": 1320,
      "ived": 1321,
      "wards": 1322,
      "Which": 1323,
      "Ġreceiver": 1324,
      "ped": 1325,
      "Ġeach": 1326,
      "urch": 1327,
      "ĠAd": 1328,
      "Ġcre": 1329,
      "Ġ$": 1330,
      "Ġpercent": 1331,
      "Ġarea": 1332,
      "reen": 1333,
      "Ġjust": 1334,
      "ll": 1335,
      "Ġrespond": 1336,
      "ague": 1337,
      "60": 1338,
      "vent": 1339,
      "ĠMatt": 1340,
      "Ġunits": 1341,
      "ĠRo": 1342,
      "tt": 1343,
      "ĠWeek": 1344,
      "Ġmeas": 1345,
      "ared": 1346,
      "Ġrunning": 1347,
      "omet": 1348,
      "Ġori": 1349,
      "rop": 1350,
      "ĠYork": 1351,
      "af": 1352,
      "co": 1353,
      "its": 1354,
      "Ġtoday": 1355,
      "Ġsever": 1356,
      "ĠSan": 1357,
      "Ġsentence": 1358,
      "osed": 1359,
      "Ġvar": 1360,
      "Ġlarge": 1361,
      "Ġcontrol": 1362,
      "ink": 1363,
      "Ġair": 1364,
      "Ġtotal": 1365,
      "Ġalong": 1366,
      "uct": 1367,
      "Ġplace": 1368,
      "tle": 1369,
      "ax": 1370,
      "Ġcoun": 1371,
      "Ġter": 1372,
      "Ġnear": 1373,
      "lished": 1374,
      "ines": 1375,
      "air": 1376,
      "search": 1377,
      "Ġattem": 1378,
      "Ġ23": 1379,
      "yn": 1380,
      "Ġaut": 1381,
      "Ġorgan": 1382,
      "ross": 1383,
      "ĠPr": 1384,
      "Ġlargest": 1385,
      "Ġmus": 1386,
      "ales": 1387,
      "Ġneed": 1388,
      "ai": 1389,
      "50": 1390,
      "Ġsuccess": 1391,
      "Ġmov": 1392,
      "Ġreturned": 1393,
      "Ġallow": 1394,
      "une": 1395,
      "Ġway": 1396,
      "Ġbr": 1397,
      "12": 1398,
      "Ġins": 1399,
      "Ġpartic": 1400,
      "rance": 1401,
      "Ġaver": 1402,
      "ĠPhil": 1403,
      "Ġtext": 1404,
      "Ã©": 1405,
      "ĠSouth": 1406,
      "ony": 1407,
      "els": 1408,
      "Ġhum": 1409,
      "ĠAfric": 1410,
      "Ġadd": 1411,
      "ĠThere": 1412,
      "ĠWest": 1413,
      "Ġimport": 1414,
      "ler": 1415,
      "Ġnow": 1416,
      "Ġcountries": 1417,
      "Ġbo": 1418,
      "ĠPro": 1419,
      "Ġhow": 1420,
      "orld": 1421,
      "Ġann": 1422,
      "ustr": 1423,
      "ession": 1424,
      "Ġball": 1425,
      "iles": 1426,
      "Ġpolit": 1427,
      "Ġsim": 1428,
      "Ġart": 1429,
      "olution": 1430,
      "oys": 1431,
      "Ġeven": 1432,
      "18": 1433,
      "ĠChrist": 1434,
      "ample": 1435,
      "Ġsoc": 1436,
      "ives": 1437,
      "Ġshow": 1438,
      "ately": 1439,
      "though": 1440,
      "FC": 1441,
      "ving": 1442,
      "Ġweb": 1443,
      "econd": 1444,
      "14": 1445,
      "Ġestab": 1446,
      "ience": 1447,
      "ĠGree": 1448,
      "cial": 1449,
      "rib": 1450,
      "Ġfle": 1451,
      "ĠJan": 1452,
      "Ġwithin": 1453,
      "Ġseconds": 1454,
      "Ġmark": 1455,
      "ĠLions": 1456,
      "ĠMc": 1457,
      "ĠII": 1458,
      "ĠBears": 1459,
      "Ġcontinued": 1460,
      "Ġed": 1461,
      "ĠRed": 1462,
      "Ġser": 1463,
      "ck": 1464,
      "ston": 1465,
      "Ġcult": 1466,
      "eth": 1467,
      "pire": 1468,
      "Ġelect": 1469,
      "ĠGerman": 1470,
      "pted": 1471,
      "ility": 1472,
      "ined": 1473,
      "Ġexample": 1474,
      "17": 1475,
      "less": 1476,
      "ĠComm": 1477,
      "iew": 1478,
      "Ġlit": 1479,
      "Ġmeasure": 1480,
      "Ġcommon": 1481,
      "ĠWill": 1482,
      "itary": 1483,
      "ĠUS": 1484,
      "gen": 1485,
      "ĠWorld": 1486,
      "ĠFran": 1487,
      "ms": 1488,
      "Ġyou": 1489,
      "Ġ28": 1490,
      "Ġthose": 1491,
      "ively": 1492,
      "min": 1493,
      "ract": 1494,
      "uck": 1495,
      "aun": 1496,
      "Ġ49": 1497,
      "Ġevery": 1498,
      "ĠEar": 1499,
      "Ġpublic": 1500,
      "Ġspe": 1501,
      "ĠFrance": 1502,
      "Ġconsid": 1503,
      "ĠAnd": 1504,
      "ĠRep": 1505,
      "Ġz": 1506,
      "Ġhig": 1507,
      "Ġ22": 1508,
      "osition": 1509,
      "ills": 1510,
      "Ġconf": 1511,
      "ield": 1512,
      "Ġmar": 1513,
      "Ġeconom": 1514,
      "ĠEngland": 1515,
      "ues": 1516,
      "13": 1517,
      "ute": 1518,
      "hemat": 1519,
      "med": 1520,
      "Ġrepl": 1521,
      "ley": 1522,
      "Ġaverage": 1523,
      "Ġstill": 1524,
      "by": 1525,
      "Ġseveral": 1526,
      "Ġdire": 1527,
      "Ġpr": 1528,
      "Ġorigin": 1529,
      "dom": 1530,
      "Ġdate": 1531,
      "Ġif": 1532,
      "ball": 1533,
      "Ġheld": 1534,
      "Ġsay": 1535,
      "aus": 1536,
      "ize": 1537,
      "ĠCity": 1538,
      "Ġrelig": 1539,
      "Ġwrit": 1540,
      "atch": 1541,
      "Ġincreased": 1542,
      "eder": 1543,
      "Ġoper": 1544,
      "Ġfinal": 1545,
      "estern": 1546,
      "esp": 1547,
      "Ġhead": 1548,
      "Ġnumer": 1549,
      "lu": 1550,
      "read": 1551,
      "tions": 1552,
      "Ġturn": 1553,
      "Ġ.": 1554,
      "Ġinclude": 1555,
      "Ġput": 1556,
      "reak": 1557,
      ",\"": 1558,
      "Ġforces": 1559,
      "ended": 1560,
      "ackers": 1561,
      "Ġadv": 1562,
      "Ġbuild": 1563,
      "Ġcome": 1564,
      "ject": 1565,
      "Ġweek": 1566,
      "Ġclass": 1567,
      "Ġhistory": 1568,
      "ences": 1569,
      "Ġweather": 1570,
      "bur": 1571,
      "Ġaway": 1572,
      "Ġperson": 1573,
      "ices": 1574,
      "Ġregion": 1575,
      "ones": 1576,
      "art": 1577,
      "ĠEag": 1578,
      "Ġnon": 1579,
      "ash": 1580,
      "Ġvalue": 1581,
      "Ġreb": 1582,
      "Ġmathemat": 1583,
      "ensive": 1584,
      "Ġlate": 1585,
      "ves": 1586,
      "Ġ194": 1587,
      "Ġdefinition": 1588,
      "ified": 1589,
      "Ġmove": 1590,
      "ases": 1591,
      "Ġinterception": 1592,
      "Un": 1593,
      "Ġimportant": 1594,
      "ĠEuropean": 1595,
      "alcul": 1596,
      "Ġhouseh": 1597,
      "ĠRoman": 1598,
      "ole": 1599,
      "Ġchild": 1600,
      "Ġtrail": 1601,
      "Ġpri": 1602,
      "Ġleg": 1603,
      "Ġattack": 1604,
      "Ġrele": 1605,
      "aged": 1606,
      "ised": 1607,
      "Ġstand": 1608,
      "15": 1609,
      "ĠEagles": 1610,
      "ĠBy": 1611,
      "Ġwon": 1612,
      "rem": 1613,
      "off": 1614,
      "aced": 1615,
      "ured": 1616,
      "inese": 1617,
      "Ġref": 1618,
      "ĠTex": 1619,
      "Ġarmy": 1620,
      "ĠEd": 1621,
      "hest": 1622,
      "cess": 1623,
      "ĠChar": 1624,
      "ember": 1625,
      "amed": 1626,
      "Ġdeath": 1627,
      "sh": 1628,
      "Ġ26": 1629,
      "Ġduel": 1630,
      "ĠRaid": 1631,
      "ired": 1632,
      "alth": 1633,
      "ained": 1634,
      "Ġ27": 1635,
      "set": 1636,
      "ĠGe": 1637,
      "Ġfil": 1638,
      "ĠBeng": 1639,
      "ene": 1640,
      "ĠMay": 1641,
      "Ġplan": 1642,
      "ĠCan": 1643,
      "Ġdefense": 1644,
      "ugg": 1645,
      "Ġshort": 1646,
      "apan": 1647,
      "epend": 1648,
      "Ġlife": 1649,
      "lect": 1650,
      "Ġstarted": 1651,
      "ĠX": 1652,
      "Ġmilitary": 1653,
      "oint": 1654,
      "Ġprim": 1655,
      "ĠChina": 1656,
      "Ġprot": 1657,
      "ner": 1658,
      "ference": 1659,
      "Ġ40": 1660,
      "ĠCl": 1661,
      "Ġ2010": 1662,
      "Ġconn": 1663,
      "Ġfive": 1664,
      "ĠSain": 1665,
      "Ġopp": 1666,
      "yan": 1667,
      "stitution": 1668,
      "ox": 1669,
      "ĠBrowns": 1670,
      "Ġmusic": 1671,
      "oming": 1672,
      "ĠBay": 1673,
      "ĠPl": 1674,
      "Ġgoals": 1675,
      "loc": 1676,
      "def": 1677,
      "Eng": 1678,
      "Ġgrow": 1679,
      "ĠChinese": 1680,
      "ĠAp": 1681,
      "ĠItal": 1682,
      "ops": 1683,
      "chn": 1684,
      "Ġimpro": 1685,
      "Ġrev": 1686,
      "Ġchar": 1687,
      "ham": 1688,
      "pression": 1689,
      "Ġterrit": 1690,
      "Ġrul": 1691,
      "ged": 1692,
      "go": 1693,
      "oring": 1694,
      "ĠRaiders": 1695,
      "ĠUniversity": 1696,
      "Ġcour": 1697,
      "ivil": 1698,
      "English": 1699,
      "ling": 1700,
      "umber": 1701,
      "Ġdem": 1702,
      "Ġnational": 1703,
      "Ġ+": 1704,
      "ister": 1705,
      "Ġgames": 1706,
      "lam": 1707,
      "ĠThese": 1708,
      "ĠColts": 1709,
      "ĠBu": 1710,
      "Ġappe": 1711,
      "ories": 1712,
      "Ġsix": 1713,
      "Ġfell": 1714,
      "Ġpolitical": 1715,
      "ĠFe": 1716,
      "Ġamong": 1717,
      "date": 1718,
      "nd": 1719,
      "When": 1720,
      "lands": 1721,
      "ched": 1722,
      "ĠVik": 1723,
      "acter": 1724,
      "Ġcr": 1725,
      "ĠRace": 1726,
      "ĠJapan": 1727,
      "overed": 1728,
      "text": 1729,
      "Ġ31": 1730,
      "Ġsing": 1731,
      "Ġstates": 1732,
      "atic": 1733,
      "Ġless": 1734,
      "ampa": 1735,
      "iants": 1736,
      "ret": 1737,
      "Ġresponded": 1738,
      "cted": 1739,
      "ĠChief": 1740,
      "ĠBengals": 1741,
      "Ġtimes": 1742,
      "Ġcapital": 1743,
      "ometers": 1744,
      "ĠDav": 1745,
      "Ġ100": 1746,
      "ĠRepublic": 1747,
      "ĠSw": 1748,
      "ĠHar": 1749,
      "Ġmen": 1750,
      "Ġfar": 1751,
      "ane": 1752,
      "ĠBar": 1753,
      "ĠEmpire": 1754,
      "Ġhit": 1755,
      "Ġinst": 1756,
      "Ġide": 1757,
      "ĠCent": 1758,
      "Ġtouchdowns": 1759,
      "Ġconvert": 1760,
      "ement": 1761,
      "Ġgreat": 1762,
      "Ġkicked": 1763,
      "ĠBl": 1764,
      "Ġmodern": 1765,
      "ĠJu": 1766,
      "ashing": 1767,
      "rab": 1768,
      "weather": 1769,
      "Ġevent": 1770,
      "ski": 1771,
      "current": 1772,
      "ilometers": 1773,
      "Ġfollowing": 1774,
      "Ġsupport": 1775,
      "ĠBrad": 1776,
      "ĠIndian": 1777,
      "second": 1778,
      "idd": 1779,
      "ĠJets": 1780,
      "part": 1781,
      "Ġhowever": 1782,
      "Ġhelp": 1783,
      "translate": 1784,
      "ĠEast": 1785,
      "Ġhousehold": 1786,
      "Ġgl": 1787,
      "16": 1788,
      "bert": 1789,
      "Ġ*": 1790,
      "ĠCoun": 1791,
      "Ġrequ": 1792,
      "rid": 1793,
      "Ġroad": 1794,
      "Ġinflu": 1795,
      "Con": 1796,
      "Ġchang": 1797,
      "location": 1798,
      "ently": 1799,
      "Ġintern": 1800,
      "ization": 1801,
      "owb": 1802,
      "Ġconc": 1803,
      "Ġstart": 1804,
      "version": 1805,
      "ĠRav": 1806,
      "Ġdue": 1807,
      "Ġtried": 1808,
      "ung": 1809,
      "Spanish": 1810,
      "Ġorder": 1811,
      "ĠCharg": 1812,
      "Ġplayed": 1813,
      "Ġdet": 1814,
      "rian": 1815,
      "Ġfum": 1816,
      "Ġdep": 1817,
      "Ġdefe": 1818,
      "Ġtem": 1819,
      "ĠSome": 1820,
      "ashington": 1821,
      "ĠâĢĵ": 1822,
      "Ġfew": 1823,
      "ission": 1824,
      "Ġvict": 1825,
      "ank": 1826,
      "Ġformer": 1827,
      "ody": 1828,
      "vin": 1829,
      "alculator": 1830,
      "ĠJack": 1831,
      "Ġhand": 1832,
      "Ġmathematical": 1833,
      "expression": 1834,
      "side": 1835,
      "Ġfamily": 1836,
      "Ġhapp": 1837,
      "Ġcor": 1838,
      "calculator": 1839,
      "ney": 1840,
      "iqu": 1841,
      "ĠFl": 1842,
      "Ġrest": 1843,
      "ftime": 1844,
      "Ġequ": 1845,
      "ĠCowb": 1846,
      "ains": 1847,
      "Ġbecome": 1848,
      "United": 1849,
      "ried": 1850,
      "Ġhalftime": 1851,
      "Ġkill": 1852,
      "oviet": 1853,
      "Ġappro": 1854,
      "ĠWashington": 1855,
      "Ġ{": 1856,
      "ĠChargers": 1857,
      "Ġmembers": 1858,
      "Ġexpl": 1859,
      "Ġexper": 1860,
      "Ġprom": 1861,
      "ported": 1862,
      "ecut": 1863,
      "Ġdefine": 1864,
      "akes": 1865,
      "Ġbeh": 1866,
      "imes": 1867,
      "web": 1868,
      "Ġsomet": 1869,
      "ĠRavens": 1870,
      "iron": 1871,
      "Ġvis": 1872,
      "alk": 1873,
      "utes": 1874,
      "ĠCowboys": 1875,
      "Ġthrew": 1876,
      "number": 1877,
      "ĠGiants": 1878,
      "ĠVikings": 1879,
      "Ġmeasurement": 1880,
      "urs": 1881,
      "Ġel": 1882,
      "imer": 1883,
      "Ġ{}}": 1884,
      "ĠPackers": 1885,
      "Ġprocess": 1886,
      "ides": 1887,
      "Ġduration": 1888,
      "iation": 1889,
      "ats": 1890,
      "ĠSept": 1891,
      "hor": 1892,
      "Translate": 1893,
      "ĠSun": 1894,
      "ĠUnion": 1895,
      "Ġtradition": 1896,
      "Ġnorth": 1897,
      "be": 1898,
      "Ġ196": 1899,
      "ĠPres": 1900,
      "ĠBe": 1901,
      "Ġfind": 1902,
      "ĠAll": 1903,
      "ened": 1904,
      "astern": 1905,
      "Ġeval": 1906,
      "urther": 1907,
      "Ġgood": 1908,
      "ergy": 1909,
      "ĠManning": 1910,
      "verter": 1911,
      "value": 1912,
      "Ġ29": 1913,
      "Ġsouth": 1914,
      "Ġdesign": 1915,
      "ĠSeptember": 1916,
      "Ġtranslate": 1917,
      "query": 1918,
      "Ġav": 1919,
      "ardin": 1920,
      "Ġhuman": 1921,
      "Ġareas": 1922,
      "ple": 1923,
      "ĠGr": 1924,
      "define": 1925,
      "inte": 1926,
      "Ġreac": 1927,
      "converter": 1928,
      "Ġdro": 1929,
      "ĠAug": 1930,
      "ality": 1931,
      "Ġlost": 1932,
      "seconds": 1933,
      "Ġaff": 1934,
      "Look": 1935,
      "Ġ35": 1936,
      "Ġ33": 1937,
      "ule": 1938,
      "Ġwithout": 1939,
      "Ġcommun": 1940,
      "ootball": 1941,
      "ĠSpanish": 1942,
      "Ġpresent": 1943,
      "ĠHis": 1944,
      "owski": 1945,
      "uments": 1946,
      "ĠSoviet": 1947,
      "Ġresul": 1948,
      "ĠTit": 1949,
      "miles": 1950,
      "kilometers": 1951,
      "ĠGreen": 1952,
      "Ġcomb": 1953,
      "ril": 1954,
      "Ġmonth": 1955,
      "City": 1956,
      "Ġcaus": 1957,
      "ches": 1958,
      "Ġright": 1959,
      "ĠChiefs": 1960,
      "Ġred": 1961,
      "time": 1962,
      "Ġtr": 1963,
      "adium": 1964,
      "Ġ50": 1965,
      "24": 1966,
      "Convert": 1967,
      "Ġdr": 1968,
      "cept": 1969,
      "ius": 1970,
      "Ġforce": 1971,
      "Ġquery": 1972,
      "Ġevaluate": 1973,
      "reaty": 1974,
      "Ġusually": 1975,
      "Ġnumeric": 1976,
      "Ġ45": 1977,
      "ĠAugust": 1978,
      "Ġcountdown": 1979,
      "orts": 1980,
      "ows": 1981,
      "Set": 1982,
      "label": 1983,
      "uary": 1984,
      "oph": 1985,
      "Ġended": 1986,
      "23": 1987,
      "ober": 1988,
      "ration": 1989,
      "ĠOct": 1990,
      "Ġyet": 1991,
      "ished": 1992,
      "ĠSm": 1993,
      "Text": 1994,
      "ondon": 1995,
      "cember": 1996,
      "ille": 1997,
      "ĠRedsk": 1998,
      "duration": 1999,
      "timer": 2000,
      "valuate": 2001,
      "men": 2002,
      "Math": 2003,
      "Ġking": 2004,
      "ĠTexans": 2005,
      "Evaluate": 2006,
      "Label": 2007,
      "Timer": 2008,
      "[{\"": 2009,
      "}]": 2010,
      "\"}}}]": 2011,
      "Ġ{}},": 2012,
      "integer": 2013,
      "Ġgroups": 2014,
      "Ġtro": 2015,
      "ĠPort": 2016,
      "ĠRedskins": 2017,
      "ĠMon": 2018,
      "com": 2019,
      "etro": 2020,
      "ĠTE": 2021,
      "Ġindepend": 2022,
      "Ġsold": 2023,
      "ĠOtt": 2024,
      "Ġofficial": 2025,
      "Ġliving": 2026,
      "most": 2027,
      "Ġ193": 2028,
      "ĠĠĠĠ": 2029,
      "Ġanc": 2030,
      "ĠDecember": 2031,
      "Ġdoc": 2032,
      "Ġlook": 2033,
      "ĠIndia": 2034,
      "Ġbased": 2035,
      "aim": 2036,
      "ploy": 2037,
      "Ġusing": 2038,
      "Ġtop": 2039,
      "ĠGeor": 2040,
      "Ġ,": 2041,
      "ĠAb": 2042,
      "Ġsqu": 2043,
      "Ġsk": 2044,
      "Ġarch": 2045,
      "Ġenergy": 2046,
      "ilt": 2047,
      "ring": 2048,
      "ĠEarth": 2049,
      "orthern": 2050,
      "line": 2051,
      "Ġflew": 2052,
      "ĠAm": 2053,
      "Ġrus": 2054,
      "ĠOctober": 2055,
      "Ġet": 2056,
      "ĠEl": 2057,
      "ze": 2058,
      "Ġ2011": 2059,
      "ĠLeague": 2060,
      "ending": 2061,
      "ĠMus": 2062,
      "ĠNational": 2063,
      "Ġpunt": 2064,
      "Ġfore": 2065,
      "reed": 2066,
      "Ġperform": 2067,
      "ago": 2068,
      "Ġbig": 2069,
      "ĠBur": 2070,
      "iven": 2071,
      "FL": 2072,
      "Ġcapt": 2073,
      "Ġcare": 2074,
      "ĠBills": 2075,
      "Ġthough": 2076,
      "Ġforced": 2077,
      "bed": 2078,
      "Ġtrailed": 2079,
      "Ġplays": 2080,
      "ĠPal": 2081,
      "Ġpopular": 2082,
      "Ġdivision": 2083,
      "Ġlevel": 2084,
      "resent": 2085,
      "ĠJune": 2086,
      "ness": 2087,
      "cl": 2088,
      "Ġneeded": 2089,
      "Ġestablished": 2090,
      "ĠLondon": 2091,
      "ĠCal": 2092,
      "ĠWhen": 2093,
      "ention": 2094,
      "Ġant": 2095,
      "ead": 2096,
      "Ġsl": 2097,
      "omen": 2098,
      "uan": 2099,
      "Ġ38": 2100,
      "thers": 2101,
      "Ġtyp": 2102,
      "Ġdirect": 2103,
      "Ġ32": 2104,
      "ĠJuly": 2105,
      "ĠJanuary": 2106,
      "Ġfem": 2107,
      "ering": 2108,
      "ĠÂ": 2109,
      "olph": 2110,
      "Ġconsidered": 2111,
      "Ġvictory": 2112,
      "Ġpat": 2113,
      "Ġlight": 2114,
      "ĠGermany": 2115,
      "osing": 2116,
      "ata": 2117,
      "Ġgu": 2118,
      "ĠJohnson": 2119,
      "Ġteams": 2120,
      "ĠJackson": 2121,
      "Ġfailed": 2122,
      "Ġpub": 2123,
      "Ġ2008": 2124,
      "Ġknow": 2125,
      "Ġprogr": 2126,
      "ĠPe": 2127,
      "ĠAmerica": 2128,
      "Ġmean": 2129,
      "iety": 2130,
      "Ġpoint": 2131,
      "Where": 2132,
      "ĠIntern": 2133,
      "Ġtechn": 2134,
      "itation": 2135,
      "Ġmass": 2136,
      "ĠRussian": 2137,
      "ites": 2138,
      "ilar": 2139,
      "atin": 2140,
      "ĠWhite": 2141,
      "Ġchildren": 2142,
      "gether": 2143,
      "ĠMarch": 2144,
      "ĠCanad": 2145,
      "Ġscient": 2146,
      "Ġ2000": 2147,
      "Ġbegin": 2148,
      "Ġparticular": 2149,
      "Ġclaim": 2150,
      "Ġbook": 2151,
      "ĠGreek": 2152,
      "lin": 2153,
      "ateg": 2154,
      "Ġhold": 2155,
      "ray": 2156,
      "vious": 2157,
      "Ġgen": 2158,
      "ĠKingdom": 2159,
      "Ġshould": 2160,
      "osp": 2161,
      "ges": 2162,
      "Ġ34": 2163,
      "Ġgave": 2164,
      "iddle": 2165,
      "Ġcommand": 2166,
      "Ġposition": 2167,
      "Ġbelie": 2168,
      "Ġcer": 2169,
      "Ġstudy": 2170,
      "ctions": 2171,
      "Ġlow": 2172,
      "Ġlocal": 2173,
      "ĠPan": 2174,
      "Ġproble": 2175,
      "Ġaddition": 2176,
      "ĠRams": 2177,
      "ĠSaints": 2178,
      "struc": 2179,
      "yd": 2180,
      "Ġpasses": 2181,
      "Ġgive": 2182,
      "irc": 2183,
      "ĠApril": 2184,
      "ustral": 2185,
      "Ġbus": 2186,
      "&#": 2187,
      "ĠRyan": 2188,
      "na": 2189,
      "Ġpossession": 2190,
      "ederal": 2191,
      "Ġfact": 2192,
      "Ġdeveloped": 2193,
      "Ġclose": 2194,
      "ĠBut": 2195,
      "ovember": 2196,
      "reg": 2197,
      "ĠGu": 2198,
      "Ġpo": 2199,
      "ott": 2200,
      "Ġhost": 2201,
      "Ġeng": 2202,
      "Ġdays": 2203,
      "head": 2204,
      "ograph": 2205,
      "Ġfurther": 2206,
      "outhern": 2207,
      "roduc": 2208,
      "ĠEx": 2209,
      "Ġeffect": 2210,
      "Ġtogether": 2211,
      "Ġeduc": 2212,
      "ĠSu": 2213,
      "Ġlim": 2214,
      "Ġauthor": 2215,
      "ĠChurch": 2216,
      "olic": 2217,
      "Ġresid": 2218,
      "ĠDolph": 2219,
      "Ġstrong": 2220,
      "alcons": 2221,
      "ection": 2222,
      "Ġdescri": 2223,
      "ald": 2224,
      "Ġable": 2225,
      "ĠLou": 2226,
      "ĠSup": 2227,
      "ĠJew": 2228,
      "Ġsocial": 2229,
      "Ġscoring": 2230,
      "ither": 2231,
      "ĠNovember": 2232,
      "Ġnamed": 2233,
      "Ġ2007": 2234,
      "Ġsn": 2235,
      "ĠAfrican": 2236,
      "Ġexist": 2237,
      "amm": 2238,
      "Ġhistor": 2239,
      "Ġspecial": 2240,
      "ĠFalcons": 2241,
      "ĠAustral": 2242,
      "aster": 2243,
      "Ġremaining": 2244,
      "rees": 2245,
      "ael": 2246,
      "Ġtown": 2247,
      "Ġdomin": 2248,
      "Ġsol": 2249,
      "ked": 2250,
      "Ġsignific": 2251,
      "Ġphys": 2252,
      "rison": 2253,
      "ĠRom": 2254,
      "25": 2255,
      "Ġbas": 2256,
      "ĠMin": 2257,
      "row": 2258,
      "Ġview": 2259,
      "ĠCharles": 2260,
      "ĠDuring": 2261,
      "Ġwid": 2262,
      "Ġthings": 2263,
      "Ġfac": 2264,
      "ean": 2265,
      "Ġcivil": 2266,
      "rain": 2267,
      "Ġpen": 2268,
      "ope": 2269,
      "ĠDen": 2270,
      "point": 2271,
      "ĠTitans": 2272,
      "iated": 2273,
      "Ġgeneral": 2274,
      "Ġparts": 2275,
      "ivid": 2276,
      "ior": 2277,
      "Ġ195": 2278,
      "aff": 2279,
      "Ġestim": 2280,
      "yle": 2281,
      "Ġdel": 2282,
      "ailing": 2283,
      "lim": 2284,
      "ards": 2285,
      "Ġtroops": 2286,
      "iness": 2287,
      "ĠNe": 2288,
      "ĠDolphins": 2289,
      "Ġtravel": 2290,
      "Ġmanaged": 2291,
      "Ġseries": 2292,
      "tic": 2293,
      "Ġdevelopment": 2294,
      "awks": 2295,
      "%)": 2296,
      "Ġer": 2297,
      "Ġsee": 2298,
      "ĠThom": 2299,
      "uce": 2300,
      "Ġsuccessful": 2301,
      "Ġincluded": 2302,
      "ĠCardin": 2303,
      "ĠHou": 2304,
      "ele": 2305,
      "Ġdied": 2306,
      "ĠBrady": 2307,
      "Ġgiven": 2308,
      "ological": 2309,
      "ĠShe": 2310,
      "Ġcounty": 2311,
      "ĠMich": 2312,
      "ĠStadium": 2313,
      "Ġhouseholds": 2314,
      "ĠAtl": 2315,
      "Ġanim": 2316,
      "cis": 2317,
      "Ġprof": 2318,
      "aul": 2319,
      "sc": 2320,
      "ĠCath": 2321,
      "Ġcreated": 2322,
      "Ġnight": 2323,
      "ogn": 2324,
      "Ġbillion": 2325,
      "ĠTur": 2326,
      "Ġtit": 2327,
      "Ġcolle": 2328,
      "Ġiss": 2329,
      "ĠSmith": 2330,
      "21": 2331,
      "Ġrate": 2332,
      "Ġmoved": 2333,
      "ĠOne": 2334,
      "rd": 2335,
      "oll": 2336,
      "ban": 2337,
      "Ġpost": 2338,
      "Ġclub": 2339,
      "Ġrepresent": 2340,
      "Ġspecies": 2341,
      "Ġpract": 2342,
      "Ġsepar": 2343,
      "Ġrad": 2344,
      "200": 2345,
      "Ġsingle": 2346,
      "Ġlongest": 2347,
      "ĠBal": 2348,
      "iers": 2349,
      "Ġcell": 2350,
      "ensity": 2351,
      "Ġcop": 2352,
      "asing": 2353,
      "ote": 2354,
      "Ġ2009": 2355,
      "ĠHouston": 2356,
      "ĠBC": 2357,
      "icago": 2358,
      "Ġalthough": 2359,
      "ĠDavid": 2360,
      "ĠChristian": 2361,
      "allas": 2362,
      "uter": 2363,
      "Ġresult": 2364,
      "Ġmust": 2365,
      "urning": 2366,
      "Ġdest": 2367,
      "Ġcities": 2368,
      "work": 2369,
      "oung": 2370,
      "ument": 2371,
      "Ġtight": 2372,
      "utch": 2373,
      "Ġ2012": 2374,
      "Ġident": 2375,
      "ĠBritain": 2376,
      "ĠDallas": 2377,
      "Ġcensus": 2378,
      "Ġ2006": 2379,
      "Ġfall": 2380,
      "bru": 2381,
      "11": 2382,
      "ĠSeah": 2383,
      "ĠAng": 2384,
      "Ġattempt": 2385,
      "Ġsignificant": 2386,
      "ĠDan": 2387,
      "ounds": 2388,
      "ĠChicago": 2389,
      "ĠHen": 2390,
      "Ġadded": 2391,
      "bruary": 2392,
      "call": 2393,
      "Ġsaf": 2394,
      "itz": 2395,
      "ids": 2396,
      "Ġcrit": 2397,
      "ĠLouis": 2398,
      "ĠGreat": 2399,
      "Ġ2013": 2400,
      "ĠOther": 2401,
      "ilies": 2402,
      "Ġ36": 2403,
      "Ġbuilt": 2404,
      "ends": 2405,
      "ĠSy": 2406,
      "Ġ44": 2407,
      "Ġ37": 2408,
      "for": 2409,
      "lear": 2410,
      "Ġrefer": 2411,
      "Ġindivid": 2412,
      "Ġothers": 2413,
      "Ġappl": 2414,
      "cil": 2415,
      "Ġprevious": 2416,
      "Ġboard": 2417,
      "ĠAtlant": 2418,
      "Ġread": 2419,
      "ĠFebruary": 2420,
      "Ġsimilar": 2421,
      "ĠJames": 2422,
      "udd": 2423,
      "ĠCarol": 2424,
      "Ġnailed": 2425,
      "ĠSeahawks": 2426,
      "Coming": 2427,
      "ĠHol": 2428,
      "Ġearl": 2429,
      "ĠAle": 2430,
      "sp": 2431,
      "Ġdev": 2432,
      "Ġlocated": 2433,
      "ĠJason": 2434,
      "Ġbest": 2435,
      "Ġchem": 2436,
      "ĠMed": 2437,
      "ĠTom": 2438,
      "ĠAFC": 2439,
      "iber": 2440,
      "Ġmiss": 2441,
      "ĠBattle": 2442,
      "atural": 2443,
      "80": 2444,
      "70": 2445,
      "Ġcompany": 2446,
      "Ġbody": 2447,
      "Ġoccur": 2448,
      "ĠLatin": 2449,
      "Ġinj": 2450,
      "int": 2451,
      "ĠCardinals": 2452,
      "Ġlive": 2453,
      "Ġhaving": 2454,
      "Ġhous": 2455,
      "Ġfumble": 2456,
      "Ġstat": 2457,
      "aken": 2458,
      "Ġmater": 2459,
      "Ġvarious": 2460,
      "Ġfood": 2461,
      "Ġship": 2462,
      "Ġfilm": 2463,
      "ecutive": 2464,
      "ĠOttoman": 2465,
      "Ġmeans": 2466,
      "ĠSch": 2467,
      "ounced": 2468,
      "Ġschools": 2469,
      "40": 2470,
      "ĠMo": 2471,
      "see": 2472,
      "Ġchange": 2473,
      "ona": 2474,
      "ĠDie": 2475,
      "Ġstri": 2476,
      "Ġinvol": 2477,
      "ode": 2478,
      "Ġ2014": 2479,
      "stant": 2480,
      "Ġterritory": 2481,
      "ert": 2482,
      "liam": 2483,
      "uted": 2484,
      "Ġjoin": 2485,
      "Ġleast": 2486,
      "Ġisland": 2487,
      "ances": 2488,
      "Ġtype": 2489,
      "andon": 2490,
      "avy": 2491,
      "Ġmy": 2492,
      "22": 2493,
      "Ġfull": 2494,
      "ĠNFL": 2495,
      "Ġcut": 2496,
      "Ġincrease": 2497,
      "30": 2498,
      "oyal": 2499,
      "Ġmid": 2500,
      "Ġnet": 2501,
      "osh": 2502,
      "Ġallowed": 2503,
      "Ġprop": 2504,
      "etroit": 2505,
      "Ġhard": 2506,
      "ush": 2507,
      "Ġtemper": 2508,
      "ĠPresident": 2509,
      "aught": 2510,
      "ria": 2511,
      "ands": 2512,
      "Ġzone": 2513,
      "ma": 2514,
      "ĠFrancis": 2515,
      "berger": 2516,
      "Ġsuff": 2517,
      "Ġhigher": 2518,
      "sequ": 2519,
      "Ġthrow": 2520,
      "ĠRiver": 2521,
      "Ġvol": 2522,
      "ugu": 2523,
      "ĠDiego": 2524,
      "Ġmult": 2525,
      "agn": 2526,
      "ety": 2527,
      "Ġminutes": 2528,
      "mit": 2529,
      "Ġtele": 2530,
      "Ġ41": 2531,
      "hod": 2532,
      "ĠDetroit": 2533,
      "Ġinit": 2534,
      "oping": 2535,
      "Ġkilled": 2536,
      "Ġsquare": 2537,
      "well": 2538,
      "self": 2539,
      "Ġconversion": 2540,
      "ĠPhilip": 2541,
      "ĠArmy": 2542,
      "Ġaccording": 2543,
      "Ġfree": 2544,
      "anted": 2545,
      "ĠNFC": 2546,
      "ama": 2547,
      "ĠRussia": 2548,
      "Ġphil": 2549,
      "ably": 2550,
      "ĠBen": 2551,
      "Ġstudents": 2552,
      "ination": 2553,
      "ential": 2554,
      "ecially": 2555,
      "Ġdensity": 2556,
      "Ġ39": 2557,
      "Ġnever": 2558,
      "liament": 2559,
      "Ġcompet": 2560,
      "Ġ--": 2561,
      "Ġservice": 2562,
      "Ġpriv": 2563,
      "Ġblack": 2564,
      "II": 2565,
      "reland": 2566,
      "Ġreleased": 2567,
      "ĠQue": 2568,
      "Ġproper": 2569,
      "ampaign": 2570,
      "Ġhighest": 2571,
      "Ġside": 2572,
      "ĠDutch": 2573,
      "ency": 2574,
      "raight": 2575,
      "ront": 2576,
      "Ġacross": 2577,
      "Ġrule": 2578,
      "especially": 2579,
      "âĢĻ": 2580,
      "Ġactiv": 2581,
      "ĠJones": 2582,
      "Ġcharacter": 2583,
      "Ġgiving": 2584,
      "ĠReg": 2585,
      "ored": 2586,
      "sel": 2587,
      "Ġreceived": 2588,
      "ĠAust": 2589,
      "Ġren": 2590,
      "Ġimm": 2591,
      "ways": 2592,
      "Ġpred": 2593,
      "amb": 2594,
      "Ġopening": 2595,
      "eep": 2596,
      "rying": 2597,
      "ental": 2598,
      "Ġmaterial": 2599,
      "yp": 2600,
      "aries": 2601,
      "Ġonce": 2602,
      "Ġbattle": 2603,
      "ica": 2604,
      "Ġformed": 2605,
      "used": 2606,
      "ĠIr": 2607,
      "ival": 2608,
      "Ġreligious": 2609,
      "Ġbehind": 2610,
      "Ġimproved": 2611,
      "ĠCarolina": 2612,
      "istic": 2613,
      "Ġvon": 2614,
      "agu": 2615,
      "Ġtheory": 2616,
      "ĠIreland": 2617,
      "ĠIslam": 2618,
      "Ġthought": 2619,
      "Ġeconomic": 2620,
      "ĠRob": 2621,
      "pped": 2622,
      "Ġkind": 2623,
      "Ġoffense": 2624,
      "oms": 2625,
      "Ġtw": 2626,
      "Ġfri": 2627,
      "Ġsaw": 2628,
      "ĠThomas": 2629,
      "Ġprod": 2630,
      "raft": 2631,
      "ĠArab": 2632,
      "Ġmer": 2633,
      "iami": 2634,
      "Ġfun": 2635,
      "lisberger": 2636,
      "Ġtoo": 2637,
      "Ġ190": 2638,
      "ĠMany": 2639,
      "ĠGod": 2640,
      "ĠCo": 2641,
      "oney": 2642,
      "ights": 2643,
      "incip": 2644,
      "lo": 2645,
      "ĠAfrica": 2646,
      "Ġpolic": 2647,
      "Ġcirc": 2648,
      "ethlisberger": 2649,
      "Ġphilos": 2650,
      "ĠFin": 2651,
      "Ġ48": 2652,
      "ĠAss": 2653,
      "ĠRoethlisberger": 2654,
      "ĠComp": 2655,
      "Ġrook": 2656,
      "ested": 2657,
      "Ġspace": 2658,
      "Ġalmost": 2659,
      "Ġlet": 2660,
      "Ġbord": 2661,
      "cing": 2662,
      "alt": 2663,
      "Ġarri": 2664,
      "Ġwhite": 2665,
      "ĠPanthers": 2666,
      "eneral": 2667,
      "Ġnailing": 2668,
      "ĠSam": 2669,
      "Ġ42": 2670,
      "Ġdeb": 2671,
      "ĠMichael": 2672,
      "Ġinternational": 2673,
      "Ġstay": 2674,
      "exic": 2675,
      "istan": 2676,
      "Ġur": 2677,
      "Ġoccup": 2678,
      "aper": 2679,
      "stand": 2680,
      "ĠAlex": 2681,
      "Ġpress": 2682,
      "ĠRev": 2683,
      "Ġ2015": 2684,
      "bor": 2685,
      "Ġrookie": 2686,
      "eff": 2687,
      "Ġscience": 2688,
      "roy": 2689,
      "ĠState": 2690,
      "Ġparty": 2691,
      "su": 2692,
      "Ġrecogn": 2693,
      "rict": 2694,
      "Ġsize": 2695,
      "rest": 2696,
      "Ġmeet": 2697,
      "Ġintroduc": 2698,
      "Ġthink": 2699,
      "Ġthroughout": 2700,
      "Ġsack": 2701,
      "ym": 2702,
      "aces": 2703,
      "atter": 2704,
      "ps": 2705,
      "tin": 2706,
      "Ġfamilies": 2707,
      "ĠAfterwards": 2708,
      "Ġpresident": 2709,
      "ators": 2710,
      "Ġ43": 2711,
      "Ġterms": 2712,
      "Ġsym": 2713,
      "Ġespecially": 2714,
      "Ġlist": 2715,
      "Ġlittle": 2716,
      "itect": 2717,
      "Ġcareer": 2718,
      "eck": 2719,
      "Ġ65": 2720,
      "Ġcampaign": 2721,
      "bs": 2722,
      "Ġreal": 2723,
      "Ġenc": 2724,
      "ĠLa": 2725,
      "win": 2726,
      "Ġspok": 2727,
      "fic": 2728,
      "ĠPit": 2729,
      "Ġcolon": 2730,
      "ĠMiami": 2731,
      "Ġintercepted": 2732,
      "overn": 2733,
      "rick": 2734,
      "Ġgoing": 2735,
      "Ġreached": 2736,
      "Ġtrade": 2737,
      "minist": 2738,
      "raw": 2739,
      "Ġassoc": 2740,
      "burg": 2741,
      "Ġarg": 2742,
      "burgh": 2743,
      "Ġtied": 2744,
      "Ġsometimes": 2745,
      "Ġlonger": 2746,
      "Ġsystems": 2747,
      "Ġwomen": 2748,
      "tor": 2749,
      "asion": 2750,
      "Ġrelations": 2751,
      "90": 2752,
      "arm": 2753,
      "As": 2754,
      "ĠMexic": 2755,
      "gypt": 2756,
      "arn": 2757,
      "ols": 2758,
      "Ġremained": 2759,
      "Ġtie": 2760,
      "Ġmarket": 2761,
      "ĠWestern": 2762,
      "..": 2763,
      "Ġculture": 2764,
      "ĠMike": 2765,
      "ĠRod": 2766,
      "imately": 2767,
      "ĠEn": 2768,
      "Ġleading": 2769,
      "Ġanswered": 2770,
      "Ġliter": 2771,
      "Ġlosing": 2772,
      "ota": 2773,
      "Ġeducation": 2774,
      "game": 2775,
      "Ġbroad": 2776,
      "27": 2777,
      "ĠHenry": 2778,
      "Ġ47": 2779,
      "lav": 2780,
      "ify": 2781,
      "jects": 2782,
      "Ġstop": 2783,
      "ĠCatholic": 2784,
      "Ġneg": 2785,
      "selves": 2786,
      "imate": 2787,
      "Ġgrowth": 2788,
      "Ġstruct": 2789,
      "Ġkeep": 2790,
      "ape": 2791,
      "abor": 2792,
      "Ġground": 2793,
      "kowski": 2794,
      "Ġplayer": 2795,
      "of": 2796,
      "Ġcoast": 2797,
      "Ġemploy": 2798,
      "Ã¡": 2799,
      "adel": 2800,
      "Ġseven": 2801,
      "uf": 2802,
      "%),": 2803,
      "Ġwest": 2804,
      "Ġson": 2805,
      "ests": 2806,
      "ĠTe": 2807,
      "ae": 2808,
      "Ġthemselves": 2809,
      "Ġeither": 2810,
      "atures": 2811,
      "Ġrushing": 2812,
      "ĠMuslim": 2813,
      "Ġ46": 2814,
      "Ġcompared": 2815,
      "Ġsum": 2816,
      "Ġcatch": 2817,
      "right": 2818,
      "Ġreason": 2819,
      "che": 2820,
      "ampions": 2821,
      "ĠWilliam": 2822,
      "Ġbrought": 2823,
      "ĠEgypt": 2824,
      "conference": 2825,
      "ceed": 2826,
      "Ġconflic": 2827,
      "Ġdata": 2828,
      "aves": 2829,
      "Ġcost": 2830,
      "Ġrock": 2831,
      "ĠAccording": 2832,
      "ĠMac": 2833,
      "Ġcourt": 2834,
      "ples": 2835,
      "yl": 2836,
      "ati": 2837,
      "ĠKore": 2838,
      "Ġwritten": 2839,
      "ocr": 2840,
      "enced": 2841,
      "ours": 2842,
      "Ġge": 2843,
      "Ġcentral": 2844,
      "Ġblock": 2845,
      "ranch": 2846,
      "28": 2847,
      "Ġproduced": 2848,
      "ĠHouse": 2849,
      "Ġsafety": 2850,
      "Ġolder": 2851,
      "Ġproduction": 2852,
      "Ġbi": 2853,
      "ask": 2854,
      "Ġfather": 2855,
      "Ġnatural": 2856,
      "Ġsw": 2857,
      "Ġstandard": 2858,
      "Ġbreak": 2859,
      "ĠDem": 2860,
      "Ġbusiness": 2861,
      "ĠFort": 2862,
      "vision": 2863,
      "Ġrespect": 2864,
      "ĠMost": 2865,
      "Ġbuilding": 2866,
      "arian": 2867,
      "ware": 2868,
      "Ġseen": 2869,
      "Ġspeak": 2870,
      "Ġmatch": 2871,
      "Ġmethod": 2872,
      "Ġlower": 2873,
      "Ġgra": 2874,
      "olk": 2875,
      "Ġincreasing": 2876,
      "Ġ&": 2877,
      "Ġfav": 2878,
      "etic": 2879,
      "Ġeventually": 2880,
      "Ġregular": 2881,
      "ĠCle": 2882,
      "Ġeast": 2883,
      "Ġ2005": 2884,
      "ĠNo": 2885,
      "ville": 2886,
      "ication": 2887,
      "Ġcase": 2888,
      "On": 2889,
      "Ġavail": 2890,
      "ources": 2891,
      "ollowing": 2892,
      "lym": 2893,
      "isc": 2894,
      "ictor": 2895,
      "ford": 2896,
      "ĠSwed": 2897,
      "Ġpain": 2898,
      "Ġclos": 2899,
      "Ġlaun": 2900,
      "emb": 2901,
      "ghts": 2902,
      "itive": 2903,
      "ĠItalian": 2904,
      "arily": 2905,
      "Ġrace": 2906,
      "acy": 2907,
      "ification": 2908,
      "not": 2909,
      "phia": 2910,
      "ĠField": 2911,
      "ĠTurk": 2912,
      "Ġpublished": 2913,
      "reet": 2914,
      "struction": 2915,
      "Ġmajority": 2916,
      "Ġstrugg": 2917,
      "ĠGeorge": 2918,
      "ĠIsland": 2919,
      "uries": 2920,
      "Ġquick": 2921,
      "aled": 2922,
      "Ġmonths": 2923,
      "Ġox": 2924,
      "Ġdrove": 2925,
      "adelphia": 2926,
      "ster": 2927,
      "Ġreduc": 2928,
      "Ġrally": 2929,
      "Ġmember": 2930,
      "year": 2931,
      "ĠIrish": 2932,
      "Ġresearch": 2933,
      "Ġpul": 2934,
      ".,": 2935,
      "ĠAmericans": 2936,
      "ĠJapanese": 2937,
      "what": 2938,
      "ĠGra": 2939,
      "Ġsettle": 2940,
      "rote": 2941,
      "tool": 2942,
      "peror": 2943,
      "ĠSeattle": 2944,
      "Ġeight": 2945,
      "Ġ60": 2946,
      "Th": 2947,
      "Ġreturning": 2948,
      "Ġpeace": 2949,
      "arguments": 2950,
      "Ġgenerally": 2951,
      "|>{\"": 2952,
      "Ġestimated": 2953,
      "ĠRich": 2954,
      "ĠCour": 2955,
      "Did": 2956,
      "ping": 2957,
      "Ġsit": 2958,
      "Ġwinning": 2959,
      "Ġrather": 2960,
      "ĠCounty": 2961,
      "Ġdyn": 2962,
      "ĠPhiladelphia": 2963,
      "Ġfre": 2964,
      "Ġwhe": 2965,
      "Ġfootball": 2966,
      "29": 2967,
      "Ġwords": 2968,
      "Ġfinally": 2969,
      "Ġcertain": 2970,
      "Ġpassed": 2971,
      "perial": 2972,
      "Ġcharg": 2973,
      "Ġreplied": 2974,
      "Ġpast": 2975,
      "Ġreach": 2976,
      "irth": 2977,
      "iams": 2978,
      "ĠTreaty": 2979,
      "Ġhealth": 2980,
      "Ġitself": 2981,
      "rime": 2982,
      "partment": 2983,
      "Ġfounded": 2984,
      "Ġstreak": 2985,
      "Ġethn": 2986,
      "iol": 2987,
      "Ġarchitect": 2988,
      "Ġyes": 2989,
      ".[": 2990,
      "ĠPark": 2991,
      "ĠAsian": 2992,
      "ĠAir": 2993,
      "Ġoutside": 2994,
      "ĠGeneral": 2995,
      "Ġcaused": 2996,
      "82": 2997,
      "cast": 2998,
      "Ġsouthern": 2999,
      "rel": 3000,
      "Ġrole": 3001,
      "Ĺı": 3002,
      "ustry": 3003,
      "ĠTo": 3004,
      "cean": 3005,
      "Ġtaken": 3006,
      "Ġhelped": 3007,
      "Ġentire": 3008,
      "Ġcover": 3009,
      "Ġprincip": 3010,
      "uk": 3011,
      "Ġ2004": 3012,
      "ĠWilliams": 3013,
      "ĠWil": 3014,
      "ĠRivers": 3015,
      "Ġsays": 3016,
      "ĠSchool": 3017,
      "Ġspread": 3018,
      "Ġoriginal": 3019,
      "Ġnumbers": 3020,
      "ĠAsia": 3021,
      "âĹı": 3022,
      "Ġpay": 3023,
      "riz": 3024,
      "Ġten": 3025,
      "Ġdefeated": 3026,
      "Ġforms": 3027,
      "Ġnorthern": 3028,
      "ĠIm": 3029,
      "ett": 3030,
      "Ġwrote": 3031,
      "bo": 3032,
      "Ã¼": 3033,
      "Ġcit": 3034,
      "Ġmoney": 3035,
      "ĠChris": 3036,
      "Ġobs": 3037,
      "ply": 3038,
      "ĠKh": 3039,
      "face": 3040,
      "Ġmight": 3041,
      "Ġever": 3042,
      "Ġ1990": 3043,
      "ĠJust": 3044,
      "Ġuniversity": 3045,
      "ĠRoyal": 3046,
      "ĠDenver": 3047,
      "--": 3048,
      "ĠInternational": 3049,
      "ĠColle": 3050,
      "35": 3051,
      "Ġworks": 3052,
      "Ġbeginning": 3053,
      "Ġsugg": 3054,
      "ĠBow": 3055,
      "Ġfamous": 3056,
      "inal": 3057,
      "Ġestablish": 3058,
      "iter": 3059,
      "ĠAustralia": 3060,
      "St": 3061,
      "Ġpers": 3062,
      "augh": 3063,
      "eter": 3064,
      "Ġhimself": 3065,
      "field": 3066,
      "Ġconqu": 3067,
      "ĠVictor": 3068,
      "Ġupon": 3069,
      "medi": 3070,
      "oon": 3071,
      "ĠCong": 3072,
      "tsburgh": 3073,
      "Ġstraight": 3074,
      "ĠHer": 3075,
      "van": 3076,
      "Ġcaught": 3077,
      "ĠBer": 3078,
      "ennes": 3079,
      "Ġprevent": 3080,
      "play": 3081,
      "Ġleaders": 3082,
      "gers": 3083,
      "Ġservices": 3084,
      "citation": 3085,
      "br": 3086,
      "ising": 3087,
      "Ġopened": 3088,
      "ĠPac": 3089,
      "After": 3090,
      "Ġsch": 3091,
      "ancial": 3092,
      "ĠCanada": 3093,
      "otion": 3094,
      "ĠPittsburgh": 3095,
      "Ġmount": 3096,
      "Ġrange": 3097,
      "Ġmor": 3098,
      "ĠÂ°": 3099,
      "ĠCut": 3100,
      "ĠAct": 3101,
      "Ġlarger": 3102,
      "rial": 3103,
      "ara": 3104,
      "Ġwind": 3105,
      "Ġmaintain": 3106,
      "Ġappear": 3107,
      "yc": 3108,
      "Ġannounced": 3109,
      "ĠCentral": 3110,
      "ĠItaly": 3111,
      "ĠGovern": 3112,
      "Ġinfluence": 3113,
      "BC": 3114,
      "Ġraces": 3115,
      "ĠArmen": 3116,
      "ĠCor": 3117,
      "Ġsoldiers": 3118,
      "Ġengine": 3119,
      "Ġfederal": 3120,
      "ĠDon": 3121,
      "Ġ80": 3122,
      "Ġevents": 3123,
      "Ġindustry": 3124,
      "ĠFre": 3125,
      "asty": 3126,
      "ĠGl": 3127,
      "viron": 3128,
      "Ġavailable": 3129,
      "ĠParis": 3130,
      "ĠFirst": 3131,
      "Ġreported": 3132,
      "Ġinstead": 3133,
      "km": 3134,
      "ĠBro": 3135,
      "ports": 3136,
      "Ġpossible": 3137,
      "ĠPer": 3138,
      "pts": 3139,
      "Ġblood": 3140,
      "Ġtitle": 3141,
      "Ġvide": 3142,
      "ĠBrandon": 3143,
      "Ġancest": 3144,
      "ĠFrancisco": 3145,
      "Ġadminist": 3146,
      "Ġeas": 3147,
      "ana": 3148,
      "NN": 3149,
      "ĠGar": 3150,
      "ee": 3151,
      "Ġnation": 3152,
      "like": 3153,
      "ĠQueen": 3154,
      "ability": 3155,
      "Ġrecovered": 3156,
      "Ġscoreless": 3157,
      "Ġchanges": 3158,
      "ydro": 3159,
      "Ġrights": 3160,
      "ĠMa": 3161,
      "apt": 3162,
      "aval": 3163,
      "Ġcompan": 3164,
      "ĠCup": 3165,
      "chie": 3166,
      "ĠJosh": 3167,
      "ĠCutler": 3168,
      "Ġmother": 3169,
      "ĠAnt": 3170,
      "Ġcontrib": 3171,
      "Ġfund": 3172,
      "ĠPolish": 3173,
      "let": 3174,
      "hers": 3175,
      "with": 3176,
      "ĠCouncil": 3177,
      "Ġpur": 3178,
      "Ġprivate": 3179,
      "ĠKe": 3180,
      "Ġincludes": 3181,
      "ennessee": 3182,
      "26": 3183,
      "ĠSer": 3184,
      "omb": 3185,
      "ception": 3186,
      "Ġmot": 3187,
      "ming": 3188,
      "ĠTra": 3189,
      "bes": 3190,
      "idence": 3191,
      "iverse": 3192,
      "ander": 3193,
      "45": 3194,
      "Ġturned": 3195,
      "Ġforeign": 3196,
      "ĠTennessee": 3197,
      "ĠOak": 3198,
      "ĠRobert": 3199,
      "olis": 3200,
      "uguese": 3201,
      "Ġhun": 3202,
      "Ġcaptured": 3203,
      "Ġsmaller": 3204,
      "Ġconnected": 3205,
      "Ġdeep": 3206,
      "Ġsigned": 3207,
      "160": 3208,
      "ij": 3209,
      "ĠJay": 3210,
      "timore": 3211,
      "Ġtaking": 3212,
      "ĠProt": 3213,
      "Ġmovement": 3214,
      "ĠSpain": 3215,
      "Ġsett": 3216,
      "Ġtreat": 3217,
      "ĠBlack": 3218,
      "bit": 3219,
      "iest": 3220,
      "Ġbetter": 3221,
      "Ġyoung": 3222,
      "aps": 3223,
      "Ġdisp": 3224,
      "ĠAlthough": 3225,
      "Ġsat": 3226,
      "rie": 3227,
      "elling": 3228,
      "Ġrival": 3229,
      "ĠLaw": 3230,
      "ategory": 3231,
      "ĠBaltimore": 3232,
      "Ġfoc": 3233,
      "Ġalways": 3234,
      "Ġmeaning": 3235,
      "ĠBo": 3236,
      "ĠJeff": 3237,
      "ĠCourt": 3238,
      "round": 3239,
      "rus": 3240,
      "ĠSoc": 3241,
      "ications": 3242,
      "Ġunivers": 3243,
      "ores": 3244,
      "iff": 3245,
      "Ġtax": 3246,
      "Ġmostly": 3247,
      "atory": 3248,
      "ĠJer": 3249,
      "Ġplayers": 3250,
      "Ġdise": 3251,
      "ĠJagu": 3252,
      "Ġrecorded": 3253,
      "ĠNor": 3254,
      "ude": 3255,
      "ĠRomo": 3256,
      "Ġanimals": 3257,
      "Ġneigh": 3258,
      "Ġgrad": 3259,
      "Ġadop": 3260,
      "Ġcolor": 3261,
      "Ġbirth": 3262,
      "Ġstruck": 3263,
      "Ġchurch": 3264,
      "ĠWhile": 3265,
      "Ġdi": 3266,
      "ĠMal": 3267,
      "Ġinvest": 3268,
      "Ġgas": 3269,
      "icro": 3270,
      "bour": 3271,
      "alty": 3272,
      "bon": 3273,
      "Ġpot": 3274,
      "ĠDel": 3275,
      "hel": 3276,
      "omes": 3277,
      "ĠMinn": 3278,
      "Ġreligion": 3279,
      "Ġclosed": 3280,
      "Ġrebound": 3281,
      "Ġeconomy": 3282,
      "Ġvisit": 3283,
      "Ġethnic": 3284,
      "ĠTer": 3285,
      "estic": 3286,
      "ĠMiddle": 3287,
      "ĠJoe": 3288,
      "ĠĠĠĠĠĠĠĠ": 3289,
      "ĠPoland": 3290,
      "Ġabove": 3291,
      "adem": 3292,
      "Ġcenter": 3293,
      "ĠSuper": 3294,
      "reater": 3295,
      "ĠWind": 3296,
      "Ġwhose": 3297,
      "Ġphilosoph": 3298,
      "Ġhook": 3299,
      "que": 3300,
      "uddh": 3301,
      "Ġconsist": 3302,
      "Ġincome": 3303,
      "Ġcases": 3304,
      "Ġkm": 3305,
      "ĠMcC": 3306,
      "Ġcondition": 3307,
      "Ġparticularly": 3308,
      "Ch": 3309,
      "oes": 3310,
      "Ġachie": 3311,
      "owers": 3312,
      "esota": 3313,
      "Ġport": 3314,
      "Ġbird": 3315,
      "Ġtrad": 3316,
      "ĠMinnesota": 3317,
      "Ġcommer": 3318,
      "Ġflow": 3319,
      "Ġplants": 3320,
      "Ġchemical": 3321,
      "Ġsea": 3322,
      "ĠParty": 3323,
      "ĠJaguars": 3324,
      "enc": 3325,
      "uals": 3326,
      "Ġtraditional": 3327,
      "Ġdestroy": 3328,
      "Ġtest": 3329,
      "Ġmix": 3330,
      "ula": 3331,
      "assel": 3332,
      "Ġsoon": 3333,
      "Ġhappened": 3334,
      "Ġlay": 3335,
      "Ġarm": 3336,
      "Ġintroduced": 3337,
      "Ġrespons": 3338,
      "Ġnearly": 3339,
      "ĠFrom": 3340,
      "omm": 3341,
      "Ġindependent": 3342,
      "Ġprovide": 3343,
      "ufact": 3344,
      "umb": 3345,
      "Ġleader": 3346,
      "ĠMor": 3347,
      "rizona": 3348,
      "Ġdiffic": 3349,
      "Ġlik": 3350,
      "ĠAk": 3351,
      "Ġborn": 3352,
      "Ġep": 3353,
      "Ġsong": 3354,
      "Ġrain": 3355,
      "ĠVal": 3356,
      "Ġminor": 3357,
      "Ġpulled": 3358,
      "ĠCinc": 3359,
      "ĠThen": 3360,
      "Ġracial": 3361,
      "Ġdig": 3362,
      "ĠBel": 3363,
      "ĠArizona": 3364,
      "ĠPaul": 3365,
      "Ġ2001": 3366,
      "uge": 3367,
      "Hoping": 3368,
      "ĠDar": 3369,
      "ĠMad": 3370,
      "ibr": 3371,
      "Ġproblems": 3372,
      "Ġfront": 3373,
      "Ġ1970": 3374,
      "ĠAtlanta": 3375,
      "ĠOakland": 3376,
      "Ġmodel": 3377,
      "Ġlaws": 3378,
      "anks": 3379,
      "ccane": 3380,
      "ĠMary": 3381,
      "ĠBra": 3382,
      "Ġmanag": 3383,
      "ximately": 3384,
      "ilities": 3385,
      "ont": 3386,
      "ream": 3387,
      "ĠBuccane": 3388,
      "ĠCollege": 3389,
      "75": 3390,
      "olit": 3391,
      "ĠIII": 3392,
      "ĠPortuguese": 3393,
      "Ġtraveled": 3394,
      "Ġcause": 3395,
      "aving": 3396,
      "west": 3397,
      "Ġdom": 3398,
      "ĠIf": 3399,
      "Ġdeg": 3400,
      "%,": 3401,
      "Ġcross": 3402,
      "Ġfemales": 3403,
      "innati": 3404,
      "ĠRevolution": 3405,
      "vironment": 3406,
      "Ġaccess": 3407,
      "34": 3408,
      "ulation": 3409,
      "Ġabs": 3410,
      "ned": 3411,
      "Ġdescribed": 3412,
      "Ġsoft": 3413,
      "berg": 3414,
      "ecess": 3415,
      "hab": 3416,
      "kn": 3417,
      "lor": 3418,
      "Ġviol": 3419,
      "ĠPacific": 3420,
      "chan": 3421,
      "Ġconflict": 3422,
      "ĠCincinnati": 3423,
      "ĠBuddh": 3424,
      "ĠParliament": 3425,
      "Ġcompanies": 3426,
      "99": 3427,
      "ridge": 3428,
      "ĠKn": 3429,
      "Ġcamp": 3430,
      "ique": 3431,
      "Ġcombined": 3432,
      "Ġworking": 3433,
      "Ġnar": 3434,
      "Ġcitiz": 3435,
      "Ġkickoff": 3436,
      "ya": 3437,
      "Ġchanged": 3438,
      "Ġpolice": 3439,
      "Ġleague": 3440,
      "rael": 3441,
      "Ġquickly": 3442,
      "Ġregard": 3443,
      "Ġfrequ": 3444,
      "ressed": 3445,
      "iment": 3446,
      "craft": 3447,
      "ĠTwo": 3448,
      "Ġcoll": 3449,
      "heast": 3450,
      "Ġemer": 3451,
      "Ġnetwork": 3452,
      "ades": 3453,
      "Ġconsecutive": 3454,
      "ibet": 3455,
      "ĠQu": 3456,
      "ĠPeople": 3457,
      "38": 3458,
      "Ġder": 3459,
      "alo": 3460,
      "Ġunderstand": 3461,
      "Ġ1980": 3462,
      "reme": 3463,
      "ĠNet": 3464,
      "hips": 3465,
      "ansas": 3466,
      "65": 3467,
      "Ġancient": 3468,
      "Ġtemperature": 3469,
      "ledge": 3470,
      "Ġanal": 3471,
      "Ġcomputer": 3472,
      "iction": 3473,
      "Ġsnap": 3474,
      "ĠBuccaneers": 3475,
      "Ġelements": 3476,
      "Ġcenturies": 3477,
      "Ġmales": 3478,
      "Ġearlier": 3479,
      "ira": 3480,
      "Ġsubsequ": 3481,
      "Äģ": 3482,
      "Ġstarting": 3483,
      "ĠEastern": 3484,
      "apolis": 3485,
      "Ġmile": 3486,
      "Ġtypes": 3487,
      "istance": 3488,
      "ĠTony": 3489,
      "ining": 3490,
      "ready": 3491,
      "Ġschol": 3492,
      "Ġreplaced": 3493,
      "Ġyard": 3494,
      "ĠBul": 3495,
      "ĠSunday": 3496,
      "Ġexam": 3497,
      "iding": 3498,
      "ĠScot": 3499,
      "Ġrelat": 3500,
      "Ġindust": 3501,
      "iforn": 3502,
      "Ġfort": 3503,
      "Ġsurv": 3504,
      "500": 3505,
      "hew": 3506,
      "ĠHist": 3507,
      "Ġcommunity": 3508,
      "Ġbuildings": 3509,
      "Ġattempted": 3510,
      "thing": 3511,
      "Ġtelevision": 3512,
      "ivision": 3513,
      "Ġdeterm": 3514,
      "rag": 3515,
      "Ġbar": 3516,
      "Ġmakes": 3517,
      "Ġdog": 3518,
      "Ġpick": 3519,
      "ĠRes": 3520,
      "Ġoffensive": 3521,
      "bum": 3522,
      "Ġcultural": 3523,
      "undred": 3524,
      "Ġwestern": 3525,
      "Ġidea": 3526,
      "Ġmanufact": 3527,
      "ĠUK": 3528,
      "Ġcat": 3529,
      "ĠApp": 3530,
      "Ġ64": 3531,
      "leans": 3532,
      "Ġcorn": 3533,
      "iance": 3534,
      "ĠDu": 3535,
      "Ġthous": 3536,
      "Ġimmedi": 3537,
      "isl": 3538,
      "Ġfif": 3539,
      "Ġden": 3540,
      "add": 3541,
      "ĠFootball": 3542,
      "ires": 3543,
      "oted": 3544,
      "Ġinstitution": 3545,
      "Ġrecent": 3546,
      "Ġdecided": 3547,
      "Ġ51": 3548,
      "48": 3549,
      "Ġjob": 3550,
      "Ġhousing": 3551,
      "ĠHan": 3552,
      "ĠHill": 3553,
      "ĠCaliforn": 3554,
      "iel": 3555,
      "Ġentered": 3556,
      "urity": 3557,
      "ingu": 3558,
      "ygen": 3559,
      "reement": 3560,
      "Ġour": 3561,
      "Ġsex": 3562,
      "Ġcomplex": 3563,
      "Ġelected": 3564,
      "Ġdivided": 3565,
      "anded": 3566,
      "Ġlo": 3567,
      "Ġprimary": 3568,
      "Ġstyle": 3569,
      "ĠRichard": 3570,
      "Ġhydro": 3571,
      "Ġoil": 3572,
      "Ġseem": 3573,
      "Al": 3574,
      "hood": 3575,
      "ĠKa": 3576,
      "Ġface": 3577,
      "Ġwhom": 3578,
      "ta": 3579,
      "ĠTampa": 3580,
      "Ġago": 3581,
      "76": 3582,
      "ison": 3583,
      "An": 3584,
      "ĠPrince": 3585,
      "Ġslow": 3586,
      "Ġscientists": 3587,
      "Ġaction": 3588,
      "ĠLater": 3589,
      "ties": 3590,
      "Ġriver": 3591,
      "Ġmatter": 3592,
      "AT": 3593,
      "Ġcur": 3594,
      "Ġthreat": 3595,
      "Ġcannot": 3596,
      "Ġregions": 3597,
      "ky": 3598,
      "obal": 3599,
      "Ġalready": 3600,
      "Ġbring": 3601,
      "Ġfemale": 3602,
      "Ġfig": 3603,
      "Ġ2003": 3604,
      "Ġmarked": 3605,
      "ĠSant": 3606,
      "Ġ2016": 3607,
      "Ġcommit": 3608,
      "Ġsymb": 3609,
      "oud": 3610,
      "ĠLong": 3611,
      "Ġplant": 3612,
      "ĠJews": 3613,
      "ĠGraham": 3614,
      "Ġjud": 3615,
      "Ġcells": 3616,
      "ĠSec": 3617,
      "olec": 3618,
      "36": 3619,
      "Ġpenalty": 3620,
      "who": 3621,
      "Ġelectric": 3622,
      "zone": 3623,
      "Ġfinding": 3624,
      "Ġste": 3625,
      "Ġfeature": 3626,
      "ino": 3627,
      "Why": 3628,
      "Ġborder": 3629,
      "Ġfinancial": 3630,
      "Ġhot": 3631,
      "Ġsil": 3632,
      "Ġrecover": 3633,
      "Ġspeed": 3634,
      "95": 3635,
      "mar": 3636,
      "Ġdistin": 3637,
      "Ġtreaty": 3638,
      "vention": 3639,
      "ĠGreece": 3640,
      "lared": 3641,
      "kins": 3642,
      "wide": 3643,
      "ĠKansas": 3644,
      "Ġdynasty": 3645,
      "Ġbase": 3646,
      "ĠCalifornia": 3647,
      "Ġacce": 3648,
      "ĠRodgers": 3649,
      "Ġdou": 3650,
      "Ġelection": 3651,
      "Ġfight": 3652,
      "ein": 3653,
      "Ġkept": 3654,
      "ĠClevel": 3655,
      "Ġprogram": 3656,
      "bled": 3657,
      "ĠCommun": 3658,
      "Ġindependence": 3659,
      "ĠCleveland": 3660,
      "ls": 3661,
      "Ġreception": 3662,
      "Ġdial": 3663,
      "Ġgain": 3664,
      "ĠWars": 3665,
      "Ġprison": 3666,
      "Ġcounter": 3667,
      "ays": 3668,
      "Ġclimate": 3669,
      "Ġproblem": 3670,
      "Ġlegal": 3671,
      "Ġsomething": 3672,
      "erve": 3673,
      "ĠTibet": 3674,
      "Ġconstruction": 3675,
      "isions": 3676,
      "Ġobject": 3677,
      "Ġkicking": 3678,
      "Ġpercentage": 3679,
      "Ġinside": 3680,
      "Ġdocument": 3681,
      "lymp": 3682,
      "aded": 3683,
      "Ġsurface": 3684,
      "ricult": 3685,
      "Ġparticip": 3686,
      "Ġnuc": 3687,
      "ĠYes": 3688,
      "ĠAv": 3689,
      "Ġdecl": 3690,
      "Ġruled": 3691,
      "oles": 3692,
      "ĠIndianapolis": 3693,
      "Ġeastern": 3694,
      "ĠGrand": 3695,
      "ĠOrleans": 3696,
      "Ġinvasion": 3697,
      "ength": 3698,
      "useum": 3699,
      "ĠFollowing": 3700,
      "Ġphot": 3701,
      "Is": 3702,
      "Ã³": 3703,
      "Ġself": 3704,
      "ĠTr": 3705,
      "ĠBrees": 3706,
      "Â²": 3707,
      "Ġcontain": 3708,
      "Ġpolicy": 3709,
      "98": 3710,
      "Ġmention": 3711,
      "Ġalbum": 3712,
      "Ġclock": 3713,
      "Ġche": 3714,
      "Ġmach": 3715,
      "ecting": 3716,
      "Ġconver": 3717,
      "96": 3718,
      "ume": 3719,
      "Ġplaces": 3720,
      "Ġrequired": 3721,
      "Ġthus": 3722,
      "Ġdam": 3723,
      "Ġdistrib": 3724,
      "ĠIsrael": 3725,
      "Ġextended": 3726,
      "Ġnorm": 3727,
      "33": 3728,
      "Ġamount": 3729,
      "Ġadvant": 3730,
      "ĠAc": 3731,
      "It": 3732,
      "Ġice": 3733,
      "Ġdefeat": 3734,
      "ĠPrater": 3735,
      "Ġoffice": 3736,
      "Ġrail": 3737,
      "ĠCub": 3738,
      "ĠHigh": 3739,
      "istry": 3740,
      "Ġve": 3741,
      "ĠSince": 3742,
      "hib": 3743,
      "ĠBell": 3744,
      "Ġlived": 3745,
      "Ġcond": 3746,
      "ĠBuff": 3747,
      "ĠPri": 3748,
      "ĠVictoria": 3749,
      "ĠSom": 3750,
      "Ġdeclared": 3751,
      "onse": 3752,
      "ĠMark": 3753,
      "uation": 3754,
      "ocratic": 3755,
      "Ġovertime": 3756,
      "ĠOff": 3757,
      "panic": 3758,
      "Ġassociated": 3759,
      "anced": 3760,
      "Ġkey": 3761,
      "ken": 3762,
      "pro": 3763,
      "Ġconsider": 3764,
      "Ġtold": 3765,
      "px": 3766,
      "ĠSea": 3767,
      "ĠSystem": 3768,
      "Ġ2002": 3769,
      "unities": 3770,
      "Ġclear": 3771,
      "Ġinterconference": 3772,
      "77": 3773,
      "Ġresulted": 3774,
      "Ġconstitution": 3775,
      "icker": 3776,
      "Ġuses": 3777,
      "Ġ52": 3778,
      "Ġbelieved": 3779,
      "Ġobserv": 3780,
      "Ġapproximately": 3781,
      "Ġdefensive": 3782,
      "ĠMount": 3783,
      "ĠOlymp": 3784,
      "NA": 3785,
      "ĠVir": 3786,
      "ĠJose": 3787,
      "ĠBry": 3788,
      "ĠMexico": 3789,
      "ĠNick": 3790,
      "ĠJac": 3791,
      "Ġwhether": 3792,
      "istics": 3793,
      "Ġsupported": 3794,
      "based": 3795,
      "Ġcitizens": 3796,
      "lins": 3797,
      "Ġvo": 3798,
      "Ġfire": 3799,
      "ĠEmperor": 3800,
      "ĠGost": 3801,
      "Ġpoor": 3802,
      "Ġelse": 3803,
      "Ġresidents": 3804,
      "Ġfut": 3805,
      "Ġthrowing": 3806,
      "ĠMer": 3807,
      "Ġoccurred": 3808,
      "Ġwant": 3809,
      "Ġrelated": 3810,
      "icit": 3811,
      "Ġofficially": 3812,
      "Ġmig": 3813,
      "ror": 3814,
      "Ġgold": 3815,
      "Ġideas": 3816,
      "Ġannual": 3817,
      "icle": 3818,
      "Ġtowards": 3819,
      "Ġacqu": 3820,
      "ĠCB": 3821,
      "64": 3822,
      "onic": 3823,
      "Ġspecific": 3824,
      "Ġprior": 3825,
      "bell": 3826,
      "Ġmom": 3827,
      "Ġhundred": 3828,
      "Ġmedia": 3829,
      "Ġ90": 3830,
      "ĠPruss": 3831,
      "Ġ70": 3832,
      "ĠHans": 3833,
      "ĠNorthern": 3834,
      "ĠCongress": 3835,
      "85": 3836,
      "ĠMong": 3837,
      "Ġjoined": 3838,
      "eding": 3839,
      "ĠRec": 3840,
      "Ġinterest": 3841,
      "Ġseparate": 3842,
      "Ġmolec": 3843,
      "ĠGould": 3844,
      "isham": 3845,
      "Ġvia": 3846,
      "ithuan": 3847,
      "ras": 3848,
      "Ġresponse": 3849,
      "Ġstayed": 3850,
      "Ġaud": 3851,
      "Ġcreate": 3852,
      "Ġcele": 3853,
      "ĠScotland": 3854,
      "Ġi": 3855,
      "Ġdiscovered": 3856,
      "ĠNative": 3857,
      "Ġstatus": 3858,
      "ĠMarsh": 3859,
      "Ġreport": 3860,
      "Ġlearn": 3861,
      "Ġserved": 3862,
      "Ġenvironment": 3863,
      "Ġpassing": 3864,
      "aren": 3865,
      "Ġplayoff": 3866,
      "Ġfinished": 3867,
      "Ġversion": 3868,
      "ĠBuffalo": 3869,
      "ĠOld": 3870,
      "Ġvill": 3871,
      "Ġagreed": 3872,
      "89": 3873,
      "oul": 3874,
      "Ġver": 3875,
      "ĠIran": 3876,
      "ĠFav": 3877,
      "Ġlimited": 3878,
      "ĠJewish": 3879,
      "irm": 3880,
      "Ġcorner": 3881,
      "ĠPey": 3882,
      "Ġbre": 3883,
      "Ġbye": 3884,
      "ĠGreg": 3885,
      "iences": 3886,
      "Ġimprove": 3887,
      "Ġmonarch": 3888,
      "Ġinstr": 3889,
      "Ġstation": 3890,
      "ĠGostkowski": 3891,
      "Ġsource": 3892,
      "There": 3893,
      "abb": 3894,
      "Ġcomplete": 3895,
      "light": 3896,
      "ament": 3897,
      "Ġcomeback": 3898,
      "ĠHung": 3899,
      "ĠCenter": 3900,
      "odox": 3901,
      "ĠScott": 3902,
      "Ġarrived": 3903,
      "Ġpurp": 3904,
      "CNN": 3905,
      "ĠMu": 3906,
      "ĠAnton": 3907,
      "ER": 3908,
      "Ġey": 3909,
      "Ġpaper": 3910,
      "Ġtour": 3911,
      "Ġ53": 3912,
      "ĠMond": 3913,
      "Ġislands": 3914,
      "ĠStaff": 3915,
      "%.": 3916,
      "Ġalone": 3917,
      "where": 3918,
      "Ġprofession": 3919,
      "ĠPeyton": 3920,
      "Ġhours": 3921,
      "Ġindividuals": 3922,
      "atives": 3923,
      "ecause": 3924,
      "Ġsound": 3925,
      "Ġcommonly": 3926,
      "Ġmiddle": 3927,
      "ĠCompany": 3928,
      "Ġdone": 3929,
      "ĠPalmer": 3930,
      "anned": 3931,
      "ords": 3932,
      "ĠFavre": 3933,
      "Ġearth": 3934,
      "Ġfigh": 3935,
      "Ġreferred": 3936,
      "Ġscientific": 3937,
      "Ġmechan": 3938,
      "onents": 3939,
      "ĠBryant": 3940,
      "Ġcoin": 3941,
      "Ġsun": 3942,
      "ĠMore": 3943,
      "urt": 3944,
      "Ġmiles": 3945,
      "Ġstep": 3946,
      "Ġmultip": 3947,
      "Ġbene": 3948,
      "rising": 3949,
      "ĠSuisham": 3950,
      "\")": 3951,
      "Ġindividual": 3952,
      "Ġcho": 3953,
      "ĠFrank": 3954,
      "49": 3955,
      "Ġcreat": 3956,
      "Ġrespectively": 3957,
      "olitan": 3958,
      "eks": 3959,
      "DP": 3960,
      "ĠProtest": 3961,
      "ĠAg": 3962,
      "Ġdifficult": 3963,
      "Ġdeal": 3964,
      "Ġwife": 3965,
      "Ġsubject": 3966,
      "ĠBowl": 3967,
      "Ġnine": 3968,
      "ĠCamp": 3969,
      "ĠWindows": 3970,
      "Ġshare": 3971,
      "ĠSim": 3972,
      "elled": 3973,
      "ida": 3974,
      "Ġfranch": 3975,
      "Ġextra": 3976,
      "ĠâĢ": 3977,
      "Ġevidence": 3978,
      "Ġonto": 3979,
      "Ġemb": 3980,
      "Ġknowledge": 3981,
      "Ġdesigned": 3982,
      "ĠFB": 3983,
      "ension": 3984,
      "ali": 3985,
      "Ġships": 3986,
      "Ġinvolved": 3987,
      "ĠThat": 3988,
      "ÃŃ": 3989,
      "Ġindic": 3990,
      "mon": 3991,
      "Ġwr": 3992,
      "ĠGal": 3993,
      "thodox": 3994,
      "isms": 3995,
      "Ġpressure": 3996,
      "Ġdropped": 3997,
      "ĠArch": 3998,
      "Ġroy": 3999,
      "ĠRh": 4000,
      "ĠMinister": 4001,
      "imed": 4002,
      "iege": 4003,
      "espite": 4004,
      "rich": 4005,
      "airs": 4006,
      "Ġradio": 4007,
      "hi": 4008,
      "Ġwidely": 4009,
      "ĠCast": 4010,
      "Ġcommercial": 4011,
      "ĠNight": 4012,
      "Ġworkers": 4013,
      "63": 4014,
      "ĠMil": 4015,
      "ĠSen": 4016,
      "ĠMonday": 4017,
      "ĠBre": 4018,
      "ĠJanik": 4019,
      "how": 4020,
      "Was": 4021,
      "aring": 4022,
      "Ġlegisl": 4023,
      "ĠMe": 4024,
      "Ġexch": 4025,
      "ĠAnother": 4026,
      "Ġcust": 4027,
      "Ġvir": 4028,
      "Ġbelieve": 4029,
      "Ġadvantage": 4030,
      "ĠJanikowski": 4031,
      "ĠFlor": 4032,
      "gress": 4033,
      "Ġrematch": 4034,
      "Ġwanted": 4035,
      "Ġsurround": 4036,
      "Ġlaunched": 4037,
      "ĠHall": 4038,
      "Ġbroke": 4039,
      "ulf": 4040,
      "Ġrelease": 4041,
      "44": 4042,
      "Ġlack": 4043,
      "ĠRome": 4044,
      "Ġmarried": 4045,
      "Ġoxygen": 4046,
      "Ġlargely": 4047,
      "rig": 4048,
      "Ġdirectly": 4049,
      "sy": 4050,
      "ĠJes": 4051,
      "ography": 4052,
      "Ġesc": 4053,
      "Ġpersonal": 4054,
      "ivity": 4055,
      "Ġkingdom": 4056,
      "Ġvideo": 4057,
      "quarter": 4058,
      "Ġterritories": 4059,
      "Ġâ": 4060,
      "Ġpowers": 4061,
      "olved": 4062,
      "Ġmag": 4063,
      "Ġahead": 4064,
      "Ġturnover": 4065,
      "ĠSat": 4066,
      "ĠâĢĶ": 4067,
      "Ġtransl": 4068,
      "ena": 4069,
      "Ġfought": 4070,
      ".\".": 4071,
      "ĠDivision": 4072,
      "Ġactive": 4073,
      "war": 4074,
      "Ġcapac": 4075,
      "Ġwhole": 4076,
      "ibility": 4077,
      "Ġfuture": 4078,
      "ĠMr": 4079,
      "ĠWall": 4080,
      "Ġmakeup": 4081,
      "icient": 4082,
      "Ġrout": 4083,
      "ĠCap": 4084,
      "Ġbelow": 4085,
      "iations": 4086,
      "ĠPlay": 4087,
      "rast": 4088,
      "Ġcritic": 4089,
      "mark": 4090,
      "55": 4091,
      "Ġlines": 4092,
      "Ġperformance": 4093,
      "king": 4094,
      "Ġappeared": 4095,
      "stitute": 4096,
      "Ġmissed": 4097,
      "Ġinhab": 4098,
      "Ġnarrow": 4099,
      "Ġ1960": 4100,
      "Ġdivisional": 4101,
      "Ġfavor": 4102,
      "Ġbrother": 4103,
      "61": 4104,
      "ĠIslamic": 4105,
      "87": 4106,
      "Ġera": 4107,
      "ĠSol": 4108,
      "Ġweeks": 4109,
      "Ġfranchise": 4110,
      "ĠCat": 4111,
      "Ġproduce": 4112,
      "Ġgained": 4113,
      "Ġstudies": 4114,
      "Ġ75": 4115,
      "ĠVen": 4116,
      "Ġsite": 4117,
      "ĠVin": 4118,
      "ram": 4119,
      "Ġdrew": 4120,
      "ura": 4121,
      "Ġ54": 4122,
      "Ġlevels": 4123,
      "yarder": 4124,
      "Ġsuper": 4125,
      "which": 4126,
      "Ġarchitecture": 4127,
      "37": 4128,
      "usp": 4129,
      "igned": 4130,
      "Ġheavy": 4131,
      "ĠGeorg": 4132,
      "Ġappoin": 4133,
      "ĠAkers": 4134,
      "Ġphilosophy": 4135,
      "Ġaircraft": 4136,
      "oid": 4137,
      "Ġconsum": 4138,
      "ĠRel": 4139,
      "acco": 4140,
      "ĠShaun": 4141,
      "AP": 4142,
      "Ġsociety": 4143,
      "ĠChampions": 4144,
      "rence": 4145,
      "Ġwebs": 4146,
      "Ġprotect": 4147,
      "ait": 4148,
      "Ġnature": 4149,
      "ented": 4150,
      "ĠSal": 4151,
      "ĠNap": 4152,
      "Ġstructure": 4153,
      "hester": 4154,
      ");": 4155,
      "39": 4156,
      "pir": 4157,
      "Ġrevolution": 4158,
      "Ġconcern": 4159,
      "Ġmainly": 4160,
      "Ġsuffered": 4161,
      "ĠInternet": 4162,
      "Ġnames": 4163,
      "Ġill": 4164,
      "Ġ(\"": 4165,
      "ux": 4166,
      "Ġplanet": 4167,
      "ĠGame": 4168,
      "onstr": 4169,
      "ĠPen": 4170,
      "Ġsyn": 4171,
      "winning": 4172,
      "Ġoldest": 4173,
      "wood": 4174,
      "sen": 4175,
      "ĠBush": 4176,
      "Ġdeliver": 4177,
      "31": 4178,
      "rang": 4179,
      "Ġensu": 4180,
      "Ġensuing": 4181,
      "Ġdrug": 4182,
      "Ġconcept": 4183,
      "ĠAngel": 4184,
      "Ġsummer": 4185,
      "Ġagricult": 4186,
      "Ġyour": 4187,
      "ĠSo": 4188,
      "ĠPers": 4189,
      "Ġgrand": 4190,
      "ĠEdward": 4191,
      "arent": 4192,
      "Ġcomes": 4193,
      "ĠCanadian": 4194,
      "rap": 4195,
      "Ġways": 4196,
      "Ġaward": 4197,
      "ules": 4198,
      "itions": 4199,
      "Ġsurp": 4200,
      "band": 4201,
      "Ġgrew": 4202,
      "Ġgreater": 4203,
      "Ġmedian": 4204,
      "Ġelectr": 4205,
      "Ġwood": 4206,
      "ĠMill": 4207,
      "icip": 4208,
      "anc": 4209,
      "ĠLos": 4210,
      "Ġgreen": 4211,
      "59": 4212,
      "Ġdesc": 4213,
      "oura": 4214,
      "Ġhumans": 4215,
      "ĠÃ": 4216,
      "Ġrap": 4217,
      "aut": 4218,
      "ios": 4219,
      "ĠSaint": 4220,
      "Ġspoken": 4221,
      "Ġprovince": 4222,
      "ĠUp": 4223,
      "porary": 4224,
      "Ġrules": 4225,
      "Ġfunction": 4226,
      "Ġenter": 4227,
      "ĠJacob": 4228,
      "Ġvers": 4229,
      "ha": 4230,
      "Ġexc": 4231,
      "Ġmagn": 4232,
      "elt": 4233,
      "Ã¶": 4234,
      "Ġranked": 4235,
      "Ġfeel": 4236,
      "Ġwall": 4237,
      "Ġagreement": 4238,
      "Ġpossess": 4239,
      "aughter": 4240,
      "ES": 4241,
      "lying": 4242,
      "ĠHanson": 4243,
      "onn": 4244,
      "Ġanti": 4245,
      "Ġfish": 4246,
      "leg": 4247,
      "ayne": 4248,
      "Ġfocus": 4249,
      "ceeded": 4250,
      "ening": 4251,
      "Ġvac": 4252,
      "Ġoperations": 4253,
      "Ġresulting": 4254,
      "ĠMos": 4255,
      "ĠNot": 4256,
      "ĠMcN": 4257,
      "Ġnob": 4258,
      "Ġparties": 4259,
      "ĠSecond": 4260,
      "Ġbirds": 4261,
      "Ġdiss": 4262,
      "stein": 4263,
      "ĠFitz": 4264,
      "ĠCivil": 4265,
      "ĠKorea": 4266,
      "Ġconditions": 4267,
      "Ġclaimed": 4268,
      "Ġwriting": 4269,
      "Ġurban": 4270,
      "Ġmentioned": 4271,
      "Ġdisease": 4272,
      "reng": 4273,
      "ourn": 4274,
      "remier": 4275,
      "Ġris": 4276,
      "46": 4277,
      "Ġfast": 4278,
      "ĠStreet": 4279,
      "Ġreform": 4280,
      "Ġremains": 4281,
      "oved": 4282,
      "Ġmoving": 4283,
      "Ġbooks": 4284,
      "cri": 4285,
      "Ġphysical": 4286,
      "Ġtypically": 4287,
      "Ġdomestic": 4288,
      "dered": 4289,
      "ĠJoseph": 4290,
      "Ġnecess": 4291,
      "urches": 4292,
      "usion": 4293,
      "ĠNate": 4294,
      "Ġshowed": 4295,
      "cks": 4296,
      "ĠIts": 4297,
      "Ġstory": 4298,
      "refore": 4299,
      "Ġasked": 4300,
      "Ġroyal": 4301,
      "Ġendzone": 4302,
      "Ġglass": 4303,
      "Ġmill": 4304,
      "ropolitan": 4305,
      "ĠCharl": 4306,
      "ĠAntonio": 4307,
      "Ġsoftware": 4308,
      "ieri": 4309,
      "Ġprimarily": 4310,
      "aven": 4311,
      "Ġsla": 4312,
      "Ġuniversities": 4313,
      "ĠDal": 4314,
      "Ġcoming": 4315,
      "ĠKevin": 4316,
      "ĠFolk": 4317,
      "Ġtechnology": 4318,
      "56": 4319,
      "Ġdidn": 4320,
      "47": 4321,
      "Ġimmediately": 4322,
      "omic": 4323,
      "Ġancestry": 4324,
      "ĠÂ£": 4325,
      "Ġnews": 4326,
      "Ġcontinue": 4327,
      "ĠBrian": 4328,
      "oor": 4329,
      "inces": 4330,
      "Ġfriends": 4331,
      "BA": 4332,
      "Ġnative": 4333,
      "Ġadopted": 4334,
      "abour": 4335,
      "ili": 4336,
      "Ġruns": 4337,
      "Ġhydrogen": 4338,
      "Ġbeat": 4339,
      "Ġscholars": 4340,
      "Ġmand": 4341,
      "icted": 4342,
      "Ġsources": 4343,
      "Ġ1991": 4344,
      "ĠSteve": 4345,
      "Ġcast": 4346,
      "ĠOl": 4347,
      "Ġgun": 4348,
      "Ġstrike": 4349,
      "erry": 4350,
      "Ġbecoming": 4351,
      "orial": 4352,
      "Ġoriginally": 4353,
      "ĠTim": 4354,
      "Ġstreng": 4355,
      "ĠMel": 4356,
      "Ġproducts": 4357,
      "42": 4358,
      "ying": 4359,
      "Ġdecision": 4360,
      "ĠBos": 4361,
      "Ġwalk": 4362,
      "Ġweap": 4363,
      "jected": 4364,
      "opes": 4365,
      "Ġmale": 4366,
      "Ġdoll": 4367,
      "88": 4368,
      "izations": 4369,
      "Ġfeatures": 4370,
      "Ġlot": 4371,
      "ĠRay": 4372,
      "Ġquant": 4373,
      "Ġdiscover": 4374,
      "ĠBoth": 4375,
      "Ġsurren": 4376,
      "Ġorganization": 4377,
      "Ġbacter": 4378,
      "Ġfleet": 4379,
      "Ġnegot": 4380,
      "ĠAlso": 4381,
      "Ġshows": 4382,
      "venue": 4383,
      "ĠOver": 4384,
      "Ġproduct": 4385,
      "Ġregained": 4386,
      "oper": 4387,
      "Ġdefined": 4388,
      "force": 4389,
      "32": 4390,
      "iny": 4391,
      "ube": 4392,
      "ners": 4393,
      "riage": 4394,
      "69": 4395,
      "Ġplaced": 4396,
      "Ġrise": 4397,
      "ĠBecause": 4398,
      "Ġsusp": 4399,
      "ishop": 4400,
      "din": 4401,
      "Ġattacked": 4402,
      "Ġresiding": 4403,
      "ĠTor": 4404,
      "Ġpractice": 4405,
      "Ġbank": 4406,
      "Ġglobal": 4407,
      "Ġtell": 4408,
      "Ġtransport": 4409,
      "Ġauthority": 4410,
      "iant": 4411,
      "Ġteach": 4412,
      "Ġelectron": 4413,
      "inated": 4414,
      "71": 4415,
      "ĠCommon": 4416,
      "66": 4417,
      "79": 4418,
      "Ġpull": 4419,
      "Ġlog": 4420,
      "put": 4421,
      "Ġsomeone": 4422,
      "Ġworked": 4423,
      "ĠConf": 4424,
      "ansion": 4425,
      "Ġblocked": 4426,
      "Ġoccupied": 4427,
      "Ġblue": 4428,
      "osphere": 4429,
      "Ġhon": 4430,
      "Ġdesp": 4431,
      "Ġprob": 4432,
      "Ġspir": 4433,
      "izing": 4434,
      "Ġwithd": 4435,
      "Ġdiscuss": 4436,
      "Ġimmig": 4437,
      "ĠStafford": 4438,
      "Ġaltern": 4439,
      "Ġtack": 4440,
      "itch": 4441,
      "acters": 4442,
      "ĠNations": 4443,
      "Ġplaying": 4444,
      "ĠBulg": 4445,
      "Ġrecords": 4446,
      "Ġrebell": 4447,
      "Ġlas": 4448,
      "ĠTod": 4449,
      "ĠPope": 4450,
      "ĠUk": 4451,
      "ano": 4452,
      "ift": 4453,
      "Ġtowns": 4454,
      "Ġappointed": 4455,
      "known": 4456,
      "ĠLind": 4457,
      "Ġallowing": 4458,
      "Ġdemonstr": 4459,
      "Ġsem": 4460,
      "ola": 4461,
      "ĠInter": 4462,
      "Ġheart": 4463,
      "Ġattacks": 4464,
      "ĠAssoc": 4465,
      "enth": 4466,
      "Ġearliest": 4467,
      "Ġreceiving": 4468,
      "Ġunc": 4469,
      "Ġactually": 4470,
      "no": 4471,
      "Ġnumerous": 4472,
      "Ġinterceptions": 4473,
      "Ġens": 4474,
      "ĠMont": 4475,
      "Ġlikely": 4476,
      "ĠYou": 4477,
      "Ġdestroyed": 4478,
      "ghan": 4479,
      "âĢĶâĢĶ": 4480,
      "ĠGo": 4481,
      "Ġmetal": 4482,
      "Ġcoach": 4483,
      "aron": 4484,
      "Ġlatter": 4485,
      "Ġbelong": 4486,
      "Ġheat": 4487,
      "gest": 4488,
      "odern": 4489,
      "ĠFederal": 4490,
      "rup": 4491,
      "ĠFlorida": 4492,
      "Ġcourse": 4493,
      "Ġcal": 4494,
      "ĠDaw": 4495,
      "Ġincor": 4496,
      "ounts": 4497,
      "ĠNether": 4498,
      "Ġrequire": 4499,
      "Ġult": 4500,
      "Ġfail": 4501,
      "ĠBey": 4502,
      "ĠSum": 4503,
      "Ġdead": 4504,
      "Ġ1950": 4505,
      "Ġnations": 4506,
      "Ġobjects": 4507,
      "ĠMatthew": 4508,
      "Ġsettled": 4509,
      "Ġchall": 4510,
      "Ġcand": 4511,
      "uman": 4512,
      "risis": 4513,
      "ĠAtlantic": 4514,
      "Ġdecre": 4515,
      "Ġsiege": 4516,
      "ĠJon": 4517,
      "rants": 4518,
      "nam": 4519,
      "ĠUN": 4520,
      "ĠOrthodox": 4521,
      "olt": 4522,
      "Ġcharacters": 4523,
      "imum": 4524,
      "Ġaccom": 4525,
      "ĠUnder": 4526,
      "ĠOcean": 4527,
      "Ġhighly": 4528,
      "ĠPak": 4529,
      "Ġbomb": 4530,
      "za": 4531,
      "ĠLithuan": 4532,
      "kicker": 4533,
      "atieri": 4534,
      "pat": 4535,
      "rey": 4536,
      "Ġfriend": 4537,
      "olf": 4538,
      "Ġrapid": 4539,
      "astic": 4540,
      "ĠAdam": 4541,
      "ero": 4542,
      "iform": 4543,
      "ari": 4544,
      "ĠDepartment": 4545,
      "At": 4546,
      "uters": 4547,
      "Ġcommunities": 4548,
      "aker": 4549,
      "ĠDespite": 4550,
      "Ġsacked": 4551,
      "Ġcontinu": 4552,
      "ĠDef": 4553,
      "town": 4554,
      "ibrary": 4555,
      "Ġ55": 4556,
      "Ġmeeting": 4557,
      "73": 4558,
      "Ġsealed": 4559,
      "ĠHu": 4560,
      "ĠGermans": 4561,
      "Ġinjury": 4562,
      "Ġlands": 4563,
      "outheast": 4564,
      "ovak": 4565,
      "Ġfighting": 4566,
      "Ġtrue": 4567,
      "ĠJacksonville": 4568,
      "beck": 4569,
      "Ġcarbon": 4570,
      "ka": 4571,
      "Ġwars": 4572,
      "Ġexperience": 4573,
      "Ġprime": 4574,
      "ĠMason": 4575,
      "wan": 4576,
      "ĠVinatieri": 4577,
      "ech": 4578,
      "ĠFlacco": 4579,
      "ds": 4580,
      "itude": 4581,
      "aria": 4582,
      "Ġmi": 4583,
      "Ġlength": 4584,
      "Ġ500": 4585,
      "aily": 4586,
      "Ġactivity": 4587,
      "Ġfa": 4588,
      "Ġgrowing": 4589,
      "ĠDay": 4590,
      "ironas": 4591,
      "Ġhor": 4592,
      "Ġpreviously": 4593,
      "arc": 4594,
      "For": 4595,
      "ĠTheir": 4596,
      "Ġcontent": 4597,
      "Ġresults": 4598,
      "Ġboot": 4599,
      "ĠDist": 4600,
      "Ġinte": 4601,
      "Ġround": 4602,
      "Ġpattern": 4603,
      "Ġvote": 4604,
      "Ġsports": 4605,
      "Ġcelebr": 4606,
      "rough": 4607,
      "Ġletter": 4608,
      "During": 4609,
      "ĠMet": 4610,
      "icine": 4611,
      "Ġmeant": 4612,
      "rated": 4613,
      "igen": 4614,
      "Ġbiggest": 4615,
      "ĠSir": 4616,
      "Ġplacekicker": 4617,
      "Ġmission": 4618,
      "ging": 4619,
      "amer": 4620,
      "ĠBironas": 4621,
      "Ġaccount": 4622,
      "Ġreduced": 4623,
      "Ġsector": 4624,
      "83": 4625,
      "Ġ1920": 4626,
      "86": 4627,
      "osa": 4628,
      "Ġliqu": 4629,
      "Ġsuc": 4630,
      "ĠJul": 4631,
      "Ġgranted": 4632,
      "Ġtalk": 4633,
      "Ġrat": 4634,
      "Ġshut": 4635,
      "ĠAD": 4636,
      "ĠAlexander": 4637,
      "Ġ1999": 4638,
      "ĠDuke": 4639,
      "bie": 4640,
      "Ġflag": 4641,
      "Ġmaterials": 4642,
      "ully": 4643,
      "Ġimperial": 4644,
      "Ġempire": 4645,
      "Ġess": 4646,
      "Ġ300": 4647,
      "Ġconverted": 4648,
      "lement": 4649,
      "Ġfumbled": 4650,
      "Ġhistorical": 4651,
      "asser": 4652,
      "Ġliterature": 4653,
      "ĠDrew": 4654,
      "luding": 4655,
      "Ġexpansion": 4656,
      "ĠReed": 4657,
      "Ġattempts": 4658,
      "umn": 4659,
      "Ġatm": 4660,
      "uit": 4661,
      "mitted": 4662,
      "Ġdespite": 4663,
      "ĠSweden": 4664,
      "Ġpotential": 4665,
      "mad": 4666,
      "oe": 4667,
      "onent": 4668,
      "ĠGDP": 4669,
      "ĠStep": 4670,
      "Ġarrest": 4671,
      "Ġcopper": 4672,
      "Ġpath": 4673,
      "Ġpos": 4674,
      "Ġplanets": 4675,
      "Ġleave": 4676,
      "ground": 4677,
      "Ġtransfer": 4678,
      "Ġregional": 4679,
      "itants": 4680,
      "ĠBill": 4681,
      "mission": 4682,
      "Ġissue": 4683,
      "Ġdistinct": 4684,
      "lers": 4685,
      "Ġvariety": 4686,
      "Americ": 4687,
      "otes": 4688,
      "Ġcontrolled": 4689,
      "Ġhus": 4690,
      "Ġexped": 4691,
      "Ġstudent": 4692,
      "Ġintended": 4693,
      "ita": 4694,
      "ĠTexas": 4695,
      "ĠNetherlands": 4696,
      "ĠThree": 4697,
      "zil": 4698,
      "ĠEston": 4699,
      "ĠProtestant": 4700,
      "ĠJord": 4701,
      "Ġlic": 4702,
      "94": 4703,
      "otton": 4704,
      "ĠConstitution": 4705,
      "Ġending": 4706,
      "Ġrelatively": 4707,
      "Ġ1918": 4708,
      "ĠMass": 4709,
      "Ġelement": 4710,
      "ĠWhat": 4711,
      "Ġwear": 4712,
      "ĠPeters": 4713,
      "Ġmountain": 4714,
      "Ġindustrial": 4715,
      "Ġinstitutions": 4716,
      "92": 4717,
      "Ġroom": 4718,
      "Ġprec": 4719,
      "Ġstated": 4720,
      "ously": 4721,
      "ĠAustria": 4722,
      "Ġconcent": 4723,
      "Ġcornerback": 4724,
      "ĠSl": 4725,
      "Ġchief": 4726,
      "gie": 4727,
      "Ġkil": 4728,
      "TER": 4729,
      "Ġbatt": 4730,
      "ĠGovernment": 4731,
      "board": 4732,
      "onomy": 4733,
      "Ġpor": 4734,
      "Ġband": 4735,
      "ĠBet": 4736,
      "Ġtry": 4737,
      "isation": 4738,
      "ĠTay": 4739,
      "100": 4740,
      "ĠAaron": 4741,
      "tee": 4742,
      "ĠOb": 4743,
      "Ġmedical": 4744,
      "Ġbehav": 4745,
      "ĠOs": 4746,
      "zech": 4747,
      "Ġchurches": 4748,
      "With": 4749,
      "Ġcrim": 4750,
      "Ġdistrict": 4751,
      "older": 4752,
      "Ġmoment": 4753,
      "Ġofficials": 4754,
      "onia": 4755,
      "Ġcred": 4756,
      "ipl": 4757,
      "gins": 4758,
      "orks": 4759,
      "Ġcarried": 4760,
      "ĠApple": 4761,
      "asc": 4762,
      "ĠJesus": 4763,
      "sych": 4764,
      "ĠStud": 4765,
      "ĠSouthern": 4766,
      "ĠEv": 4767,
      "omer": 4768,
      "Ġ1998": 4769,
      "Ġtree": 4770,
      "Ġprograms": 4771,
      "met": 4772,
      "eg": 4773,
      "Ġproperty": 4774,
      "ecution": 4775,
      "western": 4776,
      "Ġnewsp": 4777,
      "ĠHind": 4778,
      "andy": 4779,
      "ĠAlbert": 4780,
      "Ġseasons": 4781,
      "78": 4782,
      "Ġcollect": 4783,
      "ĠYoung": 4784,
      "Ġrelationship": 4785,
      "arents": 4786,
      "Ġpurch": 4787,
      "ĠCros": 4788,
      "abeth": 4789,
      "ĠKaeding": 4790,
      "enna": 4791,
      "Ġcontains": 4792,
      "Ġcurrently": 4793,
      "?\"": 4794,
      "rative": 4795,
      "ĠGen": 4796,
      "Ġliber": 4797,
      "ĠVirgin": 4798,
      "Ġtable": 4799,
      "Ġworldwide": 4800,
      "Ġformal": 4801,
      "Ġbound": 4802,
      "resp": 4803,
      "emy": 4804,
      "Ġinterp": 4805,
      "ospital": 4806,
      "Â°": 4807,
      "Ġadministration": 4808,
      "och": 4809,
      "Ġoverall": 4810,
      "Ġbroadcast": 4811,
      "itor": 4812,
      "Ġhands": 4813,
      "Ġlooked": 4814,
      "41": 4815,
      "Ġsens": 4816,
      "ĠPakistan": 4817,
      "ĠSlav": 4818,
      "ĠSa": 4819,
      "uda": 4820,
      "Ġfifth": 4821,
      "urg": 4822,
      "irect": 4823,
      "Ġresponsible": 4824,
      "Ġstore": 4825,
      "Ġspl": 4826,
      "ĠArt": 4827,
      "ares": 4828,
      "Ġchance": 4829,
      "oses": 4830,
      "oston": 4831,
      "ĠBern": 4832,
      "Ġhooked": 4833,
      "embly": 4834,
      "tr": 4835,
      "Ġproposed": 4836,
      "ĠIslands": 4837,
      "Ġsnow": 4838,
      "Ġreview": 4839,
      "Ġlooking": 4840,
      "Ġastr": 4841,
      "Ġgir": 4842,
      "Ġdeficit": 4843,
      "ĠOf": 4844,
      "ĠAfghan": 4845,
      "Ġhusband": 4846,
      "uri": 4847,
      "ĠCyp": 4848,
      "ĠLiber": 4849,
      "Ġthing": 4850,
      "Ġadvanced": 4851,
      "ev": 4852,
      "Ġcold": 4853,
      "Ġ1997": 4854,
      "Ġtor": 4855,
      "iot": 4856,
      "throp": 4857,
      "ĠOw": 4858,
      "Ġserious": 4859,
      "Ġregul": 4860,
      "Ġcentre": 4861,
      "Ġcloser": 4862,
      "Ġlosses": 4863,
      "Ġhar": 4864,
      "Ġcopy": 4865,
      "iate": 4866,
      "72": 4867,
      "Ġdie": 4868,
      "Ġincom": 4869,
      "ĠDawson": 4870,
      "vey": 4871,
      "backer": 4872,
      "Ġcoup": 4873,
      "ellig": 4874,
      "Ġbasic": 4875,
      "Ġnotable": 4876,
      "Ġexpected": 4877,
      "Ġcrisis": 4878,
      "ĠNapole": 4879,
      "arct": 4880,
      "ĠFer": 4881,
      "Ġexamples": 4882,
      "Ġuniverse": 4883,
      "izabeth": 4884,
      "Ġang": 4885,
      "ĠCzech": 4886,
      "ĠIra": 4887,
      "mond": 4888,
      "Ġdaughter": 4889,
      "aped": 4890,
      "Ġinfluenced": 4891,
      "Ġrestr": 4892,
      "spe": 4893,
      "Ġofficers": 4894,
      "Ġgar": 4895,
      "ĠLord": 4896,
      "ques": 4897,
      "iang": 4898,
      "enh": 4899,
      "soft": 4900,
      "54": 4901,
      "Ġeat": 4902,
      "Ġhom": 4903,
      "ĠTurkish": 4904,
      "ĠAssociation": 4905,
      "57": 4906,
      "Ġwinter": 4907,
      "51": 4908,
      "Ġoperating": 4909,
      "ĠHispanic": 4910,
      "Ġdirection": 4911,
      "ĠCrosby": 4912,
      "ki": 4913,
      "ĠJustin": 4914,
      "HAP": 4915,
      "Ġmarched": 4916,
      "HAPTER": 4917,
      "ĠViet": 4918,
      "ĠWarner": 4919,
      "alled": 4920,
      "Ġhosted": 4921,
      "ĠCount": 4922,
      "Ġpromin": 4923,
      "ĠAngeles": 4924,
      "ĠTaylor": 4925,
      "ortun": 4926,
      "Ġsense": 4927,
      "ĠEven": 4928,
      "Ġlink": 4929,
      "retary": 4930,
      "93": 4931,
      "Ġleaving": 4932,
      "Ġpresence": 4933,
      "TV": 4934,
      "wealth": 4935,
      "Ġnuclear": 4936,
      "Ġdoing": 4937,
      "Ġincorpor": 4938,
      "SA": 4939,
      "ĠMare": 4940,
      "itness": 4941,
      "Ġrough": 4942,
      "ĠIraq": 4943,
      "Ġ180": 4944,
      "Ġdifference": 4945,
      "ĠAnderson": 4946,
      "isted": 4947,
      "eign": 4948,
      "Ġpowerful": 4949,
      "Ġprofessional": 4950,
      "Ġlives": 4951,
      "anger": 4952,
      "Ġcharge": 4953,
      "91": 4954,
      "Ġmur": 4955,
      "ĠHistory": 4956,
      "62": 4957,
      "Ġcyc": 4958,
      "Ġpack": 4959,
      "Ġwhy": 4960,
      "ading": 4961,
      "luded": 4962,
      "Ġ150": 4963,
      "Ġsupply": 4964,
      "ss": 4965,
      "ugal": 4966,
      "ĠHoly": 4967,
      "Ġcompetition": 4968,
      "Ġbit": 4969,
      "rell": 4970,
      "Ġconstant": 4971,
      "ias": 4972,
      "Ġpal": 4973,
      "Ġdraw": 4974,
      "rovers": 4975,
      "teen": 4976,
      "Ġproject": 4977,
      "58": 4978,
      "And": 4979,
      "Ġmob": 4980,
      "ĠMicro": 4981,
      "Ġcontem": 4982,
      "ĠNug": 4983,
      "ump": 4984,
      "97": 4985,
      "ĠCampbell": 4986,
      "Ġflight": 4987,
      "gal": 4988,
      "ĠConstant": 4989,
      "Ġrang": 4990,
      "Ġbenef": 4991,
      "ĠWilson": 4992,
      "Ġwealth": 4993,
      "Ġthousands": 4994,
      "Ġconv": 4995,
      "ĠMat": 4996,
      "itzer": 4997,
      "Ġanimal": 4998,
      "Ġequip": 4999,
      "reedom": 5000,
      "Ġsettlement": 5001,
      "ĠMcNabb": 5002,
      "Ġnomin": 5003,
      "Ġhitting": 5004,
      "Ġstopped": 5005,
      "ĠSing": 5006,
      "ĠKas": 5007,
      "encies": 5008,
      "Ġbad": 5009,
      "ĠCarr": 5010,
      "Ġheav": 5011,
      "Ġperman": 5012,
      "ĠLee": 5013,
      "Ġsele": 5014,
      "Ġaccepted": 5015,
      "ĠNugent": 5016,
      "Ġsides": 5017,
      "ĠPremier": 5018,
      "Ġsecurity": 5019,
      "road": 5020,
      "Ġfaced": 5021,
      "ĠMarshall": 5022,
      "ĠSupreme": 5023,
      "ĠMartin": 5024,
      "Ġlinebacker": 5025,
      "ĠGold": 5026,
      "Ġbelief": 5027,
      "hu": 5028,
      "Ġrecently": 5029,
      "ĠAz": 5030,
      "ĠDomin": 5031,
      "ĠTrans": 5032,
      "Ġshortest": 5033,
      "Ġordered": 5034,
      "icles": 5035,
      "Ġrepublic": 5036,
      "Ġissues": 5037,
      "ĠStephen": 5038,
      "Ġraised": 5039,
      "unicip": 5040,
      "ĠHam": 5041,
      "Ġdisplay": 5042,
      "Ġdominated": 5043,
      "hev": 5044,
      "ĠTai": 5045,
      "Ġacadem": 5046,
      "ĠAustralian": 5047,
      "He": 5048,
      "Ġcode": 5049,
      "Ġbul": 5050,
      "Ġadditional": 5051,
      "ĠLongwell": 5052,
      "Ġinhabitants": 5053,
      "ED": 5054,
      "ender": 5055,
      "ĠImperial": 5056,
      "ĠRackers": 5057,
      "8212": 5058,
      "ĠArmenian": 5059,
      "oncÃ©": 5060,
      "Ġsimple": 5061,
      "ĠVick": 5062,
      "ĠBrazil": 5063,
      "iger": 5064,
      "Ġinjured": 5065,
      "Ġdark": 5066,
      "overeign": 5067,
      "Ġbasis": 5068,
      "Ġ56": 5069,
      "Ġsal": 5070,
      "ĠElizabeth": 5071,
      "Ġhouses": 5072,
      "ĠElect": 5073,
      "Ġelev": 5074,
      "Ġrein": 5075,
      "illy": 5076,
      "Ġaccept": 5077,
      "ees": 5078,
      "Ġmotor": 5079,
      "ĠBoston": 5080,
      "53": 5081,
      "Ġsales": 5082,
      "took": 5083,
      "Ġatoms": 5084,
      "ĠCamb": 5085,
      "Ġlimit": 5086,
      "ĠWarsaw": 5087,
      "can": 5088,
      "ĠEr": 5089,
      "ĠMiss": 5090,
      "ĠNorm": 5091,
      "ĠMongol": 5092,
      "unk": 5093,
      "Ġsolar": 5094,
      "bro": 5095,
      "Ġconserv": 5096,
      "eptune": 5097,
      "Ġhuge": 5098,
      "Ġparents": 5099,
      "Ġrates": 5100,
      "lean": 5101,
      "ils": 5102,
      "Ġsituation": 5103,
      "ĠTy": 5104,
      "ĠBank": 5105,
      "ĠPrime": 5106,
      "Ġinitially": 5107,
      "osen": 5108,
      ".:": 5109,
      "ĠScottish": 5110,
      "Ġsetting": 5111,
      "Ġcollege": 5112,
      "Ġgrav": 5113,
      "fall": 5114,
      "ĠRhine": 5115,
      "aub": 5116,
      "ĠCro": 5117,
      "Ġmultiple": 5118,
      "ĠWal": 5119,
      "ĠCarson": 5120,
      "Ġresistance": 5121,
      "ĠHow": 5122,
      "Ġfr": 5123,
      "ĠHassel": 5124,
      "Ġtwice": 5125,
      "Ġelim": 5126,
      "Ġability": 5127,
      "ederation": 5128,
      "ĠInstitute": 5129,
      "CA": 5130,
      "Ġstations": 5131,
      "Ġaddress": 5132,
      "Ġshot": 5133,
      "ĠDistrict": 5134,
      "68": 5135,
      "Ġclubs": 5136,
      "ĠMuseum": 5137,
      "Ġcampus": 5138,
      "ada": 5139,
      "ĠLindell": 5140,
      "Ġswe": 5141,
      "Ġhere": 5142,
      "Ġburn": 5143,
      "Ġsexual": 5144,
      "ĠDemocratic": 5145,
      "Ġrivers": 5146,
      "Ġ1995": 5147,
      "Ġnov": 5148,
      "ĠFA": 5149,
      "ĠPop": 5150,
      "ĠChad": 5151,
      "ĠĠĠĠĠĠĠĠĠĠĠĠĠĠĠĠ": 5152,
      "ĠHasselbeck": 5153,
      "tra": 5154,
      "ushed": 5155,
      "ĠInf": 5156,
      "ections": 5157,
      "ĠIV": 5158,
      "Ġstars": 5159,
      "Ġapplied": 5160,
      "mese": 5161,
      "Ġrefused": 5162,
      "Ġcolonial": 5163,
      "Ġmorning": 5164,
      "Ġclassical": 5165,
      "Ġweapons": 5166,
      "pect": 5167,
      "Ġ/": 5168,
      "Ġshown": 5169,
      "Ġforest": 5170,
      "ĠBook": 5171,
      "Ġrare": 5172,
      "ĠTurkey": 5173,
      "Ġfeet": 5174,
      "Ġapproach": 5175,
      "oma": 5176,
      "Ġinn": 5177,
      "Ġcontrovers": 5178,
      "Ġinvestig": 5179,
      "ĠCons": 5180,
      "ĠDavis": 5181,
      "equ": 5182,
      "iments": 5183,
      "Ġactivities": 5184,
      "Ġweak": 5185,
      "Ġfru": 5186,
      "Ġtoward": 5187,
      "Ġsuccessfully": 5188,
      "Ġdevices": 5189,
      "ĠFeely": 5190,
      "FA": 5191,
      "Ġissued": 5192,
      "Ġocean": 5193,
      "Ġrecognized": 5194,
      "Ġfix": 5195,
      "Ġpopulations": 5196,
      "ĠEarly": 5197,
      "Ġholding": 5198,
      "Ġexpanded": 5199,
      "Ġlear": 5200,
      "43": 5201,
      "Ġchampions": 5202,
      "ieval": 5203,
      "estival": 5204,
      "Ġdegree": 5205,
      "antry": 5206,
      "ournal": 5207,
      "âĢĿ": 5208,
      "ĠAndrew": 5209,
      "ĠSwedish": 5210,
      "Ġauthorities": 5211,
      "Ġparliament": 5212,
      "Ġunable": 5213,
      "ĠLeon": 5214,
      "Ġtakes": 5215,
      "Ġdistance": 5216,
      "Ġ57": 5217,
      "cel": 5218,
      "ËĪ": 5219,
      "ĠWood": 5220,
      "Ġmethods": 5221,
      "gg": 5222,
      "ĠKar": 5223,
      "ached": 5224,
      "ĠKerry": 5225,
      "ders": 5226,
      "ĠCr": 5227,
      "Ġprin": 5228,
      "Ar": 5229,
      "igenous": 5230,
      "Ġneut": 5231,
      "ysis": 5232,
      "Ġtre": 5233,
      "more": 5234,
      "Ġlabor": 5235,
      "ĠUnivers": 5236,
      "Ġgovernor": 5237,
      "Ġattend": 5238,
      "ĠMicrosoft": 5239,
      "ĠServ": 5240,
      "ĠCommission": 5241,
      "anium": 5242,
      "Ġcarry": 5243,
      "Ġcapture": 5244,
      "Ġobtain": 5245,
      "ĠPortugal": 5246,
      "ĠCommonwealth": 5247,
      "Ġwild": 5248,
      "Ġrepe": 5249,
      "SR": 5250,
      "Ġoffered": 5251,
      "Ġinitial": 5252,
      "ĠPeterson": 5253,
      "ĠJen": 5254,
      "Ġ1992": 5255,
      "ounted": 5256,
      "rief": 5257,
      "ker": 5258,
      "Ġresources": 5259,
      "Ġcomplet": 5260,
      "Ġzinc": 5261,
      "Ġlearning": 5262,
      "racy": 5263,
      "ĠLake": 5264,
      "ici": 5265,
      "hens": 5266,
      "Ġ1994": 5267,
      "Ġwoman": 5268,
      "ĠRobbie": 5269,
      "aging": 5270,
      "Ġslight": 5271,
      "Ġcandid": 5272,
      "Ġsequ": 5273,
      "ĠCalvin": 5274,
      "Ġslaves": 5275,
      "ocks": 5276,
      "century": 5277,
      "Ġefforts": 5278,
      "larg": 5279,
      "odies": 5280,
      "Ġprogress": 5281,
      "mas": 5282,
      "Ġveh": 5283,
      "Ġtrying": 5284,
      "Ġevolution": 5285,
      "Ġsupp": 5286,
      "ĠReggie": 5287,
      "Ġliquid": 5288,
      "Ġrebellion": 5289,
      "Ġunion": 5290,
      "Ġequal": 5291,
      "phas": 5292,
      "Ġbey": 5293,
      "ĠJim": 5294,
      "Ġcontract": 5295,
      "Ġexchange": 5296,
      "Ġcas": 5297,
      "oples": 5298,
      "Ġtherefore": 5299,
      "illed": 5300,
      "azi": 5301,
      "ĠBurmese": 5302,
      "Ġcotton": 5303,
      "ny": 5304,
      "Ġserve": 5305,
      "Ġmemory": 5306,
      "Ġdecline": 5307,
      "Ġpurpose": 5308,
      "Ġmess": 5309,
      "Ġteac": 5310,
      "Ġsubsequently": 5311,
      "ĠAntarct": 5312,
      "respond": 5313,
      "ĠNed": 5314,
      "Ġsubst": 5315,
      "olin": 5316,
      "Ġpi": 5317,
      "52": 5318,
      "resh": 5319,
      "Ġgovernments": 5320,
      "ĠLew": 5321,
      "ĠKasay": 5322,
      "Ġprovinces": 5323,
      "Ġheadquarter": 5324,
      "Ġsymbol": 5325,
      "ĠLand": 5326,
      "illa": 5327,
      "atre": 5328,
      "Ġexcept": 5329,
      "Ġsuppl": 5330,
      "istered": 5331,
      "everal": 5332,
      "Ġiron": 5333,
      "aur": 5334,
      "Ġtrib": 5335,
      "mun": 5336,
      "azine": 5337,
      "Ġprobably": 5338,
      "ements": 5339,
      "ĠFore": 5340,
      "pen": 5341,
      "ĠFour": 5342,
      "ĠSchaub": 5343,
      "Ġspent": 5344,
      "Ġseal": 5345,
      "Ġexecut": 5346,
      "ferences": 5347,
      "ĠSociety": 5348,
      "Ġachieve": 5349,
      "Ġeffects": 5350,
      "Ġintegr": 5351,
      "%).": 5352,
      "bast": 5353,
      "Ġprogramm": 5354,
      "Ġbes": 5355,
      "ĠMuslims": 5356,
      "ĠTV": 5357,
      "aya": 5358,
      "Ġargued": 5359,
      "This": 5360,
      "Ġla": 5361,
      "ĠMiller": 5362,
      "onian": 5363,
      "Ġsovereign": 5364,
      "Ġexception": 5365,
      "ducted": 5366,
      "ĠChristianity": 5367,
      "Ġbeyond": 5368,
      "Ġfilms": 5369,
      "Ġmetropolitan": 5370,
      "rise": 5371,
      "Ġreasons": 5372,
      "Ġexact": 5373,
      "Ġ59": 5374,
      "ĠYale": 5375,
      "olid": 5376,
      "Ġhunting": 5377,
      "Ġaid": 5378,
      "ĠHaven": 5379,
      "Ġconsists": 5380,
      "Ġmind": 5381,
      "Ġ1996": 5382,
      "ĠMarc": 5383,
      "Ġdigital": 5384,
      "Ġmolecules": 5385,
      "ĠSebast": 5386,
      "ĠBeyoncÃ©": 5387,
      "American": 5388,
      "Ġthrone": 5389,
      "Ġsimply": 5390,
      "ĠVietnam": 5391,
      "Ġorganized": 5392,
      "Ġspoke": 5393,
      "oration": 5394,
      "Ġelections": 5395,
      "zant": 5396,
      "amin": 5397,
      "Ġconnecting": 5398,
      "Ġperformed": 5399,
      "ĠEU": 5400,
      "annel": 5401,
      "Ġpaid": 5402,
      "Ġcompletely": 5403,
      "ounded": 5404,
      "Ġboy": 5405,
      "aska": 5406,
      "inet": 5407,
      "ault": 5408,
      "ĠLu": 5409,
      "ĠChristians": 5410,
      "Ġcomputers": 5411,
      "Ġpict": 5412,
      "ĠEdwards": 5413,
      "cury": 5414,
      "ĪĴ": 5415,
      "Ġones": 5416,
      "ails": 5417,
      "Ġoffer": 5418,
      "Ġplanned": 5419,
      "Ġconduct": 5420,
      "Ġminority": 5421,
      "Ġsolid": 5422,
      "Ġconquered": 5423,
      "84": 5424,
      "Ġtribes": 5425,
      "ĠEli": 5426,
      "ĠAut": 5427,
      "ĠWales": 5428,
      "ĠOk": 5429,
      "ĠThough": 5430,
      "Ġcauses": 5431,
      "view": 5432,
      "Ġ1989": 5433,
      "Ġbor": 5434,
      "Ġqual": 5435,
      "ĠSocial": 5436,
      "enty": 5437,
      "Ġ400": 5438,
      "ipp": 5439,
      "ĠZe": 5440,
      "Ġstrength": 5441,
      "than": 5442,
      "Ġprovides": 5443,
      "zh": 5444,
      "ĠNeptune": 5445,
      "Ġanything": 5446,
      "Ġconstit": 5447,
      "81": 5448,
      "icial": 5449,
      "itzerland": 5450,
      "Ġtarget": 5451,
      "ĠâĢľ": 5452,
      "ĠCassel": 5453,
      "Ġneighbor": 5454,
      "enses": 5455,
      "ĠMah": 5456,
      "ellow": 5457,
      "Ġarrang": 5458,
      "chester": 5459,
      "ĠNedney": 5460,
      "ois": 5461,
      "Ġlowest": 5462,
      "umed": 5463,
      "Ġarmies": 5464,
      "Ġfields": 5465,
      "03": 5466,
      "ĠByzant": 5467,
      "Ġft": 5468,
      "Ġstorm": 5469,
      "Ġopposition": 5470,
      "Ġquality": 5471,
      "Ġalliance": 5472,
      "Ġcreation": 5473,
      "ĠMusic": 5474,
      "ĠMoss": 5475,
      "Ġphysics": 5476,
      "Ġdistribution": 5477,
      "unt": 5478,
      "Ġtraining": 5479,
      "ĠClass": 5480,
      "aters": 5481,
      "Ġidentified": 5482,
      "Ġeyes": 5483,
      "67": 5484,
      "nings": 5485,
      "Ġexistence": 5486,
      "ĠFinland": 5487,
      "ĠEric": 5488,
      "Ġsearch": 5489,
      "Ġidentity": 5490,
      "Ġartists": 5491,
      "Ġtemperatures": 5492,
      "ĠKorean": 5493,
      "een": 5494,
      "vard": 5495,
      "Ġimplement": 5496,
      "uated": 5497,
      "Ġantib": 5498,
      "ĠQing": 5499,
      "ĠAfghanistan": 5500,
      "ĠAndre": 5501,
      "Ġmixed": 5502,
      "ĠAnn": 5503,
      "Ġminister": 5504,
      "Ġexpedition": 5505,
      "].": 5506,
      "Ġreceive": 5507,
      "alle": 5508,
      "Ġdouble": 5509,
      "enter": 5510,
      "Ġreign": 5511,
      "Ġowned": 5512,
      "Ġorganizations": 5513,
      "ĠConn": 5514,
      "Ġuniform": 5515,
      "ĠLatino": 5516,
      "ĠGroup": 5517,
      "iana": 5518,
      "Ġclaims": 5519,
      "isters": 5520,
      "By": 5521,
      "ĠDenmark": 5522,
      "ĠGovernor": 5523,
      "iable": 5524,
      "grad": 5525,
      "state": 5526,
      "ĠEach": 5527,
      "Ġawarded": 5528,
      "ua": 5529,
      "ĠOlympic": 5530,
      "Ġpron": 5531,
      "ĠNavy": 5532,
      "ĠDes": 5533,
      "ĠSebastian": 5534,
      "ĠJordan": 5535,
      "07": 5536,
      "ĠPeter": 5537,
      "ĠNewton": 5538,
      "Ġspeech": 5539,
      "ĠMag": 5540,
      "ellen": 5541,
      "Ġreally": 5542,
      "Ġ=": 5543,
      "Ġdecade": 5544,
      "Ġcorrespond": 5545,
      "eds": 5546,
      "ĠMy": 5547,
      "ĠKhan": 5548,
      "asts": 5549,
      "ĠLewis": 5550,
      "ictions": 5551,
      "opin": 5552,
      "ĠKyle": 5553,
      "ables": 5554,
      "ĠForce": 5555,
      "Ġple": 5556,
      "Ġsle": 5557,
      "ĠBerlin": 5558,
      ".)": 5559,
      "ĠSand": 5560,
      "ibly": 5561,
      "ieties": 5562,
      "Ġmachine": 5563,
      "Ġvic": 5564,
      "Ġreve": 5565,
      "Ġdepartment": 5566,
      "ĠOrder": 5567,
      "Ġcrown": 5568,
      "iring": 5569,
      "Ġrebels": 5570,
      "Ġencoura": 5571,
      "uth": 5572,
      "app": 5573,
      "Ġdamage": 5574,
      "ella": 5575,
      "insula": 5576,
      "ĠNapoleon": 5577,
      "Ġallows": 5578,
      "Ġpicked": 5579,
      "Ġarmed": 5580,
      "Ġfer": 5581,
      "Ġ1940": 5582,
      "cient": 5583,
      "ĠTimes": 5584,
      "ĠBa": 5585,
      "ĠInc": 5586,
      "Ġshape": 5587,
      "Ġarticle": 5588,
      "ĠSwitzerland": 5589,
      "Ġeffort": 5590,
      "Ġmut": 5591,
      "Ġinvaded": 5592,
      "laimed": 5593,
      "ĠMoore": 5594,
      "avalry": 5595,
      "Ġearthqu": 5596,
      "Ġdra": 5597,
      "Ġpositive": 5598,
      "Ġsplit": 5599,
      "Ġincomple": 5600,
      "icians": 5601,
      "ĠBas": 5602,
      "HI": 5603,
      "Ġmusical": 5604,
      "Ġbranch": 5605,
      "Ġcompar": 5606,
      "greg": 5607,
      "uff": 5608,
      "ĠRad": 5609,
      "Ġsecondary": 5610,
      "abs": 5611,
      "Ġjobs": 5612,
      "eston": 5613,
      "Ġbal": 5614,
      "Ġenj": 5615,
      "Ġsubsequent": 5616,
      "Ġvillage": 5617,
      "arry": 5618,
      "Ġspirit": 5619,
      "ĠElam": 5620,
      "Ġexer": 5621,
      "Ġnoted": 5622,
      "ĠPrussia": 5623,
      "Ġwrite": 5624,
      "eman": 5625,
      "Ġstage": 5626,
      "Ġextrem": 5627,
      "box": 5628,
      "Ġpurs": 5629,
      "Ġpsych": 5630,
      "fect": 5631,
      "gor": 5632,
      "Ġut": 5633,
      "ursday": 5634,
      "nes": 5635,
      "ĠDig": 5636,
      "74": 5637,
      "Ġpeoples": 5638,
      "cher": 5639,
      "Ġproved": 5640,
      "Ġbroken": 5641,
      "Ġavoid": 5642,
      "Ġfelt": 5643,
      "Ġcoal": 5644,
      "Ġrepresented": 5645,
      "Ġattra": 5646,
      "Ġattention": 5647,
      "Ġforcing": 5648,
      "Ġdecades": 5649,
      "porters": 5650,
      "ĠAcadem": 5651,
      "ĠThursday": 5652,
      "Ġinstance": 5653,
      "ĠSolar": 5654,
      "Ġatmosphere": 5655,
      "Ġcarri": 5656,
      "pting": 5657,
      "Ġir": 5658,
      "ĠMing": 5659,
      "Ġscale": 5660,
      "Ġcrime": 5661,
      "ĠLad": 5662,
      "eces": 5663,
      "ulated": 5664,
      "Ġupper": 5665,
      "Ġfoot": 5666,
      "We": 5667,
      "mal": 5668,
      "mir": 5669,
      "ologists": 5670,
      "You": 5671,
      "Ġpages": 5672,
      "vis": 5673,
      "Ġcovered": 5674,
      "Ġsatell": 5675,
      "ĠTri": 5676,
      "iled": 5677,
      "ĠHaw": 5678,
      "Ġinternal": 5679,
      "Ġrecording": 5680,
      "ographic": 5681,
      "ĠSur": 5682,
      "Ġfinish": 5683,
      "Ġemphas": 5684,
      "vals": 5685,
      "uls": 5686,
      "ĠAbout": 5687,
      "Ġpeak": 5688,
      "ients": 5689,
      "Ġbrain": 5690,
      "ician": 5691,
      "ĠFri": 5692,
      "Ġlif": 5693,
      "Ġprotection": 5694,
      "Ġsubs": 5695,
      "Ġadj": 5696,
      "ĠFil": 5697,
      "Ġcultures": 5698,
      "Ġcul": 5699,
      "ĠLawrence": 5700,
      "ĠDer": 5701,
      "while": 5702,
      "Ġdrop": 5703,
      "espread": 5704,
      "Ġvary": 5705,
      "ĠOrgan": 5706,
      "Ġsongs": 5707,
      "Ġtreatment": 5708,
      "Ġdistingu": 5709,
      "ĠHungary": 5710,
      "ĠBelg": 5711,
      "Ġcloud": 5712,
      "Ġsought": 5713,
      "Ġappearance": 5714,
      "ĠNic": 5715,
      "Ġpossessions": 5716,
      "ĠIS": 5717,
      "akh": 5718,
      "Ġleadership": 5719,
      "Ġonline": 5720,
      "uther": 5721,
      "Ġeasily": 5722,
      "Ġamb": 5723,
      "Ġlin": 5724,
      "uting": 5725,
      "Ġexhib": 5726,
      "ĠMexican": 5727,
      "ems": 5728,
      "Ġorganisms": 5729,
      "structed": 5730,
      "onz": 5731,
      "BM": 5732,
      "omans": 5733,
      "ĠLib": 5734,
      "raine": 5735,
      "Ġuranium": 5736,
      "ef": 5737,
      "oo": 5738,
      "Ġsen": 5739,
      "ĠHy": 5740,
      "ĠKit": 5741,
      "ĠCyprus": 5742,
      "Ġcustom": 5743,
      "va": 5744,
      "ĠUr": 5745,
      "ĠStar": 5746,
      "ĠBrett": 5747,
      "Ġbacteria": 5748,
      "Ġreserv": 5749,
      "Ġsucceeded": 5750,
      "Ġcolonies": 5751,
      "Ġorbit": 5752,
      "Ġcontrast": 5753,
      "ĠScience": 5754,
      "Ġcool": 5755,
      "ĠGames": 5756,
      "ĠWin": 5757,
      "Ġvisited": 5758,
      "Ġdominant": 5759,
      "Ġquite": 5760,
      "othes": 5761,
      "Ġprice": 5762,
      "Ġfarm": 5763,
      "gu": 5764,
      "Ġ?": 5765,
      "Ġbox": 5766,
      "ĠPC": 5767,
      "ĠSiam": 5768,
      "ĠMur": 5769,
      "Ġdriving": 5770,
      "ĠDNA": 5771,
      "ĠTw": 5772,
      "Ġrose": 5773,
      "Ġdifferences": 5774,
      "haps": 5775,
      "unn": 5776,
      "Ġeffective": 5777,
      "imon": 5778,
      "ĠDec": 5779,
      "Ġmountains": 5780,
      "ancy": 5781,
      "ocracy": 5782,
      "ĠNews": 5783,
      "ĠAdrian": 5784,
      "Ġ1917": 5785,
      "Ġdescribe": 5786,
      "iplom": 5787,
      "aph": 5788,
      "Ã¨": 5789,
      "IN": 5790,
      "ĠMem": 5791,
      "ĠFreder": 5792,
      "Ġminute": 5793,
      "gency": 5794,
      "Ġnewly": 5795,
      "Ġlaunch": 5796,
      "ĠHel": 5797,
      "Ġexplain": 5798,
      "rect": 5799,
      "Ġ95": 5800,
      "Ġproc": 5801,
      "Ġfigure": 5802,
      "inary": 5803,
      "contin": 5804,
      "Ġprep": 5805,
      "Ġproperties": 5806,
      "Ġstruggle": 5807,
      "Ġfaith": 5808,
      "Ġmarg": 5809,
      "Ġprote": 5810,
      "Trying": 5811,
      "ĠBron": 5812,
      "Ġnegative": 5813,
      "Ġnick": 5814,
      "ensions": 5815,
      "ployment": 5816,
      "Ġnormal": 5817,
      "Ġbrief": 5818,
      "iece": 5819,
      "hol": 5820,
      "Ġsuggested": 5821,
      "Ġdeveloping": 5822,
      "ynes": 5823,
      "Can": 5824,
      "Ġgives": 5825,
      "uty": 5826,
      "Ġdepend": 5827,
      "Ġbill": 5828,
      "ĠSpec": 5829,
      "Ġspeakers": 5830,
      "ĠGeorgia": 5831,
      "ÅĤ": 5832,
      "intend": 5833,
      "ĠKu": 5834,
      "06": 5835,
      "Ġdaily": 5836,
      "ĠAges": 5837,
      "Ġwidespread": 5838,
      "Ġimpact": 5839,
      "Ġnecessary": 5840,
      "ises": 5841,
      "othing": 5842,
      "Category": 5843,
      "ĠQur": 5844,
      "rod": 5845,
      "Ġexecutive": 5846,
      "Ġformation": 5847,
      "Ġstruggled": 5848,
      "anj": 5849,
      "Ġpermanent": 5850,
      "icated": 5851,
      "itable": 5852,
      "ĠCa": 5853,
      "Ġopposed": 5854,
      "Ġtitles": 5855,
      "09": 5856,
      "Ġlasted": 5857,
      "ads": 5858,
      "Ġscri": 5859,
      "Ġ2017": 5860,
      "Ġnearby": 5861,
      "Ġsurrounding": 5862,
      "orter": 5863,
      "Ġplans": 5864,
      "Ġtons": 5865,
      "Ġsport": 5866,
      "ĠNob": 5867,
      "Ġenjoy": 5868,
      "ĠTele": 5869,
      "Ġemotion": 5870,
      "Ġrenew": 5871,
      "Ġcerem": 5872,
      "Åį": 5873,
      "ĠOx": 5874,
      "ĠComing": 5875,
      "Ġestablishment": 5876,
      "Ġachieved": 5877,
      "ĠWater": 5878,
      "Ġsched": 5879,
      "ĠOttomans": 5880,
      "ĠToday": 5881,
      "patrick": 5882,
      "Ġsend": 5883,
      "ĠRussians": 5884,
      "Ġsignificantly": 5885,
      "Ġroughly": 5886,
      "Ġcore": 5887,
      "ĠPersian": 5888,
      "ĠVer": 5889,
      "Ġnaval": 5890,
      "including": 5891,
      "Ġretook": 5892,
      "urb": 5893,
      "portion": 5894,
      "Ġ1930": 5895,
      "Ġletters": 5896,
      "ĠValley": 5897,
      "Ġcrop": 5898,
      "ĠPre": 5899,
      "Ġhappen": 5900,
      "Ġmovie": 5901,
      "Ġoperation": 5902,
      "ĠAC": 5903,
      "Ġremoved": 5904,
      "02": 5905,
      "ĠRus": 5906,
      "Ġreligions": 5907,
      "cow": 5908,
      "Ġspect": 5909,
      "His": 5910,
      "Ġdefend": 5911,
      "ĠManchester": 5912,
      "Ġpassage": 5913,
      "Ġnothing": 5914,
      "Ġgoods": 5915,
      "Ġpersons": 5916,
      "Ġprominent": 5917,
      "come": 5918,
      "Ġcomposed": 5919,
      "Ġdry": 5920,
      "Ġ1945": 5921,
      "bl": 5922,
      "ĠGonz": 5923,
      "called": 5924,
      "acing": 5925,
      "gl": 5926,
      "Ġmamm": 5927,
      "Ġtend": 5928,
      "iling": 5929,
      "Ġcompounds": 5930,
      "ĠChopin": 5931,
      "lah": 5932,
      "Ġdelivered": 5933,
      "ersey": 5934,
      "ruct": 5935,
      "Ġderived": 5936,
      "itors": 5937,
      "Ġabandon": 5938,
      "ĠColumb": 5939,
      "Ġmedicine": 5940,
      "Ġhelps": 5941,
      "cer": 5942,
      "miss": 5943,
      "Ġdanger": 5944,
      "Ġlabel": 5945,
      "ĠCommit": 5946,
      "Ġapplications": 5947,
      "ĠKenn": 5948,
      "Ġreduce": 5949,
      "erek": 5950,
      "Ġcollection": 5951,
      "Ġcalcul": 5952,
      "ĠBCE": 5953,
      "cts": 5954,
      "Ġcolony": 5955,
      "Ġacquired": 5956,
      "bourne": 5957,
      "osis": 5958,
      "Ġreplace": 5959,
      "Ġbattles": 5960,
      "hedral": 5961,
      "Ġpractices": 5962,
      "Ġincreasingly": 5963,
      "icks": 5964,
      "ĠTaiwan": 5965,
      "Ġdiplom": 5966,
      "byter": 5967,
      "such": 5968,
      "ĠMid": 5969,
      "ĠFam": 5970,
      "Ġsixth": 5971,
      "Ġlisted": 5972,
      "ĠPier": 5973,
      "Ġcapacity": 5974,
      "Ġcouncil": 5975,
      "ulty": 5976,
      "ding": 5977,
      "Ġequipment": 5978,
      "Ġslightly": 5979,
      "ship": 5980,
      "Ġtrees": 5981,
      "ĠRepublican": 5982,
      "PA": 5983,
      "Ġcreating": 5984,
      "Ġfuel": 5985,
      "ĠVI": 5986,
      "Ġusers": 5987,
      "Ġbond": 5988,
      "ĠHay": 5989,
      "Ġcarries": 5990,
      "ĠPalace": 5991,
      "aris": 5992,
      "ĠFree": 5993,
      "Ġallies": 5994,
      "Ġdemand": 5995,
      "01": 5996,
      "odes": 5997,
      "Ġcritical": 5998,
      "ĠAge": 5999,
      "oting": 6000,
      "ĠConstantin": 6001,
      "ĠGron": 6002,
      "III": 6003,
      "Ġ62": 6004,
      "ĠOrton": 6005,
      "orer": 6006,
      "essor": 6007,
      "Ġsilver": 6008,
      "Ġvirt": 6009,
      "speaking": 6010,
      "Ġlose": 6011,
      "Ġrelative": 6012,
      "ĠBefore": 6013,
      "Ġdeclined": 6014,
      "Ġcontemporary": 6015,
      "ĠDell": 6016,
      "ĠCollins": 6017,
      "ifically": 6018,
      "Ġhooking": 6019,
      "ien": 6020,
      "Ġimportance": 6021,
      "ester": 6022,
      "Ġmo": 6023,
      "ĠJustice": 6024,
      "Ġdogs": 6025,
      "den": 6026,
      "Ġpair": 6027,
      "tainment": 6028,
      "Ġadvance": 6029,
      "Ġmicro": 6030,
      "ĠMaur": 6031,
      "Ġarms": 6032,
      "Ġexcl": 6033,
      "ĠVirginia": 6034,
      "Ġgreatly": 6035,
      "Ġkinds": 6036,
      "Ġhyp": 6037,
      "ĠAlaska": 6038,
      "From": 6039,
      "Ġfully": 6040,
      "ĠStover": 6041,
      "Ġautom": 6042,
      "Ġpros": 6043,
      "ĠSqu": 6044,
      "Ġreaching": 6045,
      "ĠMountains": 6046,
      "Ġsection": 6047,
      "ĠBob": 6048,
      "Ġvoc": 6049,
      "Ġexpand": 6050,
      "ĠSecretary": 6051,
      "hann": 6052,
      "imal": 6053,
      "ĠCD": 6054,
      "ips": 6055,
      "Ġrivalry": 6056,
      "oral": 6057,
      "oster": 6058,
      "ĠChampionship": 6059,
      "Ġfeatured": 6060,
      "ĠFitzpatrick": 6061,
      "afi": 6062,
      "Ġroute": 6063,
      "Ġshared": 6064,
      "ĠBurma": 6065,
      "Ġfair": 6066,
      "ĠMajor": 6067,
      "ĠCastle": 6068,
      "irmed": 6069,
      "ĠRock": 6070,
      "ĠProv": 6071,
      "Ġconducted": 6072,
      "Ġrural": 6073,
      "ampion": 6074,
      "Ġdeaths": 6075,
      "Ġnovel": 6076,
      "agan": 6077,
      "osite": 6078,
      "Ġprisoners": 6079,
      "ĠDerek": 6080,
      "ĠAmong": 6081,
      "ĠArmenia": 6082,
      "ĠOri": 6083,
      "izes": 6084,
      "uer": 6085,
      "ador": 6086,
      "Ġstre": 6087,
      "Ġfrequently": 6088,
      "Ġsom": 6089,
      "Ġegg": 6090,
      "Man": 6091,
      "udget": 6092,
      "Ġpoet": 6093,
      "ĠTu": 6094,
      "Ġ61": 6095,
      "Ġcourts": 6096,
      "arr": 6097,
      "Ġsubstant": 6098,
      "Ġmax": 6099,
      "Ġconcluded": 6100,
      "Ġgreatest": 6101,
      "Ġsaying": 6102,
      "Ġunderstanding": 6103,
      "Ġdetermined": 6104,
      "Ġspring": 6105,
      "Ġrefers": 6106,
      "ogen": 6107,
      "iting": 6108,
      "Ġhab": 6109,
      "poration": 6110,
      "Ġcausing": 6111,
      "Ġdialect": 6112,
      "05": 6113,
      "Ġparticles": 6114,
      "aine": 6115,
      "Ġsell": 6116,
      "sole": 6117,
      "Ġprinciple": 6118,
      "ĠModern": 6119,
      "Ġstreet": 6120,
      "ĠDr": 6121,
      "Ġtraff": 6122,
      "Ġpolicies": 6123,
      "Ġdim": 6124,
      "ĠNasser": 6125,
      "formed": 6126,
      "cle": 6127,
      "pet": 6128,
      "ĠÅ": 6129,
      "Ġbodies": 6130,
      "Ġscreen": 6131,
      "Ġsteam": 6132,
      "Ġpap": 6133,
      "ĠSeveral": 6134,
      "ricts": 6135,
      "Ġforward": 6136,
      "Ġclasses": 6137,
      "ĠNBA": 6138,
      "cia": 6139,
      "rea": 6140,
      "Ġalle": 6141,
      "Ġphilosop": 6142,
      "Ġabsor": 6143,
      "ĠDominic": 6144,
      "Ġcommander": 6145,
      "onna": 6146,
      "ĠCategory": 6147,
      "ĠMoscow": 6148,
      "hy": 6149,
      "ĠThus": 6150,
      "ĠBible": 6151,
      "ĠLuck": 6152,
      "...": 6153,
      "Ġacts": 6154,
      "ico": 6155,
      "Ġmunicip": 6156,
      "Ġcurren": 6157,
      "book": 6158,
      "Ġacademic": 6159,
      "ĠGri": 6160,
      "ranean": 6161,
      "Ġstandards": 6162,
      "Ġmanager": 6163,
      "ĠSanta": 6164,
      "Ġcateg": 6165,
      "Ġbecomes": 6166,
      "ĠBuddhism": 6167,
      "Ġemerged": 6168,
      "Ġeasy": 6169,
      "'m": 6170,
      "eed": 6171,
      "Ġpieces": 6172,
      "ĠVi": 6173,
      "Ġclosely": 6174,
      "Ġmanufacturing": 6175,
      "Ġweight": 6176,
      "ĠSil": 6177,
      "Ġpoll": 6178,
      "ĠReferences": 6179,
      "Ġdowns": 6180,
      "Ġcommunication": 6181,
      "Ġmarriage": 6182,
      "ao": 6183,
      "Ġprefer": 6184,
      "Ġhistoric": 6185,
      "Ġsuggest": 6186,
      "Ġban": 6187,
      "ifying": 6188,
      "Ġsister": 6189,
      "Ġnut": 6190,
      "Ġstrateg": 6191,
      "hammad": 6192,
      "Ġexecuted": 6193,
      "Ġpharm": 6194,
      "ĠBBC": 6195,
      "ĠGreeks": 6196,
      "Ġneighborhood": 6197,
      "ĠAnth": 6198,
      "ĠClub": 6199,
      "Ġmodels": 6200,
      "linson": 6201,
      "Ġclean": 6202,
      "ĠNin": 6203,
      "ĠNeil": 6204,
      "Ġfreedom": 6205,
      "Ġdrives": 6206,
      "Ġkilling": 6207,
      "Ġmovements": 6208,
      "Ġca": 6209,
      "ĠBarber": 6210,
      "yt": 6211,
      "Ġmaintained": 6212,
      "Ġrisk": 6213,
      "Ġfactors": 6214,
      "Ġconquest": 6215,
      "04": 6216,
      "Ġ74": 6217,
      "Ġhouseholder": 6218,
      "Ġhour": 6219,
      "ĠTomlinson": 6220,
      "Ġcou": 6221,
      "Ġimage": 6222,
      "08": 6223,
      "300": 6224,
      "iced": 6225,
      "ĠEduc": 6226,
      "season": 6227,
      "Ġsecret": 6228,
      "ĠStand": 6229,
      "ĠFG": 6230,
      "Ġpolitics": 6231,
      "Ġphen": 6232,
      "ĠVol": 6233,
      "igning": 6234,
      "Ġformat": 6235,
      "Ġbuy": 6236,
      "Ġtrading": 6237,
      "Ġslowly": 6238,
      "lahoma": 6239,
      "gun": 6240,
      "ÉĻ": 6241,
      "ĠWallace": 6242,
      "Ġflu": 6243,
      "Ġoccasion": 6244,
      "Ġspot": 6245,
      "Ġwarm": 6246,
      "ĠAnglo": 6247,
      "Ġthousand": 6248,
      "intendo": 6249,
      "oyd": 6250,
      "oa": 6251,
      "Ġlabour": 6252,
      "Ġdialects": 6253,
      "Ġattrib": 6254,
      "ĠPhilipp": 6255,
      "Ġkilomet": 6256,
      "ĠConstantinople": 6257,
      "!\"": 6258,
      "\"),": 6259,
      "Ġapparent": 6260,
      "iques": 6261,
      "elligence": 6262,
      "Ġrocks": 6263,
      "Ġ1993": 6264,
      "ĠSerb": 6265,
      "ĠGall": 6266,
      "oke": 6267,
      "uction": 6268,
      "ĠDanish": 6269,
      "Ġinvented": 6270,
      "ĠCE": 6271,
      "ĠAirport": 6272,
      "dy": 6273,
      "Ġtrack": 6274,
      "Ġ99": 6275,
      "ĠCarney": 6276,
      "Ġtools": 6277,
      "ĠFrederick": 6278,
      "stead": 6279,
      "Ġconce": 6280,
      "Ġnarrowed": 6281,
      "iterranean": 6282,
      "fam": 6283,
      "ĠHuman": 6284,
      "Ġslave": 6285,
      "Ġinterpret": 6286,
      "hal": 6287,
      "ĠCarp": 6288,
      "ĠLeg": 6289,
      "New": 6290,
      "ca": 6291,
      "edy": 6292,
      "Ġlat": 6293,
      "inate": 6294,
      "Ġmotion": 6295,
      "Ġinstrument": 6296,
      "ĠGates": 6297,
      "Ġpainting": 6298,
      "ST": 6299,
      "bre": 6300,
      "Ġbeer": 6301,
      "Ã¤": 6302,
      "house": 6303,
      "ĠLi": 6304,
      "Ġuprising": 6305,
      "Ġinstruments": 6306,
      "Ġexpress": 6307,
      "Ġdoctr": 6308,
      "gent": 6309,
      "Ġplat": 6310,
      "Ġvast": 6311,
      "Ġstaff": 6312,
      "ĠAsh": 6313,
      "ĠUniversal": 6314,
      "Ġunsu": 6315,
      "Ġextin": 6316,
      "ĠCont": 6317,
      "ymn": 6318,
      "ĠAcademy": 6319,
      "Ġversions": 6320,
      "ĠRog": 6321,
      "Ġcontact": 6322,
      "ovan": 6323,
      "Ġinsects": 6324,
      "ĠTynes": 6325,
      "uris": 6326,
      "erman": 6327,
      "Ġrank": 6328,
      "Ġpunted": 6329,
      "Ġfailure": 6330,
      "Ġcasual": 6331,
      "Ġgal": 6332,
      "Ġtall": 6333,
      "organ": 6334,
      "Ġinfluential": 6335,
      "Ġvolume": 6336,
      "aland": 6337,
      "overty": 6338,
      "Ġmanagement": 6339,
      "Ġcomponents": 6340,
      "ĠCarl": 6341,
      "ĠId": 6342,
      "Ġstadium": 6343,
      "Ġindigenous": 6344,
      "ĠDalton": 6345,
      "ĠGronkowski": 6346,
      "awn": 6347,
      "Ġcontest": 6348,
      "Ġadministrative": 6349,
      "lig": 6350,
      "Ġconsequ": 6351,
      "ĠFox": 6352,
      "Ġwatch": 6353,
      "Ġgraph": 6354,
      "ĠBilly": 6355,
      "Ġtransition": 6356,
      "Ġneeds": 6357,
      "Ġfresh": 6358,
      "Ġeld": 6359,
      "ĠOper": 6360,
      "ĠByzantine": 6361,
      "ĠChristmas": 6362,
      "oped": 6363,
      "Ġvan": 6364,
      "ometimes": 6365,
      "Ġagricultural": 6366,
      "Ġreading": 6367,
      "ĠIb": 6368,
      "rin": 6369,
      "Ġrich": 6370,
      "ĠOffice": 6371,
      "ĠLarry": 6372,
      "Ġ58": 6373,
      "Ġemperor": 6374,
      "hat": 6375,
      "ighting": 6376,
      "Ġextend": 6377,
      "ĠCharleston": 6378,
      "ĠUt": 6379,
      "Ġpunts": 6380,
      "Ġheadquarters": 6381,
      "Ġseek": 6382,
      "Ġmedieval": 6383,
      "mand": 6384,
      "itt": 6385,
      "Ġconnection": 6386,
      "Ġaffected": 6387,
      "Ġchemistry": 6388,
      "run": 6389,
      "Ġcontinent": 6390,
      "Ġnewspaper": 6391,
      "ditionally": 6392,
      "ĠAnthony": 6393,
      "ĠPublic": 6394,
      "Ġbringing": 6395,
      "rate": 6396,
      "ĠFinn": 6397,
      "Ġunique": 6398,
      "ĠStat": 6399,
      "Ġfigures": 6400,
      "Ġille": 6401,
      "Ġcomment": 6402,
      "ishes": 6403,
      "ĠXX": 6404,
      "Ġhair": 6405,
      "Ġincomplete": 6406,
      "tors": 6407,
      "orage": 6408,
      "Ġmis": 6409,
      "related": 6410,
      "ĠHistor": 6411,
      "Ġtheories": 6412,
      "Ġ1988": 6413,
      "Ġsevent": 6414,
      "Ġrevolt": 6415,
      "Ġdrink": 6416,
      "Ġpresidential": 6417,
      "Ġarts": 6418,
      "Ġearned": 6419,
      "ĠMediterranean": 6420,
      "Ġrecovering": 6421,
      "Ġmagazine": 6422,
      "Ġapart": 6423,
      "alities": 6424,
      "ĠAh": 6425,
      "ĠAncient": 6426,
      "ĠEgyptian": 6427,
      "ga": 6428,
      "tered": 6429,
      "Ġwebsites": 6430,
      "Ġstructures": 6431,
      "Ġelectrons": 6432,
      "Ġsurrendered": 6433,
      "Ġbehavior": 6434,
      "ĠTem": 6435,
      "active": 6436,
      "ijing": 6437,
      "Ġcrow": 6438,
      "Ġrecomm": 6439,
      "Ġregarded": 6440,
      "Ġfled": 6441,
      "Ġtexts": 6442,
      "entially": 6443,
      "Ġkne": 6444,
      "Ġexecution": 6445,
      "ccessful": 6446,
      "Ġemployed": 6447,
      "ĠUs": 6448,
      "senal": 6449,
      "Ġdistricts": 6450,
      "ansk": 6451,
      "ĠBurke": 6452,
      "Ġextensive": 6453,
      "Ġinsp": 6454,
      "Following": 6455,
      "Ġce": 6456,
      "Ġonside": 6457,
      "Ġputting": 6458,
      "Ġideal": 6459,
      "Ġdirector": 6460,
      "ĠCommittee": 6461,
      "ienced": 6462,
      "ultan": 6463,
      "ĠMart": 6464,
      "Ġpositions": 6465,
      "Ġcontributed": 6466,
      "Ġgradually": 6467,
      "ĠOwens": 6468,
      "Ġculmin": 6469,
      "water": 6470,
      "udi": 6471,
      "Ġdegrees": 6472,
      "eh": 6473,
      "ĠiP": 6474,
      "Ġformally": 6475,
      "Ġetc": 6476,
      "ĠQuran": 6477,
      "ĠDis": 6478,
      "Ġclim": 6479,
      "ĠObama": 6480,
      "Ġstood": 6481,
      "Ġmarch": 6482,
      "ĠBest": 6483,
      "Ġwins": 6484,
      "Ġactual": 6485,
      "Ġ78": 6486,
      "Ġofficer": 6487,
      "alia": 6488,
      "ĠTurn": 6489,
      "Ġisol": 6490,
      "Ġhundreds": 6491,
      "Ġrejected": 6492,
      "Ġinterac": 6493,
      "Ġdebt": 6494,
      "Jo": 6495,
      "now": 6496,
      "place": 6497,
      "Ġanthrop": 6498,
      "ĠInt": 6499,
      "ylvan": 6500,
      "Ġdiscovery": 6501,
      "Some": 6502,
      "verse": 6503,
      "ĠNintendo": 6504,
      "ĠMelbourne": 6505,
      "AR": 6506,
      "CC": 6507,
      "Ġharm": 6508,
      "Ġ93": 6509,
      "Ġhappens": 6510,
      "ĠEth": 6511,
      "ĠEarl": 6512,
      "Ġstores": 6513,
      "Ġproportion": 6514,
      "Ġwebsite": 6515,
      "rupt": 6516,
      "Ġheard": 6517,
      "Ġairport": 6518,
      "Ġseparated": 6519,
      "Ġvalues": 6520,
      "rav": 6521,
      "Ġ68": 6522,
      "Ġportion": 6523,
      "ĠAdd": 6524,
      "Ġdu": 6525,
      "ellect": 6526,
      "Ġphase": 6527,
      "ĠÎ": 6528,
      "Ġanalysis": 6529,
      "ĠFBI": 6530,
      "ĠSub": 6531,
      "Ġaim": 6532,
      "Ġturnovers": 6533,
      "Ġheavily": 6534,
      "illery": 6535,
      "ĠIndepend": 6536,
      "Ġequival": 6537,
      "Ġlaid": 6538,
      "ĠPenn": 6539,
      "Ġseat": 6540,
      "ĠLam": 6541,
      "Ġuseful": 6542,
      "Ġ1979": 6543,
      "ĠOklahoma": 6544,
      "ĠFestival": 6545,
      "ĠYuan": 6546,
      "400": 6547,
      "ĠFred": 6548,
      "Ġoccupation": 6549,
      "Ġincorporated": 6550,
      "Ġbudget": 6551,
      "Ġexisting": 6552,
      "Ġpoverty": 6553,
      "ĠMP": 6554,
      "ĠShayne": 6555,
      "comp": 6556,
      "after": 6557,
      "cription": 6558,
      "CO": 6559,
      "ato": 6560,
      "Ġ63": 6561,
      "indo": 6562,
      "Ġwalls": 6563,
      "Ġactions": 6564,
      "Ġsust": 6565,
      "Ġholds": 6566,
      "ĠTal": 6567,
      "Ġprevented": 6568,
      "wise": 6569,
      "ĠSoutheast": 6570,
      "Ġdenomin": 6571,
      "wich": 6572,
      "Ġded": 6573,
      "Ġheaded": 6574,
      "Ġign": 6575,
      "ulate": 6576,
      "ĠTechn": 6577,
      "ounger": 6578,
      "Ġgoes": 6579,
      "Ġ73": 6580,
      "Ġsole": 6581,
      "Ġchalleng": 6582,
      "Ġpreserv": 6583,
      "Ġgenetic": 6584,
      "upiter": 6585,
      "Ġbom": 6586,
      "athan": 6587,
      "ĠPresbyter": 6588,
      "Ġsomew": 6589,
      "ĠLyn": 6590,
      "Ġdepending": 6591,
      "Ġpan": 6592,
      "oslav": 6593,
      "Ġcry": 6594,
      "Ġtheore": 6595,
      "Ġfat": 6596,
      "Ġemp": 6597,
      "giving": 6598,
      "Ġhospital": 6599,
      "Ġrushed": 6600,
      "ĠSucc": 6601,
      "Ġcopies": 6602,
      "Ġ71": 6603,
      "break": 6604,
      "ĠFurther": 6605,
      "Ġmassive": 6606,
      "Ġextremely": 6607,
      "ĠCop": 6608,
      "ĠWard": 6609,
      "anged": 6610,
      "ĠMaced": 6611,
      "ĠAssembly": 6612,
      "Does": 6613,
      "Sh": 6614,
      "ĠEcon": 6615,
      "Ġapplication": 6616,
      "ugh": 6617,
      "ĠDou": 6618,
      "itage": 6619,
      "ĠNov": 6620,
      "undiff": 6621,
      "Ġnort": 6622,
      "Ġwithdraw": 6623,
      "Ġknew": 6624,
      "Ġsolution": 6625,
      "Ġagriculture": 6626,
      "Ġexclus": 6627,
      "Ġunsuccessful": 6628,
      "ĠZealand": 6629,
      "ternal": 6630,
      "works": 6631,
      "Ġpark": 6632,
      "lymouth": 6633,
      "ĠTime": 6634,
      "Ġlove": 6635,
      "Ġ85": 6636,
      "Ġeffectively": 6637,
      "aches": 6638,
      "ĠEver": 6639,
      "ĠJr": 6640,
      "Ġdrugs": 6641,
      "ĠHindu": 6642,
      "If": 6643,
      "Ġsupporters": 6644,
      "Ġpure": 6645,
      "ĠMax": 6646,
      "Ġgenes": 6647,
      "ĠBetween": 6648,
      "ĠSuccop": 6649,
      "Ġbott": 6650,
      "issance": 6651,
      "Ġmel": 6652,
      "Ġcharged": 6653,
      "ĠArist": 6654,
      "ĠIndones": 6655,
      "ĠNiger": 6656,
      "ĠArabic": 6657,
      "ĠBig": 6658,
      "ĠAllen": 6659,
      "die": 6660,
      "ĠCundiff": 6661,
      "Ġwave": 6662,
      "Ġnotably": 6663,
      "ĠVinc": 6664,
      "Ġinform": 6665,
      "Ġaudio": 6666,
      "ĠLithuania": 6667,
      "ighth": 6668,
      "Ġshall": 6669,
      "life": 6670,
      "ucas": 6671,
      "Ġresident": 6672,
      "Ġcommitted": 6673,
      "Ġnor": 6674,
      "Ġgrown": 6675,
      "minute": 6676,
      "Ġimmune": 6677,
      "under": 6678,
      "atab": 6679,
      "Ġexperiment": 6680,
      "ĠOlindo": 6681,
      "stream": 6682,
      "me": 6683,
      "Ġ66": 6684,
      "ilding": 6685,
      "Ġ1982": 6686,
      "ĠDonald": 6687,
      "Ġcook": 6688,
      "irty": 6689,
      "ector": 6690,
      "Ã§": 6691,
      "ĠNav": 6692,
      "Ġexperienced": 6693,
      "Ġreports": 6694,
      "ropical": 6695,
      "Ġdiseases": 6696,
      "Ġteaching": 6697,
      "Ġbed": 6698,
      "ĠKitna": 6699,
      "ĠSax": 6700,
      "Ġpoly": 6701,
      "Ġouter": 6702,
      "Ġowners": 6703,
      "Ġpric": 6704,
      "Ġintra": 6705,
      "cont": 6706,
      "Ġlingu": 6707,
      "Ġgeneration": 6708,
      "ĠIslander": 6709,
      "brook": 6710,
      "Ġworth": 6711,
      "Ġelectricity": 6712,
      "het": 6713,
      "ĠLuther": 6714,
      "Ġwhereas": 6715,
      "Ġglac": 6716,
      "ĠAndy": 6717,
      "ĠWed": 6718,
      "Ġclothing": 6719,
      "ĠBlue": 6720,
      "ĠNiners": 6721,
      "Ġfewer": 6722,
      "ĠTs": 6723,
      "ĠFord": 6724,
      "Ġmort": 6725,
      "ĠZh": 6726,
      "Ġindustries": 6727,
      "Ġimmigrants": 6728,
      "Ġpresented": 6729,
      "Ġengineering": 6730,
      "Ġtaught": 6731,
      "ĠBull": 6732,
      "Ġjum": 6733,
      "Ġruler": 6734,
      "ager": 6735,
      "ĠBang": 6736,
      "Ġmist": 6737,
      "urday": 6738,
      "Ġassist": 6739,
      "Ġfans": 6740,
      "ĠRice": 6741,
      "ĠExpl": 6742,
      "Ġsty": 6743,
      "Ġjoint": 6744,
      "ĠPatrick": 6745,
      "Ġfloor": 6746,
      "Ġextent": 6747,
      "ĠWalter": 6748,
      "Ġ96": 6749,
      "outs": 6750,
      "Ġphon": 6751,
      "Ġ1976": 6752,
      "Ġreceptions": 6753,
      "ĠCarpenter": 6754,
      "Ġcasualties": 6755,
      "||": 6756,
      "inch": 6757,
      "Ġaffect": 6758,
      "Ġdollars": 6759,
      "'.": 6760,
      "Ġmatches": 6761,
      "ĠRomans": 6762,
      "ĠTown": 6763,
      "umin": 6764,
      "Ġtorch": 6765,
      "born": 6766,
      "Ä«": 6767,
      "Ġmilit": 6768,
      "wa": 6769,
      "Ġhope": 6770,
      "ini": 6771,
      "atically": 6772,
      "ĠBeijing": 6773,
      "zen": 6774,
      "ĠScient": 6775,
      "ado": 6776,
      "ĠIndians": 6777,
      "Ġmandolin": 6778,
      "ĠOut": 6779,
      "Ġshoot": 6780,
      "Ġquestions": 6781,
      "Ġtrou": 6782,
      "alem": 6783,
      "Ġblow": 6784,
      "\").": 6785,
      "instein": 6786,
      "Ġevolved": 6787,
      "Ġfunctions": 6788,
      "EC": 6789,
      "Ġbanks": 6790,
      "ĠLED": 6791,
      "Ġrivals": 6792,
      "largest": 6793,
      "ĠAlf": 6794,
      "iy": 6795,
      "Ġinher": 6796,
      "Ġmuseum": 6797,
      "Ġimpl": 6798,
      "Ġterror": 6799,
      "Ġreaction": 6800,
      "Sean": 6801,
      "gger": 6802,
      "orted": 6803,
      "otic": 6804,
      "ruption": 6805,
      "Ġborders": 6806,
      "arians": 6807,
      "ĠOnly": 6808,
      "Ġ1986": 6809,
      "Ġultimately": 6810,
      "Ġcycle": 6811,
      "arden": 6812,
      "Ġguard": 6813,
      "Ġmeasured": 6814,
      "commun": 6815,
      "igan": 6816,
      "ĠRomania": 6817,
      "ih": 6818,
      "Ġtraffic": 6819,
      "uum": 6820,
      "ĠTrent": 6821,
      "ĠThanks": 6822,
      "Ġstatement": 6823,
      "ĠCorn": 6824,
      "Ġfirm": 6825,
      "term": 6826,
      "Ġunem": 6827,
      "ropri": 6828,
      "usted": 6829,
      "Ġjournal": 6830,
      "ĠBarth": 6831,
      "Ġdevice": 6832,
      "Ġframe": 6833,
      "ĠSong": 6834,
      "ĠSaturday": 6835,
      "uchy": 6836,
      "ĠPierre": 6837,
      "iciency": 6838,
      "Ġtrain": 6839,
      "Ġcommission": 6840,
      "cell": 6841,
      "othic": 6842,
      "Ġenvironmental": 6843,
      "Ġperiods": 6844,
      "Ġruling": 6845,
      "ĠEducation": 6846,
      "Ġhomes": 6847,
      "ĠWat": 6848,
      "ĠTibetan": 6849,
      "Ġsure": 6850,
      "ĠPress": 6851,
      "enger": 6852,
      "Ġdiverse": 6853,
      "Ġtraditions": 6854,
      "ĠPrize": 6855,
      "Ġcard": 6856,
      "ĠFle": 6857,
      "Ġagree": 6858,
      "ĠAustrian": 6859,
      "ĠMuhammad": 6860,
      "eral": 6861,
      "Ġgone": 6862,
      "ĠMaurice": 6863,
      "ĠJam": 6864,
      "enge": 6865,
      "etball": 6866,
      "ĠMean": 6867,
      "Ġskid": 6868,
      "ĠTest": 6869,
      "then": 6870,
      "Ġbow": 6871,
      "straight": 6872,
      "uses": 6873,
      "ampton": 6874,
      "ĠPlan": 6875,
      "Ġprocesses": 6876,
      "Ġrequires": 6877,
      "Ġboys": 6878,
      "worth": 6879,
      "Ġscript": 6880,
      "ĠJupiter": 6881,
      "Ġlibrary": 6882,
      "Ġvotes": 6883,
      "Ġcircum": 6884,
      "Ġentirely": 6885,
      "chez": 6886,
      "Ġreference": 6887,
      "ĠHun": 6888,
      "Ġperfect": 6889,
      "nington": 6890,
      "oured": 6891,
      "ĠMcG": 6892,
      "Ġvess": 6893,
      "vant": 6894,
      "Ġconsole": 6895,
      "Ġ1985": 6896,
      "Ġdram": 6897,
      "ĠDirect": 6898,
      "Ġneighb": 6899,
      "olics": 6900,
      "Ġpopulous": 6901,
      "Ġfacilities": 6902,
      "Ġcopyright": 6903,
      "Ġsimpl": 6904,
      "Ġprinciples": 6905,
      "ĠNorway": 6906,
      "ĠBol": 6907,
      "Ġamounts": 6908,
      "alez": 6909,
      "ĠVenet": 6910,
      "ĠEstonia": 6911,
      "Ġmetals": 6912,
      "bury": 6913,
      "Ġarrested": 6914,
      "Ġearthquake": 6915,
      "was": 6916,
      "Ġprem": 6917,
      "Ġfactor": 6918,
      "Ġmoon": 6919,
      "ĠCatal": 6920,
      "ĠSanchez": 6921,
      "Ġviewed": 6922,
      "Ġconstitutional": 6923,
      "zz": 6924,
      "Ġchair": 6925,
      "Ġchosen": 6926,
      "ĠEis": 6927,
      "Ġnotes": 6928,
      "achus": 6929,
      "Ġeverything": 6930,
      "ĠGonzalez": 6931,
      "Ġdates": 6932,
      "idents": 6933,
      "Ġund": 6934,
      "Ġ1984": 6935,
      "bu": 6936,
      "han": 6937,
      "Ġther": 6938,
      "Ġpray": 6939,
      "Ġclassified": 6940,
      "ĠResearch": 6941,
      "Ġratio": 6942,
      "Ġsignal": 6943,
      "Ġ1981": 6944,
      "Ġsacks": 6945,
      "Ġtesting": 6946,
      "atian": 6947,
      "ĠNon": 6948,
      "Ġtren": 6949,
      "idel": 6950,
      "Ġvisible": 6951,
      "Ġsac": 6952,
      "apor": 6953,
      "Ġ77": 6954,
      "Ġoutput": 6955,
      "ifications": 6956,
      "Ġrapidly": 6957,
      "ĠBuck": 6958,
      "Ġcompl": 6959,
      "ĠSteven": 6960,
      "Ġcalend": 6961,
      "ET": 6962,
      "Ġlamp": 6963,
      "Ġdowntown": 6964,
      "Ġpeas": 6965,
      "ĠSwiss": 6966,
      "oly": 6967,
      "Ġ89": 6968,
      "Ġcorrect": 6969,
      "Ġdescend": 6970,
      "law": 6971,
      "Ġnucle": 6972,
      "Ġexisted": 6973,
      "scale": 6974,
      "Ġinvolve": 6975,
      "Ġleads": 6976,
      "ĠGood": 6977,
      "Ġrot": 6978,
      "Ġevening": 6979,
      "ylvania": 6980,
      "ĠAvenue": 6981,
      "Ġmaximum": 6982,
      "etts": 6983,
      "Ġsleep": 6984,
      "ĠArsenal": 6985,
      "To": 6986,
      "ĠCla": 6987,
      "ĠBalk": 6988,
      "Ġconfirmed": 6989,
      "Ġrefle": 6990,
      "iary": 6991,
      "ocated": 6992,
      "ĠClin": 6993,
      "anskrit": 6994,
      "bec": 6995,
      "Ġbands": 6996,
      "aders": 6997,
      "Ġ1919": 6998,
      "Ġsam": 6999,
      "ĠSpe": 7000,
      "unte": 7001,
      "Ġperhaps": 7002,
      "Ġproviding": 7003,
      "Ġcruc": 7004,
      "ĠSenate": 7005,
      "Ġbran": 7006,
      "Ġages": 7007,
      "Ġartillery": 7008,
      "Ġopportun": 7009,
      "ĠVienna": 7010,
      "ĠPun": 7011,
      "Ġ92": 7012,
      "Ġlearned": 7013,
      "also": 7014,
      "Ġ1922": 7015,
      "Ġgrab": 7016,
      "addafi": 7017,
      "Ġopt": 7018,
      "Ġoccurs": 7019,
      "ĠUSA": 7020,
      "ĠSlavic": 7021,
      "Ġdefending": 7022,
      "nel": 7023,
      "ĠOh": 7024,
      "Ġplate": 7025,
      "incess": 7026,
      "Ġzero": 7027,
      "Ġhy": 7028,
      "Ġmm": 7029,
      "ĠDick": 7030,
      "ĠAristot": 7031,
      "ĠPlymouth": 7032,
      "Ġnormally": 7033,
      "ora": 7034,
      "rak": 7035,
      "osm": 7036,
      "Ġsentences": 7037,
      "ĠSaf": 7038,
      "Ġgravity": 7039,
      "ĠSky": 7040,
      "Ġdoor": 7041,
      "Ġdoesn": 7042,
      "Ġcombat": 7043,
      "ĠAntarctica": 7044,
      "apore": 7045,
      "Ġdesert": 7046,
      "Ġreflect": 7047,
      "Ġtechniques": 7048,
      "Ġrevealed": 7049,
      "asions": 7050,
      "Ġgets": 7051,
      "Ġacid": 7052,
      "Ġchanging": 7053,
      "Ġanten": 7054,
      "Ġforming": 7055,
      "ĠNam": 7056,
      "anda": 7057,
      "Ġsug": 7058,
      "Ġnote": 7059,
      "ĠWestbrook": 7060,
      "Ġtough": 7061,
      "Ġcontinues": 7062,
      "Ġ69": 7063,
      "zing": 7064,
      "Ġspecifically": 7065,
      "Ġcharacteristics": 7066,
      "Ã¡n": 7067,
      "iology": 7068,
      "Ġprojects": 7069,
      "Ġregistered": 7070,
      "ĠRussell": 7071,
      "occ": 7072,
      "aint": 7073,
      "ii": 7074,
      "awa": 7075,
      "Ġemployees": 7076,
      "ĠUkrain": 7077,
      "amental": 7078,
      "ĠAward": 7079,
      "Ġsuccessor": 7080,
      "Ġopponents": 7081,
      "hevik": 7082,
      "thes": 7083,
      "Ġconvention": 7084,
      "Ġregain": 7085,
      "Ġintellect": 7086,
      "ĠBoswell": 7087,
      "Ġvictim": 7088,
      "ĠSk": 7089,
      "cht": 7090,
      "Ġstudied": 7091,
      "Ġquantum": 7092,
      "but": 7093,
      "Ġoperate": 7094,
      "pson": 7095,
      "Ġexpensive": 7096,
      "Ġopin": 7097,
      "Ġtwenty": 7098,
      "Ġfocused": 7099,
      "ader": 7100,
      "ĠXbox": 7101,
      "ĠDown": 7102,
      "ĠNow": 7103,
      "Ġgod": 7104,
      "ĠFoster": 7105,
      "One": 7106,
      "Ġbought": 7107,
      "ĠLiv": 7108,
      "Ġatom": 7109,
      "Ġ67": 7110,
      "hatt": 7111,
      "pool": 7112,
      "elson": 7113,
      "Ġtrial": 7114,
      "Ġcoastal": 7115,
      "ĠThanksgiving": 7116,
      "eded": 7117,
      "Ġyounger": 7118,
      "Ġannex": 7119,
      "ture": 7120,
      "Ġ1000": 7121,
      "Ġheight": 7122,
      "Ġoverse": 7123,
      "Ġmaster": 7124,
      "Ġinvent": 7125,
      "Ġkilometres": 7126,
      "udden": 7127,
      "ĠPennington": 7128,
      "Ġnegotiations": 7129,
      "Ġdating": 7130,
      "Ġfeat": 7131,
      "aung": 7132,
      "Ġsettlers": 7133,
      "hered": 7134,
      "ĠColumbia": 7135,
      "rons": 7136,
      "ĠHo": 7137,
      "ĠYears": 7138,
      "velopment": 7139,
      "ĠHD": 7140,
      "istor": 7141,
      "ĠCommunity": 7142,
      "Ġscr": 7143,
      "Ġsevere": 7144,
      "ĠRecords": 7145,
      "ĠFound": 7146,
      "Ġvacuum": 7147,
      "Ġfixed": 7148,
      "Ġtraded": 7149,
      "elve": 7150,
      "Ġhistorians": 7151,
      "bey": 7152,
      "ĠForces": 7153,
      "Ġgirl": 7154,
      "ĠTurner": 7155,
      "iano": 7156,
      "Ġ1900": 7157,
      "Ġdisap": 7158,
      "Ġrefuge": 7159,
      "Ġhonor": 7160,
      "ĠHealth": 7161,
      "ĠDev": 7162,
      "phy": 7163,
      "ĠEuropeans": 7164,
      "enburg": 7165,
      "Ġcheck": 7166,
      "Ġrow": 7167,
      "Ġreply": 7168,
      "class": 7169,
      "Ġpushed": 7170,
      "ĠDaniel": 7171,
      "ielberg": 7172,
      "ani": 7173,
      "osure": 7174,
      "Ġ1914": 7175,
      "Ġphenomen": 7176,
      "Ġconsisting": 7177,
      "ĠForm": 7178,
      "Ġcampaigns": 7179,
      "Ġalternative": 7180,
      "Ġsecure": 7181,
      "Ġadult": 7182,
      "Ġoption": 7183,
      "Ġdelay": 7184,
      "Ġmurder": 7185,
      "Ġdance": 7186,
      "Ġtransportation": 7187,
      "ĠLen": 7188,
      "Ġconsisted": 7189,
      "car": 7190,
      "Ġbatter": 7191,
      "Ġpartners": 7192,
      "Ġwaves": 7193,
      "Ġpet": 7194,
      "ocked": 7195,
      "Ġ1978": 7196,
      "Ġoperated": 7197,
      "ĠDam": 7198,
      "Ġskin": 7199,
      "Ġbooted": 7200,
      "Ġaccused": 7201,
      "isf": 7202,
      "Ġguns": 7203,
      "SP": 7204,
      "oz": 7205,
      "apter": 7206,
      "ĠTurks": 7207,
      "ĠUpper": 7208,
      "ĠSummer": 7209,
      "rill": 7210,
      "ĠMars": 7211,
      "Ġ97": 7212,
      "Ġexperiments": 7213,
      "Ġchampion": 7214,
      "Ġgarrison": 7215,
      "ĠSingapore": 7216,
      "nce": 7217,
      "á¹": 7218,
      "icket": 7219,
      "Ġabol": 7220,
      "tons": 7221,
      "uj": 7222,
      "ĠBus": 7223,
      "Station": 7224,
      "ĠTen": 7225,
      "Ġartist": 7226,
      "Ġrepeated": 7227,
      "ĠSony": 7228,
      "Ġexpect": 7229,
      "Ġmos": 7230,
      "ĠHarvard": 7231,
      "ĠLate": 7232,
      "Ġdefence": 7233,
      "ĠBulgarian": 7234,
      "ĠBold": 7235,
      "ĠBishop": 7236,
      "emic": 7237,
      "apse": 7238,
      "ĠBronx": 7239,
      "Ġsubur": 7240,
      "Ġpurposes": 7241,
      "ĠFortun": 7242,
      "Ġliberal": 7243,
      "Ġthin": 7244,
      "ĠDave": 7245,
      "Ġslavery": 7246,
      "ĠUkraine": 7247,
      "Ġburned": 7248,
      "Ġexerc": 7249,
      "answer": 7250,
      "Ġcab": 7251,
      "Ġunp": 7252,
      "onder": 7253,
      "Ġchain": 7254,
      "Ġ1971": 7255,
      "ĠWhitehead": 7256,
      "ĠCatholics": 7257,
      "Ġsubjects": 7258,
      "Ġtal": 7259,
      "Ġalive": 7260,
      "ĠInstead": 7261,
      "Ġprey": 7262,
      "Ġregarding": 7263,
      "Ġkings": 7264,
      "Ġscores": 7265,
      "irds": 7266,
      "ĠSic": 7267,
      "ashion": 7268,
      "Ġassass": 7269,
      "Ġfeed": 7270,
      "Ġbreaking": 7271,
      "Ġfoundation": 7272,
      "ĠPeace": 7273,
      "ĠHolm": 7274,
      "Ġplayoffs": 7275,
      "Ġrevenue": 7276,
      "bles": 7277,
      "heastern": 7278,
      "Ġstone": 7279,
      "inson": 7280,
      "Ġoffices": 7281,
      "Ġmerch": 7282,
      "Ġmonarchy": 7283,
      "Ġestimates": 7284,
      "ĠThose": 7285,
      "Many": 7286,
      "esh": 7287,
      "Ġconstructed": 7288,
      "ĠCBS": 7289,
      "ĠDelhi": 7290,
      "bow": 7291,
      "ocide": 7292,
      "Ġdebate": 7293,
      "ĠBrook": 7294,
      "Ġmachines": 7295,
      "hold": 7296,
      "ĠCHAPTER": 7297,
      "Ġmammals": 7298,
      "Ġmeasures": 7299,
      "ĠBernard": 7300,
      "Ġpiece": 7301,
      "Ġbreed": 7302,
      "Ġalco": 7303,
      "Ġuser": 7304,
      "ologies": 7305,
      "Ġstrongly": 7306,
      "Ġsatellite": 7307,
      "Ġbranches": 7308,
      "rant": 7309,
      "Ġcomposition": 7310,
      "olshevik": 7311,
      "Ġcontained": 7312,
      "Ġmathematics": 7313,
      "akers": 7314,
      "pping": 7315,
      "Ġcommanded": 7316,
      "ĠAlexand": 7317,
      "Ġneither": 7318,
      "ĠBroad": 7319,
      "Ġcontribution": 7320,
      "ĠNA": 7321,
      "Ġpatterns": 7322,
      "Ġpublish": 7323,
      "ĠKris": 7324,
      "Ġviews": 7325,
      "ĠHal": 7326,
      "Ġalph": 7327,
      "ĠUl": 7328,
      "Ġ82": 7329,
      "Ġcrus": 7330,
      "otte": 7331,
      "ĠAmericas": 7332,
      "ĠFriday": 7333,
      "umen": 7334,
      "Ġrenamed": 7335,
      "ĠSecurity": 7336,
      "lon": 7337,
      "icate": 7338,
      "Ġmap": 7339,
      "antly": 7340,
      "Ġ72": 7341,
      "ĠCrown": 7342,
      "Ġopportunity": 7343,
      "Ġgross": 7344,
      "iful": 7345,
      "ĠArm": 7346,
      "Ġprepar": 7347,
      "theless": 7348,
      "Ġequivalent": 7349,
      "ĠDue": 7350,
      "Ġunanswer": 7351,
      "Ġ250": 7352,
      "ĠDonovan": 7353,
      "atched": 7354,
      "Ġbright": 7355,
      "ĠGore": 7356,
      "Ġapproved": 7357,
      "Ġdoctor": 7358,
      "ĠIranian": 7359,
      "Ġstret": 7360,
      "emen": 7361,
      "Ġrob": 7362,
      "Ġseemed": 7363,
      "US": 7364,
      "Ġpra": 7365,
      "Ġseats": 7366,
      "ĠSi": 7367,
      "Ġdecis": 7368,
      "ĠStandard": 7369,
      "achusetts": 7370,
      "Ġrese": 7371,
      "agement": 7372,
      "ĠMand": 7373,
      "Ġpropos": 7374,
      "Ġbur": 7375,
      "ĠIP": 7376,
      "Ġinnov": 7377,
      "oven": 7378,
      "ĠRoad": 7379,
      "ĠHawai": 7380,
      "Ġaw": 7381,
      "ĠGaddafi": 7382,
      "ĠStan": 7383,
      "ureau": 7384,
      "ibbe": 7385,
      "Ġ1939": 7386,
      "Be": 7387,
      "Ġproced": 7388,
      "Ġspeaking": 7389,
      "Ġvoice": 7390,
      "Ġsurrender": 7391,
      "ructure": 7392,
      "Ġgall": 7393,
      "Ġspons": 7394,
      "ava": 7395,
      "Ġadvert": 7396,
      "Ġcolors": 7397,
      "Ġrestaur": 7398,
      "Ġsuffering": 7399,
      "dinand": 7400,
      "Ġunanswered": 7401,
      "Ġinequ": 7402,
      "omme": 7403,
      "assing": 7404,
      "Ġjuris": 7405,
      "ĠTre": 7406,
      "ĠTan": 7407,
      "ĠPower": 7408,
      "Ġ98": 7409,
      "uties": 7410,
      "Ġperce": 7411,
      "Ġworst": 7412,
      "elesc": 7413,
      "ĠRandy": 7414,
      "ni": 7415,
      "ittle": 7416,
      "ĠNelson": 7417,
      "ĠAustin": 7418,
      "long": 7419,
      "Ġdiet": 7420,
      "ĠRaj": 7421,
      "Ġaccompan": 7422,
      "ĠPresbyterian": 7423,
      "rec": 7424,
      "rett": 7425,
      "ĠKy": 7426,
      "Ġsan": 7427,
      "ĠBerm": 7428,
      "bing": 7429,
      "ĠJake": 7430,
      "standing": 7431,
      "Ġrailway": 7432,
      "hors": 7433,
      "Ġmic": 7434,
      "Ġradiation": 7435,
      "Ġliterary": 7436,
      "ĠBapt": 7437,
      "Ġbeaut": 7438,
      "har": 7439,
      "Ġhappy": 7440,
      "Ġbridge": 7441,
      "Ġstorage": 7442,
      "ĠScob": 7443,
      "ĠClark": 7444,
      "Ġdocuments": 7445,
      "ĠAbd": 7446,
      "Ġatomic": 7447,
      "Ġtraditionally": 7448,
      "Ġinspired": 7449,
      "Ġ1975": 7450,
      "Ġopposite": 7451,
      "Ġhorse": 7452,
      "600": 7453,
      "Ġsites": 7454,
      "Ġmulti": 7455,
      "Ġcounties": 7456,
      "Ġment": 7457,
      "ĠPet": 7458,
      "phone": 7459,
      "Ġ79": 7460,
      "Ġsciences": 7461,
      "ĠFerdinand": 7462,
      "Ġneutral": 7463,
      "oding": 7464,
      "writ": 7465,
      "Ġloyal": 7466,
      "Ġcapita": 7467,
      "Ġremainder": 7468,
      "Ġsemi": 7469,
      "Ġregime": 7470,
      "ĠTerrell": 7471,
      "ounce": 7472,
      "ĠMes": 7473,
      "Ġ1983": 7474,
      "Ġtying": 7475,
      "Ġ1949": 7476,
      "Ġmigration": 7477,
      "enhower": 7478,
      "ĠLod": 7479,
      "Ġpopularity": 7480,
      "ĠJulius": 7481,
      "Ġfullback": 7482,
      "Ġefficient": 7483,
      "Ġpredomin": 7484,
      "abad": 7485,
      "Ġshop": 7486,
      "Ġ83": 7487,
      "Ġflat": 7488,
      "Ġplanning": 7489,
      "Ġdollar": 7490,
      "rapped": 7491,
      "ĠHong": 7492,
      "Ġsecular": 7493,
      "ĠJersey": 7494,
      "Ġobserved": 7495,
      "ĠFar": 7496,
      "Ġseems": 7497,
      "Ã³n": 7498,
      "ĠMassachusetts": 7499,
      "IA": 7500,
      "Ġ1911": 7501,
      "Ġ120": 7502,
      "ĠIsa": 7503,
      "Ġpromoted": 7504,
      "absburg": 7505,
      "Ġcrowd": 7506,
      "Ġintraconference": 7507,
      "ĠLis": 7508,
      "ĠService": 7509,
      "ima": 7510,
      "acts": 7511,
      "ults": 7512,
      "ĠLabour": 7513,
      "ĠRegion": 7514,
      "Ġcoins": 7515,
      "aration": 7516,
      "otions": 7517,
      "arant": 7518,
      "ione": 7519,
      "Hispanic": 7520,
      "ruction": 7521,
      "ĠTower": 7522,
      "Ġ1973": 7523,
      "Ġenforce": 7524,
      "Ġarrival": 7525,
      "Ġstyles": 7526,
      "Ġ88": 7527,
      "Ġ1941": 7528,
      "Ġ1944": 7529,
      "Ġtypical": 7530,
      "Ġfaster": 7531,
      "ĠLibrary": 7532,
      "assed": 7533,
      "Ġ84": 7534,
      "cles": 7535,
      "ologist": 7536,
      "Ġappears": 7537,
      "thur": 7538,
      "Ġ&#": 7539,
      "onald": 7540,
      "Ġorders": 7541,
      "Ġdivisions": 7542,
      "Ġantibiot": 7543,
      "ibbean": 7544,
      "inity": 7545,
      "ashed": 7546,
      "Ġcombination": 7547,
      "ĠFortunately": 7548,
      "Ġpractical": 7549,
      "ais": 7550,
      "Ġ1921": 7551,
      "Ġviolence": 7552,
      "Ġchoice": 7553,
      "ahe": 7554,
      "ĠBah": 7555,
      "Ġdirected": 7556,
      "li": 7557,
      "lines": 7558,
      "roc": 7559,
      "ĠEst": 7560,
      "Ġyellow": 7561,
      "Ġwriters": 7562,
      "Ġowner": 7563,
      "Ġregulation": 7564,
      "ider": 7565,
      "Ġdatab": 7566,
      "ĠGreater": 7567,
      "Ġdepart": 7568,
      "Ġconnect": 7569,
      "abet": 7570,
      "Ġadapt": 7571,
      "ĠMeanwhile": 7572,
      "Ġbrothers": 7573,
      "Ġprincipal": 7574,
      "oln": 7575,
      "room": 7576,
      "Ġ2018": 7577,
      "ĠOlympics": 7578,
      "ĠJennings": 7579,
      "Ġplague": 7580,
      "rises": 7581,
      "ĠOxford": 7582,
      "eller": 7583,
      "Ġeducational": 7584,
      "ĠEnter": 7585,
      "ĠJeremy": 7586,
      "Ġabsol": 7587,
      "Ġeye": 7588,
      "ĠBuc": 7589,
      "Ġstream": 7590,
      "ockey": 7591,
      "Ġillegal": 7592,
      "Ġwait": 7593,
      "Ġhall": 7594,
      "Ġcapped": 7595,
      "Ġcavalry": 7596,
      "race": 7597,
      "olve": 7598,
      "Ġmosa": 7599,
      "Ġscene": 7600,
      "Ġexactly": 7601,
      "hattan": 7602,
      "ĠSanskrit": 7603,
      "unction": 7604,
      "Ġ600": 7605,
      "ĠBarb": 7606,
      "Ġcouple": 7607,
      "rehens": 7608,
      "exual": 7609,
      "Ġcontinental": 7610,
      "Ġcovers": 7611,
      "uesday": 7612,
      "Ġmyth": 7613,
      "Ġessential": 7614,
      "Ġmobile": 7615,
      "ĠPrussian": 7616,
      "ĠMun": 7617,
      "Ġmeat": 7618,
      "cycl": 7619,
      "Ġcardin": 7620,
      "Ġwrong": 7621,
      "Ġsav": 7622,
      "itals": 7623,
      "ĠChild": 7624,
      "Ġhear": 7625,
      "ĠGulf": 7626,
      "gment": 7627,
      "power": 7628,
      "ĠEinstein": 7629,
      "ĠMrs": 7630,
      "ĠHot": 7631,
      "going": 7632,
      "iop": 7633,
      "ËĲ": 7634,
      "Ġmouth": 7635,
      "ishing": 7636,
      "Ġfounding": 7637,
      "Ġlies": 7638,
      "ĠMend": 7639,
      "Ġ81": 7640,
      "Ġinsur": 7641,
      "Ġconference": 7642,
      "Ġcaptain": 7643,
      "Ġ1974": 7644,
      "French": 7645,
      "uled": 7646,
      "Ġstock": 7647,
      "ĠClinton": 7648,
      "Ġgrant": 7649,
      "formation": 7650,
      "igious": 7651,
      "rum": 7652,
      "owned": 7653,
      "ĠLower": 7654,
      "Ġcompos": 7655,
      "ĠShan": 7656,
      "ĠOhio": 7657,
      "Euro": 7658,
      "Ġlake": 7659,
      "ĠThrough": 7660,
      "Ġhopes": 7661,
      "Ġstories": 7662,
      "ĠArgent": 7663,
      "acre": 7664,
      "ĠExplorer": 7665,
      "HE": 7666,
      "ĠTuesday": 7667,
      "Ġelectrical": 7668,
      "Ġreforms": 7669,
      "ĠDerrick": 7670,
      "Ġworship": 7671,
      "Ġpreced": 7672,
      "incoln": 7673,
      "Ġadding": 7674,
      "know": 7675,
      "ĠScobee": 7676,
      "rard": 7677,
      "rif": 7678,
      "ĠAlban": 7679,
      "Ġfrequency": 7680,
      "Ġanyone": 7681,
      "ĠLife": 7682,
      "Ġdepos": 7683,
      "top": 7684,
      "aming": 7685,
      "Ġwinner": 7686,
      "Ġ1967": 7687,
      "Ġkeeping": 7688,
      "ĠRail": 7689,
      "Ġready": 7690,
      "ĠCoast": 7691,
      "Ġcollapse": 7692,
      "Ġsubsid": 7693,
      "cul": 7694,
      "ĠKen": 7695,
      "Ġtransferred": 7696,
      "fare": 7697,
      "ĠIce": 7698,
      "ĠDE": 7699,
      "anguage": 7700,
      "Ġtechnical": 7701,
      "Ġcenters": 7702,
      "Ġsocieties": 7703,
      "ĠRena": 7704,
      "Ġexternal": 7705,
      "ĠBruce": 7706,
      "ĠPhys": 7707,
      "Ġfoss": 7708,
      "Ġagency": 7709,
      "Ġ1972": 7710,
      "ĠPlayStation": 7711,
      "Ġsurvey": 7712,
      "reens": 7713,
      "Ġretreat": 7714,
      "Ġvolt": 7715,
      "tar": 7716,
      "ĠBolshevik": 7717,
      "Ġshif": 7718,
      "ĠSyria": 7719,
      "Ġprices": 7720,
      "Ã¼r": 7721,
      "Ġserving": 7722,
      "ĠSpielberg": 7723,
      "Ġeggs": 7724,
      "Ġotherwise": 7725,
      "Ġremember": 7726,
      "Ġ1977": 7727,
      "Ġcategories": 7728,
      "ugoslav": 7729,
      "Ind": 7730,
      "Ġextending": 7731,
      "ĠCommunist": 7732,
      "Ġcra": 7733,
      "Ġpup": 7734,
      "ĠBaltic": 7735,
      "Ġvehicles": 7736,
      "ĠOnce": 7737,
      "ĠHolmes": 7738,
      "ideo": 7739,
      "ĠPart": 7740,
      "ĠCorporation": 7741,
      "Ġtu": 7742,
      "ĠGothic": 7743,
      "ressive": 7744,
      "Ġlanded": 7745,
      "ĠDemocr": 7746,
      "ĠMadonna": 7747,
      "prof": 7748,
      "fort": 7749,
      "high": 7750,
      "Ġsenior": 7751,
      "uing": 7752,
      "ĠArts": 7753,
      "Ġeveryone": 7754,
      "ĠMorris": 7755,
      "Ġabandoned": 7756,
      "Ġunemployment": 7757,
      "SC": 7758,
      "Ġath": 7759,
      "Ġrising": 7760,
      "Ġmoves": 7761,
      "Ġring": 7762,
      "ĠBenn": 7763,
      "Ġeleph": 7764,
      "Ġphr": 7765,
      "Ġoriginated": 7766,
      "ĠEisenhower": 7767,
      "Ġcomponent": 7768,
      "ĠThird": 7769,
      "thanas": 7770,
      "ĠSomali": 7771,
      "Ex": 7772,
      "Ġstanding": 7773,
      "Ġ1968": 7774,
      "Ġlegislation": 7775,
      "arv": 7776,
      "iley": 7777,
      "Ġordin": 7778,
      "ĠPolice": 7779,
      "Ġelabor": 7780,
      "Ġintroduction": 7781,
      "Ġvoted": 7782,
      "ĠStr": 7783,
      "Ġroots": 7784,
      "ĠConference": 7785,
      "Ġaccounts": 7786,
      "lectric": 7787,
      "ĠCNN": 7788,
      "Ġedition": 7789,
      "Ġsettlements": 7790,
      "Ġlayer": 7791,
      "ĠAva": 7792,
      "ĠCuba": 7793,
      "Ġbab": 7794,
      "Ġstable": 7795,
      "ocol": 7796,
      "Ġlimits": 7797,
      "Ġshowing": 7798,
      "Ġdestruction": 7799,
      "Tube": 7800,
      "bra": 7801,
      "antic": 7802,
      "Ġserves": 7803,
      "Ġthinking": 7804,
      "Ġchallenge": 7805,
      "ĠList": 7806,
      "Ġwarning": 7807,
      "Ġ1987": 7808,
      "Ġmembership": 7809,
      "Ġtaxes": 7810,
      "ĠConvention": 7811,
      "ĠHungarian": 7812,
      "Ġcontroversial": 7813,
      "Ġplatform": 7814,
      "Ġsed": 7815,
      "ĠKong": 7816,
      "Ġexpressed": 7817,
      "ĠGarcia": 7818,
      "ĠCaptain": 7819,
      "Ġlinked": 7820,
      "Ġasp": 7821,
      "Ġbask": 7822,
      "IV": 7823,
      "ĠChe": 7824,
      "ĠWeb": 7825,
      "ĠJean": 7826,
      "Ġgrabbed": 7827,
      "rep": 7828,
      "stan": 7829,
      "ĠRian": 7830,
      "ĠClay": 7831,
      "Ġnorthwest": 7832,
      "Ġsomewhat": 7833,
      "pa": 7834,
      "Ġgene": 7835,
      "ĠMen": 7836,
      "ĠEvery": 7837,
      "Ġcolleges": 7838,
      "uguen": 7839,
      "uns": 7840,
      "Ġenrol": 7841,
      "ifer": 7842,
      "Ġtoss": 7843,
      "ĠProf": 7844,
      "homme": 7845,
      "ĠWilkins": 7846,
      "ceans": 7847,
      "ĠManhattan": 7848,
      "ĠLike": 7849,
      "abul": 7850,
      "Ġinterests": 7851,
      "Ġentering": 7852,
      "Ġfundamental": 7853,
      "Ġraids": 7854,
      "Ġvillages": 7855,
      "Ġresearc": 7856,
      "Ġkilometers": 7857,
      "Ġ76": 7858,
      "Ġdriven": 7859,
      "Ġmetaph": 7860,
      "Ġdescribes": 7861,
      "ĠSpecial": 7862,
      "kh": 7863,
      "ĠCork": 7864,
      "ĠHabsburg": 7865,
      "ĠKurt": 7866,
      "Ġdetermine": 7867,
      "Ġtranslation": 7868,
      "DS": 7869,
      "Ġpage": 7870,
      "ĠCam": 7871,
      "urally": 7872,
      "avian": 7873,
      "ĠPash": 7874,
      "Ġfounder": 7875,
      "Ġtwelve": 7876,
      "olesc": 7877,
      "Ġcars": 7878,
      "Ġgalax": 7879,
      "chen": 7880,
      "ĠAdditionally": 7881,
      "Ġconcerned": 7882,
      "uerto": 7883,
      "Ġmad": 7884,
      "Ġagencies": 7885,
      "ikh": 7886,
      "ĠDelhomme": 7887,
      "ĠLB": 7888,
      "Ġinvestment": 7889,
      "Ġsounds": 7890,
      "eless": 7891,
      "Ġwasn": 7892,
      "Ġmillions": 7893,
      "thanasius": 7894,
      "ĠSav": 7895,
      "Ġdebut": 7896,
      "Ġcosts": 7897,
      "Ġprecip": 7898,
      "ĠIBM": 7899,
      "Ġcrimes": 7900,
      "kin": 7901,
      "ĠAmaz": 7902,
      "Ġmanufactur": 7903,
      "Ġaged": 7904,
      "Ġretail": 7905,
      "ĠGuard": 7906,
      "ĠGolden": 7907,
      "Ġexists": 7908,
      "ĠPrincess": 7909,
      "RA": 7910,
      "ĠLincoln": 7911,
      "Ġsalt": 7912,
      "Ang": 7913,
      "Ġbrows": 7914,
      "Ġ1912": 7915,
      "Ġgrass": 7916,
      "Ġflood": 7917,
      "anes": 7918,
      "Ġfine": 7919,
      "Ġrevers": 7920,
      "olith": 7921,
      "Ġsubstance": 7922,
      "ĠNobel": 7923,
      "dam": 7924,
      "Ġmal": 7925,
      "ĠYugoslav": 7926,
      "when": 7927,
      "ĠSix": 7928,
      "ĠBab": 7929,
      "ĠRoy": 7930,
      "ĠNovak": 7931,
      "ulture": 7932,
      "Ġnetworks": 7933,
      "Ġconcerns": 7934,
      "Ġplus": 7935,
      "Ġinterference": 7936,
      "obe": 7937,
      "Ġsubd": 7938,
      "olas": 7939,
      "ĠMic": 7940,
      "Ġschem": 7941,
      "Ġdisag": 7942,
      "Ġdecisions": 7943,
      "wick": 7944,
      "Ġtackle": 7945,
      "Ġalleged": 7946,
      "Ġcompletion": 7947,
      "Ġmarkets": 7948,
      "rastructure": 7949,
      "encing": 7950,
      "ĠFr": 7951,
      "ĠFoundation": 7952,
      "did": 7953,
      "Ġsort": 7954,
      "ĠDevelopment": 7955,
      "ĠDyn": 7956,
      "ennis": 7957,
      "Ġcalendar": 7958,
      "iox": 7959,
      "forced": 7960,
      "Ġdistinction": 7961,
      "Ġreact": 7962,
      "ĠPAT": 7963,
      "Ġ...": 7964,
      "ĠGarrard": 7965,
      "ĠDarren": 7966,
      "rogen": 7967,
      "Ġbegun": 7968,
      "ĠGer": 7969,
      "ĠCham": 7970,
      "Ġannually": 7971,
      "Ġbiological": 7972,
      "Ġmedium": 7973,
      "Ġexplained": 7974,
      "Ġfacing": 7975,
      "Ġselling": 7976,
      "ĠChen": 7977,
      "Ġstudio": 7978,
      "Ġsudden": 7979,
      "ĠYear": 7980,
      "Ġauthors": 7981,
      "Ġconflicts": 7982,
      "ĠRenaissance": 7983,
      "ĠLas": 7984,
      "Ġassigned": 7985,
      "ĠMercury": 7986,
      "Ġpicture": 7987,
      "ww": 7988,
      "Ġask": 7989,
      "order": 7990,
      "Ġaffairs": 7991,
      "ĠRelated": 7992,
      "ĠVan": 7993,
      "Ġelectronic": 7994,
      "stone": 7995,
      "ronic": 7996,
      "ĠMcMan": 7997,
      "Ġlie": 7998,
      "ancing": 7999,
      "Ġrating": 8000,
      "Ġinequality": 8001,
      "ĠRos": 8002,
      "Ġceremony": 8003,
      "ĠVincent": 8004,
      "resents": 8005,
      "Ġcharges": 8006,
      "Ġcontra": 8007,
      "uten": 8008,
      "Ġmainland": 8009,
      "aling": 8010,
      "Ġpossibly": 8011,
      "ses": 8012,
      "Ġ94": 8013,
      "Ġnit": 8014,
      "ĠRet": 8015,
      "Ġstring": 8016,
      "ĠDarwin": 8017,
      "Ġsurvived": 8018,
      "ĠRights": 8019,
      "Ġaccompanied": 8020,
      "Ġcru": 8021,
      "Ġstrict": 8022,
      "ĠConserv": 8023,
      "ĠNear": 8024,
      "ĠOpen": 8025,
      "Ġassistance": 8026,
      "rians": 8027,
      "ĠHuguen": 8028,
      "Ġoverth": 8029,
      "Ġrulers": 8030,
      "ĠSaturn": 8031,
      "Ġwrapped": 8032,
      "Ġpil": 8033,
      "Ġhero": 8034,
      "Ġinternet": 8035,
      "ĠiPod": 8036,
      "Ġcrossed": 8037,
      "ĠĠĠĠĠĠĠĠĠĠĠĠĠĠĠĠĠĠĠĠĠĠĠĠĠĠĠĠĠĠĠĠ": 8038,
      "Ġ||": 8039,
      "ĠCy": 8040,
      "ĠPuerto": 8041,
      "Ġcharter": 8042,
      "Ġwriter": 8043,
      "Ġrush": 8044,
      "ĠBor": 8045,
      "Ġsets": 8046,
      "ĠCrus": 8047,
      "Ġbalance": 8048,
      "Ġhabit": 8049,
      "Ġic": 8050,
      "unc": 8051,
      "Ġveget": 8052,
      "Ġsupplies": 8053,
      "800": 8054,
      "Ġtiny": 8055,
      "aga": 8056,
      "Ġmovies": 8057,
      "Ġarchae": 8058,
      "nesday": 8059,
      "Ġcrops": 8060,
      "ĠReal": 8061,
      "Ġanaly": 8062,
      "Ġacceler": 8063,
      "ĠWatson": 8064,
      "alse": 8065,
      "ĠTok": 8066,
      "Ġdoub": 8067,
      "Ġencouraged": 8068,
      "ĠLibya": 8069,
      "Since": 8070,
      "Ġsmallest": 8071,
      "minster": 8072,
      "ĠPenns": 8073,
      "Ġleaves": 8074,
      "Ġavo": 8075,
      "ĠFinally": 8076,
      "ĠMarg": 8077,
      "Ġwaste": 8078,
      "Ġremov": 8079,
      "Ġproducer": 8080,
      "Ġstreets": 8081,
      "But": 8082,
      "lad": 8083,
      "Ġconcer": 8084,
      "Ġescape": 8085,
      "Ġpalace": 8086,
      "ĠUkrainian": 8087,
      "Ġexports": 8088,
      "Ġcouldn": 8089,
      "Ġmagnetic": 8090,
      "ĠNorman": 8091,
      "ĠCas": 8092,
      "Ġsuggests": 8093,
      "Ġflows": 8094,
      "Ġastronom": 8095,
      "ogue": 8096,
      "Ġparalle": 8097,
      "ĠCaribbean": 8098,
      "ĠGermanic": 8099,
      "Ġuniversal": 8100,
      "Ġsurrounded": 8101,
      "Ġdoctrine": 8102,
      "sey": 8103,
      "Ġenemy": 8104,
      "Ġattended": 8105,
      "itnesses": 8106,
      "Ġmeters": 8107,
      "ĠBureau": 8108,
      "iki": 8109,
      "Ġdemocracy": 8110,
      "Ġsky": 8111,
      "Ġselection": 8112,
      "CHAPTER": 8113,
      "Ġincreases": 8114,
      "Ġproducing": 8115,
      "ĠCathedral": 8116,
      "Europe": 8117,
      "noon": 8118,
      "isp": 8119,
      "ĠSultan": 8120,
      "ĠJud": 8121,
      "Ġselect": 8122,
      "Ġsuccession": 8123,
      "Ġkingdoms": 8124,
      "ĠPeninsula": 8125,
      "Ġteacher": 8126,
      "stood": 8127,
      "Ġshell": 8128,
      "lighten": 8129,
      "YU": 8130,
      "cha": 8131,
      "ĠComcast": 8132,
      "Ġcelebrated": 8133,
      "Ġeighth": 8134,
      "ĠInv": 8135,
      "engers": 8136,
      "anjing": 8137,
      "Ġjurisd": 8138,
      "gar": 8139,
      "ĠDuchy": 8140,
      "ategy": 8141,
      "Ġoblig": 8142,
      "ĠSoviets": 8143,
      "ĠMcCoy": 8144,
      "Ġrecovery": 8145,
      "Ġlad": 8146,
      "hemical": 8147,
      "Ġchoose": 8148,
      "Ġgirls": 8149,
      "rade": 8150,
      "Ġexpired": 8151,
      "ĠMichigan": 8152,
      "Ġpig": 8153,
      "Ġrepresents": 8154,
      "inner": 8155,
      "Ġcorpor": 8156,
      "Ġnortheast": 8157,
      "eor": 8158,
      "itarian": 8159,
      "Ġinfantry": 8160,
      "Ġassociation": 8161,
      "Ġfra": 8162,
      "ĠWel": 8163,
      "Ġstrategy": 8164,
      "Ġuniforms": 8165,
      "ĠSar": 8166,
      "Ġdecor": 8167,
      "Ġcivilians": 8168,
      "Ġconsiderable": 8169,
      "Ġsubstantial": 8170,
      "ĠWednesday": 8171,
      "Were": 8172,
      "press": 8173,
      "Ġshel": 8174,
      "Ġneighbour": 8175,
      "Ġcy": 8176,
      "Ġchannel": 8177,
      "ĠVince": 8178,
      "Ġ1948": 8179,
      "ĠAmend": 8180,
      "Ġpatent": 8181,
      "Ġmissing": 8182,
      "lightenment": 8183,
      "Ġrelationships": 8184,
      "Ġmargin": 8185,
      "700": 8186,
      "ĠAst": 8187,
      "Ġseed": 8188,
      "onomous": 8189,
      "Ġdiam": 8190,
      "ĠFair": 8191
    },
    "merges": [
      [
        "Ġ",
        "t"
      ],
      [
        "h",
        "e"
      ],
      [
        "i",
        "n"
      ],
      [
        "Ġ",
        "a"
      ],
      [
        "Ġt",
        "he"
      ],
      [
        "o",
        "n"
      ],
      [
        "e",
        "r"
      ],
      [
        "r",
        "e"
      ],
      [
        "a",
        "r"
      ],
      [
        "a",
        "t"
      ],
      [
        "e",
        "d"
      ],
      [
        "Ġ",
        "o"
      ],
      [
        "a",
        "n"
      ],
      [
        "Ġ",
        "w"
      ],
      [
        "e",
        "n"
      ],
      [
        "Ġ",
        "c"
      ],
      [
        "Ġ",
        "s"
      ],
      [
        "e",
        "s"
      ],
      [
        "o",
        "r"
      ],
      [
        "i",
        "t"
      ],
      [
        "Ġ",
        "f"
      ],
      [
        "Ġ",
        "p"
      ],
      [
        "a",
        "l"
      ],
      [
        "Ġ",
        "in"
      ],
      [
        "Ġt",
        "o"
      ],
      [
        "in",
        "g"
      ],
      [
        "i",
        "s"
      ],
      [
        "Ġo",
        "f"
      ],
      [
        "Ġa",
        "n"
      ],
      [
        "a",
        "s"
      ],
      [
        "i",
        "on"
      ],
      [
        "o",
        "u"
      ],
      [
        "Ġ",
        "b"
      ],
      [
        "i",
        "c"
      ],
      [
        "Ġan",
        "d"
      ],
      [
        "Ġ",
        "m"
      ],
      [
        "Ġ",
        "d"
      ],
      [
        "Ġ",
        "\""
      ],
      [
        "o",
        "m"
      ],
      [
        "l",
        "e"
      ],
      [
        "Ġ",
        "1"
      ],
      [
        "Ġ",
        "h"
      ],
      [
        "Ġ",
        "T"
      ],
      [
        "s",
        "t"
      ],
      [
        "a",
        "m"
      ],
      [
        "c",
        "e"
      ],
      [
        "e",
        "l"
      ],
      [
        "e",
        "t"
      ],
      [
        "en",
        "t"
      ],
      [
        "\"",
        ":"
      ],
      [
        "Ġ",
        "l"
      ],
      [
        "o",
        "w"
      ],
      [
        "Ġ",
        "g"
      ],
      [
        "r",
        "i"
      ],
      [
        "Ġ",
        "re"
      ],
      [
        "Ġ",
        "S"
      ],
      [
        "Ġt",
        "h"
      ],
      [
        "Ġ",
        "C"
      ],
      [
        "i",
        "l"
      ],
      [
        "r",
        "a"
      ],
      [
        "e",
        "x"
      ],
      [
        "Ġ",
        "A"
      ],
      [
        "o",
        "l"
      ],
      [
        "Ġc",
        "on"
      ],
      [
        "Ġ",
        "on"
      ],
      [
        "t",
        "er"
      ],
      [
        "c",
        "h"
      ],
      [
        "Ġ",
        "n"
      ],
      [
        "r",
        "o"
      ],
      [
        "a",
        "g"
      ],
      [
        "Ġ",
        "B"
      ],
      [
        "i",
        "r"
      ],
      [
        "i",
        "d"
      ],
      [
        "v",
        "er"
      ],
      [
        "u",
        "n"
      ],
      [
        "ar",
        "d"
      ],
      [
        "a",
        "d"
      ],
      [
        "Ġf",
        "or"
      ],
      [
        "u",
        "r"
      ],
      [
        "it",
        "h"
      ],
      [
        "at",
        "ion"
      ],
      [
        "e",
        "c"
      ],
      [
        "u",
        "s"
      ],
      [
        "t",
        "ion"
      ],
      [
        "Ġ",
        "M"
      ],
      [
        "i",
        "m"
      ],
      [
        "Ġ",
        "I"
      ],
      [
        "l",
        "y"
      ],
      [
        "Ġw",
        "ith"
      ],
      [
        "ou",
        "r"
      ],
      [
        "v",
        "e"
      ],
      [
        "o",
        "t"
      ],
      [
        "Ġ",
        "2"
      ],
      [
        "Ġw",
        "as"
      ],
      [
        "er",
        "s"
      ],
      [
        "ĠT",
        "he"
      ],
      [
        "Ġcon",
        "t"
      ],
      [
        "ex",
        "t"
      ],
      [
        "Ġ",
        "P"
      ],
      [
        "Ġ",
        "e"
      ],
      [
        "Ġ",
        "R"
      ],
      [
        "Ġa",
        "s"
      ],
      [
        "q",
        "u"
      ],
      [
        "Ġ",
        "is"
      ],
      [
        "u",
        "t"
      ],
      [
        "y",
        "ard"
      ],
      [
        "a",
        "c"
      ],
      [
        "a",
        "y"
      ],
      [
        "g",
        "h"
      ],
      [
        "\"",
        ","
      ],
      [
        "Ġp",
        "ar"
      ],
      [
        "p",
        "h"
      ],
      [
        "he",
        "r"
      ],
      [
        "u",
        "l"
      ],
      [
        "Ġs",
        "t"
      ],
      [
        "{",
        "\""
      ],
      [
        "Ġ",
        "("
      ],
      [
        "t",
        "h"
      ],
      [
        "Ġ",
        "W"
      ],
      [
        "am",
        "e"
      ],
      [
        "Ġcont",
        "ext"
      ],
      [
        "Ġ",
        "{\""
      ],
      [
        "our",
        "ce"
      ],
      [
        "Ġb",
        "y"
      ],
      [
        "o",
        "s"
      ],
      [
        "Ġw",
        "h"
      ],
      [
        "Ġ",
        "D"
      ],
      [
        "r",
        "om"
      ],
      [
        "Ġ",
        "F"
      ],
      [
        "Ġth",
        "at"
      ],
      [
        "Ġb",
        "e"
      ],
      [
        "Ġ",
        "H"
      ],
      [
        "or",
        "d"
      ],
      [
        "0",
        "0"
      ],
      [
        "Ġ",
        "G"
      ],
      [
        "an",
        "d"
      ],
      [
        "t",
        "s"
      ],
      [
        "Ġ",
        "["
      ],
      [
        "Ġ",
        "E"
      ],
      [
        "o",
        "p"
      ],
      [
        "s",
        "ource"
      ],
      [
        "Ġ",
        "J"
      ],
      [
        "at",
        "e"
      ],
      [
        "ra",
        "ph"
      ],
      [
        "ou",
        "n"
      ],
      [
        "p",
        "tion"
      ],
      [
        "Ġ",
        "N"
      ],
      [
        "ow",
        "n"
      ],
      [
        "ag",
        "raph"
      ],
      [
        "Ġpar",
        "agraph"
      ],
      [
        "es",
        "c"
      ],
      [
        "Ġ",
        "L"
      ],
      [
        "Ġa",
        "l"
      ],
      [
        "Ġ",
        "qu"
      ],
      [
        "o",
        "re"
      ],
      [
        "'",
        "s"
      ],
      [
        "u",
        "m"
      ],
      [
        "a",
        "in"
      ],
      [
        "ĠI",
        "n"
      ],
      [
        "esc",
        "ri"
      ],
      [
        "p",
        "e"
      ],
      [
        "Ġ",
        "it"
      ],
      [
        "Ġc",
        "om"
      ],
      [
        "Ġf",
        "rom"
      ],
      [
        "e",
        "m"
      ],
      [
        "escri",
        "ption"
      ],
      [
        "d",
        "escription"
      ],
      [
        "Ġa",
        "t"
      ],
      [
        "c",
        "c"
      ],
      [
        "es",
        "t"
      ],
      [
        "l",
        "d"
      ],
      [
        "Ġ",
        "r"
      ],
      [
        "as",
        "s"
      ],
      [
        "Ġp",
        "ro"
      ],
      [
        "it",
        "y"
      ],
      [
        "Ġg",
        "o"
      ],
      [
        "t",
        "y"
      ],
      [
        "i",
        "an"
      ],
      [
        "u",
        "ch"
      ],
      [
        "Ġo",
        "r"
      ],
      [
        "is",
        "t"
      ],
      [
        "er",
        "e"
      ],
      [
        "Ġd",
        "e"
      ],
      [
        "Ġa",
        "re"
      ],
      [
        "o",
        "d"
      ],
      [
        "a",
        "k"
      ],
      [
        "Ġ",
        "le"
      ],
      [
        "Ġ",
        "he"
      ],
      [
        "Ġ",
        "k"
      ],
      [
        "s",
        "e"
      ],
      [
        "Ġf",
        "i"
      ],
      [
        "re",
        "s"
      ],
      [
        "Ġw",
        "ere"
      ],
      [
        "Ġ",
        "un"
      ],
      [
        "Ġ1",
        "9"
      ],
      [
        "Ġ",
        "3"
      ],
      [
        "o",
        "c"
      ],
      [
        "al",
        "l"
      ],
      [
        "ic",
        "h"
      ],
      [
        "ac",
        "k"
      ],
      [
        "i",
        "v"
      ],
      [
        "u",
        "p"
      ],
      [
        "Ġ",
        "O"
      ],
      [
        "il",
        "l"
      ],
      [
        "i",
        "g"
      ],
      [
        "Ġ",
        "en"
      ],
      [
        "t",
        "ed"
      ],
      [
        "}",
        "}"
      ],
      [
        "a",
        "b"
      ],
      [
        "as",
        "ed"
      ],
      [
        "i",
        "es"
      ],
      [
        "i",
        "f"
      ],
      [
        "e",
        "ar"
      ],
      [
        "ar",
        "ter"
      ],
      [
        "Ġ",
        "v"
      ],
      [
        "an",
        "s"
      ],
      [
        "Ġh",
        "a"
      ],
      [
        "el",
        "d"
      ],
      [
        "an",
        "g"
      ],
      [
        "st",
        "r"
      ],
      [
        "on",
        "d"
      ],
      [
        "Ġqu",
        "arter"
      ],
      [
        "Ġ",
        "ex"
      ],
      [
        "ir",
        "st"
      ],
      [
        "is",
        "h"
      ],
      [
        "Ġthe",
        "ir"
      ],
      [
        "m",
        "ent"
      ],
      [
        "Ġ",
        "4"
      ],
      [
        "ou",
        "gh"
      ],
      [
        "e",
        "w"
      ],
      [
        "Ġf",
        "irst"
      ],
      [
        "i",
        "a"
      ],
      [
        "W",
        "h"
      ],
      [
        "Ġ",
        "U"
      ],
      [
        "ord",
        "ing"
      ],
      [
        "ĠS",
        "t"
      ],
      [
        "b",
        "er"
      ],
      [
        "es",
        "s"
      ],
      [
        "ĠC",
        "h"
      ],
      [
        "u",
        "d"
      ],
      [
        "cc",
        "ording"
      ],
      [
        "Ġfi",
        "eld"
      ],
      [
        "Ġp",
        "ass"
      ],
      [
        "Ġp",
        "l"
      ],
      [
        "t",
        "her"
      ],
      [
        "c",
        "t"
      ],
      [
        "Ġ",
        "K"
      ],
      [
        "d",
        "own"
      ],
      [
        "Ġha",
        "ve"
      ],
      [
        "i",
        "al"
      ],
      [
        "a",
        "p"
      ],
      [
        "ty",
        "pe"
      ],
      [
        "Ġgo",
        "al"
      ],
      [
        "o",
        "st"
      ],
      [
        "Ġ",
        "y"
      ],
      [
        "an",
        "y"
      ],
      [
        "ic",
        "k"
      ],
      [
        "Ġs",
        "e"
      ],
      [
        "i",
        "gh"
      ],
      [
        "Ġcom",
        "p"
      ],
      [
        "A",
        "ccording"
      ],
      [
        "i",
        "ve"
      ],
      [
        "om",
        "e"
      ],
      [
        "B",
        "ased"
      ],
      [
        "at",
        "ed"
      ],
      [
        "Ġto",
        "uch"
      ],
      [
        "on",
        "g"
      ],
      [
        "an",
        "t"
      ],
      [
        "ou",
        "ld"
      ],
      [
        "Ġtouch",
        "down"
      ],
      [
        "in",
        "e"
      ],
      [
        "Ġh",
        "is"
      ],
      [
        "}",
        ","
      ],
      [
        "Ġwh",
        "ich"
      ],
      [
        "Ġs",
        "c"
      ],
      [
        "el",
        "l"
      ],
      [
        "t",
        "o"
      ],
      [
        "u",
        "b"
      ],
      [
        "p",
        "ar"
      ],
      [
        "re",
        "n"
      ],
      [
        "ic",
        "al"
      ],
      [
        "as",
        "t"
      ],
      [
        "o",
        "k"
      ],
      [
        "u",
        "re"
      ],
      [
        "oun",
        "d"
      ],
      [
        "us",
        "e"
      ],
      [
        "en",
        "s"
      ],
      [
        "Ġa",
        "g"
      ],
      [
        "he",
        "n"
      ],
      [
        "or",
        "t"
      ],
      [
        "str",
        "ing"
      ],
      [
        "ag",
        "e"
      ],
      [
        "Ġh",
        "ad"
      ],
      [
        "or",
        "m"
      ],
      [
        "Ġc",
        "h"
      ],
      [
        "Ġn",
        "ot"
      ],
      [
        "ar",
        "g"
      ],
      [
        "i",
        "e"
      ],
      [
        "w",
        "e"
      ],
      [
        "u",
        "c"
      ],
      [
        "Ġin",
        "c"
      ],
      [
        "et",
        "ers"
      ],
      [
        "f",
        "ter"
      ],
      [
        "a",
        "v"
      ],
      [
        "Ġs",
        "ec"
      ],
      [
        "Ġt",
        "im"
      ],
      [
        "Ġ2",
        "0"
      ],
      [
        "ĠB",
        "r"
      ],
      [
        "t",
        "ing"
      ],
      [
        "Ġa",
        "r"
      ],
      [
        "ar",
        "y"
      ],
      [
        "u",
        "e"
      ],
      [
        "Ġb",
        "ut"
      ],
      [
        "Ġle",
        "ad"
      ],
      [
        "i",
        "p"
      ],
      [
        "n",
        "ame"
      ],
      [
        "en",
        "ce"
      ],
      [
        "T",
        "he"
      ],
      [
        "ou",
        "s"
      ],
      [
        "Ġs",
        "h"
      ],
      [
        "s",
        "o"
      ],
      [
        "en",
        "d"
      ],
      [
        "Ġ",
        "V"
      ],
      [
        "id",
        "e"
      ],
      [
        "f",
        "f"
      ],
      [
        "Ġm",
        "any"
      ],
      [
        "r",
        "y"
      ],
      [
        "Ġre",
        "s"
      ],
      [
        "Ġs",
        "p"
      ],
      [
        "d",
        "er"
      ],
      [
        ")",
        ","
      ],
      [
        "Wh",
        "at"
      ],
      [
        "Ġin",
        "f"
      ],
      [
        "o",
        "g"
      ],
      [
        "am",
        "eters"
      ],
      [
        "par",
        "ameters"
      ],
      [
        "m",
        "er"
      ],
      [
        "Ġp",
        "er"
      ],
      [
        "â",
        "Ģ"
      ],
      [
        "Ġc",
        "l"
      ],
      [
        "ou",
        "t"
      ],
      [
        "Ġ",
        "up"
      ],
      [
        "Ġg",
        "ame"
      ],
      [
        "e",
        "p"
      ],
      [
        "at",
        "er"
      ],
      [
        "Ġ",
        "5"
      ],
      [
        "it",
        "ion"
      ],
      [
        "at",
        "es"
      ],
      [
        "i",
        "k"
      ],
      [
        "Ġsec",
        "ond"
      ],
      [
        "Ġw",
        "ould"
      ],
      [
        "\"",
        "}}"
      ],
      [
        "u",
        "st"
      ],
      [
        "re",
        "d"
      ],
      [
        "l",
        "and"
      ],
      [
        "p",
        "er"
      ],
      [
        "ĠT",
        "h"
      ],
      [
        "p",
        "l"
      ],
      [
        "al",
        "ly"
      ],
      [
        "i",
        "z"
      ],
      [
        "Ġd",
        "id"
      ],
      [
        "l",
        "ow"
      ],
      [
        "w",
        "o"
      ],
      [
        "i",
        "ver"
      ],
      [
        "Ġa",
        "b"
      ],
      [
        "re",
        "e"
      ],
      [
        "Ġal",
        "so"
      ],
      [
        "res",
        "s"
      ],
      [
        "Ġof",
        "f"
      ],
      [
        "n",
        "ing"
      ],
      [
        "Ġ2",
        "00"
      ],
      [
        "Ġ",
        "us"
      ],
      [
        "oun",
        "t"
      ],
      [
        "ĠT",
        "D"
      ],
      [
        "Ġh",
        "as"
      ],
      [
        "Ġy",
        "ear"
      ],
      [
        "Ġr",
        "un"
      ],
      [
        "Ġit",
        "s"
      ],
      [
        "Ġde",
        "f"
      ],
      [
        "ĠU",
        "n"
      ],
      [
        "Ġthe",
        "y"
      ],
      [
        "Ġo",
        "ver"
      ],
      [
        "Ġp",
        "e"
      ],
      [
        "Ġw",
        "or"
      ],
      [
        "igh",
        "t"
      ],
      [
        "a",
        "ce"
      ],
      [
        "Ġa",
        "d"
      ],
      [
        "Ġo",
        "ther"
      ],
      [
        "Ġw",
        "e"
      ],
      [
        "Ġb",
        "et"
      ],
      [
        "Ġk",
        "ick"
      ],
      [
        "or",
        "y"
      ],
      [
        "Ġpro",
        "v"
      ],
      [
        "Ġ",
        "im"
      ],
      [
        "op",
        "le"
      ],
      [
        "Ġo",
        "ut"
      ],
      [
        "Ġ",
        "'"
      ],
      [
        "Ġon",
        "e"
      ],
      [
        "a",
        "w"
      ],
      [
        "ak",
        "e"
      ],
      [
        "Ġt",
        "wo"
      ],
      [
        "we",
        "en"
      ],
      [
        "ation",
        "s"
      ],
      [
        "Ġ1",
        "8"
      ],
      [
        "it",
        "ed"
      ],
      [
        "ec",
        "t"
      ],
      [
        "an",
        "ce"
      ],
      [
        "p",
        "p"
      ],
      [
        "he",
        "d"
      ],
      [
        "Ġth",
        "is"
      ],
      [
        "Ġm",
        "ore"
      ],
      [
        "Ġw",
        "hen"
      ],
      [
        "Ġ",
        "6"
      ],
      [
        "Ġtim",
        "e"
      ],
      [
        "i",
        "le"
      ],
      [
        "Ġ20",
        "1"
      ],
      [
        "Ġin",
        "ter"
      ],
      [
        "yard",
        "s"
      ],
      [
        "Ġb",
        "ec"
      ],
      [
        "er",
        "m"
      ],
      [
        "Ġbet",
        "ween"
      ],
      [
        "Ġt",
        "ra"
      ],
      [
        "Ġwh",
        "o"
      ],
      [
        "\"}}",
        "},"
      ],
      [
        "o",
        "in"
      ],
      [
        "Ġsc",
        "ore"
      ],
      [
        "n",
        "g"
      ],
      [
        "ig",
        "n"
      ],
      [
        "Ġpl",
        "ay"
      ],
      [
        "Ġg",
        "r"
      ],
      [
        "id",
        "ed"
      ],
      [
        "r",
        "ans"
      ],
      [
        "o",
        "v"
      ],
      [
        "Ġre",
        "c"
      ],
      [
        "orm",
        "ation"
      ],
      [
        "u",
        "g"
      ],
      [
        "ang",
        "u"
      ],
      [
        "el",
        "y"
      ],
      [
        "Ġin",
        "to"
      ],
      [
        "H",
        "ow"
      ],
      [
        "l",
        "es"
      ],
      [
        "Ġal",
        "l"
      ],
      [
        "Ġpe",
        "ople"
      ],
      [
        "i",
        "b"
      ],
      [
        "al",
        "s"
      ],
      [
        "f",
        "er"
      ],
      [
        ")",
        "."
      ],
      [
        "ad",
        "e"
      ],
      [
        "Ġ",
        "yards"
      ],
      [
        "ic",
        "e"
      ],
      [
        "Ġag",
        "ain"
      ],
      [
        "ol",
        "d"
      ],
      [
        "l",
        "ud"
      ],
      [
        "Ġinf",
        "ormation"
      ],
      [
        "Ġa",
        "fter"
      ],
      [
        "Ġl",
        "angu"
      ],
      [
        "Ġm",
        "e"
      ],
      [
        "Ġen",
        "d"
      ],
      [
        "Ġ",
        "7"
      ],
      [
        "as",
        "on"
      ],
      [
        "Ġe",
        "v"
      ],
      [
        "a",
        "il"
      ],
      [
        "'",
        "t"
      ],
      [
        "ion",
        "s"
      ],
      [
        "ul",
        "t"
      ],
      [
        "c",
        "es"
      ],
      [
        "Ġt",
        "e"
      ],
      [
        "i",
        "ed"
      ],
      [
        "w",
        "er"
      ],
      [
        "Ġc",
        "an"
      ],
      [
        "Ġcomp",
        "le"
      ],
      [
        "in",
        "d"
      ],
      [
        "a",
        "ch"
      ],
      [
        "on",
        "e"
      ],
      [
        "Ġ",
        "ra"
      ],
      [
        "Ġp",
        "op"
      ],
      [
        "i",
        "re"
      ],
      [
        "v",
        "el"
      ],
      [
        "os",
        "s"
      ],
      [
        "e",
        "ver"
      ],
      [
        "ur",
        "ing"
      ],
      [
        "Ġon",
        "ly"
      ],
      [
        "o",
        "y"
      ],
      [
        "Ġd",
        "is"
      ],
      [
        "t",
        "e"
      ],
      [
        "am",
        "p"
      ],
      [
        "00",
        "0"
      ],
      [
        "ur",
        "n"
      ],
      [
        "Ġm",
        "ost"
      ],
      [
        "Ġ",
        "j"
      ],
      [
        "Ġ",
        "Y"
      ],
      [
        "Ġ",
        "Q"
      ],
      [
        "Ġan",
        "s"
      ],
      [
        "Ġex",
        "p"
      ],
      [
        "Ġd",
        "o"
      ],
      [
        "ĠI",
        "t"
      ],
      [
        "at",
        "h"
      ],
      [
        "t",
        "on"
      ],
      [
        "k",
        "s"
      ],
      [
        "Ġans",
        "wer"
      ],
      [
        "ir",
        "d"
      ],
      [
        "Ġ",
        "ro"
      ],
      [
        "Ġpop",
        "ul"
      ],
      [
        "Ġe",
        "ar"
      ],
      [
        "ent",
        "s"
      ],
      [
        "\"",
        "},"
      ],
      [
        "Ġf",
        "our"
      ],
      [
        "f",
        "t"
      ],
      [
        "ren",
        "t"
      ],
      [
        "Ġc",
        "ount"
      ],
      [
        "r",
        "ic"
      ],
      [
        "Ġth",
        "an"
      ],
      [
        "Ġpar",
        "t"
      ],
      [
        "Ġinc",
        "lud"
      ],
      [
        "os",
        "e"
      ],
      [
        "Ġc",
        "ent"
      ],
      [
        "o",
        "ver"
      ],
      [
        "at",
        "t"
      ],
      [
        "in",
        "s"
      ],
      [
        "Ġbe",
        "en"
      ],
      [
        "he",
        "re"
      ],
      [
        "Ġb",
        "ack"
      ],
      [
        "ĠA",
        "n"
      ],
      [
        "it",
        "e"
      ],
      [
        "re",
        "at"
      ],
      [
[...]
